<unk>	0
<s>	0
</s>	0
▁	-3.3448
.	-3.43913
..	-4.35656
이	-4.48131
▁영화	-4.5695
...	-4.59785
의	-4.70468
가	-4.73804
도	-4.78077
는	-4.84821
,	-4.88109
을	-4.99816
에	-5.11568
고	-5.2018
은	-5.25578
다	-5.2908
?	-5.29261
지	-5.32697
한	-5.48669
▁너무	-5.50613
를	-5.51734
!	-5.58742
만	-5.62625
▁정말	-5.63807
▁이	-5.64943
로	-5.71392
나	-5.82026
▁진짜	-5.8524
게	-5.86639
~	-5.9055
영화	-5.95135
과	-5.99563
기	-6.12203
으로	-6.13633
하고	-6.1598
어	-6.16279
라	-6.16717
인	-6.18712
점	-6.20153
서	-6.23994
▁잘	-6.27032
리	-6.27263
▁그	-6.27452
네	-6.29543
▁안	-6.29838
에서	-6.30505
▁왜	-6.34524
와	-6.34919
▁다	-6.36297
아	-6.36655
▁수	-6.38176
▁더	-6.38907
▁1	-6.39261
!!	-6.40013
들	-6.40741
....	-6.41087
▁이런	-6.41675
해	-6.46554
▁아	-6.47309
하는	-6.505
요	-6.507
거	-6.51077
▁그냥	-6.53271
▁드라마	-6.60338
네요	-6.61826
면	-6.63255
스	-6.63657
자	-6.63969
대	-6.65765
▁본	-6.66939
▁10	-6.67902
▁보고	-6.68431
시	-6.71157
지만	-6.71448
수	-6.72873
▁연기	-6.73164
▁평점	-6.73861
니	-6.74567
▁한	-6.75645
음	-6.76388
▁영화를	-6.77562
▁좀	-6.79333
야	-6.80162
▁내	-6.80809
일	-6.80969
사	-6.82704
하게	-6.85385
함	-6.8548
이다	-6.86508
진	-6.91803
▁참	-6.92716
▁봤는데	-6.93924
하	-6.93985
하다	-6.94242
▁ᄏᄏ	-6.94363
▁쓰레기	-6.94466
▁없는	-6.952
데	-6.95945
▁이거	-6.96083
▁영화가	-6.96746
▁영화는	-6.96889
▁못	-6.97099
할	-6.97301
▁스토리	-6.9806
▁내가	-6.9859
우	-6.9886
▁최고의	-6.98917
주	-6.9958
미	-6.99639
▁완전	-6.99966
▁없다	-7.00147
▁이건	-7.00233
▁2	-7.0102
보다	-7.013
▁있는	-7.01889
까지	-7.01957
정	-7.02631
구	-7.03129
임	-7.0313
는데	-7.03852
여	-7.05305
▁좋은	-7.05777
들이	-7.06662
ᄏᄏ	-7.0671
해서	-7.0687
▁개	-7.07244
안	-7.0775
▁최고	-7.07886
!!!	-7.09228
냐	-7.09419
▁이렇게	-7.10536
보	-7.10616
▁보는	-7.10828
성	-7.11282
건	-7.12172
드	-7.12466
▁나	-7.12665
듯	-7.12756
▁이게	-7.12921
▁3	-7.14476
상	-7.14813
▁다시	-7.15356
▁것	-7.1557
신	-7.15852
▁난	-7.17222
▁보	-7.17407
랑	-7.17408
적	-7.18051
중	-7.18628
던	-7.19168
▁말	-7.19322
전	-7.19952
^^	-7.20012
치	-7.20087
ᄏ	-7.21857
장	-7.22037
보고	-7.23616
▁많이	-7.25356
▁평점이	-7.25514
마	-7.25993
▁지	-7.26444
1	-7.27764
~~	-7.28453
▁넘	-7.288
오	-7.28919
▁뭐	-7.31113
▁작품	-7.31175
개	-7.31415
부	-7.3171
▁역시	-7.31831
▁그리고	-7.32824
비	-7.33176
세	-7.33722
▁재밌게	-7.34129
인데	-7.34664
▁저	-7.35525
질	-7.35645
년	-7.35702
▁볼	-7.36928
트	-7.38237
려	-7.38549
▁또	-7.38581
▁마지막	-7.39053
;;	-7.39518
그	-7.39672
▁전	-7.40674
▁하는	-7.40857
것	-7.41143
분	-7.41196
2	-7.41239
??	-7.4154
원	-7.42313
화	-7.42675
히	-7.43081
'	-7.43113
했다	-7.43714
말	-7.442
라고	-7.44801
▁생각	-7.45097
▁재미	-7.45205
진짜	-7.45441
▁오	-7.45522
하지	-7.45612
내	-7.4602
때	-7.46262
▁꼭	-7.46831
▁별로	-7.47578
적인	-7.47663
급	-7.47752
▁감동	-7.48347
같은	-7.48494
소	-7.48724
▁없고	-7.49029
▁가장	-7.49481
러	-7.49785
습니다	-7.49894
입니다	-7.5027
▁ᄏᄏᄏ	-7.5126
용	-7.51635
▁하나	-7.51716
▁감독	-7.53174
▁무슨	-7.53461
▁하	-7.53785
)	-7.54049
▁시간	-7.54315
▁아깝다	-7.54633
▁이야기	-7.54707
▁기대	-7.54853
란	-7.5523
▁주	-7.5524
▁별	-7.55306
더	-7.55928
물	-7.55976
▁보면	-7.56352
제	-7.56553
▁사	-7.57123
ᅲᅲ	-7.58421
좀	-7.58897
된	-7.59103
▁무	-7.59106
▁다른	-7.59251
▁지금	-7.59844
▁아니	-7.59908
선	-7.60098
있는	-7.60191
이나	-7.60398
▁만든	-7.60647
▁액션	-7.6076
너무	-7.60915
걸	-7.62303
씨	-7.62755
ᄏᄏᄏ	-7.62834
라는	-7.63231
무	-7.63693
▁한국	-7.63735
▁할	-7.63827
호	-7.65015
▁중	-7.65483
유	-7.6552
조	-7.65762
드라마	-7.6578
본	-7.66674
없는	-7.66739
편	-7.67118
▁비	-7.67425
▁사랑	-7.67585
;	-7.68385
영	-7.69095
군	-7.69301
식	-7.69528
동	-7.70417
부터	-7.70789
▁조	-7.70801
정말	-7.7081
어요	-7.71273
▁말이	-7.71313
감	-7.71378
3	-7.71858
▁대	-7.71894
에게	-7.72025
▁처음	-7.72274
▁ᅲᅲ	-7.72396
▁ᄏ	-7.72762
▁명작	-7.72852
연	-7.72875
긴	-7.73048
ᅲ	-7.7308
▁같은	-7.73088
▁영화다	-7.73444
▁미	-7.73576
모	-7.74042
▁정	-7.74329
▁연출	-7.7474
▁김	-7.74761
▁내용	-7.75067
▁'	-7.75254
▁끝까지	-7.75355
▁유	-7.75568
▁두	-7.75803
▁배우	-7.75959
명	-7.76136
으면	-7.76253
▁느낌	-7.76256
▁일	-7.76562
처럼	-7.76687
살	-7.77621
울	-7.77634
▁돈	-7.77671
디	-7.7771
줄	-7.78433
당	-7.78558
▁때	-7.78881
난	-7.79011
▁기	-7.79493
▁거	-7.80181
(	-7.80493
▁와	-7.8067
운	-7.80755
▁솔직히	-7.80771
▁ᅳᅳ	-7.80817
남	-7.80965
▁전혀	-7.80981
▁마	-7.81386
인지	-7.8211
▁하지만	-7.82248
한다	-7.82426
단	-7.82523
▁해	-7.82678
되는	-7.82925
작	-7.83028
▁뭔가	-7.83284
▁같다	-7.83971
심	-7.83989
준	-7.83999
들의	-7.84057
▁대한	-7.84247
▁있다	-7.84841
▁어	-7.85045
크	-7.85229
워	-7.85402
두	-7.85648
바	-7.85909
▁아주	-7.86013
▁제	-7.86038
린	-7.86123
▁봤다	-7.86985
합니다	-7.87282
며	-7.8769
경	-7.87867
▁좋다	-7.87974
길	-7.88338
ᅳᅳ	-7.88486
생	-7.88549
노	-7.88807
▁봐도	-7.89491
이랑	-7.89627
위	-7.89798
▁구	-7.89807
루	-7.90232
래	-7.90289
▁알	-7.90376
면서	-7.90477
재	-7.90522
타	-7.90533
잘	-7.90537
▁많은	-7.90681
▁짱	-7.90745
▁일본	-7.91027
때문에	-7.91527
류	-7.92215
죠	-7.92512
하면	-7.92705
르	-7.93164
이라	-7.93324
▁ᄒᄒ	-7.93326
▁모두	-7.93465
희	-7.93605
하지만	-7.93882
▁재밌다	-7.93933
▁여자	-7.94574
인가	-7.9509
▁어떻게	-7.95147
레	-7.95236
▁재미있게	-7.95253
▁좋아	-7.95732
▁내내	-7.95845
▁사람	-7.96166
▁계속	-7.96195
▁이걸	-7.962
발	-7.96338
▁나오는	-7.96392
▁그런	-7.96612
▁후	-7.96797
,,	-7.96901
▁줄	-7.97138
▁내용이	-7.97342
▁코미디	-7.97392
없이	-7.97568
▁않고	-7.97569
▁시	-7.97881
연기	-7.98223
간	-7.98229
▁최악	-7.98359
박	-7.98434
되	-7.98476
▁소	-7.98777
▁배우들	-7.99266
-	-7.99328
▁아니라	-7.99426
들은	-7.99681
▁이영화	-7.99698
▁자	-7.99947
날	-8.00077
▁반	-8.0023
었다	-8.00321
엔	-8.00662
▁보기	-8.0073
▁아닌	-8.00774
▁대박	-8.01088
저	-8.01175
한테	-8.01319
▁최악의	-8.0145
▁애	-8.02006
▁남	-8.0211
했던	-8.02162
파	-8.02475
▁모든	-8.02687
▁그래도	-8.03365
▁신	-8.03372
▁한번	-8.03567
하나	-8.03861
▁하고	-8.03955
민	-8.04051
▁4	-8.0526
▁주인공	-8.05292
▁이상	-8.05303
구나	-8.05725
든	-8.06139
번	-8.06194
▁되	-8.06263
판	-8.06344
시간	-8.06702
방	-8.06929
▁딱	-8.06982
프	-8.07221
▁아니다	-8.0731
▁모	-8.07904
▁듯	-8.07975
애	-8.0818
▁남자	-8.08341
▁연기가	-8.08803
▁7	-8.09004
▁실망	-8.09022
지는	-8.09241
봤는데	-8.09467
▁5	-8.09969
▁아름다운	-8.10003
차	-8.10269
▁우리	-8.10298
▁제일	-8.10469
▁만드는	-8.10475
까	-8.10553
이라는	-8.10897
▁욕	-8.10956
피	-8.11076
점도	-8.11451
▁근데	-8.11646
▁공포	-8.11964
지도	-8.12104
국	-8.12127
▁전개	-8.12145
형	-8.12366
▁않은	-8.12407
10	-8.1251
반	-8.1257
겨	-8.13082
없다	-8.13093
▁감독이	-8.13436
▁스릴러	-8.14127
▁연기도	-8.14395
▁않는	-8.14501
▁바	-8.14611
▁음악	-8.14911
▁수준	-8.14913
하네요	-8.15108
▁제대로	-8.15129
터	-8.15222
▁기억	-8.15263
버	-8.15346
▁8	-8.15436
▁보다가	-8.16006
▁이해	-8.16153
▁장면	-8.16355
님	-8.164
ᄒᄒ	-8.16514
▁개봉	-8.1676
▁건	-8.16772
이란	-8.1679
▁스토리가	-8.1681
현	-8.16811
▁내용도	-8.16891
회	-8.1718
▁굿	-8.17443
림	-8.17545
이고	-8.17586
▁요즘	-8.18174
후	-8.18248
보면	-8.18332
▁만들어	-8.18354
산	-8.18462
▁장	-8.1861
▁재미없다	-8.18684
▁나는	-8.18758
못	-8.18981
카	-8.18992
▁아니고	-8.19034
관	-8.1915
보는	-8.1918
▁보다	-8.19218
▁애니	-8.19224
니까	-8.19275
적으로	-8.19295
▁스	-8.19488
즈	-8.1997
▁강	-8.20001
하기	-8.20106
겠다	-8.20222
▁이제	-8.20405
4	-8.20473
하네	-8.20814
▁부	-8.2089
▁박	-8.20985
▁막장	-8.20988
배	-8.21114
!!!!	-8.21139
▁반전	-8.21326
공	-8.21434
▁9	-8.21469
♥	-8.21484
생각	-8.21491
▁절대	-8.21495
토	-8.21898
▁싶다	-8.22009
들을	-8.22082
▁OO	-8.22189
점이	-8.22455
▁0	-8.2258
t	-8.22605
키	-8.22681
다니	-8.22689
~~~	-8.22853
▁우	-8.22873
ᄒ	-8.23232
▁때문에	-8.24171
▁영화라고	-8.24286
▁시간이	-8.24762
년대	-8.24863
다가	-8.24913
태	-8.24914
▁인생	-8.24978
티	-8.25272
▁아직도	-8.25406
▁영화의	-8.25477
▁파	-8.25716
o	-8.25903
망	-8.25957
▁걸	-8.25982
왜	-8.26005
▁여운이	-8.26148
▁주는	-8.26517
포	-8.26634
▁아까운	-8.26773
▁세	-8.2694
건지	-8.27026
▁심	-8.2706
▁차라리	-8.27086
양	-8.27262
▁재미도	-8.27623
▁나름	-8.27928
으	-8.28009
속	-8.28106
▁눈	-8.28433
▁추천	-8.28613
""	-8.28621
라도	-8.28634
▁망	-8.28707
실	-8.28918
했는데	-8.29003
▁나온	-8.29138
석	-8.29165
▁엄청	-8.29192
▁특히	-8.29259
▁되는	-8.2964
▁표현	-8.29655
▁좋았다	-8.29786
▁영화입니다	-8.29791
▁남는	-8.29867
▁도대체	-8.30009
▁보면서	-8.30193
▁몇	-8.30249
▁조금	-8.30469
달	-8.30516
이라고	-8.30534
ᅳ	-8.30715
▁진심	-8.30735
▁나도	-8.31045
▁걍	-8.31098
5	-8.3111
▁스토리도	-8.31484
금	-8.31649
▁우리나라	-8.3183
▁속	-8.32031
참	-8.32149
종	-8.32169
▁대사	-8.32189
▁감독의	-8.3275
져	-8.32794
▁오랜만에	-8.32882
▁진	-8.32924
따	-8.33009
뿐	-8.33037
짱	-8.33066
▁울	-8.33085
평점	-8.33444
▁불	-8.33473
▁캐릭터	-8.33517
▁원	-8.33654
▁배	-8.33742
▁눈물	-8.33819
문	-8.33847
▁마지막에	-8.33998
인듯	-8.34088
정도	-8.34198
점은	-8.34629
역	-8.34678
▁공포영화	-8.34727
▁이해가	-8.34799
▁멋진	-8.34851
▁피	-8.34971
▁뻔한	-8.35013
▁노	-8.35248
▁결말	-8.35526
ᅮᅮ	-8.35546
것도	-8.35554
d	-8.35948
▁시리즈	-8.36866
▁없음	-8.37
해요	-8.37184
▁사람들	-8.37197
▁좋아하는	-8.37334
▁좋고	-8.37336
▁없	-8.3766
스토리	-8.37701
▁동	-8.37751
▁B	-8.37839
죽	-8.37886
▁생각이	-8.37907
력	-8.37928
계	-8.37942
▁영	-8.37964
밖에	-8.37977
코	-8.37987
▁봤습니다	-8.38098
는거	-8.38336
▁재밌어요	-8.38407
▁봤던	-8.38465
극	-8.38466
▁시작	-8.38473
▁ᄏᄏᄏᄏ	-8.38515
▁20	-8.38959
▁막	-8.39232
볼	-8.39252
매	-8.39278
;;;	-8.39412
어서	-8.39425
ᄏᄏᄏᄏ	-8.3952
이런	-8.39649
쳐	-8.39692
체	-8.39702
???	-8.39945
만큼	-8.40004
▁수작	-8.40032
사람	-8.40106
▁쓰	-8.40175
더라	-8.40197
▁공감	-8.40277
였다	-8.40315
▁영화에	-8.404
▁지루하고	-8.40441
배우	-8.40451
▁지루한	-8.40515
넘	-8.40626
해도	-8.40839
▁재미가	-8.40924
▁싶은	-8.41246
장면	-8.41349
▁미국	-8.41437
▁가슴	-8.41516
/	-8.41656
▁연	-8.41706
는게	-8.41743
없	-8.41866
▁초	-8.4223
▁원작	-8.42358
던데	-8.42396
▁오늘	-8.42427
봤다	-8.42464
▁재	-8.42648
▁어떤	-8.42671
▁재밌는	-8.42731
려고	-8.42744
▁끝	-8.42884
▁ᅲ	-8.42983
▁함께	-8.43082
▁뭘	-8.43152
▁될	-8.43188
그냥	-8.43247
▁뭔	-8.4333
▁공	-8.43399
▁그저	-8.43697
▁기분	-8.43809
▁사람이	-8.43991
▁지루함	-8.44109
▁배우들의	-8.44282
있다	-8.44413
▁없이	-8.44471
▁OOO	-8.44512
하며	-8.44554
예	-8.44905
릴	-8.44911
▁날	-8.45176
▁큰	-8.45227
▁개인적으로	-8.45249
▁노래	-8.4527
▁된	-8.45543
▁여	-8.4569
등	-8.45872
▁^^	-8.46004
▁보는내내	-8.46026
탄	-8.4603
는지	-8.46157
집	-8.4619
▁나오	-8.46511
불	-8.46581
▁애니메이션	-8.46672
▁괜찮은	-8.46723
▁정도	-8.46789
▁알바	-8.46801
▁졸작	-8.46937
▁얼마나	-8.46949
▁않	-8.46987
▁못한	-8.47566
김	-8.47584
중에	-8.47772
7	-8.47909
▁안되는	-8.47912
▁보세요	-8.4818
▁연기력	-8.48191
▁몰입도	-8.48361
▁성	-8.48641
▁아무리	-8.48704
▁캐스팅	-8.48825
▁발	-8.48872
▁소재	-8.49145
▁재밌	-8.49194
▁인간	-8.49326
▁최고다	-8.49555
돈	-8.49613
▁영화로	-8.4976
▁필요	-8.49924
녀	-8.50135
▁만들	-8.50175
했	-8.50338
8	-8.50416
,,,	-8.50725
▁매	-8.50844
~!	-8.50879
병	-8.50906
▁후회	-8.50976
잼	-8.51031
▁기억에	-8.51186
대로	-8.5123
구만	-8.51249
▁"	-8.51377
사랑	-8.51414
꺼	-8.51575
했음	-8.51806
있	-8.51861
▁시나리오	-8.52036
강	-8.52172
최고	-8.52208
s	-8.52356
e	-8.52605
감동	-8.52787
감독	-8.52877
스트	-8.52955
담	-8.52981
하면서	-8.53369
▁결국	-8.53386
▁인	-8.53437
갈	-8.53491
▁머	-8.53589
▁선	-8.53731
격	-8.53991
▁매우	-8.54137
▁6	-8.5454
▁연기는	-8.54563
▁억지	-8.54663
▁제발	-8.54698
▁살	-8.54717
▁만화	-8.54788
작품	-8.55289
▁제목	-8.55314
▁그렇게	-8.55359
악	-8.55469
글	-8.55682
이지만	-8.55926
▁사실	-8.56006
투	-8.56091
론	-8.56896
▁영상	-8.56909
▁지루하다	-8.56933
봐도	-8.56995
기에	-8.57376
이었다	-8.57555
업	-8.57641
초	-8.58351
리는	-8.58416
▁찾아	-8.58469
▁가족	-8.5848
▁같이	-8.5852
▁것이	-8.58863
움	-8.58947
주는	-8.59052
▁분위기	-8.59164
었는데	-8.59284
▁허	-8.59295
▁모르겠다	-8.59315
교	-8.59335
▁있	-8.59347
기도	-8.59394
액션	-8.59812
▁있고	-8.5983
▁화	-8.6014
머	-8.60177
6	-8.60182
▁코믹	-8.6026
▁보지	-8.60375
증	-8.60743
하는데	-8.6091
▁봤어요	-8.61003
▁들	-8.61133
통	-8.61243
▁극장에서	-8.61252
▁하나도	-8.61293
▁""	-8.61461
권	-8.61538
▁강추	-8.61571
▁현실	-8.61737
▁단	-8.61798
▁행복	-8.61813
능	-8.61817
이네	-8.61872
▁않는다	-8.61874
블	-8.61885
▁더빙	-8.62049
니다	-8.6207
쓰레기	-8.62114
▁아이	-8.62169
▁문제	-8.62347
▁준	-8.62379
봄	-8.62441
학	-8.62515
▁한국영화	-8.62518
된다	-8.62549
▁위해	-8.62562
▁애들	-8.62585
▁위한	-8.62621
▁너무나	-8.6264
케	-8.62766
▁별점	-8.62777
너	-8.62785
▁마음이	-8.62908
새	-8.63093
▁차	-8.63343
▁긴장감	-8.6355
점을	-8.63661
잡	-8.63748
▁알고	-8.63978
입	-8.63994
절	-8.64026
봐	-8.64076
▁있을	-8.64117
군요	-8.64258
▁맞	-8.64396
근	-8.64627
▁없어	-8.64843
▁한다	-8.6486
보단	-8.64995
이네요	-8.65239
설	-8.65316
▁정신	-8.6547
기는	-8.65587
▁총	-8.65601
그리고	-8.65735
9	-8.66048
아니	-8.66181
보니	-8.66224
▁존나	-8.66774
▁좋아요	-8.66784
ᅮ	-8.66894
▁주연	-8.66941
▁너	-8.67263
▁예	-8.67295
▁봐야	-8.67744
창	-8.68094
▁그만	-8.68129
▁느낌이	-8.68143
▁대체	-8.68221
▁누가	-8.68401
테	-8.68502
▁명	-8.68599
슨	-8.68611
맨	-8.68751
▁토	-8.68773
▁들어	-8.68843
▁보게	-8.68857
▁모습	-8.68933
▁상	-8.68996
버린	-8.69313
온	-8.69366
결	-8.69415
▁눈물이	-8.69437
▁미친	-8.69452
▁로맨스	-8.69456
범	-8.69468
▁내용은	-8.69502
▁예술	-8.69515
▁훨씬	-8.69789
내용	-8.70123
락	-8.70331
뻔	-8.70395
재미	-8.70542
싶	-8.70594
▁매력	-8.70686
이야	-8.7074
a	-8.70843
▁입	-8.70927
▁설정	-8.70939
▁갈수록	-8.71047
을까	-8.71335
▁죽	-8.71381
끼	-8.71394
▁그나마	-8.71472
▁영화네요	-8.71517
뭐	-8.71522
▁CG	-8.71597
▁열	-8.71598
알	-8.71866
건가	-8.71903
점대	-8.72032
▁졸	-8.72035
>	-8.72061
▁감동이	-8.72161
▁가슴이	-8.72288
이지	-8.72462
수준	-8.72513
▁꽤	-8.72682
▁ᄒ	-8.72709
막	-8.72733
었던	-8.72797
▁밖에	-8.73036
▁엔딩	-8.7316
▁음	-8.73204
▁없었다	-8.73282
▁전쟁	-8.7338
▁결말이	-8.73382
▁기억이	-8.73395
해야	-8.73436
▁재밌음	-8.73607
았	-8.73626
영화는	-8.73668
거야	-8.73689
▁마음	-8.74011
에도	-8.74288
▁장난	-8.74308
▁ᅮᅮ	-8.74409
▁엄마	-8.74591
▁유치	-8.7479
▁발연기	-8.74905
▁백	-8.74953
▁어느	-8.75085
▁중국	-8.75275
언	-8.7545
▁보여주는	-8.75748
▁어설픈	-8.75998
▁타	-8.76072
▁그래서	-8.76124
▁잡	-8.76159
재밌	-8.76165
▁감	-8.76228
▁따라	-8.76416
여자	-8.76446
나는	-8.76526
▁재밌고	-8.76577
색	-8.76623
▁평	-8.76765
▁물	-8.76831
▁-	-8.76879
▁작가	-8.76887
잇	-8.76888
▁연기를	-8.76891
▁다큐	-8.77247
▁최	-8.77346
▁않다	-8.77597
환	-8.77654
▁잼	-8.77705
다고	-8.77885
▁치	-8.7789
+	-8.77958
먹	-8.78211
▁뿐	-8.78327
난다	-8.78428
씬	-8.78597
년이	-8.78615
▁똥	-8.78652
완전	-8.787
기를	-8.78856
평	-8.78891
▁극	-8.78914
소리	-8.79055
▁적	-8.7908
▁위	-8.79146
▁약	-8.79158
이상	-8.79173
었음	-8.7932
나오는	-8.79354
▁딸	-8.79611
▁주고	-8.7976
▁다들	-8.79839
천	-8.79861
▁영화중	-8.79896
▁그러	-8.80131
▁길	-8.80348
▁시즌	-8.80348
칠	-8.80397
▁아쉽다	-8.80452
▁호	-8.80514
▁쓰레기영화	-8.80735
▁평가	-8.80749
▁노잼	-8.80892
"	-8.81332
▁영화관에서	-8.81374
▁걸작	-8.81398
나요	-8.81428
않	-8.81429
▁간만에	-8.81454
했지만	-8.81461
▁상황	-8.81519
승	-8.81519
행	-8.81524
쓰	-8.81532
짓	-8.81732
될	-8.8182
▁싶	-8.8198
외	-8.82127
▁지루	-8.82215
플	-8.82317
▁잔잔한	-8.8236
▁존	-8.82446
짐	-8.82476
▁감동도	-8.82499
▁사람들이	-8.82657
▁자기	-8.82753
없고	-8.82772
록	-8.82959
▁손	-8.83
리고	-8.83106
인줄	-8.83126
▁의미	-8.83435
▁당시	-8.83555
느낌	-8.83753
이거	-8.84136
슬	-8.84168
▁30	-8.84263
치는	-8.84266
▁베	-8.84342
직	-8.84486
▁당	-8.84489
▁것을	-8.84492
▁올	-8.84549
할수	-8.84562
▁전부	-8.84592
▁맘에	-8.84599
▁재미없음	-8.84768
이라도	-8.84918
영화를	-8.8501
듯한	-8.85045
▁재미없	-8.8512
▁변	-8.85248
▁좋은데	-8.85281
▁영화였다	-8.85319
친	-8.85354
이건	-8.85532
할때	-8.85572
▁아님	-8.85581
▁같아요	-8.85583
적이	-8.85598
또	-8.85662
▁것도	-8.85788
▁바로	-8.85856
▁감동적인	-8.85903
▁있을까	-8.86075
▁좋	-8.86084
▁대해	-8.86201
▁재미있는	-8.8638
라면	-8.86671
▁생각보다	-8.86857
습	-8.86904
께	-8.86944
것이	-8.86951
▁생각을	-8.87121
▁재미있다	-8.8716
▁상당히	-8.87223
거지	-8.87253
▁약간	-8.87293
▁웃	-8.8731
▁진정한	-8.87448
됨	-8.88152
▁출연	-8.88195
▁안되	-8.88351
▁얼굴	-8.88365
웃	-8.88373
향	-8.88398
▁배경	-8.88416
침	-8.88583
▁그대로	-8.88632
짜	-8.8867
돌	-8.88738
▁야	-8.8875
▁자체	-8.88797
▁점수	-8.88932
▁준다	-8.88985
▁네이버	-8.89054
▁간	-8.89226
▁친구	-8.89378
치고	-8.89383
▁갈	-8.89477
▁스토리는	-8.89509
수가	-8.89586
베	-8.89694
있고	-8.89979
낸	-8.90114
▁웃기	-8.90116
▁중간에	-8.90156
▁같은데	-8.90211
▁편	-8.90391
▁소리	-8.90392
이야기	-8.90429
구요	-8.90433
▁구성	-8.90468
▁높은	-8.90513
b	-8.9055
셨	-8.90566
눈	-8.90607
같이	-8.9072
기만	-8.90786
▁여주인공	-8.90855
▁감동을	-8.90918
좋아	-8.9093
▁배우들이	-8.91078
▁판타지	-8.91087
▁감성	-8.91192
는건	-8.91203
느	-8.9128
다는	-8.91434
▁거의	-8.91462
▁재미는	-8.91593
▁정도로	-8.91746
▁살아	-8.918
▁나왔	-8.91895
▁분	-8.92278
을때	-8.92291
순	-8.92292
편이	-8.92303
▁허접	-8.92381
표	-8.92386
▁나와서	-8.92448
더니	-8.92559
▁했는데	-8.92603
션	-8.92638
▁재미없는	-8.92736
▁먹	-8.92841
라서	-8.92947
출	-8.93091
았다	-8.93229
열	-8.9331
▁볼만한	-8.93352
▁얘기	-8.93375
▁힘들	-8.93385
▁성룡	-8.93401
▁아무	-8.93439
▁있지만	-8.93779
척	-8.93818
▁웃음	-8.93847
린다	-8.93985
▁카	-8.94222
▁순	-8.94312
▁봤지만	-8.94532
퍼	-8.9459
h	-8.94606
▁외	-8.94722
남자	-8.9479
에선	-8.94898
▁메	-8.94985
영화가	-8.95027
나오	-8.95076
조차	-8.95085
름	-8.95312
▁같	-8.95415
▁뭐야	-8.95469
▁장르	-8.95531
▁된다	-8.95703
▁이영화를	-8.95723
레이	-8.95725
▁이름	-8.95817
커	-8.95859
목	-8.96
▁있었	-8.96011
▁게	-8.96031
▁줄거리	-8.96115
기대	-8.96329
▁악	-8.96382
▁봐서	-8.96395
처	-8.9641
▁코	-8.96466
r	-8.96616
▁추억	-8.96649
▁충격	-8.96697
▁등	-8.96932
▁영화인데	-8.96973
▁각본	-8.97082
백	-8.97198
▁암	-8.9724
햇	-8.97277
복	-8.97286
ᄋ	-8.97355
▁뭐지	-8.97398
▁감정	-8.9754
했습니다	-8.97596
▁굉장히	-8.97626
0	-8.97628
편은	-8.97816
▁장면이	-8.9795
▁예상	-8.98059
놓고	-8.98086
들도	-8.98091
으나	-8.98373
ᄉ	-8.98393
욕	-8.98432
▁보니	-8.9845
었어요	-8.98511
▁갑자기	-8.98603
혜	-8.98726
▁끝나	-8.98831
▁버	-8.9885
▁글	-8.98859
▁어디서	-8.9889
D	-8.98901
▁많	-8.99075
정도로	-8.9916
▁스릴	-8.99178
해라	-8.99258
▁비교	-8.99259
▁아버지	-8.99271
들에게	-8.9929
건데	-8.99334
▁재밌네요	-8.99349
어야	-8.9938
▁제가	-8.99565
▁오래	-8.99576
▁훌륭한	-8.99584
▁이딴	-8.997
▁다음	-8.99713
근데	-8.99747
▁왕	-8.99792
▁누구	-8.9987
▁싸	-9.00015
▁저런	-9.00043
▁새로운	-9.00071
▁극장판	-9.00128
▁영화임	-9.00228
▁원작을	-9.00266
▁있어서	-9.00283
▁번	-9.00332
빈	-9.00333
▁아이들	-9.00573
▁머리	-9.00582
i	-9.00601
▁경	-9.00704
▁잠	-9.00741
였음	-9.00764
없음	-9.00799
왕	-9.00891
▁몸	-9.00907
찍	-9.01036
n	-9.01036
들어	-9.01075
▁ᅳ	-9.01248
▁계	-9.01286
빠	-9.01323
광	-9.01458
▁관	-9.0162
▁방송	-9.01725
▁말도	-9.0173
줘	-9.01743
~!!	-9.01836
▁그리	-9.01875
되어	-9.01886
▁90	-9.0192
스러운	-9.01969
k	-9.02002
▁하지	-9.02068
였	-9.02147
▁역	-9.02166
▁생	-9.02269
▁평점을	-9.02274
▁화면	-9.02355
각	-9.02413
땜에	-9.0246
추	-9.02534
▁아직	-9.02565
▁감독님	-9.0266
▁양	-9.0279
▁마음에	-9.02867
▁힘	-9.02889
▁주제	-9.02945
▁영상미	-9.02975
겠지	-9.03036
▁재미있어요	-9.03253
주의	-9.03262
▁여배우	-9.03275
▁생각하게	-9.03282
▁만	-9.03347
♡	-9.03417
월	-9.03442
▁달	-9.03502
했어요	-9.03724
철	-9.03796
▁주인공이	-9.03862
▁항상	-9.04144
보기	-9.04147
▁사회	-9.04206
거다	-9.04213
▁뭐냐	-9.04218
▁포스터	-9.0431
▁뒤	-9.04337
합	-9.04507
▁깨	-9.04559
련	-9.04608
한거	-9.0476
▁크	-9.04819
▁흥행	-9.04839
▁잼있	-9.04972
y	-9.04973
▁대단한	-9.05023
땐	-9.05118
간다	-9.05127
▁일단	-9.05349
길래	-9.05408
슴	-9.05429
▁있어	-9.05469
▁그런지	-9.05476
▁나올	-9.05518
채	-9.05652
▁그러나	-9.06045
곤	-9.06056
▁자체가	-9.06075
▁맛	-9.06122
▁못하는	-9.0613
마지막	-9.06193
듬	-9.0637
좋	-9.06428
럽	-9.06467
으니	-9.06573
▁봤음	-9.06585
▁비해	-9.06706
▁봐라	-9.06795
▁혼자	-9.06803
▁개연성	-9.06944
허	-9.06963
▁비디오	-9.06971
▁여기	-9.06984
▁영화도	-9.07197
이라면	-9.07493
▁처음부터	-9.07498
▁집중	-9.07537
g	-9.07589
▁가지고	-9.07657
▁뭐가	-9.07741
▁저는	-9.07802
▁충분히	-9.07936
▁가는	-9.08055
▁윤	-9.08075
년전	-9.08081
▁있는데	-9.08132
였는데	-9.08152
▁했다	-9.08202
해지는	-9.0844
▁TV	-9.08465
분들	-9.085
▁없어서	-9.08531
▁산	-9.08575
▁언제	-9.08582
w	-9.08593
▁빨리	-9.08648
▁종	-9.0874
츠	-9.08768
▁궁금	-9.08771
▁요	-9.08851
었	-9.08855
덕	-9.08878
_	-9.08929
▁세계	-9.08943
에는	-9.08969
▁실	-9.09068
▁천	-9.09097
진다	-9.09165
하냐	-9.09204
p	-9.09216
부분	-9.09319
▁제작	-9.09412
별로	-9.09454
처음	-9.09501
▁짜증	-9.09531
▁목	-9.09577
▁좋은영화	-9.09594
거나	-9.09674
▁사람은	-9.09748
법	-9.09828
같다	-9.09884
▁점점	-9.09995
▁옛날	-9.10152
▁너무너무	-9.10178
도록	-9.10348
▁꿀잼	-9.10352
▁이런영화	-9.10372
▁있었다	-9.10406
▁(	-9.10428
▁순간	-9.1055
했고	-9.1056
▁책	-9.10655
▁아까움	-9.10809
끝	-9.10862
▁레	-9.10874
▁팬	-9.11107
잔	-9.11195
▁안된다	-9.11359
런	-9.11553
별	-9.11564
▁몰입	-9.11592
쯤	-9.11683
▁봄	-9.11704
▁꿈	-9.11753
적이고	-9.11785
OO	-9.11905
▁잘못	-9.1196
▁여주	-9.11982
▁나와	-9.11991
벌	-9.12044
▁높	-9.12073
패	-9.12087
하니	-9.12458
났	-9.12525
▁나이	-9.12614
▁따	-9.12735
▁나의	-9.12767
▁만점	-9.12794
청	-9.12832
지금	-9.12854
▁나온다	-9.12856
▁더욱	-9.12912
▁포	-9.13029
귀	-9.1312
▁초딩	-9.13134
브	-9.1318
메	-9.1319
▁삼류	-9.13196
라니	-9.13336
▁작	-9.13358
▁부분	-9.13529
▁볼만	-9.13638
내가	-9.13661
▁하다	-9.1378
▁추	-9.13888
배우들	-9.13921
▁부족	-9.13975
다면	-9.14035
▁시절	-9.14035
▁현	-9.14072
▁멜로	-9.14138
시대	-9.14167
▁좋네요	-9.14257
다시	-9.14307
▁패	-9.14375
▁완벽	-9.1449
약	-9.14555
▁이유	-9.14577
▁써	-9.14632
▁돌	-9.14954
▁찾	-9.15005
m	-9.15096
술	-9.15162
혀	-9.15217
▁좋겠다	-9.15239
▁것은	-9.153
▁삼	-9.15443
겠	-9.15529
▁첨	-9.15548
▁선택	-9.15628
되고	-9.15639
▁쳐	-9.15655
곡	-9.1573
▁도저히	-9.15837
사람들	-9.16032
최악	-9.16087
▁그닥	-9.16088
삼	-9.16141
잖아	-9.16152
▁유치한	-9.16166
▁보여주	-9.16196
▁무조건	-9.16201
▁한마디로	-9.16233
거냐	-9.16243
마다	-9.16295
▁진행	-9.16297
이라니	-9.16352
▁해서	-9.16357
▁엄청난	-9.16461
▁과거	-9.1648
▁관객	-9.16491
▁어릴때	-9.16499
▁노력	-9.16561
익	-9.16697
▁참고	-9.16828
▁실화	-9.1704
추천	-9.1705
u	-9.17052
▁생각해	-9.17061
▁놀	-9.17083
규	-9.17123
▁아쉬운	-9.17124
▁이영화는	-9.17163
▁불륜	-9.17219
▁전개가	-9.17249
성이	-9.17268
▁성우	-9.17344
▁다시봐도	-9.17373
전개	-9.17378
▁새	-9.17406
연출	-9.17519
효	-9.176
▁편집	-9.17616
▁예전에	-9.17618
재미있	-9.17662
▁슬픈	-9.17686
▁어색	-9.17702
놈	-9.17772
▁돌아	-9.17801
염	-9.17919
▁지금까지	-9.17971
만한	-9.1803
▁소설	-9.18177
▁M	-9.18219
▁낮은	-9.18276
립	-9.1834
롭	-9.18514
▁그때	-9.18581
▁아닌가	-9.18616
▁100	-9.18637
▁짜	-9.18645
▁어디	-9.18657
▁지나	-9.1867
올	-9.18688
▁문	-9.1869
▁낫다	-9.18739
▁따뜻한	-9.18762
▁감동적이	-9.1884
▁망작	-9.18878
하여	-9.18919
▁두번	-9.18939
이게	-9.18953
▁질	-9.19097
c	-9.19181
▁대단	-9.1919
것같다	-9.19321
▁보는데	-9.19478
▁모르고	-9.19564
▁재밌는데	-9.19632
▁재밌었다	-9.19653
▁쓴	-9.19757
나서	-9.19828
▁원래	-9.19837
튼	-9.19849
▁돈주고	-9.19984
▁봤네요	-9.19988
나라	-9.20008
걸까	-9.2001
보다는	-9.20089
▁이미	-9.20151
존	-9.20189
▁존재	-9.20206
지않	-9.20286
▁감독은	-9.20411
▁첫	-9.20499
먼	-9.20524
▁없네	-9.20561
▁만족	-9.20739
▁없을	-9.20751
봐서	-9.20753
▁숨	-9.20809
▁80	-9.20815
▁인물	-9.20834
엇	-9.20916
▁댓글	-9.20943
▁사랑을	-9.21018
-_-	-9.21213
▁물론	-9.21233
▁이것도	-9.21444
하던	-9.2147
앗	-9.21511
념	-9.21533
▁방	-9.21685
▁사람들은	-9.21905
뜨	-9.21913
▁늘	-9.21922
대박	-9.21985
지고	-9.22027
거리	-9.22046
▁통	-9.22176
▁어린	-9.22221
▁힘든	-9.22229
▁모르는	-9.22238
:	-9.22257
▁복수	-9.22284
▁자꾸	-9.22356
▁합니다	-9.22393
이냐	-9.22466
▁있음	-9.22586
▁초반	-9.22637
▁설	-9.22647
▁찍	-9.22655
▁지루해	-9.22677
▁결혼	-9.22738
기가	-9.22833
▁봐	-9.22834
▁않았	-9.22865
세요	-9.22978
만들	-9.23019
▁역사	-9.23026
▁완벽한	-9.23147
▁설명	-9.23185
여서	-9.23238
년도	-9.23272
졌다	-9.23295
▁ᄍᄍ	-9.23348
▁그래픽	-9.23471
음악	-9.23475
시리즈	-9.23529
▁죽음	-9.23593
풍	-9.23609
링	-9.23669
▁전형적인	-9.2367
쉬	-9.23711
명작	-9.23715
▁귀신	-9.23823
▁더럽게	-9.23897
그래도	-9.23993
▁그게	-9.2407
▁바보	-9.24181
▁감상	-9.24233
▁아빠	-9.24295
료	-9.24386
▁느낄	-9.24412
라이	-9.24435
▁까	-9.2444
봐라	-9.24549
▁만나	-9.24604
본다	-9.24611
▁미화	-9.24785
함을	-9.24797
윤	-9.24909
몰	-9.24916
년에	-9.24976
▁여성	-9.25108
좋은	-9.25146
른	-9.25237
▁반전이	-9.25266
겠지만	-9.25317
▁오히려	-9.25367
보는데	-9.25378
▁괜히	-9.25413
들과	-9.25415
▁저질	-9.25416
졌	-9.2548
▁예고편	-9.25501
▁상상	-9.25629
주인공	-9.25653
▁흠	-9.25692
싸	-9.25796
▁있다는	-9.25882
▁만들었	-9.2601
겟	-9.26023
▁목소리	-9.26057
▁느끼게	-9.26077
▁데	-9.26095
▁연출이	-9.2612
▁없네요	-9.2618
▁나라	-9.26204
변	-9.26206
00	-9.26211
▁휴	-9.2627
▁부족한	-9.26347
▁알았다	-9.26362
▁이정도	-9.26451
▁억지로	-9.26491
▁무서운	-9.26497
▁이리	-9.26498
혹	-9.26535
▁뭔지	-9.26539
아이	-9.26547
이에요	-9.26606
▁만들지	-9.26691
▁알게	-9.26733
▁평점은	-9.26748
▁웃긴	-9.26772
................	-9.26951
하는거	-9.26991
▁SF	-9.27114
찬	-9.27149
점짜리	-9.27365
▁병맛	-9.27454
하세요	-9.27537
x	-9.2755
탈	-9.27569
▁우연히	-9.27569
는걸	-9.276
▁완성도	-9.27742
▁귀	-9.27752
▁인정	-9.27859
▁일본영화	-9.27924
아서	-9.27998
그런	-9.28018
리가	-9.28058
틀	-9.28267
▁인간의	-9.28282
많이	-9.28293
▁현재	-9.28478
▁이야기를	-9.28521
▁평점에	-9.28575
▁믿고	-9.28712
▁대한민국	-9.28741
을듯	-9.28765
▁연출력	-9.28883
만으로도	-9.28903
영화다	-9.28909
▁신기	-9.28929
일까	-9.28942
모르	-9.28955
맛	-9.2902
▁리	-9.29022
▁볼수	-9.29093
짝	-9.29252
▁헐	-9.2928
▁스타일	-9.29285
~~~~	-9.29371
▁진실	-9.29399
십	-9.29491
B	-9.29523
▁돈이	-9.29528
▁아무것도	-9.2957
에요	-9.29618
▁이상한	-9.29635
▁기대하고	-9.29645
징	-9.29738
f	-9.29895
속에	-9.3006
억	-9.30161
▁비슷한	-9.30218
훈	-9.30334
▁세상	-9.30344
▁온	-9.30358
▁꼬	-9.3036
▁좋았어요	-9.30367
하긴	-9.30424
굿	-9.30453
놈들	-9.30453
축	-9.30666
▁개그	-9.30912
꼬	-9.30916
▁서로	-9.30933
끔	-9.31096
▁프랑스	-9.31148
▁작품성	-9.31196
했을	-9.31227
▁액션도	-9.31256
▁재미있	-9.31266
▁재밌어	-9.31267
▁금	-9.31303
강추	-9.31364
▁뻔	-9.31425
함이	-9.31485
▁형	-9.31508
▁트	-9.31521
▁영화라	-9.31652
▁듯한	-9.31727
▁처음으로	-9.31748
▁재미없어	-9.31759
숙	-9.31803
▁배우가	-9.3194
▁교	-9.32038
더군요	-9.32229
▁특유의	-9.32232
▁재미있고	-9.32252
한번	-9.32302
▁대작	-9.3238
답	-9.32423
힌	-9.32506
전에	-9.32527
에겐	-9.32543
한데	-9.32575
▁좋음	-9.32646
▁성장	-9.32682
▁태	-9.32713
▁황	-9.32718
딱	-9.32753
▁유머	-9.32754
^	-9.328
좋다	-9.3281
▁수가	-9.32831
도없고	-9.32836
▁ost	-9.32887
주세요	-9.32975
▁가치	-9.32989
▁여운	-9.33026
아닌	-9.33045
▁알았는데	-9.33068
자가	-9.33208
▁으	-9.33216
▁b	-9.33273
▁낮	-9.33297
족	-9.33306
인거	-9.33312
▁않을	-9.33321
▁앞으로	-9.33321
말이	-9.33362
▁했	-9.33492
▁이후	-9.33571
▁지루하지	-9.33593
▁바람	-9.33601
▁것이다	-9.33674
성을	-9.33704
▁흥미	-9.33709
렸다	-9.3373
봐야	-9.33781
드는	-9.33906
▁코메디	-9.33963
이면	-9.33993
▁이러	-9.34032
▁전작	-9.34164
재밋	-9.34237
▁청춘	-9.3435
지루	-9.34393
▁대단하다	-9.34412
▁지금도	-9.34493
▁해도	-9.34542
아깝다	-9.34552
였던	-9.34573
▁졸라	-9.34612
▁마무리	-9.34621
▁말고	-9.34637
▁천재	-9.34661
으며	-9.34684
▁이런걸	-9.34832
킹	-9.34841
▁흥미진진	-9.34859
스럽다	-9.34884
▁이런거	-9.34896
▁아이들이	-9.34924
역시	-9.34936
▁만드	-9.35077
▁감사	-9.3512
▁이번	-9.35158
▁화이팅	-9.35185
써	-9.35216
보다가	-9.35247
▁보여	-9.35423
▁어렸을때	-9.35447
▁모습이	-9.35481
▁않았다	-9.35538
▁유치하고	-9.35708
▁왜이리	-9.3591
▁만들었다	-9.35956
▁킬링타임용	-9.3609
▁교훈	-9.36101
▁재미없고	-9.36327
▁액션영화	-9.36338
책	-9.3664
▁재밋	-9.36695
▁지난	-9.36722
보면서	-9.3674
▁소름	-9.36762
무슨	-9.36786
어도	-9.36874
놓은	-9.36913
▁멋있	-9.36918
▁영화보다	-9.36968
보이	-9.36987
▁골	-9.36995
▁담	-9.37072
▁둘	-9.37079
▁프로	-9.3711
▁떨	-9.37173
▁실제	-9.37182
▁시청률	-9.37238
맞	-9.37356
▁낚	-9.3739
났다	-9.37396
페	-9.37458
반전	-9.37477
▁노출	-9.37506
품	-9.3752
▁맞는	-9.37531
는것	-9.37588
▁tv	-9.3765
T	-9.37654
▁병	-9.37694
S	-9.37723
▁않음	-9.37759
웃음	-9.37778
많	-9.37817
▁장면은	-9.37831
▁확	-9.37913
것이다	-9.37916
▁식	-9.38015
였습니다	-9.38129
▁속편	-9.38174
만든	-9.38183
▁본다	-9.38316
▁아쉽	-9.38334
▁시대	-9.38356
가족	-9.38517
오는	-9.38553
가서	-9.38583
▁또한	-9.38683
렌	-9.38698
▁화려한	-9.38699
방송	-9.38729
▁빠져	-9.38934
▁아니지만	-9.39073
영화중	-9.39186
▁그렇고	-9.39191
▁귀여운	-9.39205
애니	-9.39215
▁광	-9.39347
▁겁나	-9.39379
▁되어	-9.3946
했는지	-9.39467
▁ᄒᄒᄒ	-9.39468
▁명작이다	-9.3963
밀	-9.39647
▁알아	-9.39684
얼	-9.39702
▁관계	-9.39801
▁사랑이	-9.39821
▁남주	-9.39966
▁괴	-9.39993
%	-9.40095
▁아닐까	-9.40121
▁게임	-9.40172
점준다	-9.40188
▁알았	-9.40219
▁저도	-9.40259
▁비추	-9.40284
▁관람	-9.40294
C	-9.40299
▁진부한	-9.40361
▁클	-9.40434
▁먹먹	-9.406
면서도	-9.40668
▁분명	-9.4071
수록	-9.40741
작가	-9.40917
▁왠지	-9.40946
▁몰	-9.41119
시켜	-9.4114
갑	-9.41211
▁어찌	-9.41226
▁사건	-9.4127
▁작품이	-9.41306
리스	-9.41397
▁좋았고	-9.41618
▁최악이다	-9.41656
량	-9.41662
▁행동	-9.41724
▁좋았습니다	-9.41737
네여	-9.41787
▁떠나	-9.41922
▁삶	-9.42024
▁신선	-9.42042
랄	-9.42127
▁터	-9.42136
▁전체적으로	-9.42217
셔	-9.42222
분이	-9.42301
팬	-9.42307
▁자유	-9.42423
모습	-9.42426
한영화	-9.42552
▁C	-9.42571
▁그래	-9.42627
▁복	-9.42637
했으면	-9.42665
든다	-9.42667
이렇게	-9.42675
▁경찰	-9.42701
▁보이는	-9.42724
받	-9.4276
하자	-9.42787
▁내인생	-9.42795
꼭	-9.42872
노잼	-9.42898
▁보여준	-9.42901
닥	-9.42961
▁나쁜	-9.42961
▁군대	-9.4298
▁나만	-9.42988
▁생각한다	-9.42999
▁하면	-9.43007
▁없었	-9.43027
▁짜증나	-9.43081
@	-9.43192
▁스토리에	-9.43199
독	-9.43206
사람이	-9.43262
하는게	-9.43305
완	-9.43507
었지만	-9.4355
령	-9.43555
▁중에	-9.43555
▁그런데	-9.43572
을텐데	-9.43583
▁심리	-9.43635
▁느끼	-9.43693
▁마치	-9.43695
▁눈이	-9.43702
있게	-9.43752
▁무엇보다	-9.43792
▁안보	-9.43798
▁영화였습니다	-9.43811
▁같습니다	-9.43854
▁먼저	-9.43864
▁받	-9.43889
▁삶을	-9.4392
▁허접한	-9.43967
▁끝내	-9.43982
려서	-9.44015
인이	-9.4422
▁살인	-9.44321
▁성공	-9.44337
ᅲᅲᅲ	-9.44361
▁시간낭비	-9.4437
졸	-9.44391
▁상상력	-9.44404
▁지루하	-9.44432
▁보고나서	-9.44436
▁극장	-9.44551
▁아들	-9.44635
▁한계	-9.44645
순간	-9.44662
▁집	-9.44693
▁대충	-9.44717
▁너무나도	-9.44729
▁재밌었어요	-9.44845
겠네	-9.44884
▁독	-9.44901
견	-9.44963
20	-9.44982
풀	-9.45025
l	-9.45048
▁범죄	-9.45073
▁깊이	-9.45299
버렸다	-9.45306
▁일상	-9.45349
▁맥	-9.45515
되지	-9.45517
황	-9.45622
▁그녀	-9.45744
▁소재는	-9.45771
▁비슷	-9.45849
친구	-9.45903
▁회	-9.45909
▁느	-9.45978
특히	-9.4602
실망	-9.46103
▁한편	-9.46171
▁못하고	-9.46257
▁떠	-9.46313
▁좀비	-9.46315
▁로맨틱	-9.46347
▁깊은	-9.46355
▁영화에서	-9.46441
▁지금봐도	-9.46479
▁취	-9.46514
엄	-9.46556
▁이젠	-9.46611
인간	-9.46754
▁인상적	-9.46876
▁확실히	-9.46905
▁용	-9.46912
와서	-9.46925
▁드라마를	-9.47032
▁영화중에	-9.47033
거같다	-9.47072
▁투	-9.47076
▁상영	-9.47139
낮	-9.47183
▁액션이	-9.47185
▁다소	-9.47211
▁자신의	-9.47246
▁디	-9.47299
앙	-9.47398
다른	-9.47423
▁어이없는	-9.47514
버리	-9.47585
쪽	-9.47614
▁각	-9.47643
재밌게	-9.47756
필	-9.48031
▁카메라	-9.48064
거임	-9.4809
▁함	-9.48164
▁잘봤습니다	-9.48198
▁아오	-9.48295
▁하는데	-9.48397
야지	-9.48439
득	-9.48458
▁마음을	-9.48512
누	-9.48538
▁있었던	-9.48555
▁자신	-9.48563
▁좋았는데	-9.48573
▁어색한	-9.48606
준다	-9.48646
▁표	-9.48756
이제	-9.48791
걸로	-9.4889
=	-9.48902
▁급	-9.48946
▁싫어	-9.48964
▁읽	-9.4898
던가	-9.4898
그러	-9.49004
▁입니다	-9.49132
▁눈을	-9.49162
▁처	-9.49236
▁영웅	-9.49244
▁여자들	-9.49257
들아	-9.4931
취	-9.49397
▁해준	-9.49418
최	-9.4942
손	-9.49438
▁모습을	-9.4948
--	-9.49521
▁같네요	-9.49576
▁세상에	-9.49585
▁좋았음	-9.49684
▁왜이렇게	-9.49779
시는	-9.49804
▁이영화가	-9.49882
▁사이	-9.49935
코미디	-9.49995
깨	-9.5
로운	-9.50033
▁독립영화	-9.5004
으면서	-9.5006
▁그런가	-9.50171
▁이야기가	-9.50257
던지	-9.50275
▁매력적인	-9.50327
괴	-9.50332
▁평론가	-9.50342
보세요	-9.50345
놓	-9.5046
▁여자가	-9.50465
▁절	-9.505
송	-9.50504
가지	-9.50668
한건	-9.50707
▁범인	-9.50725
▁고민	-9.50773
최고의	-9.50776
~^^	-9.50876
▁잘만든	-9.50981
▁연애	-9.50986
????	-9.50993
▁질질	-9.51008
▁촬영	-9.51033
▁별루	-9.51079
▁커	-9.51105
▁낭비	-9.51107
씩	-9.51178
▁프로그램	-9.51215
▁스케일	-9.5125
▁믿	-9.51268
에서는	-9.51268
▁유쾌한	-9.51269
▁그랬	-9.51281
▁수준이	-9.51339
▁부분이	-9.51356
▁이런게	-9.51358
스런	-9.51414
빨	-9.51467
스타	-9.51477
▁인상	-9.51496
시간이	-9.51614
▁키	-9.51616
▁순수한	-9.51653
▁이것	-9.51673
▁리얼	-9.51695
▁흐	-9.51707
▁국	-9.51739
껄	-9.51806
것은	-9.51882
▁느껴지는	-9.51904
▁감사합니다	-9.5192
있어	-9.51945
▁훨	-9.52121
주고	-9.52344
▁동화	-9.52352
일뿐	-9.52354
▁리메이크	-9.52365
이며	-9.52406
▁아놔	-9.52466
▁단순	-9.52471
하라	-9.52509
소재	-9.5251
▁이쁘	-9.52559
▁긴	-9.52588
한듯	-9.52614
고싶다	-9.52639
텐데	-9.5264
▁답	-9.52649
ᄀ	-9.52717
▁팔	-9.52727
휴	-9.52792
▁티	-9.52814
없어	-9.52972
▁내용을	-9.53003
▁매력이	-9.53066
▁찍은	-9.53094
▁저예산	-9.53103
드라	-9.53173
딸	-9.53461
▁스토리와	-9.53476
갔	-9.53502
▁예전	-9.5357
▁OST	-9.53571
▁해주는	-9.53606
때마다	-9.53647
▁역대	-9.53672
됐	-9.53681
▁15	-9.53695
▁떨어지는	-9.53704
▁나에게	-9.53708
▁해야	-9.53723
▁ᄉᄇ	-9.53733
▁딴	-9.53798
▁기분이	-9.53812
ᄃ	-9.53827
▁19	-9.53896
▁역시나	-9.53911
쿠	-9.53989
▁중간중간	-9.54025
재미없	-9.54055
▁여전히	-9.54099
봤음	-9.54107
▁감탄	-9.54123
▁처음이다	-9.54189
▁ᄏᄏᄏᄏᄏ	-9.54239
나온	-9.54257
더만	-9.54397
▁A	-9.544
▁독특한	-9.54451
▁끌	-9.54478
▁아니면	-9.54584
▁벌	-9.54587
항	-9.54644
▁현대	-9.54677
▁메세지	-9.54712
하려는	-9.54744
▁현실성	-9.54966
▁했지만	-9.55063
▁나를	-9.55099
▁아저씨	-9.5517
시절	-9.55175
끄	-9.55188
었으면	-9.55232
▁중간	-9.55248
확	-9.55274
▁어이없	-9.55466
▁돌려	-9.55516
▁든다	-9.55516
▁초반에	-9.55566
▁아닌데	-9.55583
시킨	-9.55583
▁권	-9.55594
만화	-9.55617
▁전달	-9.55644
찌	-9.55717
▁민	-9.55741
▁맨	-9.55765
▁<	-9.55776
▁소재를	-9.55808
▁훌륭	-9.55855
▁봤었는데	-9.55856
▁좋을	-9.55859
▁마라	-9.55888
▁나오고	-9.56073
▁연기력이	-9.56103
돼	-9.56113
▁역할	-9.56136
▁-_-	-9.56165
▁보지마세요	-9.56197
▁젤	-9.56248
▁하게	-9.56254
▁사람을	-9.56272
▁평범한	-9.56273
▁찍어	-9.56282
*	-9.56369
▁섹시	-9.56393
쇼	-9.56413
떨	-9.56429
총	-9.56459
▁분들	-9.56571
▁시선	-9.56671
▁됐	-9.56704
▁볼때마다	-9.56784
감독이	-9.56784
▁그림	-9.56841
▁신선한	-9.56873
해주는	-9.56919
▁유쾌	-9.5692
▁있다면	-9.56939
▁정치	-9.56951
(?)	-9.56981
▁글쎄	-9.56982
만으로	-9.57001
▁안나오	-9.57006
▁답답	-9.57029
려는	-9.57105
▁전편	-9.57113
▁제작진	-9.57141
▁미래	-9.57181
▁드는	-9.57256
아깝	-9.57276
;;;;	-9.57316
▁얼	-9.57376
▁싶어	-9.57404
▁슬픔	-9.57523
▁저렇게	-9.57559
▁리뷰	-9.57578
▁애들이	-9.57589
까진	-9.57609
나고	-9.57619
충	-9.57633
클	-9.57664
빵	-9.57804
▁아름답고	-9.57831
▁귀엽고	-9.57993
▁사극	-9.57997
▁가진	-9.58008
인것	-9.58101
▁흘러	-9.58115
▁호러	-9.58148
▁예쁜	-9.58173
응	-9.58262
내요	-9.5828
▁전에	-9.58313
▁이유가	-9.58368
었습니다	-9.58387
▁드라마가	-9.58395
200	-9.58395
되서	-9.58445
▁나중에	-9.58463
▁아름답다	-9.58483
짜리	-9.58641
▁그들의	-9.58697
닝	-9.58765
▁표정	-9.58825
흔	-9.58915
니깐	-9.58924
웠	-9.58958
급영화	-9.58973
▁액션은	-9.58979
▁잊지	-9.58992
▁티비	-9.59011
▁괴물	-9.59056
▁벗	-9.59069
▁평생	-9.59181
▁아는	-9.59243
▁라는	-9.59272
▁굳이	-9.59292
홍	-9.59333
▁살짝	-9.59396
많은	-9.59399
▁악역	-9.59415
끌	-9.59562
▁등장	-9.59578
북	-9.59597
▁끝나고	-9.59621
▁뒷	-9.59639
▁감동적이고	-9.59688
지마	-9.59704
▁꼴	-9.59761
▁넣	-9.59864
▁안되고	-9.59967
▁희생	-9.60004
▁통해	-9.60019
유치	-9.6003
▁사랑하는	-9.60075
둘	-9.60159
▁않아	-9.60166
팔	-9.6019
ᄍᄍ	-9.60216
▁고전	-9.6023
▁누	-9.60272
탕	-9.60312
▁죄	-9.60315
▁시원	-9.6033
▁바라	-9.60407
프로	-9.60413
재미없다	-9.60433
▁괜찮	-9.60452
▁아깝	-9.6049
▁s	-9.60499
▁드	-9.60522
릭	-9.60556
감이	-9.6058
▁후반	-9.60618
▁어릴적	-9.60638
▁웃겨	-9.6069
▁재밌었는데	-9.60726
숨	-9.60788
제목	-9.60801
하는지	-9.60847
▁보고싶다	-9.60851
쓴	-9.60852
하시	-9.60865
▁근	-9.60894
▁춤	-9.60918
ᄏᄏᄏᄏᄏᄏᄏᄏᄏᄏᄏᄏᄏᄏᄏᄏ	-9.60959
욱	-9.61026
▁보는게	-9.61062
▁슬프다	-9.61116
▁보기엔	-9.61175
나올	-9.61262
▁분노	-9.61284
▁기대를	-9.6129
▁연기에	-9.61292
▁용서	-9.61482
▁결과	-9.61491
▁몰입이	-9.61515
지마라	-9.61535
만들어	-9.61555
▁남는다	-9.61563
▁능력	-9.61602
▁참신	-9.61682
말고	-9.61798
ᄂ	-9.61799
낼	-9.61814
▁압권	-9.61815
▁표절	-9.61836
▁종교	-9.61848
놀	-9.61849
▁스토리를	-9.6187
▁나가	-9.61928
마저	-9.61963
A	-9.62079
할듯	-9.62165
줌	-9.62205
센	-9.62215
▁우울	-9.6231
같	-9.62328
▁안됨	-9.62336
ᄆ	-9.62435
▁과연	-9.62493
인생	-9.62524
▁연기와	-9.62557
//	-9.62578
▁포장	-9.6258
▁싫다	-9.62582
▁아닌듯	-9.6261
▁알수	-9.62621
▁게이	-9.62624
▁메시지	-9.6265
▁재밌었	-9.62694
골	-9.62701
▁그의	-9.62711
▁몰입감	-9.62739
더라구요	-9.62741
E	-9.62751
번째	-9.62887
로서	-9.62893
거라	-9.62997
좋아요	-9.63068
▁무지	-9.63083
▁짜증나는	-9.63109
▁cg	-9.6318
결말	-9.63187
혼	-9.63202
▁추천합니다	-9.63209
▁음악이	-9.63213
▁모르겠	-9.63265
▁안하고	-9.63345
▁자연	-9.6335
암	-9.63355
람	-9.63376
뜻	-9.63386
진심	-9.63388
▁생각합니다	-9.63401
▁했던	-9.63421
줬	-9.63559
하려고	-9.63561
▁먼	-9.63575
▁잼있게	-9.63579
먹고	-9.63592
▁난다	-9.6363
어진	-9.6364
▁우정	-9.63695
드리	-9.63699
▁출	-9.63708
씨가	-9.63762
▁만들어진	-9.63777
머리	-9.638
▁처음엔	-9.63919
▁여러	-9.64003
▁짓	-9.64019
랬	-9.64089
▁폭력	-9.64131
동안	-9.64172
▁열심히	-9.64174
▁캐	-9.64191
▁알바들	-9.64191
험	-9.64207
▁말로	-9.64237
▁홍콩	-9.64257
▁스타	-9.64265
협	-9.6427
V	-9.64308
에서도	-9.64329
▁나왔으면	-9.64349
시키는	-9.64467
▁가지	-9.64511
▁다행	-9.64565
첨	-9.64653
기엔	-9.64672
죄	-9.64675
하면서도	-9.64687
▁나서	-9.64687
▁공감이	-9.64693
er	-9.64722
▁더이상	-9.64748
▁느끼는	-9.64754
▁포기	-9.64776
▁짠	-9.64883
홀	-9.6495
▁사는	-9.6496
▁이연걸	-9.6496
▁허무	-9.64972
▁긴장	-9.65012
▁묘사	-9.65129
▁티비에서	-9.65333
ᄒᄒᄒ	-9.65448
▁지루할	-9.65482
엉	-9.65491
▁접	-9.65499
▁개판	-9.65511
▁뮤지컬	-9.65542
것을	-9.65572
잉	-9.65588
폰	-9.656
오빠	-9.65656
▁빼	-9.65722
▁봤다가	-9.65761
▁이건뭐	-9.65765
▁같아	-9.65821
▁달리	-9.65847
an	-9.65898
▁칼	-9.6593
▁빛	-9.65934
▁되었다	-9.65946
▁있지	-9.65956
▁아까워	-9.65965
▁밀	-9.66028
뒤	-9.66058
표현	-9.66076
▁영화이다	-9.66144
▁많다	-9.66144
▁같음	-9.66149
없네	-9.66162
좋았	-9.66225
▁희망	-9.66239
▁봤으면	-9.66245
▁+	-9.6628
▁주인공의	-9.66307
한게	-9.66319
▁설레	-9.66415
▁중요한	-9.66584
."	-9.66603
킬	-9.66613
▁기본	-9.66673
▁황당	-9.6669
▁밑에	-9.66712
▁주인공들	-9.66731
▁I	-9.66952
▁그렇다	-9.66975
▁낫	-9.66993
▁볼거리	-9.67051
▁40	-9.67076
잼있	-9.67141
...........	-9.67249
▁보시길	-9.67301
▁재미를	-9.67365
영상	-9.67367
▁다만	-9.67398
▁몸매	-9.67533
▁인기	-9.6782
▁소녀	-9.67883
▁자막	-9.67901
폐	-9.68059
▁올리	-9.68092
▁사랑과	-9.68114
▁크게	-9.68131
▁사랑에	-9.6814
▁만든다	-9.68153
년전에	-9.68156
탁	-9.68176
빡	-9.68177
▁영화보고	-9.68198
힐	-9.68206
는건지	-9.68212
▁덜	-9.68236
속에서	-9.68239
▁이유는	-9.68272
했어	-9.68279
재밌어요	-9.68297
▁고생	-9.68319
아님	-9.68355
,,,,	-9.68388
▁재밌습니다	-9.68393
▁이정도면	-9.68409
▁진심으로	-9.68414
내는	-9.68415
▁생각나는	-9.68478
점주는	-9.68494
▁재미있음	-9.68697
일이	-9.68701
&	-9.68747
왔	-9.68828
▁퀄리티	-9.68936
▁되게	-9.69001
▁흐름	-9.69023
아주	-9.6908
다운	-9.6917
▁무섭다	-9.69283
랜	-9.69357
하셨	-9.69406
엄마	-9.69507
▁쉽게	-9.69543
얘기	-9.69678
자들	-9.69762
전쟁	-9.69775
▁북한	-9.698
▁풀어	-9.69829
▁다큐멘터리	-9.69834
▁제목이	-9.69959
▁놓	-9.69993
▁오버	-9.70009
롱	-9.70176
▁어쩌	-9.70244
▁없지만	-9.70251
었고	-9.70259
▁볼수록	-9.70315
▁좋았던	-9.70407
▁그럭저럭	-9.70411
▁죽어	-9.70436
▁최근	-9.70499
있는데	-9.70574
▁어제	-9.70595
인의	-9.70653
▁친	-9.70757
▁삶의	-9.70758
▁씨	-9.70765
▁그려	-9.7079
▁지루해서	-9.70823
▁언제나	-9.70831
▁디즈니	-9.70882
안에	-9.70934
▁후반부	-9.70937
▁영화지만	-9.70981
▁성인	-9.7101
▁아깝지	-9.71016
▁감동과	-9.71191
▁보고싶	-9.71222
▁재미없네	-9.71224
▁드라마는	-9.71303
▁얻	-9.71316
▁몇번을	-9.71321
▁해피엔딩	-9.71331
였지만	-9.71356
▁그걸	-9.71377
였어요	-9.71403
▁남을	-9.71415
껏	-9.71466
▁어쩔	-9.71474
캐릭터	-9.71493
▁젊은	-9.71502
봤던	-9.71535
▁S	-9.71553
렉	-9.71559
▁가볍게	-9.71562
▁비주얼	-9.71562
엘	-9.71585
▁별로다	-9.71638
▁불편	-9.71647
▁정서	-9.71812
으로서	-9.71817
킨	-9.71825
하구	-9.71849
이해	-9.71888
▁봐야할	-9.71905
▁남아	-9.71955
▁쓰래기	-9.72063
로써	-9.7207
▁소재가	-9.72095
▁아쉬움	-9.72153
▁힐링	-9.72247
▁동생	-9.72283
▁재밋게	-9.72342
웠다	-9.72366
▁폭	-9.72391
▁임	-9.72566
▁배우의	-9.72647
▁붙	-9.7265
막장	-9.72657
▁만큼	-9.72709
▁엉성한	-9.72765
▁싫	-9.72778
▁추억의	-9.72802
▁샤	-9.72818
ᄏᄏᄏᄏᄏ	-9.7285
▁12	-9.72886
▁돌아가	-9.72907
▁눈빛	-9.72955
▁못했다	-9.73083
▁관심	-9.73117
▁보고싶은	-9.7313
내용이	-9.73169
▁소재로	-9.73273
▁높다	-9.73302
▁똑같	-9.73305
웨	-9.73316
▁유치함	-9.73351
애들	-9.73353
대사	-9.73391
▁몰라도	-9.73444
했나	-9.73515
가지고	-9.73537
콜	-9.7362
★	-9.73633
▁싸구려	-9.73636
▁놀라	-9.73644
▁그다지	-9.73709
왔다	-9.73721
재밌다	-9.7374
나와	-9.73827
▁재미있네요	-9.73899
▁필요없는	-9.739
▁청	-9.73933
v	-9.73988
▁70	-9.7405
멋	-9.7406
▁느낄수	-9.74195
뿌	-9.74292
압	-9.74299
▁무시	-9.74316
ᅡ	-9.7433
녕	-9.7433
접	-9.74385
ᄃᄃ	-9.74417
▁필요없다	-9.74444
▁되었	-9.74477
▁이어	-9.74484
▁명작이	-9.74488
▁몰랐	-9.74525
눈물	-9.74531
▁잔인한	-9.74591
세기	-9.74685
했네	-9.74709
▁채널	-9.74735
▁동물	-9.74804
줄이야	-9.74821
▁있나	-9.74882
▁맘	-9.74892
봤어요	-9.74919
▁국민	-9.74953
j	-9.75034
▁연예인	-9.75035
일본	-9.75044
하지도	-9.75109
▁보이	-9.7515
기분	-9.75216
▁우리가	-9.75267
예요	-9.7532
▁광고	-9.75333
사이	-9.75379
마음	-9.75393
▁가서	-9.75442
▁홍	-9.75464
봣는데	-9.75487
▁슬프고	-9.75595
▁헐리우드	-9.75744
텔	-9.75744
▁끊	-9.75752
하신	-9.75782
▁섹스	-9.75783
▁좋아서	-9.75853
끈	-9.75862
▁다시한번	-9.75867
현실	-9.75957
▁브	-9.75976
함과	-9.75981
▁법	-9.76042
▁킬링타임	-9.7606
▁보았	-9.76101
▁끝나는	-9.76188
▁슬프	-9.76245
▁만들고	-9.76247
봉	-9.76266
▁ᅮ	-9.76276
▁요소	-9.76339
겹	-9.76359
중의	-9.764
춘	-9.76418
▁가끔	-9.76498
▁반전도	-9.76545
▁악당	-9.76556
스릴러	-9.76637
▁틀	-9.76645
있음	-9.76654
되면	-9.76686
▁점수를	-9.76723
▁홍보	-9.76734
한다는	-9.76757
▁그럼	-9.76769
▁미치	-9.7681
▁이제야	-9.76997
▁사람의	-9.77022
▁페	-9.77057
▁찡	-9.77065
웅	-9.77105
N	-9.77163
▁문화	-9.77165
▁불구하고	-9.77178
▁아픔	-9.77216
폭	-9.77218
▁마세요	-9.77253
괜찮	-9.77266
M	-9.77342
▁이쁜	-9.77358
▁ᄃᄃ	-9.77386
▁지구	-9.77391
무섭	-9.77392
한다면	-9.77398
력이	-9.77466
▁돋	-9.77474
▁풍	-9.77477
▁우주	-9.77478
▁않게	-9.77515
뻐	-9.77547
▁직	-9.7764
▁그린	-9.77663
나옴	-9.778
이유	-9.77845
▁펑펑	-9.77869
▁실패	-9.77885
▁뛰어난	-9.77935
▁방금	-9.7795
▁돋보	-9.77962
좋고	-9.77985
▁사랑스러운	-9.78003
사회	-9.78028
떠	-9.78121
▁잊	-9.78169
▁네	-9.7818
웃기	-9.78182
시키	-9.78229
▁들었	-9.7827
▁음악도	-9.78296
먹는	-9.78406
▁에로	-9.78496
▁되지	-9.78536
시고	-9.78568
팅	-9.78625
틈	-9.78626
▁어려운	-9.78632
털	-9.78632
▁있게	-9.78635
▁잊혀지지	-9.78696
으론	-9.78718
▁진정	-9.7881
나와서	-9.78816
픈	-9.78843
▁인생을	-9.78862
▁멀	-9.78917
공포	-9.78961
개봉	-9.79016
▁의심	-9.79041
O	-9.79044
▁재밌네	-9.7906
▁연출도	-9.79075
▁아마	-9.79183
▁웃기고	-9.79221
온다	-9.79223
▁굳	-9.79245
섭	-9.79268
▁찍었	-9.79304
▁발전	-9.79321
▁로그인	-9.79368
점준	-9.79402
▁시사회	-9.79408
▁둘다	-9.79409
알바	-9.79414
▁생애	-9.79442
옥	-9.79467
▁채	-9.79564
▁낮아서	-9.79574
▁다르	-9.79597
착	-9.79618
▁식상	-9.79648
▁열정	-9.79762
지않은	-9.79766
▁개인	-9.79786
했으나	-9.79795
▁영화관	-9.7981
▁늘어	-9.79828
빼고	-9.79835
▁올해	-9.79838
▁산으로	-9.79847
▁달라	-9.79848
빙	-9.79887
필요	-9.79968
택	-9.80033
▁빠	-9.80044
▁없나	-9.8005
▁월	-9.80079
▁아름다움	-9.80108
]	-9.80108
▁무언가	-9.80109
명이	-9.80129
스터	-9.80139
▁연결	-9.80178
▁되고	-9.8024
▁좋습니다	-9.80252
▁그것	-9.80369
▁쫌	-9.80386
땅	-9.80424
▁딱히	-9.80446
▁엉망	-9.80446
▁쓸	-9.80447
▁행	-9.80519
▁갑	-9.80539
▁탈	-9.80673
▁순수	-9.80685
▁죄다	-9.80738
▁죽이	-9.80802
용으로	-9.80849
솔	-9.80853
▁많아	-9.8087
▁베스트	-9.80908
▁생생	-9.80947
▁느와르	-9.80974
▁단연	-9.81012
♥♥	-9.81019
헤	-9.81042
할까	-9.81089
▁차이	-9.81149
▁헤	-9.81153
자체가	-9.81167
대는	-9.81178
답답	-9.81185
▁킬링타임용으로	-9.81201
▁반성	-9.81215
▁유치하다	-9.81228
▁불쌍	-9.81249
▁빌려	-9.81358
됬	-9.8137
▁유명	-9.81426
▁죽는	-9.81426
▁어이가	-9.81493
▁철	-9.81511
▁봣는데	-9.81559
▁풀	-9.8162
▁캐릭터들	-9.81621
▁어머니	-9.81639
무비	-9.8176
▁볼만함	-9.81831
▁평이	-9.81835
▁정말로	-9.81852
에대한	-9.81856
▁조폭	-9.81861
▁거지	-9.81881
하겠	-9.81914
▁의도	-9.81922
▁무섭	-9.81931
지않고	-9.82055
나가는	-9.82078
높	-9.82102
▁시간을	-9.82131
것만	-9.82348
틱	-9.82358
ᄅ	-9.8236
엠	-9.82362
▁c	-9.82367
원작	-9.8238
▁나왔다	-9.82388
정신	-9.82479
▁몰입해서	-9.82542
▁남겨	-9.82548
▁재밌었음	-9.82559
▁평범	-9.82567
했다는	-9.82586
한것	-9.82619
▁출연진	-9.82624
▁좀더	-9.82699
캐	-9.82728
슈	-9.82739
연기가	-9.82745
▁어른	-9.82749
세상	-9.82765
▁루	-9.82798
▁자극	-9.82821
▁하면서	-9.82863
▁푹	-9.82871
▁인간이	-9.82934
▁한국인	-9.82992
사가	-9.8306
▁연속	-9.83077
▁눈물을	-9.83094
우리	-9.83095
벽	-9.83104
값	-9.83114
▁청소년	-9.8313
봣	-9.83132
같음	-9.83137
▁결말은	-9.83138
줘야	-9.8319
르는	-9.83224
인가요	-9.83245
▁좋았	-9.83346
스가	-9.8335
아니다	-9.83379
았던	-9.83412
▁뜻	-9.83482
평점이	-9.83523
▁탄탄한	-9.83546
▁여기서	-9.83549
싱	-9.83583
구성	-9.83616
▁투자	-9.83617
▁결말도	-9.83767
스타일	-9.83815
▁핵	-9.83828
시다	-9.83887
▁헐리웃	-9.83896
컨	-9.83896
▁스스로	-9.83899
▁멍청한	-9.83902
▁괜찮았	-9.83938
▁니	-9.83949
▁해주	-9.83991
▁집에서	-9.84009
영화라고	-9.84046
▁아직까지	-9.84112
▁현실적인	-9.84121
▁질리지	-9.84124
노래	-9.84127
▁말을	-9.84147
자는	-9.84152
▁당신	-9.84161
▁시걸	-9.84258
▁보았다	-9.84258
▁전문가	-9.8429
▁무서워	-9.84298
▁표현한	-9.84299
쳤	-9.84301
연기도	-9.84338
▁사기	-9.84366
정이	-9.84376
내용도	-9.84399
▁멋지다	-9.84434
on	-9.84437
중에서	-9.84458
▁끌어	-9.84485
▁단순한	-9.84496
▁옛날에	-9.84522
▁뻔하고	-9.8455
▁하루	-9.84567
▁견자단	-9.84672
▁나오면	-9.84683
▁흔한	-9.84697
▁빈	-9.84714
감을	-9.84756
▁환상	-9.8478
늘	-9.84869
편보다	-9.84944
▁남녀	-9.84949
▁볼만하다	-9.8495
▁떠나서	-9.84988
▁있습니다	-9.84999
▁인간들	-9.85044
으로써	-9.85062
▁힘들다	-9.85074
한다고	-9.85076
했네요	-9.85101
▁대화	-9.85223
버리는	-9.85241
짜증	-9.8536
!!!!!	-9.85368
나게	-9.85493
▁매력있	-9.85536
▁꺼	-9.85556
을수	-9.85571
▁못한다	-9.85628
이었	-9.85629
▁제작비	-9.85642
안되	-9.85808
▁생각없이	-9.85841
▁볼만하	-9.85874
▁무엇을	-9.85879
만드는	-9.85927
영화의	-9.85931
▁안돼	-9.85933
엿	-9.85934
▁보니까	-9.85984
▁귀엽	-9.86004
▁나옴	-9.86008
▁드럽게	-9.86026
▁미드	-9.86035
▁재미있었다	-9.86041
해주세요	-9.86073
▁건지	-9.86094
▁느낀	-9.86099
친다	-9.86106
▁전체	-9.8611
▁관객들	-9.8612
▁시대를	-9.86132
▁운	-9.86191
으려	-9.86201
릿	-9.86229
▁찌	-9.86232
▁장면에서	-9.86249
스러워	-9.8625
▁벌써	-9.86253
사는	-9.86289
▁느낌을	-9.863
▁시시	-9.86376
▁영국	-9.86381
▁끝난	-9.86423
내고	-9.86454
▁지금은	-9.86562
갔다	-9.86635
긴한데	-9.86648
▁말할	-9.86686
▁이후로	-9.86728
▁끝이	-9.8673
시작	-9.86737
▁;;	-9.86804
나온다	-9.86858
보는내내	-9.86872
하는것	-9.86875
▁매력적이	-9.86935
▁조연	-9.86977
점수	-9.86988
스러움	-9.87014
▁즐겁게	-9.87038
▁높아	-9.87062
부족	-9.87092
영환	-9.87108
▁지켜	-9.87111
언니	-9.87117
▁시각	-9.87126
▁좋았을	-9.87187
▁외모	-9.87214
▁모든게	-9.87228
▁단지	-9.87272
꾸	-9.87298
▁잔잔하고	-9.87318
편의	-9.87325
▁작가가	-9.87327
▁남편	-9.87372
▁남자가	-9.87384
냥	-9.87472
▁않지만	-9.87541
럼	-9.87563
▁나오지	-9.8758
하는건	-9.87612
면에서	-9.87662
▁이해할	-9.87748
왔는데	-9.87801
▁짱짱	-9.87825
▁위대한	-9.87836
▁기대안하고	-9.8786
▁발견	-9.87867
▁같아서	-9.87887
▁굿굿	-9.87912
▁배우들도	-9.87914
▁말하는	-9.87923
▁T	-9.87924
▁하네요	-9.87927
▁주변	-9.87937
장면이	-9.8796
세계	-9.87966
계속	-9.87977
▁느껴	-9.88037
기위해	-9.88068
▁영어	-9.88081
▁야한	-9.88144
▁재밌을	-9.88205
▁누구나	-9.88279
▁어렸을	-9.88339
스의	-9.88352
OOO	-9.88369
잠	-9.88382
못한	-9.88433
넣	-9.88446
▁밥	-9.88483
기억	-9.88556
혁	-9.88604
거면	-9.88606
▁있어요	-9.8864
떄	-9.8864
톱	-9.8864
▁누군가	-9.88641
▁발로	-9.88663
아까	-9.88706
놨	-9.88718
겁니다	-9.88737
가슴	-9.8874
▁심심	-9.88743
▁끼	-9.88761
들만	-9.88776
▁특	-9.88793
▁뜨	-9.88795
▁50	-9.88825
▁싶네요	-9.8883
11	-9.88853
▁안보고	-9.88859
센스	-9.88927
▁유쾌하고	-9.88933
▁할말	-9.88933
▁"""	-9.8898
▁창	-9.89009
영화로	-9.89013
보자	-9.89034
▁할말이	-9.89041
였고	-9.8907
▁생각하는	-9.89104
묘	-9.89162
차라리	-9.89281
▁재밋다	-9.89323
보게	-9.89333
▁시도	-9.8934
▁받아	-9.89353
님의	-9.89361
▁앞	-9.89389
▁김기덕	-9.89454
▁레전드	-9.89454
▁이런영화가	-9.89468
▁맨날	-9.89505
▁갈등	-9.89513
▁반복	-9.89541
▁이거보고	-9.89562
"""	-9.89566
사람은	-9.89627
▁영화냐	-9.89695
시간에	-9.89799
▁국내	-9.89837
려면	-9.89839
젠	-9.89875
수도	-9.89924
지를	-9.89966
▁필	-9.89983
........	-9.90123
이였다	-9.90146
받는	-9.9015
따라	-9.90152
▁유명한	-9.90153
▁못해	-9.9018
율	-9.90183
▁눈에	-9.90207
관계	-9.90241
`	-9.90273
▁마이클	-9.90279
해진	-9.90365
그리	-9.90388
▁못할	-9.90499
▁하는지	-9.90513
▁보길	-9.90523
▁영화에요	-9.90543
ᅲᅮ	-9.90613
계의	-9.90618
냈	-9.90626
▁싶지	-9.90752
이니	-9.90754
▁시트콤	-9.90759
▁않나	-9.90772
닌	-9.90773
만의	-9.90801
▁한심	-9.90812
▁한참	-9.90917
줘서	-9.90987
남는	-9.90994
▁인물들	-9.91014
▁공부	-9.91054
푸	-9.91054
혈	-9.911
와는	-9.91128
▁생각하고	-9.91132
▁떨어지	-9.91286
▁아나	-9.9131
▁꾸	-9.9134
▁허세	-9.91348
▁아이돌	-9.91377
.......	-9.91411
▁줌	-9.91421
▁진지	-9.91438
딩	-9.9156
▁안타깝다	-9.91582
흐	-9.91616
▁씬	-9.91623
▁고통	-9.9163
▁멋	-9.91648
▁보인다	-9.91667
▁있네요	-9.91701
▁ᅲᅲᅲ	-9.91743
▁넘어	-9.91747
몽	-9.91783
▁모르겠고	-9.91818
는것도	-9.91833
떡	-9.91835
님들	-9.91843
봅니다	-9.91862
▁보지마	-9.9189
▁부르	-9.91901
▁쇼	-9.91902
뛰	-9.9191
져서	-9.91916
몰입	-9.9193
▁보고나면	-9.91943
즘	-9.9198
▁찌질	-9.92003
▁내려	-9.92073
하려	-9.92131
자의	-9.92213
설정	-9.92249
▁울고	-9.92269
잔잔	-9.92342
지말고	-9.92386
씬은	-9.92398
냈다	-9.92412
▁개연성이	-9.92414
in	-9.92489
상을	-9.925
해야지	-9.92511
▁있으면	-9.92543
▁이기	-9.92626
▁미모	-9.92637
I	-9.92699
▁울었다	-9.92731
있네	-9.92763
▁즐거운	-9.92773
▁멍청	-9.92776
▁로봇	-9.92778
워서	-9.92826
▁받았	-9.92836
▁코난	-9.92889
이었음	-9.92903
▁무척	-9.92912
▁송	-9.92982
편을	-9.93015
▁한데	-9.93128
쁘	-9.93141
▁빼고	-9.93145
▁멋있다	-9.93206
돌아	-9.9329
새끼	-9.93337
▁그렇다고	-9.9334
▁부모	-9.93381
▁당시에	-9.93382
▁음악과	-9.93416
쉽	-9.93441
밥	-9.93588
잤	-9.936
례	-9.93621
▁쵝오	-9.93621
형님	-9.93623
▁의외로	-9.93639
▁대부분	-9.93654
ᄏᄏᄏᄏᄏᄏᄏᄏᄏ	-9.93688
▁힘이	-9.93702
들고	-9.93753
▁아줌마	-9.93757
▁죽여	-9.93758
▁불쾌	-9.93762
▁이쁘고	-9.93783
▁필요한	-9.93805
▁대사가	-9.93821
르고	-9.93918
▁착한	-9.93989
부작	-9.93992
▁에피소드	-9.94001
▁속에	-9.94011
▁영화였어요	-9.94082
▁웃음이	-9.94178
다는게	-9.94197
끝나	-9.94298
▁살고	-9.9434
▁[	-9.94368
버리고	-9.9437
▁여행	-9.9442
쩌	-9.94447
▁뭉클	-9.94475
▁007	-9.94477
▁새롭	-9.94499
▁없는데	-9.94507
째	-9.94572
학교	-9.94604
.........	-9.9464
▁긴장감도	-9.94659
▁빨	-9.94673
▁옛	-9.94696
▁아쉽네요	-9.9471
해진다	-9.94718
or	-9.94753
▁있어야	-9.9477
▁감동적	-9.9486
자체	-9.94916
▁재미없어요	-9.94921
▁나쁘지	-9.94985
▁에휴	-9.95074
▁덕분에	-9.95135
▁하나하나	-9.95135
▁왜케	-9.95138
▁인생의	-9.95154
▁엉성	-9.95201
기로	-9.95208
영화임	-9.95286
▁좋게	-9.95326
▁전투	-9.95327
▁마이너스	-9.95337
▁봤더니	-9.95337
▁초등학생	-9.95337
것들	-9.95347
▁이미지	-9.95353
▁경험	-9.95356
▁복잡	-9.95369
벨	-9.95372
▁낳	-9.95396
▁달달	-9.95405
수있는	-9.95405
▁친구들	-9.95418
있었	-9.9542
리지	-9.95462
메이	-9.95471
▁혼	-9.9549
▁망한	-9.95565
▁이쁘다	-9.95587
▁노답	-9.95611
하던데	-9.95757
▁잔	-9.9578
▁결	-9.95985
봐요	-9.95996
끼리	-9.96017
▁듣	-9.96042
보지	-9.96057
▁신선하고	-9.9606
▁짝퉁	-9.96066
짧	-9.96083
▁받을	-9.96137
있나	-9.96138
장난	-9.96151
쌍	-9.96161
겟다	-9.96161
댄	-9.96181
ᅵ	-9.96207
뮤	-9.96207
▁the	-9.96208
었어	-9.96223
▁기술	-9.96243
▁작품을	-9.96251
▁재미있었어요	-9.96268
있어서	-9.96289
지않는	-9.96317
▁조합	-9.96323
상황	-9.96356
▁모르겠지만	-9.96384
▁학교에서	-9.96412
▁자살	-9.96546
▁꽃	-9.96563
만큼은	-9.96631
▁충	-9.96738
▁좋지만	-9.96788
▁시청자	-9.96834
▁진리	-9.96845
내내	-9.96856
짜증나	-9.96901
▁작품이다	-9.96914
▁적당	-9.96917
▁침	-9.96946
▁논	-9.96959
만들었	-9.96975
▁어렵	-9.96975
▁바뀌	-9.96995
이런영화	-9.96996
▁제로	-9.97021
겁	-9.97029
▁good	-9.97037
균	-9.97067
▁빼고는	-9.97069
버릴	-9.97073
▁더불어	-9.97087
리를	-9.97094
▁민망	-9.9713
▁최강	-9.97152
▁슈퍼	-9.97154
깔	-9.97164
ᄌ	-9.97191
였어	-9.97204
집니다	-9.97211
▁헤어	-9.9723
▁없었던	-9.97291
▁썩	-9.97319
하지마라	-9.97321
▁극치	-9.97339
▁지루했다	-9.97356
이라서	-9.97368
▁13	-9.97378
▁무비	-9.97436
▁작은	-9.97509
문화	-9.97537
영화에	-9.97545
ᅲᅲᅲᅲ	-9.97569
▁암튼	-9.97663
식으로	-9.97677
▁부터	-9.97694
▁본인	-9.97771
▁손발이	-9.97862
했었는데	-9.97914
흘리	-9.97921
칭	-9.97969
▁카리스마	-9.97969
뽕	-9.97969
▁더러운	-9.9797
▁흥미로운	-9.97984
요즘	-9.98017
▁와우	-9.98023
▁취향	-9.98082
▁자식	-9.98103
▁좋았지만	-9.98128
▁죽은	-9.98137
▁착	-9.98149
까요	-9.98153
활	-9.98154
문제	-9.98175
▁살려	-9.98189
▁무서웠	-9.98193
▁삶에	-9.98222
▁양심	-9.98245
겠어요	-9.98289
▁판	-9.98335
켜	-9.98364
▁미안	-9.98429
동생	-9.98475
ar	-9.98524
느라	-9.98537
해준	-9.98542
▁수도	-9.98546
간의	-9.98552
연기력	-9.98582
씨의	-9.9863
▁히	-9.98671
▁명품	-9.98766
한국	-9.98767
▁기다리	-9.98842
▁바꿔	-9.98862
뚱	-9.98862
칸	-9.98862
퀴	-9.98862
▁외계인	-9.98862
▁주성치	-9.98864
▁직접	-9.9887
▁동안	-9.98874
받고	-9.98897
▁비극	-9.98901
▁일품	-9.98948
하다가	-9.98977
▁방법	-9.98983
▁최고입니다	-9.98988
샤	-9.99016
▁영화인듯	-9.99072
▁부족하다	-9.99095
▁우와	-9.99099
▁박수를	-9.99111
아쉽	-9.99125
셈	-9.99169
럴	-9.99174
끝까지	-9.99262
▁피해자	-9.99298
▁즐기	-9.99301
인들	-9.99401
▁싸이코	-9.99425
▁팬이	-9.99448
이자	-9.99456
하다니	-9.99487
▁썼	-9.995
▁군	-9.9954
▁어린이	-9.99551
..........	-9.99601
▁뇌	-9.99607
▁지루하게	-9.99676
▁체	-9.99762
렁	-9.99763
W	-9.99763
▁좋았으나	-9.99779
▁따뜻해지는	-9.9979
▁ᄋᄋ	-9.99826
▁감정을	-9.99844
▁역대급	-9.99853
보여	-9.99874
▁있던	-9.99889
▁말하고	-9.99903
감동적	-10
▁해석	-10.0001
▁없다는	-10.0004
▁들어가	-10.0015
▁뭐라	-10.0017
▁이하	-10.0018
▁미소	-10.0018
점정도	-10.0019
▁독특	-10.0024
적은	-10.0024
엔딩	-10.0031
▁본다면	-10.0034
▁오바	-10.0036
▁학교	-10.0039
제발	-10.0039
할수있	-10.0043
지네요	-10.0044
매력	-10.0047
▁용기	-10.0053
것같	-10.006
잡고	-10.0063
농	-10.0067
▁고양이	-10.0067
▁좋겠어요	-10.0072
버려	-10.0074
았습니다	-10.0074
▁한번쯤	-10.0075
▁다룬	-10.0075
▁아이가	-10.0081
▁게다가	-10.0083
젤	-10.009
시즌	-10.0094
▁완전히	-10.0096
▁의미를	-10.0106
▁18	-10.0106
▁올라	-10.011
까지는	-10.0112
▁아침	-10.0113
상태	-10.0119
▁설마	-10.0121
▁앤	-10.0123
▁주말	-10.0124
재밌음	-10.0128
▁실제로	-10.0131
힘	-10.0131
▁보러	-10.0139
더라도	-10.0142
▁중반	-10.0144
▁철학	-10.0148
▁원작의	-10.0149
▁사랑은	-10.015
▁잊을	-10.0151
쳤다	-10.0156
▁그럴	-10.0156
컷	-10.0158
뜬	-10.0159
둔	-10.0159
▁지나치게	-10.0159
▁쓰레기같은	-10.0161
▁웃기지도	-10.0164
▁뛰어	-10.0174
▁교육	-10.0174
▁안타깝	-10.0176
▁사랑의	-10.0179
인건	-10.018
▁연기력도	-10.018
쩔	-10.0184
▁중에서	-10.0184
쥐	-10.0184
콩	-10.0185
셔서	-10.0187
▁기대했는데	-10.0189
좋아하는	-10.019
놔	-10.019
슬프	-10.0197
지지	-10.0204
배경	-10.0205
▁보자	-10.0207
▁비판	-10.0209
▁충격적	-10.0217
▁도전	-10.0223
안되는	-10.0224
출연	-10.023
▁알려	-10.0239
▁퇴	-10.0248
튀	-10.025
ᄋᄋ	-10.025
년만에	-10.0251
▁패러디	-10.0252
▁느껴진다	-10.0253
흘	-10.0254
▁영혼	-10.0255
it	-10.0256
▁일어나	-10.0256
ing	-10.0257
▁이유를	-10.0259
님이	-10.0259
▁의리	-10.0263
읽	-10.0273
▁쩐다	-10.0276
▁크리스마스	-10.0283
▁엄	-10.0287
▁올려	-10.029
▁포르노	-10.03
▁케이블	-10.03
명의	-10.0301
▁웃김	-10.0306
▁갔	-10.0309
▁볼수있	-10.0313
▁많았	-10.0315
생겼	-10.0316
▁보며	-10.0318
▁좋아해서	-10.032
▁꿈을	-10.0328
▁남자의	-10.0329
감독님	-10.0332
▁한명	-10.0334
▁곳	-10.0334
층	-10.0345
▁어른들	-10.0348
엇다	-10.0351
▁어휴	-10.0353
▁평점보고	-10.0354
중독	-10.0354
▁없지	-10.036
▁십	-10.0361
▁모르게	-10.0374
▁연기자들	-10.0377
▁원작이	-10.0377
꼴	-10.0378
겠음	-10.0384
▁진부하고	-10.0385
곳	-10.0388
▁않을까	-10.0391
▁견	-10.0393
않는	-10.0395
그래서	-10.0397
▁할까	-10.0397
▁상처	-10.0405
▁전설의	-10.0406
re	-10.0407
▁보여준다	-10.0413
▁똑같은	-10.0416
▁이해하기	-10.0416
▁안나	-10.0417
는듯	-10.0422
▁찬	-10.0422
▁답답한	-10.0423
물이	-10.0425
▁생각나	-10.0434
▁넘치는	-10.0434
▁괜찮다	-10.0437
▁좋아할	-10.0438
K	-10.0439
▁아까울	-10.044
▁몇몇	-10.0442
▁반개도	-10.0443
▁봤을때	-10.0444
▁개성	-10.0446
▁잔인하	-10.0453
▁왠	-10.0453
▁사랑이야기	-10.0454
▁:	-10.0455
▁뿐이다	-10.0458
▁무협	-10.046
▁행복한	-10.0471
▁언	-10.0472
▁이래	-10.0474
받은	-10.048
?!	-10.048
치곤	-10.0486
▁오글	-10.0486
▁대중	-10.049
하고싶은	-10.0491
▁개봉한	-10.0503
▁희	-10.0512
▁밤	-10.0514
▁간다	-10.0515
룡	-10.0522
하시는	-10.0523
▁가능	-10.0523
줬다	-10.0524
▁먹고	-10.0524
▁합	-10.0527
잇는	-10.0528
ᅮᅮᅮ	-10.0531
껴	-10.0532
ᄇ	-10.0533
▁블랙	-10.0534
▁뒤로	-10.0535
▁잠깐	-10.0535
▁재밌다고	-10.0535
개도	-10.0537
하기도	-10.0544
올리	-10.0553
▁신경	-10.0553
▁많고	-10.0554
뭔가	-10.0561
▁시청	-10.0562
얼굴	-10.0576
F	-10.0577
▁최대	-10.0578
▁가득	-10.0581
▁싶은데	-10.0582
▁잭	-10.0582
▁관한	-10.0583
▁훈훈한	-10.0585
▁무섭지도	-10.059
았음	-10.0598
▁가슴에	-10.0599
만이	-10.0599
버림	-10.06
..;;	-10.0608
▁밑	-10.0608
▁들었다	-10.0614
붕	-10.0622
▁따로	-10.0625
▁디테일	-10.0631
롤	-10.0631
냄새	-10.0632
0%	-10.0632
▁홍콩영화	-10.0632
▁빠진	-10.0634
속의	-10.0635
▁주기	-10.0645
▁해결	-10.0649
▁꼽	-10.065
▁아프	-10.0652
공감	-10.0657
▁모를	-10.0659
따위	-10.066
▁검	-10.066
특	-10.0664
▁하는거	-10.0671
아까움	-10.0672
돋	-10.0675
▁오랜만	-10.0686
사람들이	-10.0687
나오고	-10.0691
▁대해서	-10.0697
감독의	-10.0698
▁폴	-10.0709
▁얼마	-10.071
딴	-10.0717
콘	-10.0719
쟁이	-10.0726
▁스트레스	-10.0728
▁감흥	-10.0729
▁전기세	-10.0731
▁레알	-10.0733
▁커플	-10.0735
▁빠져들	-10.076
똥	-10.0765
으니까	-10.0765
▁보여줬	-10.0766
▁보내	-10.0772
▁선생님	-10.0775
덤	-10.0775
공포영화	-10.0777
겠습니다	-10.0779
더빙	-10.0781
▁왠만하면	-10.0782
▁긴장감이	-10.0784
억지	-10.0786
사람들은	-10.079
초반	-10.079
오늘	-10.0791
▁한마디	-10.0793
▁좋아하는데	-10.0797
▁그녀의	-10.0801
▁현실이	-10.0803
▁생각하면	-10.0809
멘	-10.0809
가요	-10.081
▁울었	-10.0814
▁이용	-10.0817
시길	-10.0824
넹	-10.0826
▁소중한	-10.0826
▁기다려	-10.0827
마지막에	-10.0828
▁이제서야	-10.0828
▁싶었	-10.083
▁존경	-10.0836
식이	-10.0837
▁애기	-10.0852
▁슬	-10.0858
기까지	-10.086
▁관점	-10.0861
빛	-10.0863
▁막판에	-10.0864
▁필름	-10.0864
▁실력	-10.0865
▁낚시	-10.0868
▁재미와	-10.0874
붙	-10.0877
밤	-10.0879
살아	-10.088
▁갖	-10.0882
▁m	-10.0883
쏘	-10.0889
▁한국영화는	-10.0889
▁화가	-10.09
▁보려고	-10.0903
▁앞으로도	-10.0908
▁꽝	-10.0912
▁안맞	-10.0915
겠네요	-10.0917
점줌	-10.0922
▁DVD	-10.0925
▁모르	-10.0927
▁개뿔	-10.0928
▁풍경	-10.093
▁통쾌	-10.0931
▁변태	-10.0934
▁봣	-10.0936
누나	-10.0948
▁감히	-10.095
▁속에서	-10.095
▁악마	-10.0955
장애	-10.0959
!!!!!!!!!	-10.0961
리아	-10.0963
▁탑	-10.0965
▁있었지만	-10.0966
▁이럴	-10.0969
자나	-10.0973
배우들의	-10.0974
X	-10.0977
때부터	-10.0977
쓸	-10.0978
▁기자	-10.0978
▁한심한	-10.098
논	-10.0981
어떻게	-10.0981
널	-10.0983
절대	-10.0986
았는데	-10.0991
▁콩	-10.0995
▁재미잇	-10.1003
▁그거	-10.1004
▁맞아	-10.1006
▁자주	-10.1009
되네요	-10.1018
▁그렇지	-10.1022
빨리	-10.1023
그래	-10.1024
▁점수가	-10.1024
▁아련	-10.1025
납니다	-10.1026
▁겨우	-10.1027
▁말도안되는	-10.1028
▁죽이는	-10.1028
더라면	-10.1028
겼	-10.1029
▁할머니	-10.103
▁잼있다	-10.1033
▁개막장	-10.1038
▁전개도	-10.1038
랜드	-10.1042
▁욕망	-10.1044
▁하나의	-10.1044
▁웃고	-10.1049
▁망치	-10.105
냐고	-10.1052
▁작가님	-10.1053
▁추억이	-10.1057
▁믿을	-10.1058
▁이때	-10.106
▁인해	-10.1062
▁못함	-10.1063
새끼들	-10.1064
▁감동적이다	-10.1065
편도	-10.1068
▁됨	-10.1072
▁보여주고	-10.1075
나왔	-10.1082
▁결론	-10.1083
맥	-10.1084
있냐	-10.1086
▁쓰레기다	-10.1088
▁심하게	-10.1095
▁우리의	-10.1097
▁미쳤	-10.11
이걸	-10.1105
▁괜찮은데	-10.1112
▁편견	-10.1117
하겠다	-10.112
▁웬	-10.1123
자를	-10.1124
핀	-10.1126
▁스크린	-10.1126
▁보긴	-10.1126
▁젠장	-10.1126
▁어린시절	-10.1128
♥♥♥	-10.1128
보다도	-10.1134
▁할수	-10.1138
▁정의	-10.1138
▁무술	-10.1139
▁있구나	-10.1141
▁강력	-10.1142
▁있으	-10.1145
싶다	-10.1149
▁빠지	-10.1152
▁없어요	-10.1162
스톤	-10.1165
▁영화들	-10.1168
틴	-10.1178
▁헛	-10.1178
것같아요	-10.1179
▁줬	-10.1185
▁생각함	-10.1188
P	-10.1192
굴	-10.1194
싸움	-10.1195
거같은데	-10.1195
▁퍼	-10.12
로만	-10.12
스키	-10.1208
혹은	-10.121
▁봤었	-10.1212
▁보기에	-10.122
잃	-10.1222
▁둘이	-10.1223
▁d	-10.1225
옹	-10.1226
아요	-10.1228
깍	-10.1228
볼만	-10.1232
▁짝이	-10.1238
▁깨닫게	-10.124
다니는	-10.1247
편에	-10.1248
▁영화보면서	-10.1248
▁승	-10.1251
▁내면	-10.1256
▁왜이래	-10.1257
▁케	-10.1273
보구	-10.1274
▁흑인	-10.1277
▁못하	-10.128
▁모두가	-10.129
▁졸리	-10.1292
흥	-10.1294
G	-10.1297
보이는	-10.1303
하기만	-10.1303
감정	-10.1305
▁장르가	-10.1305
▁죽는줄	-10.1306
▁어릴	-10.1306
~!!!	-10.1307
다운받	-10.1307
▁본방사수	-10.1307
년도에	-10.1312
▁자신이	-10.1315
▁웃기다	-10.132
▁쓰는	-10.1321
점이다	-10.1324
▁비디오로	-10.1327
▁재미없게	-10.1329
▁떨어진다	-10.1332
▁돼	-10.1332
▁짜증난다	-10.1334
▁거짓말	-10.1336
모든	-10.1338
▁최초	-10.1338
▁참신한	-10.1341
▁만들면	-10.1345
▁야동	-10.1352
▁아픈	-10.1354
▁에이	-10.1356
몇	-10.1361
받아서	-10.1365
▁보통	-10.1367
▁11	-10.1373
▁본거	-10.1379
▁세상을	-10.1387
임에도	-10.1392
▁O	-10.1395
꿀잼	-10.1397
▁않네요	-10.1403
▁다루	-10.1405
큰	-10.1405
상실	-10.1406
▁옥	-10.1406
주면	-10.141
되나	-10.141
쾌	-10.1419
▁있는지	-10.1419
보고싶다	-10.1424
st	-10.1425
▁영화보는	-10.1426
▁우리는	-10.1428
▁본영화	-10.1431
▁심각	-10.1433
어린	-10.1433
컬	-10.1435
멸	-10.1435
▁2014	-10.1435
▁아내	-10.1437
저리	-10.1438
▁영원히	-10.1439
▁재미있었	-10.1448
▁방영	-10.1448
▁맹	-10.1448
▁빵점	-10.1454
▁위해서	-10.1455
▁색감	-10.1458
▁낮다	-10.1459
▁어쩔수	-10.1459
듯이	-10.1462
▁잊을수	-10.1464
▁위로	-10.1468
▁소름이	-10.1485
▁평론가들	-10.1486
▁전쟁영화	-10.1486
▁완	-10.1494
▁색	-10.1498
▁봤을	-10.1503
▁형님	-10.1503
▁조화	-10.1506
버전	-10.1506
제작	-10.1508
▁시리즈중	-10.1511
▁관객을	-10.1513
관람	-10.1528
도아니고	-10.1529
▁정도의	-10.1535
셀	-10.154
▁동성애	-10.154
손가락	-10.1541
▁특별한	-10.1543
거리는	-10.1544
▁바꾸	-10.1544
▁캐릭터가	-10.1546
당한	-10.1548
~~~~~~~~	-10.1549
▁화려하	-10.1549
생활	-10.1556
고싶어	-10.1558
옴	-10.1559
코드	-10.1561
그만	-10.1564
보지말	-10.1567
▁못하다	-10.1568
도안	-10.1568
검	-10.1572
▁받는	-10.1573
▁사진	-10.1574
▁생각나서	-10.1578
인물	-10.1586
▁놈	-10.1587
물을	-10.1587
▁라고	-10.1597
이즈	-10.1599
스럽고	-10.1604
▁야구	-10.1604
▁끄	-10.1606
하길	-10.1606
▁옷	-10.1608
했지	-10.1614
▁빌	-10.1615
스럽게	-10.1615
모두	-10.1625
▁오로	-10.1627
▁국가	-10.1631
▁조작	-10.1634
부분이	-10.1635
낀	-10.1644
▁몇번	-10.1645
학년	-10.1645
소설	-10.1646
묵	-10.1646
▁시간가는줄	-10.1647
▁잔뜩	-10.1647
▁여러가지	-10.1649
▁모험	-10.1652
▁재난영화	-10.1654
▁하늘	-10.1655
티비	-10.1655
분은	-10.1655
▁알겠는데	-10.1656
안됨	-10.1662
▁나은	-10.1662
▁대놓고	-10.1663
▁일이	-10.1664
▁단어	-10.1668
▁감안	-10.1668
▁그건	-10.167
▁자신을	-10.1671
▁배우를	-10.1674
없어서	-10.1678
▁불러	-10.1683
뭐야	-10.1685
빠지	-10.1696
건가요	-10.1701
▁훌륭하다	-10.1703
▁작품은	-10.1704
▁감동의	-10.1705
▁느꼈다	-10.1706
▁만든영화	-10.1708
30	-10.1708
요소	-10.1708
▁명작입니다	-10.1711
허접	-10.1732
솔직히	-10.1735
▁어이	-10.1738
▁가치가	-10.1739
었네요	-10.174
지도않고	-10.1742
▁다르다	-10.1743
머니	-10.1744
▁부모님	-10.1746
는줄	-10.175
어디	-10.1753
닉	-10.1754
쿵	-10.1754
본영화	-10.1758
▁여름	-10.1763
▁액션씬	-10.1764
▁재밌던데	-10.1767
▁효과	-10.1768
▁이것이	-10.1772
▁보았습니다	-10.1772
했다고	-10.1774
▁만들다니	-10.1777
▁있었는데	-10.178
▁보지마라	-10.1781
▁분들은	-10.1787
▁중요	-10.1788
▁없습니다	-10.1788
적이다	-10.1791
현실을	-10.1793
▁안타까운	-10.1799
랄까	-10.1802
있습니다	-10.1806
▁몇년	-10.181
▁드립니다	-10.1812
▁대본	-10.1814
▁제외	-10.1818
▁최근에	-10.1823
▁촌스럽	-10.1824
▁갖고	-10.183
어지는	-10.1832
▁형사	-10.1833
▁쥐	-10.1833
▁이런영화를	-10.1833
베리	-10.1834
▁척	-10.1837
▁끈	-10.1842
지요	-10.1843
▁아예	-10.1844
닐	-10.1847
L	-10.1848
▁돌리	-10.1852
ᄏᄏᄏᄏᄏᄏᄏᄏᄏᄏᄏᄏᄏ	-10.1857
춰	-10.186
숭	-10.1863
렷	-10.1863
쥬	-10.1863
▁짜임새	-10.1863
▁아이디어	-10.1863
▁색다른	-10.1864
▁무엇인지	-10.1867
▁억지스러운	-10.1869
극장	-10.1872
▁a	-10.1873
▁비밀	-10.1874
▁배역	-10.1879
▁쿠	-10.1879
▁등등	-10.1879
▁도망	-10.1883
▁모르겠음	-10.1883
▁살아가는	-10.1886
▁이래서	-10.189
▁명화	-10.1891
오글	-10.1892
▁나머지	-10.1894
▁D	-10.1898
▁다운	-10.1921
자리	-10.1934
▁노래도	-10.1942
같고	-10.1942
▁ᄏᄏᄏᄏᄏᄏ	-10.1942
▁높게	-10.1944
▁술	-10.1949
▁환	-10.1951
▁영상이	-10.1958
거같아요	-10.1961
▁분위기가	-10.1963
주연	-10.1966
닿	-10.1968
헌	-10.197
혐	-10.1971
앞에서	-10.1971
개그	-10.1971
랫	-10.1973
▁아닙니다	-10.1973
찔	-10.1973
▁제임스	-10.1974
▁흥	-10.1974
▁sf	-10.1975
에서의	-10.1975
▁극장가서	-10.1975
빠르	-10.1979
▁싶을	-10.1983
▁하나같이	-10.1993
▁사고	-10.1996
▁기대이상	-10.1996
▁21	-10.1999
도대체	-10.2001
▁까지	-10.2008
때매	-10.201
▁답답하고	-10.2014
▁비하면	-10.202
▁감정이	-10.2021
찾	-10.2024
▁최고였다	-10.2024
▁수준의	-10.2028
▁집에	-10.2029
▁지나도	-10.2031
▁잔인	-10.2031
▁뭐하나	-10.2032
▁에로영화	-10.2038
▁죽이고	-10.2038
생각이	-10.2046
만듬	-10.2047
아쉬웠	-10.2051
▁뛰어나	-10.2061
▁개연성도	-10.2064
▁문제가	-10.2067
19	-10.2073
▁출연한	-10.2079
사건	-10.208
엽	-10.2081
▁블록버스터	-10.2084
U	-10.2084
▁소소한	-10.2084
▁후속작	-10.2085
▁잔혹	-10.2085
▁감정이입	-10.2086
▁싸우는	-10.2086
▁듣고	-10.2087
▁끝났	-10.2088
▁니들	-10.2089
▁아역	-10.2092
▁남자주인공	-10.2092
쓰레기영화	-10.2092
본사람	-10.2093
▁이따위	-10.2094
▁가정	-10.2094
장르	-10.2095
놈이	-10.2096
▁외국	-10.2096
▁성격	-10.2097
▁또다른	-10.2097
▁낙	-10.2102
▁부실	-10.2104
▁맡	-10.2105
야겠다	-10.2111
▁엉성하고	-10.2112
큐	-10.2114
어라	-10.2115
▁죽을	-10.2129
▁잇	-10.2131
▁내가본	-10.2133
▁결정	-10.2133
아닌가	-10.2133
▁기준	-10.2136
▁여운을	-10.2137
▁예쁘고	-10.2139
..^^	-10.2142
▁재미없었다	-10.2144
영화인데	-10.2145
▁연출과	-10.2156
지않아	-10.2159
쓰고	-10.217
아가	-10.2176
▁추리	-10.2179
었을	-10.2181
▁정말이지	-10.2185
덜	-10.2191
이름	-10.2192
보니까	-10.2193
▁거기에	-10.2195
원이	-10.2195
커플	-10.2196
ᅥ	-10.2196
▁울컥	-10.2197
▁결코	-10.22
▁어쩜	-10.22
▁그저그런	-10.2202
만하다	-10.2206
▁촌	-10.2209
▁연극	-10.2211
▁오래된	-10.2214
▁영화인	-10.2215
▁열연	-10.2217
▁볼게	-10.2223
였으면	-10.2223
▁남은	-10.2223
▁낮네	-10.2227
▁막장드라마	-10.2232
영이	-10.2232
해준다	-10.224
▁싸움	-10.2244
부러	-10.2251
▁오빠	-10.2255
덕에	-10.2258
대단	-10.2259
이었습니다	-10.2269
▁낮아	-10.2274
▁매력을	-10.2283
라는게	-10.2302
다음	-10.2304
▁좋겠	-10.2307
헐	-10.2311
관객	-10.2313
▁데리고	-10.2316
▁감각	-10.2316
▁적당히	-10.2318
▁의미가	-10.2321
▁슬퍼	-10.2322
▁길게	-10.2324
▁타임	-10.2324
▁L	-10.2326
▁p	-10.2328
햇다	-10.2328
자신	-10.2331
▁예쁘	-10.2332
▁왔	-10.2336
받아	-10.2337
되었다	-10.2339
▁만남	-10.2339
주고싶다	-10.234
▁치고	-10.2349
▁남자들	-10.235
▁아니야	-10.2351
▁멋지	-10.2362
▁반전은	-10.2365
▁뽑	-10.2365
▁노래가	-10.2368
▁구성이	-10.2371
▁그당시	-10.2374
▁처럼	-10.2378
▁먼가	-10.2379
▁잼없	-10.238
쓰는	-10.2382
여주	-10.2383
아빠	-10.2383
▁가슴을	-10.2386
▁식상한	-10.2388
▁두고	-10.2389
▁죽인	-10.2393
▁쩝	-10.2394
하더라	-10.2403
▁가족영화	-10.2403
▁다운받아	-10.2406
▁엿	-10.2409
▁많은데	-10.2409
않다	-10.2412
▁공포물	-10.2413
▁결말을	-10.2414
객	-10.2418
뽀	-10.2425
룩	-10.2425
▁살다살다	-10.2425
컴	-10.2425
▁탄생	-10.2426
비디오	-10.2427
<	-10.2429
▁푸	-10.243
▁낚였다	-10.2431
년작	-10.2432
▁흔들	-10.2433
마리	-10.2434
두고	-10.2434
▁봅니다	-10.2435
▁방식	-10.2447
▁집중해서	-10.2453
▁잼나게	-10.2453
재미없음	-10.2457
혼자	-10.2464
▁아래	-10.2477
점이상	-10.2477
기전에	-10.2483
▁매력적	-10.2483
믿	-10.2483
▁승리	-10.2489
장이	-10.2495
▁잡아	-10.2497
뻔한	-10.2498
▁애들은	-10.25
▁풍자	-10.2501
▁의문	-10.2502
스카	-10.2509
았어요	-10.251
▁만한	-10.251
▁현실적이	-10.2515
▁보려	-10.2519
트리	-10.2524
▁봤네	-10.2526
▁요리	-10.2528
▁기독교	-10.2532
렵	-10.2537
하진	-10.2539
좌	-10.2541
▁즐거웠	-10.2541
▁다양한	-10.2542
▁아무런	-10.2545
▁그만큼	-10.2547
▁코드	-10.2547
▁만들었는지	-10.255
▁주인공은	-10.2552
갑니다	-10.2552
▁허술	-10.2556
뇌	-10.2556
▁멍	-10.2561
겠죠	-10.2564
▁선동	-10.2569
▁살면서	-10.257
▁잘봤어요	-10.2573
▁수많은	-10.2575
▁안볼	-10.2576
이죠	-10.2582
턴	-10.2583
▁생각했는데	-10.2583
▁마이	-10.2589
번은	-10.2589
▁내용인지	-10.2595
▁변화	-10.2601
브라	-10.2602
는거야	-10.2606
▁낮게	-10.2614
못해	-10.2621
▁응	-10.2622
▁헬	-10.2623
왓	-10.2629
했었	-10.2638
▁잘만들었	-10.2639
했다면	-10.2639
이후	-10.2651
▁사상	-10.2652
ut	-10.2652
▁마지막장면	-10.2653
▁돈을	-10.2654
굿굿	-10.2657
씬이	-10.2659
찐	-10.2659
z	-10.2659
▁로버트	-10.2659
▁사운드	-10.2659
▁핵노잼	-10.266
▁집착	-10.266
▁바랍니다	-10.2661
▁볼수있는	-10.2665
▁담배	-10.2666
둥이	-10.2666
▁남네요	-10.2669
▁대단하	-10.2669
아쉬	-10.267
벗	-10.2671
아저씨	-10.2672
거죠	-10.2676
찡	-10.2677
▁찰	-10.2678
▁특이	-10.2678
들에	-10.2687
▁가면	-10.2688
▁빼면	-10.269
▁신파	-10.269
좋음	-10.269
▁조카	-10.2696
후회	-10.2697
조금	-10.2704
▁놀랍다	-10.2711
여행	-10.2713
▁한국에서	-10.2715
하하하	-10.272
법한	-10.272
기법	-10.2722
▁살린	-10.2726
▁과정	-10.2727
▁냉	-10.273
▁짐	-10.273
▁몰랐다	-10.273
같네	-10.273
시아	-10.2741
영화입니다	-10.2745
▁궁	-10.2747
▁여러분	-10.2749
▁손에	-10.2751
▁샘	-10.2753
▁해라	-10.2758
▁책을	-10.2764
과는	-10.2765
받았	-10.2766
둥	-10.2771
▁보기에는	-10.2774
할만한	-10.2774
인데도	-10.2775
핑	-10.2778
벼	-10.2778
▁플롯	-10.2778
▁아류작	-10.2778
▁특수효과	-10.2778
le	-10.2778
▁니콜	-10.2779
▁앞뒤	-10.278
▁짧은	-10.278
▁느껴지	-10.2784
▁놀라운	-10.2785
야한다	-10.2786
▁넌	-10.2789
▁ᄋ	-10.2789
▁주기도	-10.279
갓	-10.2793
삶	-10.2794
▁f	-10.2794
▁북	-10.2796
▁원작에	-10.2798
▁재미있습니다	-10.2799
게임	-10.2802
▁199	-10.2806
평가	-10.2806
▁운명	-10.2807
▁등장인물	-10.2809
▁생활	-10.281
▁궁금하다	-10.2811
▁인도	-10.2812
bb	-10.2813
▁G	-10.2816
▁솔직	-10.2823
▁그자체	-10.2823
▁생긴	-10.2828
않은	-10.2829
점대는	-10.283
▁신비	-10.2845
지루함	-10.2848
▁밋밋	-10.2848
▁형편없	-10.285
후에	-10.2856
보셈	-10.2856
80	-10.2859
배우가	-10.2859
▁망친	-10.2869
것같은	-10.2871
▁예쁘다	-10.2872
것만으로도	-10.2874
야할	-10.2877
▁코미디영화	-10.2877
▁이상하게	-10.2879
▁새로	-10.2881
▁거리	-10.2884
수없는	-10.2888
▁뭘까	-10.2891
찮	-10.2897
▁짜증만	-10.2898
긋	-10.2898
▁교과서	-10.2899
▁러시아	-10.2899
▁심지어	-10.2899
12	-10.2899
▁위험	-10.2902
오르	-10.2905
▁여자친구	-10.2907
▁만들수	-10.2909
▁좋겠네요	-10.2915
▁주제를	-10.2917
▁몽	-10.2918
▁꽤나	-10.2919
!!!!!!!!!!!!!!!!	-10.2924
▁재미도없고	-10.2925
▁낮지	-10.2925
스크	-10.2929
▁아쉽지만	-10.2929
학생	-10.293
▁부분도	-10.2931
▁마지막까지	-10.2942
▁좀비영화	-10.2942
▁여주가	-10.2942
▁않아서	-10.2943
▁교훈을	-10.2949
이여	-10.2954
▁어울리는	-10.2955
ve	-10.2959
쳐서	-10.2961
모르겟	-10.2961
든지	-10.2961
았지만	-10.2974
재밌어	-10.2976
거같음	-10.2976
▁연기력은	-10.2977
▁와닿	-10.2977
▁때려	-10.2981
▁소설을	-10.2986
듣	-10.2988
▁잘하고	-10.2989
▁폐	-10.2991
▁최고로	-10.2992
▁안맞는	-10.2993
▁불쌍하다	-10.2994
필요없	-10.3
라는걸	-10.3
엑	-10.302
▁가벼운	-10.302
▁반드시	-10.302
▁끔찍	-10.3021
▁어처구니	-10.3024
부분은	-10.3025
▁첫사랑	-10.3027
▁봤을까	-10.3032
▁어느정도	-10.3032
▁무료	-10.3035
있었다	-10.3036
좋았다	-10.3044
긴장감	-10.3045
▁별로임	-10.3048
옆	-10.3049
촌	-10.3049
▁있다니	-10.3052
▁60	-10.3056
▁잠이	-10.3058
▁포스	-10.306
것처럼	-10.3064
▁호구	-10.3064
▁휘	-10.3065
▁정작	-10.3075
▁확인	-10.3076
▁안본	-10.309
▁자리	-10.3094
▁웃겼	-10.3096
긴하지만	-10.3098
▁안습	-10.31
▁맞추	-10.31
▁자체는	-10.31
▁반대	-10.3102
▁떨어지고	-10.3102
보는게	-10.3105
▁일반	-10.3106
▁넘게	-10.3107
뿐이다	-10.311
깝	-10.3111
▁몰라	-10.3111
▁처음에는	-10.3116
는구나	-10.3122
▁레이	-10.3125
▁시청률이	-10.3132
▁내용과	-10.3132
▁뭐니	-10.3133
▁없으면	-10.3135
픽	-10.314
▁역사를	-10.3142
▁임팩트	-10.3144
▁스티븐	-10.3144
▁주윤발	-10.3144
▁짜집기	-10.3144
▁인내심	-10.3144
ᄏᄏᄏᄏᄏᄏᄏᄏᄏᄏ	-10.3144
▁어설프고	-10.3145
▁캬	-10.3146
할것	-10.3153
▁태어나서	-10.3154
▁여자주인공	-10.3154
▁크리스	-10.3156
▁그야말로	-10.3156
▁약간의	-10.316
▁잼있어요	-10.3161
▁말하고자	-10.3163
당시	-10.3164
스토리도	-10.3164
▁됬	-10.3164
▁욕심	-10.3165
▁따분	-10.3165
▁조절	-10.3169
▁한숨	-10.317
▁아름답게	-10.3172
궁	-10.3172
팀	-10.3173
류의	-10.318
▁못보겠	-10.3183
▁순수함	-10.3183
▁불편한	-10.3187
▁스토리의	-10.3192
▁여전	-10.3193
▁짜증나서	-10.3195
▁빵	-10.3196
▁그립다	-10.32
▁언니	-10.3202
▁책임	-10.3203
▁보다는	-10.3209
▁포스터가	-10.321
▁매일	-10.3214
▁볼때	-10.3215
사를	-10.3215
라지만	-10.3215
씨는	-10.3217
지말자	-10.3222
▁모른다	-10.3225
재미도	-10.3225
▁다시보니	-10.3228
▁당신은	-10.3229
해야할	-10.323
▁보아	-10.3232
또한	-10.3233
이었던	-10.3238
▁목적	-10.3241
▁러닝타임	-10.3244
▁맞지	-10.3249
▁때문	-10.3251
▁훈훈	-10.3253
▁한편의	-10.3255
▁했으면	-10.3256
이든	-10.3257
▁1,2	-10.326
▁줄수	-10.3262
▁아닐	-10.3265
스토	-10.3267
같아서	-10.3267
▁쓸데없이	-10.3269
탱	-10.3269
▁장국영	-10.3269
▁유일한	-10.327
▁친구가	-10.327
▁업	-10.3271
▁아까운영화	-10.3272
▁당연히	-10.3273
하는영화	-10.3275
▁일부러	-10.3279
▁첨엔	-10.328
▁이야기는	-10.3281
▁생각으로	-10.3281
아무	-10.3281
▁나름대로	-10.3285
시오	-10.3287
▁이딴걸	-10.3288
해주고	-10.3288
▁ᄀ	-10.3295
▁재밌지	-10.3298
▁삶이	-10.33
▁인디	-10.3302
흠	-10.3302
빌	-10.3303
화이팅	-10.3304
미가	-10.3304
▁명작을	-10.3306
먹은	-10.3307
방식	-10.3311
졸작	-10.3313
▁심장	-10.3317
as	-10.3317
▁명장면	-10.3323
▁상업	-10.3323
웨이	-10.3326
▁폐지	-10.3326
▁시리즈는	-10.3328
▁배신	-10.3328
▁가져	-10.3329
▁엘	-10.3334
▁아름답	-10.3342
고요	-10.3349
▁선물	-10.3354
▁영화화	-10.3357
없네요	-10.3359
▁신선하	-10.3359
같은영화	-10.3363
▁격	-10.3363
▁무리	-10.3367
▁멋졌	-10.3376
▁소재도	-10.3378
게하는	-10.3383
레스	-10.3387
꾼	-10.3392
될듯	-10.3392
▁쉬	-10.3394
▁해리포터	-10.3395
^-^	-10.3395
▁설득력	-10.3395
▁배트맨	-10.3395
▁유일하게	-10.3396
▁희망을	-10.3401
▁로코	-10.3404
▁근래	-10.3404
▁하나로	-10.3411
▁엔딩이	-10.3416
▁어렵다	-10.3416
로드	-10.3417
▁잼잇	-10.3419
▁바다	-10.342
▁어른이	-10.3423
▁죽었	-10.3426
굳	-10.3429
느껴	-10.3431
▁보던	-10.3432
추억	-10.3433
▁피해	-10.3436
▁강렬한	-10.344
포스터	-10.3442
▁모든걸	-10.3446
거같	-10.3454
려나	-10.346
언제	-10.346
▁소년	-10.3461
▁무엇	-10.3462
▁엉망이	-10.3463
▁재미없어서	-10.3468
제로	-10.3469
▁잘하는	-10.3472
▁수작이다	-10.3474
▁음식	-10.3483
빠져	-10.3485
▁연기자	-10.3487
▁영화라는	-10.3488
▁쓰고	-10.3489
▁수입	-10.3491
▁최고임	-10.35
주기	-10.3507
▁틀어	-10.3515
▁만든거	-10.3517
▁괜찮았다	-10.352
밝	-10.352
못하는	-10.3521
딘	-10.3524
ᄁ	-10.3524
▁뱀파이어	-10.3524
▁dvd	-10.3524
▁심형래	-10.3524
퓨	-10.3524
었나	-10.3524
갠적으로	-10.3526
▁웃으면서	-10.3527
▁배경음악	-10.3528
▁할아버지	-10.3529
달아	-10.3531
▁가수	-10.3538
▁따뜻하고	-10.3539
▁볼만했	-10.3542
▁영상과	-10.3544
▁꼬마	-10.3545
▁나에겐	-10.3549
▁케이블에서	-10.3551
신분	-10.3554
에대해	-10.3558
▁가족이	-10.3558
맞는	-10.3561
▁많아서	-10.3561
썼	-10.3561
듯하다	-10.3563
▁기억나는	-10.3564
▁영화인지	-10.3567
▁기회	-10.3568
시나리오	-10.3569
없는영화	-10.3569
▁새벽에	-10.3569
걍	-10.3569
▁타고	-10.3571
곳에	-10.3575
▁보다니	-10.3575
▁많은걸	-10.3581
드가	-10.3583
▁느낌의	-10.3591
▁조선	-10.3596
보인다	-10.3597
▁한번도	-10.3601
낫	-10.3603
▁이상하고	-10.3612
▁이해할수	-10.3612
▁나랑	-10.3613
▁배우들은	-10.3615
▁오락영화	-10.3621
▁본게	-10.3623
▁혹시	-10.3625
▁흐르는	-10.3629
능력	-10.3633
알아	-10.3634
▁봤어	-10.3638
▁장면도	-10.3639
맘	-10.3645
ᅮᅲ	-10.3646
육	-10.3648
▁상대	-10.3649
▁강한	-10.365
미국	-10.3652
깃	-10.3653
쫓	-10.3653
뗄	-10.3654
▁이소룡	-10.3654
▁제니퍼	-10.3654
▁홍상수	-10.3654
▁of	-10.3654
▁빵빵	-10.3654
▁내생에	-10.3654
▁착각	-10.3655
임을	-10.3656
높은	-10.3657
오브	-10.3662
▁생각할	-10.3665
▁귀여워	-10.3665
▁이런건	-10.367
▁처음에	-10.3673
▁동양	-10.3673
▁울리는	-10.3675
▁버리	-10.3678
100	-10.3679
었는지	-10.3682
▁감동은	-10.3683
좋은영화	-10.3685
역사	-10.3686
▁놓고	-10.3686
받을	-10.3687
있지	-10.3689
▁저급	-10.3689
▁다시는	-10.3695
아버지	-10.3698
▁포인트	-10.3703
▁봐야하는	-10.3709
연기는	-10.3718
보여주	-10.3719
▁잼나	-10.3724
▁짜증이	-10.3725
▁있네	-10.3725
▁재밌어서	-10.3726
▁어디에	-10.3729
었네	-10.373
보긴	-10.3731
멜로	-10.3732
▁밀려	-10.3732
▁한국의	-10.3733
톤	-10.3735
▁받은	-10.374
▁ᄏᄏᄏᄏᄏᄏᄏ	-10.3741
테러	-10.3746
뭔	-10.3748
▁난해하	-10.3751
▁후에	-10.3753
같지	-10.3762
▁이해를	-10.3767
▁재미로	-10.3769
배우들이	-10.3774
▁아깝고	-10.3778
▁여자의	-10.3779
▁살아있	-10.3779
셋	-10.3785
▁고등학교	-10.3785
▁대통령	-10.3785
▁부끄러	-10.3785
▁조니뎁	-10.3785
럭	-10.3785
▁할리우드	-10.3785
▁제이슨	-10.3785
▁재미있을	-10.3786
▁맞춰	-10.3787
▁돋보이는	-10.3788
▁잘만들	-10.379
▁어째	-10.3792
분의	-10.3795
▁두번째	-10.3796
재미있게	-10.3798
▁시간아깝다	-10.38
▁잘못된	-10.3803
▁아쉬움이	-10.3803
▁현실과	-10.3812
▁독일	-10.3816
▁섬	-10.3818
타임	-10.382
40	-10.382
조연	-10.3821
▁우연	-10.3822
▁없었음	-10.3825
▁^	-10.3826
▁살리	-10.3829
▁키스	-10.3829
!!!!!!	-10.383
할뿐	-10.3832
▁들고	-10.3833
몸	-10.3833
였나	-10.3835
앤	-10.3837
분위기	-10.3837
캐스팅	-10.3838
일듯	-10.3839
R	-10.384
꿈	-10.3841
▁싶어요	-10.3841
아프	-10.3842
▁오글거리	-10.3847
목소리	-10.3847
느끼	-10.3848
트가	-10.3848
▁주제가	-10.3849
드립니다	-10.3852
▁남았	-10.3853
▁곧	-10.3859
보시길	-10.3861
고싶은	-10.3862
기도하고	-10.3865
▁슬펐	-10.3868
▁초딩때	-10.387
치고는	-10.3873
부터가	-10.3878
씀	-10.388
▁인생에	-10.3883
놀이	-10.3884
▁연인	-10.3886
약한	-10.3896
▁갔다	-10.39
▁마음으로	-10.3901
▁ᄍᄍᄍ	-10.3901
함은	-10.3903
위에	-10.3905
▁하길래	-10.3908
▁의사	-10.3909
▁삼류영화	-10.3913
▁정보	-10.3913
젊	-10.3916
젖	-10.3918
▁you	-10.3918
▁됩니다	-10.3918
▁숨겨진	-10.3918
▁늑대	-10.3919
▁영환데	-10.3921
▁실화를	-10.3921
▁과학	-10.3923
▁여러번	-10.3925
▁사라지	-10.3925
▁언제봐도	-10.3926
▁영화인가	-10.3931
▁재능	-10.3932
▁단순히	-10.3933
▁동심	-10.3934
▁가족들	-10.3939
어색	-10.394
▁마약	-10.3944
▁톰	-10.3946
장면은	-10.3949
▁혹시나	-10.3949
▁충분	-10.3951
▁장면들	-10.3952
▁=	-10.3953
간에	-10.3954
▁보이지	-10.3961
와의	-10.3961
▁난잡	-10.3964
▁클레멘타인	-10.3969
▁하다가	-10.3974
하니까	-10.3977
춤	-10.3979
▁부부	-10.3983
▁제목만	-10.3983
▁하는게	-10.3986
▁어색하고	-10.399
▁안간다	-10.3991
▁검색	-10.3994
▁발상	-10.3994
▁실수	-10.3995
▁시간만	-10.4003
▁공감할	-10.4005
극장에서	-10.4006
▁머리가	-10.4009
에게는	-10.4016
려다가	-10.4022
▁장면을	-10.4022
▁아니지	-10.4028
▁쉽지	-10.4028
▁쩔	-10.4029
▁별로고	-10.4036
▁진수	-10.4042
낭	-10.4045
어여	-10.4045
납	-10.4051
▁정상	-10.4051
15	-10.4053
곱	-10.4054
눌	-10.4054
밴	-10.4054
템	-10.4054
▁떨어짐	-10.4054
부끄럽	-10.4054
▁익숙	-10.4054
▁희대의	-10.4054
▁깜짝	-10.4054
▁빠른	-10.4055
함에	-10.4058
▁처절	-10.4058
▁서양	-10.4059
▁다섯	-10.4064
바라	-10.4064
▁프리	-10.4066
▁엄마가	-10.4068
됐다	-10.4069
으려고	-10.407
싫어	-10.4071
▁개노잼	-10.4077
▁넘치	-10.4078
아까운	-10.4079
▁예능	-10.4086
▁아까웠다	-10.4089
▁모르겠네요	-10.4094
▁이루	-10.4095
▁하아	-10.4102
데요	-10.4103
me	-10.4106
▁다르게	-10.4107
하는건지	-10.4107
▁터미네이터	-10.411
▁불쌍한	-10.4112
맞추	-10.4112
▁하네	-10.4116
칼	-10.412
엄청	-10.4123
▁멋지고	-10.4124
▁아냐	-10.4124
▁세상이	-10.4127
▁F	-10.4129
웃김	-10.413
무시	-10.4136
지훈	-10.4142
▁사용	-10.4153
아라	-10.4153
갈때	-10.4158
차이	-10.4162
▁줍니다	-10.4163
섹	-10.4175
▁깔	-10.4176
▁나네요	-10.4177
▁매니아	-10.4189
▁이토록	-10.4191
▁박진감	-10.4191
▁이뻐서	-10.4191
▁사투리	-10.4191
▁뭐하자는	-10.4192
▁실험	-10.4193
♥♥♥♥	-10.4193
▁응원	-10.4195
분만에	-10.4195
▁만들기	-10.4196
▁상영관	-10.4198
줄알았는데	-10.4199
▁디워	-10.4203
▁짜증남	-10.4206
▁최고봉	-10.4207
▁그것도	-10.4214
▁봐도봐도	-10.4215
올라	-10.4219
▁아니라고	-10.422
어진다	-10.422
▁앞에	-10.4225
▁봤다면	-10.4226
▁높아서	-10.4229
겨운	-10.4229
▁없나요	-10.4231
▁그동안	-10.4233
▁충실	-10.4236
재밌는	-10.4236
▁유발	-10.4243
갔는데	-10.4245
▁거장	-10.4246
▁있다고	-10.4247
려다	-10.4251
▁슈	-10.4256
▁중심	-10.4257
▁X	-10.4257
▁반전을	-10.426
내용은	-10.4267
▁조잡	-10.4267
▁주연배우	-10.4269
ᄍ	-10.4271
▁논리	-10.4271
▁달려	-10.4271
스러웠	-10.4273
▁멋있는	-10.4275
줄은	-10.4276
▁느꼈	-10.4276
▁알겠다	-10.4277
es	-10.4277
▁내게	-10.4281
▁끝에	-10.4282
▁점수는	-10.4284
보소	-10.4287
말이필요없	-10.4291
▁아이들과	-10.4301
모르고	-10.4301
▁같지	-10.4305
차별	-10.4309
▁안봐도	-10.4311
▁감독을	-10.4311
제대로	-10.4313
▁이런영화는	-10.4314
▁흑	-10.4318
표정	-10.4324
▁맛이	-10.4327
뷰	-10.4328
뎅	-10.4329
▁네티즌	-10.4329
넬	-10.4329
앨	-10.4329
▁도무지	-10.433
▁판단	-10.4337
▁/	-10.4337
▁집중이	-10.4343
▁알겠	-10.4343
▁내용전개	-10.4345
먹어	-10.4352
▁괜찮음	-10.4356
여운이	-10.4358
▁재미없을	-10.4358
▁보라	-10.4359
▁그럴듯	-10.4361
▁궁금해서	-10.4363
보게되	-10.4364
물로	-10.4369
▁본지	-10.438
모자	-10.438
▁정신병자	-10.438
분을	-10.4384
▁내일	-10.4387
못하고	-10.4389
▁지겹다	-10.4392
하시길	-10.4393
▁났	-10.4394
기에는	-10.4401
▁어디가	-10.4412
곳에서	-10.4413
않음	-10.4415
하기에	-10.4416
애들이	-10.442
할수가	-10.4426
것보다	-10.4426
하지말고	-10.4426
있지만	-10.4427
▁얼굴이	-10.443
en	-10.4438
▁오브	-10.4439
번에	-10.4443
티가	-10.4444
▁여주인공이	-10.4445
▁떼	-10.4446
하지마	-10.4447
▁배우도	-10.4448
▁현실감	-10.4455
략	-10.4464
슷	-10.4465
▁갑니다	-10.4466
삭	-10.447
팍	-10.447
▁왤케	-10.447
켄	-10.447
▁아놀드	-10.447
▁하정우	-10.447
▁ᄏᄏᄏᄏᄏᄏᄏᄏ	-10.4472
▁폭풍	-10.4472
▁잤다	-10.4474
▁재개봉	-10.4475
▁만화책	-10.4476
▁루즈	-10.4477
▁폭발	-10.4478
▁2000	-10.4478
▁담겨	-10.448
▁거북	-10.4481
▁공짜로	-10.4485
▁짜증나고	-10.4485
▁괜찮았는데	-10.4488
▁없게	-10.4488
▁배경이	-10.4493
트로	-10.4494
▁사람도	-10.4494
▁설정이	-10.4495
▁죽고	-10.4497
▁전설	-10.4501
나왓	-10.4506
▁쭉	-10.4509
▁배우는	-10.451
▁겁	-10.4511
▁뭣	-10.4514
▁하지원	-10.4515
▁찾는	-10.4518
▁인형	-10.4519
▁이상해	-10.452
드립	-10.4522
th	-10.4528
▁공간	-10.4531
자고	-10.4532
▁기타	-10.4533
▁말자	-10.4542
▁잊고	-10.4543
때까지	-10.4546
불쌍	-10.4547
▁이드라마	-10.4548
잊	-10.4549
▁인생이	-10.4551
꽃	-10.4552
▁최고의영화	-10.4554
탑	-10.4555
CG	-10.4557
벤	-10.4558
▁부정	-10.4562
할지	-10.457
구리	-10.457
아무리	-10.4581
어이없	-10.4582
▁기가	-10.4585
▁지루하기	-10.4591
멋있	-10.4594
만큼이나	-10.4598
▁스릴도	-10.4599
▁작품입니다	-10.46
▁대신	-10.4602
▁불안	-10.4604
신고	-10.4604
흡	-10.4606
쩜	-10.4608
랙	-10.4613
닷	-10.4613
▁쓸데없는	-10.4613
▁나레이션	-10.4613
▁컨셉	-10.4613
덩어리	-10.4613
▁흑백	-10.4614
▁꿈꾸	-10.4615
▁보게된	-10.4616
▁환경	-10.4619
▁적어도	-10.462
▁극복	-10.462
▁무엇인가	-10.4623
▁to	-10.4626
뭐냐	-10.4629
▁탈출	-10.4629
▁하품	-10.463
하거나	-10.463
열받	-10.4635
▁소중함을	-10.4635
▁반담	-10.4637
▁어거지	-10.464
서야	-10.4644
▁평소	-10.4645
햇는데	-10.4652
▁이름이	-10.4653
씁쓸	-10.4654
▁좋네	-10.4672
어가는	-10.4675
▁김치	-10.4678
▁기대없이	-10.4678
▁케릭터	-10.4678
▁뒤에	-10.4683
상영	-10.4687
▁결론은	-10.4688
▁테러	-10.469
▁연출은	-10.4691
▁영상미가	-10.4691
▁여자애	-10.4692
▁가득한	-10.4695
▁아우	-10.4698
휘	-10.4703
포인트	-10.4704
▁없냐	-10.4705
개인적으로	-10.4705
뭘	-10.4705
범죄	-10.4708
웃겨	-10.4714
▁따위	-10.4721
▁귀엽다	-10.4723
▁가능한	-10.4723
▁얘	-10.4723
소름	-10.4726
▁재미있어	-10.4727
▁마지막회	-10.4731
앞으로	-10.4732
잖	-10.4738
었을까	-10.4739
키드	-10.4739
맞고	-10.474
른다	-10.4742
▁어울리지	-10.4743
▁같고	-10.475
자들이	-10.4753
▁끌고	-10.4756
뚝	-10.4758
랭	-10.4758
▁오프닝	-10.4758
랩	-10.4758
뻥	-10.4758
▁리얼리티	-10.4758
▁걱정	-10.4758
▁달콤	-10.4759
▁평균	-10.4761
▁명대사	-10.4762
^^*	-10.4762
▁각색	-10.4762
▁파괴	-10.4765
▁빛을	-10.4766
▁돈내고	-10.4766
▁무겁	-10.4767
▁믿고보는	-10.4768
▁만약	-10.4768
▁영화라니	-10.4773
자마자	-10.4774
~~!!	-10.4774
▁오랫만에	-10.4774
발연기	-10.4775
세여	-10.4779
글자	-10.478
▁담은	-10.4781
▁유행	-10.4782
▁유쾌하게	-10.4784
▁잔잔하게	-10.4785
▁시대에	-10.4786
있던	-10.4787
▁관련	-10.4792
▁히어로	-10.4794
▁손발	-10.4794
~~^^	-10.4797
자들의	-10.4798
▁않았지만	-10.4802
류영화	-10.4805
-_-;	-10.4809
있어요	-10.4814
▁벤	-10.4815
▁본건데	-10.4816
존나	-10.4818
▁넣어	-10.4819
▁정신없	-10.4822
▁우뢰매	-10.4824
▁아들이	-10.4825
하군	-10.4828
▁유치해	-10.4828
▁따뜻해	-10.4829
▁소화	-10.4834
울리	-10.4834
▁유덕화	-10.4834
▁진부	-10.4836
▁놀랍	-10.4841
▁좋을듯	-10.4843
▁탐	-10.4843
▁남기	-10.4843
비가	-10.4844
▁재밋어요	-10.4847
에만	-10.4847
▁전쟁의	-10.4849
▁볼만했다	-10.485
▁눈물나	-10.4852
500	-10.4852
▁신의	-10.4853
몬	-10.4854
▁허술한	-10.4855
▁일본은	-10.4857
▁읽어	-10.4858
▁세번	-10.4859
낮은	-10.486
렬	-10.4861
볼수있	-10.4862
▁정도면	-10.4864
늙	-10.4866
멜	-10.4872
빠진	-10.4872
▁사랑해	-10.4874
발랄	-10.4874
lo	-10.4876
▁의상	-10.4878
▁박수	-10.4878
이딴	-10.4883
▁여자는	-10.4885
▁갓	-10.4886
외로	-10.4889
▁땡	-10.4894
▁가고	-10.4897
▁액션신	-10.4897
기억이	-10.4899
앉	-10.49
▁빅	-10.4903
▁묻어	-10.4903
갱	-10.4905
켰	-10.4905
▁늦게	-10.4905
▁송강호	-10.4905
▁인터넷	-10.4905
껀	-10.4905
▁자동차	-10.4905
▁뭥미	-10.4905
▁따라가	-10.4905
▁동시에	-10.4906
▁보시면	-10.4908
▁포스터에	-10.4911
▁서울	-10.4915
▁사랑한다	-10.4915
▁자극적인	-10.4917
▁웃을	-10.492
가면서	-10.4922
감독은	-10.4923
▁유럽	-10.4924
▁살인마	-10.4926
▁좋다고	-10.4928
▁이루어	-10.4929
▁사실을	-10.493
이예요	-10.4932
래도	-10.4935
▁보았는데	-10.4936
▁먹는	-10.4937
그러나	-10.4937
▁평화	-10.494
▁만난	-10.4943
같아	-10.4944
하자면	-10.4946
추격	-10.4947
▁원조	-10.495
▁녹아	-10.4957
▁찍고	-10.4959
▁아깝네	-10.4959
▁사랑해요	-10.496
소녀	-10.4964
▁아니었다	-10.4966
▁황당한	-10.4968
▁만들어서	-10.4972
▁받고	-10.4975
▁보는거	-10.4982
▁갖다	-10.4994
▁육	-10.4998
느낌이	-10.4999
특별	-10.5002
▁강렬	-10.5005
▁인간은	-10.5006
코믹	-10.5009
▁분들이	-10.5009
▁자아	-10.5009
놨네	-10.501
바람	-10.5017
▁다시보고	-10.5018
므	-10.5021
▁안될	-10.5024
등록	-10.5027
▁재미없다고	-10.5027
해지고	-10.5034
▁최소	-10.5045
져요	-10.5048
안돼	-10.5051
▁답이	-10.5052
▁재미있는데	-10.5053
빗	-10.5054
셉	-10.5054
똘	-10.5054
▁짐캐리	-10.5054
걷	-10.5054
웟	-10.5054
▁가까운	-10.5054
▁내생애	-10.5054
▁우려먹	-10.5055
보느니	-10.5055
마누라	-10.5055
▁축구	-10.5057
스텝	-10.5058
▁역량	-10.5058
▁목소리가	-10.5061
▁전반적으로	-10.5061
아이들	-10.5063
▁영화였음	-10.5068
▁거품	-10.5069
분동안	-10.5069
▁일본의	-10.5071
▁난리	-10.5071
▁떡	-10.5071
▁믿기지	-10.5074
성과	-10.5084
힘들	-10.5086
▁적당한	-10.5087
▁고어	-10.5087
줄알았	-10.5088
▁스토리전개	-10.509
▁오락	-10.5091
▁절정	-10.5094
▁탄탄하고	-10.5097
보고있어요	-10.51
▁하시	-10.51
▁시작부터	-10.5101
광고	-10.5103
▁아깝네요	-10.5104
▁쪽	-10.5104
▁답답함	-10.5108
▁이끌어	-10.5109
▁한국판	-10.511
▁이보다	-10.5112
점주	-10.5116
것같은데	-10.512
▁화나	-10.5121
▁왜곡	-10.5123
낚	-10.5127
▁놓치	-10.5129
▁어쩌면	-10.513
여운	-10.5138
찾아	-10.5146
나름	-10.5148
델	-10.5151
스케	-10.5152
아니고	-10.5152
▁포스터만	-10.5154
▁읽고	-10.5154
어용	-10.5155
봐야지	-10.5157
섬	-10.5165
▁명연기	-10.5166
왔어요	-10.5166
▁등장인물들	-10.5167
▁무섭고	-10.5169
할줄	-10.5172
재미없어	-10.5174
노답	-10.5178
스토리가	-10.5184
나보다	-10.5186
쩐다	-10.5186
행복	-10.5191
윈	-10.5192
▁겨울	-10.5193
봣다	-10.5193
▁그립	-10.5194
▁뻔하	-10.5196
드만	-10.5198
먹었	-10.5202
▁곰	-10.5203
벅	-10.5206
썸	-10.5206
▁아무생각없이	-10.5206
몫	-10.5206
▁명불허전	-10.5206
▁깡패	-10.5206
▁양아치	-10.5206
▁첩보	-10.5206
▁정우성	-10.5206
▁만들었나	-10.5209
▁좋았을텐데	-10.5209
▁알았네	-10.5211
▁은근히	-10.5211
보고싶어요	-10.5213
▁만들어낸	-10.522
▁꿀	-10.5221
▁기존	-10.5224
▁표현할	-10.5225
▁이런류의	-10.5228
▁일본인	-10.5229
▁사람이라면	-10.5233
▁액션과	-10.5235
였을	-10.5238
▁으리	-10.5239
▁생각난다	-10.524
▁한방	-10.5244
▁시나리오가	-10.5244
▁친구랑	-10.5246
▁초등학교	-10.5247
▁전개와	-10.5248
▁강간	-10.5249
▁아파	-10.525
자식	-10.5251
▁본듯	-10.5254
▁잼있음	-10.5259
▁그것이	-10.5262
편에서	-10.5262
나오네	-10.5262
▁생명	-10.5263
▁되네요	-10.5264
▁싱	-10.5267
▁싶었다	-10.5267
오래	-10.5271
잖아요	-10.5271
▁의지	-10.5273
▁봐야지	-10.5273
▁느낌은	-10.5279
께요	-10.5282
▁자극적	-10.5287
,,,,,,	-10.53
▁녹	-10.5302
▁:)	-10.5305
▁사람들에게	-10.5309
▁불가능	-10.531
▁지겹	-10.531
우스	-10.5317
▁팀	-10.5324
그렇게	-10.5325
꼽	-10.5326
▁좋지	-10.5327
▁봤는데도	-10.5332
그럼	-10.5336
아들	-10.5346
▁일부	-10.535
하실	-10.5354
되요	-10.5359
꼈	-10.5359
뭉	-10.536
ᄎ	-10.536
▁누군지	-10.536
▁소장	-10.536
▁스포츠	-10.5361
▁블랙코미디	-10.5361
▁헛웃음	-10.5361
▁역겨운	-10.5361
▁민폐	-10.5362
▁왠만한	-10.5362
▁웃었	-10.5362
심을	-10.5364
▁이것보단	-10.5365
▁한국영화의	-10.5369
미친	-10.5371
▁말아야	-10.5371
습니까	-10.5375
▁여태	-10.5375
였지	-10.5376
▁담긴	-10.5378
▁그것을	-10.5383
▁재난	-10.5386
아직도	-10.5387
▁데이	-10.5389
▁P	-10.5391
▁과장	-10.5391
▁치유	-10.5393
▁영원한	-10.5398
▁이번에	-10.5399
▁상관없	-10.54
꺼면	-10.5401
▁최소한	-10.5403
▁나오는데	-10.5403
천원	-10.5407
▁매력에	-10.5407
분들은	-10.5409
▁굴	-10.5409
아니면	-10.5414
▁잔잔하면서	-10.5418
▁길이	-10.542
▁사랑합니다	-10.5427
▁즐	-10.5429
주고싶	-10.5432
▁숙	-10.5433
▁영화예요	-10.5434
심이	-10.544
러스	-10.544
흑	-10.5443
셔야	-10.5448
▁땅	-10.5449
▁아동	-10.5452
달라	-10.5455
▁떨어져	-10.5458
▁반전에	-10.5458
▁보고싶어	-10.5462
▁진지한	-10.5468
▁볼려고	-10.5474
▁생각도	-10.5476
50	-10.5476
갖	-10.548
멍	-10.5481
평론가	-10.5485
갈수록	-10.5493
▁각자	-10.5495
회가	-10.5501
에비해	-10.5503
할수있는	-10.5505
재미있어요	-10.5505
무엇	-10.5506
▁시대의	-10.5507
선수	-10.5512
▁찍는	-10.5513
쯔	-10.5516
퀄	-10.5516
▁웰메이드	-10.5516
뱀	-10.5516
▁어두운	-10.5516
▁호기심	-10.5516
▁땜에	-10.5516
답게	-10.5517
▁죄송	-10.5518
▁교훈도	-10.5518
▁고뇌	-10.5518
▁극단적	-10.552
▁즐길	-10.552
나쁜	-10.5521
▁고독	-10.5522
사실	-10.5522
▁상징	-10.5523
▁장난하냐	-10.5523
▁무섭지	-10.5524
겠는데	-10.5525
▁나무	-10.5526
▁요새	-10.5527
▁무한	-10.5529
▁동네	-10.5529
▁여친	-10.5529
▁억지감동	-10.5531
▁ᅲᅲᅲᅲ	-10.5532
▁볼만합니다	-10.5533
▁첨부터	-10.5535
▁100%	-10.5541
▁옳	-10.5541
▁한개도	-10.5541
▁천국	-10.5543
▁적절한	-10.5545
는거지	-10.5545
▁마니	-10.5549
▁느낌이다	-10.5553
▁울면서	-10.5553
▁허무한	-10.5556
▁형제	-10.5559
▁알았음	-10.5559
▁아진짜	-10.556
엇는데	-10.556
특집	-10.556
▁드러	-10.5565
▁예술영화	-10.5567
▁뜬금없는	-10.5572
▁잠시	-10.5573
시간동안	-10.5573
안된다	-10.5578
▁시점	-10.5583
▁못보겠다	-10.5586
▁유치해서	-10.559
▁만들어주	-10.5591
스티	-10.5591
쁜	-10.5595
어리	-10.5595
▁반영	-10.5596
▁덤	-10.5597
▁귀여움	-10.56
▁나이가	-10.56
▁책으로	-10.5612
▁거기다	-10.5617
▁명작은	-10.5617
앞	-10.5622
▁잔잔하	-10.5626
▁제목을	-10.5631
->	-10.5632
찰	-10.5639
귀엽	-10.5651
볼까	-10.5651
▁다신	-10.5652
TV	-10.5652
코메디	-10.5653
것같아	-10.5654
꿀	-10.5655
al	-10.5655
선택	-10.5658
▁찾아서	-10.5662
▁전화	-10.5662
▁김정	-10.5665
였네요	-10.5666
▁벨	-10.5668
▁류승범	-10.5675
랴	-10.5675
덴	-10.5675
▁제시카	-10.5675
▁배급사	-10.5675
▁이도저도	-10.5675
▁풋풋한	-10.5676
연기를	-10.5678
처리	-10.5678
▁빛나는	-10.5679
▁신인	-10.5679
▁앉아	-10.568
▁라스트	-10.568
전혀	-10.5681
▁이해불가	-10.5682
▁생에	-10.5682
▁절망	-10.5683
답니다	-10.5684
▁전체적인	-10.5686
편집	-10.5688
▁개똥	-10.5689
▁좋앗	-10.5695
ᄏᄏᄏᄏᄏᄏᄏᄏᄏᄏᄏᄏ	-10.5696
▁기적	-10.5698
해놓고	-10.5698
긴다	-10.5698
▁싶었던	-10.5699
▁괜찮았음	-10.57
▁마지막엔	-10.57
했을까	-10.5703
시대에	-10.5704
▁애매	-10.5705
▁씹	-10.5706
아까워	-10.5707
▁안보는게	-10.5707
▁실감	-10.5709
므로	-10.571
▁추천하고	-10.5714
ᄏᄏᄏᄏᄏᄏ	-10.5723
하시고	-10.5723
▁초반부	-10.5725
▁드네요	-10.5726
▁부족함	-10.573
으시	-10.5739
▁널	-10.5739
당하는	-10.5742
▁별하나	-10.5743
보신분들	-10.5745
▁매미	-10.575
▁세월	-10.5753
▁소재의	-10.5755
뻔했다	-10.5757
▁남성	-10.5761
▁벗어나	-10.5766
보내	-10.5767
브리	-10.5781
▁밤에	-10.5783
▁않은데	-10.5787
▁진한	-10.579
▁잘만들었다	-10.5791
▁정신병	-10.5792
▁심한	-10.5793
▁ᄃᄃᄃ	-10.5794
▁배경으로	-10.5794
없구	-10.5801
에다가	-10.5803
너무너무	-10.5803
▁없는게	-10.5805
주시	-10.5806
▁벗어	-10.5808
▁내리	-10.5809
▁아무도	-10.5815
▁돼지	-10.5815
이어서	-10.5815
맹	-10.5816
▁탓	-10.5816
▁장면들이	-10.5818
▁재밋음	-10.582
▁백인	-10.5821
▁미국의	-10.5821
같아요	-10.5824
닫	-10.5835
쟈	-10.5836
▁놀랐다	-10.5836
닭	-10.5836
뢰	-10.5836
룰	-10.5836
렀	-10.5836
▁빨갱이	-10.5836
▁드디어	-10.5836
▁엑소	-10.5836
▁러브라인	-10.5836
▁보기싫	-10.5836
▁쓸쓸	-10.5837
▁흥미로웠	-10.5837
▁향수	-10.5842
▁그림체	-10.5842
▁장애인	-10.5843
게만드는	-10.5848
했을때	-10.5848
스럽지	-10.5848
▁대표	-10.5852
▁아만다	-10.5852
▁가족의	-10.5854
▁모르지만	-10.5858
▁놀란	-10.5858
▁소름돋	-10.5861
▁있었으면	-10.5863
▁다행이다	-10.5865
▁거지같은	-10.5865
모를	-10.5867
ck	-10.5872
▁의도가	-10.5872
▁액션을	-10.5873
▁나을듯	-10.5873
귀신	-10.5876
복수	-10.588
었지	-10.588
▁감독과	-10.5883
쩌네	-10.5887
▁것만	-10.5889
지루하고	-10.5893
없나	-10.5893
▁만났	-10.5894
▁그렇지만	-10.5895
▁단편	-10.59
타고	-10.59
▁빠져서	-10.5903
▁때리	-10.5904
▁액	-10.5906
터짐	-10.5909
다큐	-10.591
▁쩌는	-10.5911
▁여신	-10.5911
▁괜찮게	-10.5911
당시엔	-10.5914
가며	-10.5915
▁보고나니	-10.5916
▁편안	-10.5918
▁파리	-10.5933
효과	-10.5937
▁인류	-10.5938
▁소개	-10.5941
▁아프다	-10.5947
un	-10.595
▁있기	-10.5955
▁말아먹	-10.5955
▁옆에	-10.5961
▁괜찮아	-10.5969
소재와	-10.5972
▁내용에	-10.5975
▁유지	-10.5977
좋네요	-10.5977
▁ᄌ	-10.5979
▁괜찮고	-10.5983
▁14	-10.599
▁자기가	-10.599
▁것에	-10.599
짱짱	-10.5993
측	-10.5993
월드	-10.5996
▁시간에	-10.5996
살인	-10.5998
칙	-10.5999
윌	-10.6
쉐	-10.6
▁깊게	-10.6
뺏	-10.6
셧	-10.6
욤	-10.6
▁브루스	-10.6
▁이병헌	-10.6
▁화장실	-10.6
▁삭제	-10.6
괜찬	-10.6001
▁짜릿	-10.6002
▁배꼽	-10.6003
▁창피	-10.6007
▁만들었을까	-10.6009
아아아	-10.601
순위	-10.601
▁안본다	-10.601
꺼야	-10.6011
▁던져	-10.6011
▁재미있었습니다	-10.6011
▁드림	-10.6011
▁작품이라	-10.6015
▁진지하게	-10.6022
▁말하려는	-10.6023
역할	-10.6023
▁연기하는	-10.6024
물론	-10.6025
▁보았던	-10.6035
▁군인	-10.6039
▁깔끔한	-10.6039
▁줘야	-10.604
보임	-10.6042
▁한다는	-10.6045
하기엔	-10.6046
▁연출력이	-10.6048
▁되는데	-10.6051
▁인상적인	-10.6052
맘에	-10.6054
▁빠지는	-10.6056
▁인생은	-10.6056
놈들은	-10.6057
애들은	-10.6058
있으면	-10.6064
형제	-10.6064
▁공감도	-10.6068
▁쩔어	-10.6068
▁와닿는	-10.6072
▁주지	-10.6079
▁작가의	-10.6084
▁선사	-10.6093
것같네요	-10.6093
▁그리워	-10.6095
편까지	-10.6096
으신	-10.6101
▁잘한다	-10.6102
뭐지	-10.6107
당신	-10.6107
▁끝나서	-10.6109
▁미스	-10.6111
곳이	-10.6111
해줄	-10.6122
자기	-10.6125
라인	-10.6127
▁시키	-10.6133
▁대사들	-10.6136
▁생기	-10.6146
외엔	-10.615
▁도시	-10.6157
즐	-10.616
재미있다	-10.6162
덩	-10.6166
▁EBS	-10.6167
▁컴퓨터	-10.6167
홈	-10.6167
ᅢ	-10.6167
▁언젠가	-10.6167
쯧쯧	-10.6167
▁하이틴	-10.6167
▁무거운	-10.6167
▁박보영	-10.6167
차승원	-10.6167
▁낭만	-10.6169
▁비행기	-10.6169
스코	-10.6169
▁생각해보게	-10.6171
보네요	-10.6171
▁분량	-10.6172
▁동영상	-10.6173
▁은근	-10.6174
▁살았	-10.6178
▁개콘	-10.6182
합시다	-10.6183
밖	-10.6183
90	-10.619
▁가족애	-10.619
볼수	-10.6192
▁조금은	-10.6195
▁극중	-10.6196
▁재밌었던	-10.62
생각을	-10.6208
▁탄탄	-10.6208
▁앞서	-10.6209
돈주고	-10.6211
▁요소가	-10.6212
▁내돈	-10.6216
▁사랑하고	-10.6219
거라고	-10.6222
▁사랑스럽다	-10.6225
▁ᄡ	-10.623
▁빠졌	-10.6232
였다면	-10.6239
▁들어간	-10.6244
맞은	-10.6244
▁살다	-10.6245
▁뭐하는	-10.6252
▁뜬금없이	-10.6253
▁보라고	-10.6254
▁정도가	-10.626
스릴	-10.6267
▁있겠	-10.6267
▁것들이	-10.627
▁땀	-10.6273
년대에	-10.6274
후반	-10.6275
▁확실	-10.6276
▁않았던	-10.628
해줘서	-10.6286
▁졸았	-10.6295
▁캐릭터들이	-10.63
더군	-10.63
▁하나님	-10.6302
공주	-10.6302
작이라	-10.6309
▁드라마입니다	-10.6309
▁만드네	-10.6311
시키고	-10.6315
쟁	-10.632
▁깎	-10.6322
줄알았다	-10.6324
▁빼곤	-10.6324
주제	-10.6328
광구	-10.633
▁넘어가	-10.6331
▁품	-10.6332
▁쪼	-10.6334
。	-10.6336
헉	-10.6336
▁흡입력	-10.6336
덮	-10.6336
듦	-10.6336
뤄	-10.6336
쉴	-10.6336
툭	-10.6336
곽	-10.6336
셜	-10.6336
▁박중훈	-10.6336
▁신하균	-10.6336
▁베드신	-10.6336
▁라이언	-10.6336
▁거부감	-10.6337
▁둘째치고	-10.6337
▁예측	-10.6338
▁도둑	-10.6339
▁잃은	-10.6339
▁2012	-10.6339
▁부탁	-10.634
▁고딩	-10.634
▁나올때	-10.6342
▁말그대로	-10.6343
▁흘러가는	-10.6351
▁ᄒᄃᄃ	-10.6352
▁실망스럽	-10.6353
결국	-10.6353
▁대학	-10.6354
▁미안하다	-10.6355
▁누나	-10.6358
으러	-10.636
▁버리고	-10.6363
▁이거보다	-10.6366
▁답답하다	-10.6368
보고나서	-10.6369
▁나오네	-10.6369
▁영원	-10.6372
하나하나가	-10.6373
▁챙겨	-10.6375
▁언제까지	-10.6379
여배우	-10.638
▁순수하고	-10.6385
▁첨이다	-10.6386
▁숨은	-10.639
최고다	-10.6396
▁신선함	-10.6398
▁맞나	-10.64
▁불쌍하	-10.6405
▁따뜻	-10.6409
▁가히	-10.641
▁뭐임	-10.6412
▁날아	-10.6413
▁기대하지	-10.6415
▁시작해서	-10.6419
실력	-10.6422
▁뛰어넘는	-10.6425
▁보겠다	-10.6426
중국	-10.6426
▁미국식	-10.6435
▁나와야	-10.6436
▁요즘은	-10.6436
겠어	-10.6438
지루해	-10.6441
장난치	-10.6442
▁몰아	-10.6443
▁소장하고	-10.6443
▁버려	-10.6444
▁화끈	-10.6445
▁절로	-10.6446
▁짜증나게	-10.6446
하겠습니다	-10.6448
▁및	-10.645
▁씁쓸하	-10.6458
▁조연들	-10.6469
극히	-10.6472
▁봉	-10.6476
좋아하	-10.6484
▁전문	-10.6484
▁다시보기	-10.6491
▁뭐고	-10.6491
se	-10.6505
갠	-10.6506
맞아	-10.6507
맞음	-10.6508
▁같았다	-10.6508
램	-10.6508
렐	-10.6509
븐	-10.6509
▁아름다워	-10.6509
킴	-10.6509
▁임창정	-10.6509
▁명복을	-10.6509
▁비호감	-10.6509
▁칭찬	-10.6509
▁워낙	-10.6509
▁아쉬울	-10.6509
▁감명깊게	-10.6509
▁향연	-10.6509
▁어설프다	-10.651
▁부활	-10.6514
▁따름	-10.6515
▁엄청나게	-10.6515
▁개그맨	-10.6515
▁낫겠다	-10.6516
경찰	-10.6517
틀리	-10.6518
▁마시길	-10.652
▁혼란	-10.652
▁좋겠습니다	-10.652
것인가	-10.6522
▁가시	-10.6523
립니다	-10.6525
▁재미있었음	-10.6533
▁러브	-10.6536
▁잃었	-10.6542
ne	-10.6544
▁마음속	-10.6545
▁멋지게	-10.6551
▁재미없었	-10.6563
ᄏᄏᄏᄏᄏᄏᄏ	-10.6564
도좋고	-10.6568
▁캐릭터를	-10.6569
▁극장에	-10.657
▁했더니	-10.6586
▁지났	-10.6589
▁기대이하	-10.659
▁맡은	-10.6591
▁여인	-10.6595
하고싶다	-10.6597
못함	-10.6598
인걸	-10.6608
▁연상	-10.6609
▁활	-10.6609
▁만들려	-10.6614
줘야지	-10.6618
어야지	-10.6619
▁오지	-10.6621
▁새벽	-10.6625
▁여배우들	-10.6627
▁코믹영화	-10.6631
▁웃는	-10.6632
▁최고네요	-10.6636
▁볼것	-10.6642
있네요	-10.6644
▁역사에	-10.6645
본적	-10.6648
▁말고는	-10.6653
▁어디로	-10.6656
▁영상도	-10.6661
까봐	-10.6667
▁연기력에	-10.6668
▁무대	-10.6669
겼다	-10.6672
▁입장	-10.6674
▁당연	-10.6674
▁의문이	-10.6676
켓	-10.6684
▁디카프리오	-10.6684
▁소름끼치는	-10.6684
▁스타워즈	-10.6684
맺	-10.6684
팩	-10.6684
▁왕조현	-10.6684
밧	-10.6684
▁도데체	-10.6684
▁스타뎀	-10.6685
▁무간도	-10.6685
▁오글오글	-10.6685
▁나타나	-10.6687
▁격투	-10.6687
▁그려낸	-10.6688
▁묘한	-10.6688
▁로빈	-10.669
▁시도는	-10.6691
▁중학생	-10.6691
싫	-10.6692
▁철저	-10.6692
뉴	-10.6693
프로그램	-10.6694
핵	-10.6698
▁어우	-10.6698
▁추천해	-10.6698
▁그들이	-10.6699
▁새끼	-10.67
▁재밌게봤어요	-10.67
예술	-10.6701
▁꼭보세요	-10.6702
▁마리	-10.6703
▁귀여워요	-10.6705
▁사람들을	-10.6706
▁재미있었는데	-10.6712
▁소통	-10.6712
▁다운받아서	-10.6715
▁당신이	-10.6719
▁부산	-10.672
▁어이없음	-10.6721
▁케미	-10.6724
▁독특하고	-10.6725
점부터	-10.6725
▁어이없다	-10.6725
점만점에	-10.6726
잭슨	-10.6726
▁살아야	-10.6729
▁역겹다	-10.6732
▁끝도	-10.6734
▁정도는	-10.6735
▁쏘	-10.6739
▁감동적이네요	-10.6746
▁있으나	-10.6746
▁말투	-10.6747
▁넘넘	-10.6751
▁원하는	-10.6754
▁형편없는	-10.6757
▁H	-10.6758
▁한번더	-10.6758
▁웃기는	-10.6759
시킬	-10.676
이었는데	-10.6761
자와	-10.6761
▁분장	-10.677
▁E	-10.6771
▁있긴	-10.6777
▁망할	-10.6778
▁이딴영화	-10.6783
는것을	-10.6783
ed	-10.6784
▁뭐라고	-10.6787
▁한시간	-10.6794
▁구분	-10.6802
▁빈약	-10.6803
▁속이	-10.6808
텐	-10.6809
▁읽는	-10.681
거같아	-10.6811
▁상어	-10.6811
▁살리지	-10.6812
▁귀여	-10.6812
~~~~~	-10.6813
▁싶어서	-10.6819
▁충분한	-10.6819
▁작위적	-10.6819
▁있었고	-10.6827
▁막판	-10.6827
이랄까	-10.6827
안하고	-10.6828
▁정체	-10.683
았으면	-10.6836
▁부담	-10.6839
▁두시간	-10.6842
▁최악의영화	-10.685
▁J	-10.6853
▁힘을	-10.6862
풋	-10.6862
버렸네	-10.6862
▁뒤죽박죽	-10.6863
▁비쥬얼	-10.6863
▁시종일관	-10.6863
▁알파치노	-10.6863
쌓	-10.6863
혔	-10.6863
▁아기자기	-10.6863
▁여러모로	-10.6863
▁일주일	-10.6863
▁미스캐스팅	-10.6863
▁킬러	-10.6863
▁총체적	-10.6863
▁스파이	-10.6864
com	-10.6864
▁케빈	-10.6865
▁잠을	-10.6867
▁살렸다	-10.6871
▁참나	-10.6871
땡	-10.6876
빼곤	-10.6879
시청률	-10.6879
그나마	-10.688
판타지	-10.688
▁가짜	-10.6881
우리나라	-10.6881
▁최후	-10.6884
▁이별	-10.6885
나왔으면	-10.6887
▁글을	-10.6891
▁미스터리	-10.6892
▁작화	-10.6893
허무	-10.6893
▁감명	-10.6895
▁&	-10.6896
▁입장에서	-10.6897
▁최고라고	-10.6903
주기도	-10.6905
▁말인가	-10.6906
▁안나온다	-10.6907
▁공유	-10.691
여주인공	-10.6913
▁시기	-10.6918
▁이제는	-10.6918
미화	-10.6919
었구나	-10.6922
▁아이들에게	-10.6925
지루하다	-10.6927
▁타란티노	-10.6931
겨울	-10.6932
▁않으	-10.6933
느냐	-10.6935
▁말밖에	-10.694
이후로	-10.694
▁방해	-10.6944
▁개봉당시	-10.6945
▁다시금	-10.6948
▁건질	-10.6951
▁삶과	-10.6953
▁지키	-10.6963
▁전편보다	-10.6963
거에요	-10.6967
성우	-10.6968
▁되야	-10.6975
▁싫어하는	-10.6975
▁슬픈영화	-10.6979
~~~~~~	-10.698
▁알게되	-10.6989
▁영화인줄	-10.6992
▁것인가	-10.6993
▁됐다	-10.6995
▁만화영화	-10.6997
▁소름돋는	-10.6998
기술	-10.7003
▁이상하다	-10.7003
외에는	-10.7007
▁흉내	-10.7008
▁범죄자	-10.7008
점주기도	-10.7012
▁뉴	-10.7013
▁프랑스영화	-10.702
▁안에	-10.7021
비추	-10.703
바로	-10.7036
얄	-10.7044
됫	-10.7044
렛	-10.7044
퉤	-10.7044
▁아마추어	-10.7044
깁	-10.7044
▁펼쳐	-10.7044
▁닥치고	-10.7045
▁바탕으로	-10.7045
▁혁명	-10.7045
▁더러워	-10.7047
▁난해한	-10.7048
▁돈아까워	-10.7049
▁억지스럽고	-10.7049
▁직업	-10.7049
▁오래전에	-10.705
▁말씀	-10.7055
▁충분하다	-10.7058
▁속았다	-10.7059
▁보여줄	-10.7061
▁모욕	-10.7063
걸린	-10.7066
탓	-10.7067
▁만들다	-10.7068
▁옛날영화	-10.7068
▁다른영화	-10.7071
어떤	-10.7076
였구나	-10.7076
sh	-10.7077
tv	-10.7078
▁역사상	-10.7079
▁개나	-10.7081
▁믿음	-10.7083
▁아니잖아	-10.7085
▁사회적	-10.7085
▁미녀	-10.7087
▁산만하고	-10.7088
▁사랑스럽고	-10.7089
▁완벽하다	-10.7091
ᄃᄃᄃ	-10.7093
각본	-10.7094
▁당장	-10.7096
하하하하	-10.71
▁우선	-10.7112
▁학생	-10.7112
▁받았다	-10.7114
▁충격적인	-10.7118
▁모르겠네	-10.7123
스틴	-10.7125
보러	-10.7126
▁자고	-10.7129
▁단점	-10.7134
▁위트	-10.7135
▁질질끌	-10.7136
▁불과	-10.7137
이었어요	-10.7138
▁준비	-10.7139
▁들게	-10.7139
▁당황	-10.714
▁듣기	-10.7144
▁오글거리는	-10.7146
▁철학적	-10.7146
▁R	-10.7153
▁ᄒᄒᄒᄒ	-10.7156
▁그런거	-10.7162
▁별로였다	-10.7162
ce	-10.7167
▁스릴러물	-10.7173
인들의	-10.7173
▁보아도	-10.7177
▁살아있는	-10.7179
!!!!!!!!	-10.7179
▁재미없네요	-10.718
지않게	-10.7183
▁비교해	-10.7185
▁세상에서	-10.7187
싶은데	-10.7193
am	-10.7197
부르	-10.7209
해야하나	-10.7212
▁욕먹	-10.7213
▁긴장감을	-10.7222
▁노인	-10.7222
수밖에	-10.7224
알고	-10.7227
둑	-10.7227
▁미소가	-10.7228
▁빕니다	-10.723
덧	-10.723
캡	-10.723
▁섬세한	-10.723
▁강동원	-10.723
▁김수현	-10.723
▁한효주	-10.723
▁보지마셈	-10.7231
▁엽기	-10.7231
▁픽사	-10.7233
▁섬세하	-10.7233
▁풀어낸	-10.7233
되길	-10.7235
▁감동적이에요	-10.7236
▁좋으나	-10.7238
▁에효	-10.7239
▁승부	-10.7243
▁로망	-10.7243
본거	-10.7246
▁뻔한스토리	-10.725
▁늙어	-10.7251
▁팬들	-10.7252
▁울었어요	-10.7252
▁못하겠다	-10.7253
▁장난하나	-10.7254
▁보는것	-10.7256
▁하하	-10.7258
▁조낸	-10.7258
▁흥분	-10.726
▁사람에게	-10.726
얼마나	-10.7261
떼	-10.7262
댓글	-10.7262
▁조금만	-10.7263
▁가야	-10.7264
▁보고있는데	-10.7266
샘	-10.7268
살때	-10.7269
줍니다	-10.7269
▁조아	-10.7275
▁고마	-10.7286
있었는데	-10.7287
속으로	-10.7288
형사	-10.7288
▁movie	-10.7293
▁잼있네요	-10.7302
▁뭐여	-10.7308
하더니	-10.7312
▁만들어라	-10.7313
자꾸	-10.7315
판에	-10.7315
영활	-10.7315
▁이야	-10.7317
▁좋아하지만	-10.7318
▁올라가	-10.732
▁왔습니다	-10.7323
▁낮은지	-10.7332
우드	-10.7333
▁어쩌다	-10.7339
투성이	-10.734
ost	-10.7341
▁끝을	-10.7342
▁연기잘하	-10.7346
▁하다니	-10.7346
믿고	-10.7351
▁대부	-10.7352
그저	-10.7353
▁똑같이	-10.7365
▁나머지는	-10.7365
구려	-10.738
▁이것보다	-10.7382
하는듯	-10.7384
재밋다	-10.7385
아까운영화	-10.7387
▁느껴지지	-10.7388
▁알리	-10.739
▁잘생겼	-10.7394
야말로	-10.7402
▁후하게	-10.7403
닮	-10.7405
▁하드	-10.7406
▁아무튼	-10.7408
그대로	-10.7409
▁실사	-10.741
싹	-10.7412
멋잇	-10.7414
▁미쳐	-10.7416
▁캐릭	-10.7417
돌려	-10.7418
▁유치찬란	-10.7418
펜	-10.7418
▁Good	-10.7418
▁엔딩크레딧	-10.7418
쏴	-10.7418
퀸	-10.7418
▁마찬가지	-10.7418
오랫동안	-10.7418
▁클래식	-10.7418
솜	-10.7418
▁납득	-10.7418
▁원숭이	-10.7418
▁섬뜩	-10.7418
어울림	-10.7419
생겨서	-10.7419
▁떡밥	-10.7419
▁두고두고	-10.7419
▁그럴싸	-10.742
▁레옹	-10.7421
행위	-10.7421
▁극혐	-10.7421
▁민족	-10.7422
▁쉬운	-10.7425
▁방향	-10.7425
▁시험	-10.743
ic	-10.7432
▁모자라	-10.7433
▁중년	-10.7435
긴했지만	-10.7439
▁고문	-10.7439
재밌고	-10.744
▁한심하다	-10.7441
보려고	-10.7444
판을	-10.7445
▁매번	-10.7449
▁남아있	-10.7451
▁비록	-10.7451
제일	-10.7453
▁당신의	-10.7454
폴	-10.7456
▁했을까	-10.7456
로맨스	-10.7459
▁주려	-10.7462
뒤에	-10.7462
▁망쳐놓	-10.7467
좀비	-10.747
▁우린	-10.7472
저런	-10.7474
▁나열	-10.7474
▁현실은	-10.7475
▁아까워서	-10.7477
▁화질	-10.7479
▁몬	-10.7483
점이나	-10.7484
▁부자	-10.7484
▁무섭게	-10.7492
거보고	-10.7497
▁소유	-10.7497
▁안나오는	-10.7499
▁관심이	-10.75
▁귀여웠	-10.75
▁쿨	-10.7502
▁아이유	-10.7502
버린다	-10.7506
▁행복하게	-10.7508
그런데	-10.7514
▁나음	-10.7516
ra	-10.752
진행	-10.7522
▁티비로	-10.7527
▁세월이	-10.7531
▁한가지	-10.7534
▁천사	-10.7535
▁잔인함	-10.7537
▁심하다	-10.7541
is	-10.7543
▁넘어서	-10.7548
났음	-10.7549
^^;	-10.7552
▁is	-10.7558
▁이해도	-10.7561
▁뻔하다	-10.7563
누님	-10.7571
나올때	-10.7575
소년	-10.7579
망작	-10.758
▁장진	-10.7587
▁영화라서	-10.7588
것인지	-10.759
▁예수	-10.7593
실화	-10.7595
▁남는게	-10.7597
▁웃었다	-10.7599
▁맞다	-10.7608
멈	-10.761
▁즐거움	-10.7611
숀	-10.7611
츄	-10.7611
팽	-10.7611
핫	-10.7611
왈	-10.7611
▁감성팔이	-10.7611
드려요	-10.7611
▁온갖	-10.7612
어쩌	-10.7614
us	-10.7614
▁잔잔함	-10.7615
즐겁	-10.7616
▁돌아보게	-10.7616
페이스	-10.7617
간만에	-10.7619
▁재앙	-10.7619
▁될수	-10.762
▁아쉬워요	-10.7622
명성에	-10.7622
▁인생영화	-10.7623
▁세계관	-10.7626
▁권력	-10.7626
보려	-10.7628
▁의도는	-10.763
분짜리	-10.763
▁진부하	-10.763
▁괜찮았던	-10.7631
▁지옥	-10.7633
만족	-10.7636
▁자연스럽게	-10.7639
죽이고	-10.7642
방에서	-10.7644
▁재방	-10.7644
▁이만한	-10.7648
▁싶습니다	-10.7649
▁영화라지만	-10.765
덕분에	-10.7656
낭비	-10.7656
내려	-10.7659
결혼	-10.7662
▁보게되는	-10.7664
▁언어	-10.7665
▁마시	-10.7665
병맛	-10.7665
▁조잡한	-10.7669
▁마냥	-10.7673
▁눈으로	-10.7681
▁커서	-10.7683
줘요	-10.7683
보지마라	-10.7684
▁스파이더맨	-10.7691
▁이거보단	-10.7691
달라고	-10.7693
▁만들어졌	-10.7694
충격	-10.7698
▁엘리	-10.7698
▁학생들	-10.7699
로서는	-10.7704
▁생각만	-10.7705
싶네요	-10.7705
▁무서움	-10.7713
▁믿어	-10.7714
하길래	-10.7715
▁구성도	-10.7717
지않는다	-10.7719
스턴	-10.7719
▁삐	-10.772
▁깜	-10.7723
▁가르	-10.7724
국민	-10.7729
▁일반인	-10.7735
▁찾기	-10.7737
▁끝날	-10.7738
될까	-10.7741
ha	-10.7746
▁원작과	-10.7748
▁캐리	-10.7751
현실적	-10.7751
▁살아남	-10.7755
하러	-10.7764
▁완성	-10.7765
▁또보고	-10.7768
▁짤	-10.7768
결말이	-10.7776
il	-10.7777
▁배우분들	-10.7781
질질	-10.7782
하더라도	-10.7784
▁별거	-10.7786
삼류	-10.7787
치기	-10.7796
륜	-10.7802
ᅩ	-10.7806
감명깊	-10.7806
낯	-10.7806
☆	-10.7807
렴	-10.7807
뜸	-10.7807
▁안타까움	-10.7807
띠	-10.7807
잣	-10.7807
짙	-10.7807
▁김혜수	-10.7807
▁머릿속	-10.7807
▁피아노	-10.7807
▁기발한	-10.7807
▁챙겨보	-10.7807
▁ᄌᄂ	-10.7807
▁니콜라스	-10.7808
▁치밀하	-10.7809
봣어요	-10.7809
▁로맨틱코미디	-10.7809
▁파격적	-10.781
▁4.44	-10.781
▁아니라면	-10.781
▁방황	-10.7811
▁자랑	-10.782
▁태국	-10.7821
▁남기는	-10.7822
▁느껴질	-10.7823
▁개꿀잼	-10.7823
▁후반부에	-10.7824
졌음	-10.7826
리스트	-10.7831
▁들어서	-10.7832
▁전기	-10.7832
보던	-10.7832
▁제작비가	-10.7834
▁하기엔	-10.7842
▁한동안	-10.7849
▁많네	-10.7851
▁영화보다가	-10.7857
▁느껴졌다	-10.7857
▁채워	-10.7858
▁오그라들	-10.7858
쩝	-10.786
멀	-10.786
애니메이션	-10.7861
왠	-10.7869
▁못봐주겠	-10.7875
주었다	-10.7879
바닥	-10.788
▁필요한가	-10.7881
없었	-10.7881
구역	-10.7881
마저도	-10.7882
검사	-10.7883
▁외국인	-10.7886
▁웃겼다	-10.7888
▁느끼고	-10.7889
▁있었음	-10.7891
피디	-10.7892
수작	-10.7892
할수없는	-10.7894
▁나왔던	-10.79
싫다	-10.7903
▁짱구	-10.7906
▁뛰어넘	-10.7908
▁신화	-10.7908
▁잼있는	-10.7918
▁발음	-10.7928
▁평을	-10.7931
좋겠	-10.7931
▁훌륭하	-10.7937
▁없던	-10.7939
▁짜증났	-10.794
더라고요	-10.7943
떨어지	-10.7948
지마세요	-10.7949
보길	-10.7953
▁알려주는	-10.7955
부리	-10.7958
▁바닥	-10.7959
▁나오기	-10.796
▁자연스럽	-10.7963
놈은	-10.7967
▁낚인	-10.7968
▁두명	-10.797
▁눈치	-10.7974
제국	-10.7975
호러	-10.798
▁알아야	-10.7983
분정도	-10.7983
▁관객이	-10.7984
누구	-10.7988
끝나고	-10.7996
좋은데	-10.8001
▁킬링	-10.8006
팝	-10.8007
쭈	-10.8007
▁뒤늦게	-10.8007
▁어정쩡	-10.8007
꽁	-10.8007
랏	-10.8007
▁애초에	-10.8007
▁데이빗	-10.8007
▁오그라드는	-10.8007
▁바란다	-10.8007
▁상큼	-10.8008
▁전성기	-10.8009
▁자연스러운	-10.8011
동화	-10.8011
▁짱이다	-10.8011
억지스럽	-10.8012
흑흑	-10.8013
vs	-10.8013
▁무엇이	-10.8013
▁프레	-10.8016
답다	-10.8017
▁에라이	-10.8019
▁감동적입니다	-10.8021
▁고증	-10.8024
ᄀᄀ	-10.8024
▁재밋는	-10.8025
만원	-10.8028
▁처음본다	-10.8029
▁예고	-10.803
▁봐주	-10.8036
he	-10.8039
▁웃음을	-10.804
▁의미있는	-10.8043
학년때	-10.8048
▁보고싶은데	-10.805
▁담고	-10.805
▁괜찮네요	-10.8051
▁도와	-10.8052
팬이	-10.8054
▁또라이	-10.8055
▁안나옴	-10.8059
릴때	-10.8062
학원	-10.8065
▁신고	-10.8067
예쁘	-10.8073
▁공주	-10.8073
▁모든것이	-10.8075
id	-10.8081
하였다	-10.8083
▁화끈한	-10.8087
▁역작	-10.809
▁밋밋한	-10.8091
올려	-10.8094
▁막상	-10.8097
▁빠져들게	-10.8099
빠짐	-10.8099
레드	-10.8101
예뻐	-10.8104
것들이	-10.8106
▁답답해	-10.8116
▁부족하고	-10.8122
했어도	-10.8128
▁본격	-10.8131
깐	-10.8137
치면	-10.814
▁안되네	-10.8141
안되고	-10.8155
할려고	-10.8157
▁글고	-10.8161
▁전율	-10.8171
▁실망이다	-10.8177
ch	-10.8178
▁폼	-10.8178
▁잠들	-10.8179
하지않고	-10.8179
▁열라	-10.818
올린	-10.8182
▁무협영화	-10.8182
▁니들이	-10.8187
▁대박이다	-10.8192
하나요	-10.8196
▁제목에	-10.8196
▁독립	-10.8196
▁아무나	-10.8204
뎀	-10.821
뚫	-10.8211
▁고등학생	-10.8211
▁런닝타임	-10.8211
▁크레딧	-10.8211
뻑	-10.8211
좆	-10.8211
쩍	-10.8211
▁세련된	-10.8211
▁엄정화	-10.8211
▁짬뽕	-10.8211
아카데미	-10.8211
▁스페인	-10.8211
▁완젼	-10.8211
▁늙은	-10.8213
▁멋짐	-10.8215
▁닮았	-10.8216
▁찬양	-10.8217
▁억지스런	-10.8218
▁사이코	-10.822
▁먹칠	-10.8221
▁부인	-10.8225
▁환장	-10.8226
▁니가	-10.8227
어른	-10.8228
▁정리	-10.8229
프라	-10.8229
▁여기에	-10.8229
▁빠질	-10.823
▁복선	-10.8232
▁재밌었습니다	-10.8236
▁채우	-10.8239
▁재밋엇	-10.8239
▁멋있고	-10.8244
▁불쌍해	-10.8244
▁느낀다	-10.8249
남주	-10.825
▁당연한	-10.825
▁받아야	-10.8256
▁주온	-10.8258
▁절대로	-10.8258
▁있겠지만	-10.8261
▁모방	-10.8262
두번	-10.8266
▁오해	-10.8267
▁않습니다	-10.8271
▁성인이	-10.8271
▁웃겨서	-10.8278
▁멋져	-10.8279
▁얘기를	-10.8279
▁한사람	-10.828
첫	-10.8282
옛날	-10.8283
▁제대로된	-10.8285
▁다가오	-10.8286
초딩	-10.8287
내리	-10.8288
에휴	-10.8289
철학	-10.8291
▁의해	-10.8292
하든	-10.8293
▁편하게	-10.8293
▁영상은	-10.8299
▁낮네요	-10.8299
▁정체성	-10.8301
▁니네	-10.8301
ter	-10.8309
▁못만들	-10.8316
▁안보면	-10.8319
▁현실적이고	-10.8319
▁본능	-10.8329
▁무식	-10.8329
재밋음	-10.8331
▁커버	-10.8331
▁감독에게	-10.8338
▁높이	-10.834
▁17	-10.8346
거든	-10.8347
▁상업영화	-10.8348
▁꿈과	-10.8351
▁아까웠	-10.8363
ri	-10.8366
할정도로	-10.8366
▁높지	-10.837
▁그이상	-10.8372
▁안가는	-10.8377
작가님	-10.8394
▁역사적	-10.84
la	-10.8408
oo	-10.8409
하기에는	-10.8414
어설프	-10.8415
▁일깨워	-10.8417
냄	-10.8417
▁추가	-10.8419
▁제작자	-10.8419
썰	-10.8419
▁포켓몬	-10.8419
▁호불호가	-10.8419
뜯	-10.8419
****	-10.8419
▁애니매이션	-10.8419
▁한석규	-10.8419
믄	-10.8419
▁설경구	-10.8419
▁나루토	-10.8419
▁원피스	-10.8419
▁드니로	-10.8419
▁후속편	-10.8419
마음이	-10.842
▁귀찮	-10.8421
▁호흡	-10.8421
어지럽	-10.8422
▁가슴아프	-10.8423
▁흘렸	-10.8423
차원	-10.8424
▁안감	-10.8426
▁생존	-10.8426
크리	-10.8426
▁브레	-10.8427
▁간직	-10.843
▁시골	-10.8432
▁힘들어	-10.8434
▁개인적인	-10.8435
▁초반엔	-10.8436
▁시청자들	-10.8438
▁얻어	-10.8439
▁거짓	-10.8443
▁설정은	-10.8444
▁심장이	-10.8445
▁두개	-10.8446
▁되었습니다	-10.8448
▁가족과	-10.8449
것같음	-10.8451
▁감정선	-10.8452
▁성형	-10.8455
▁극본	-10.8457
▁마블	-10.8459
▁이런식으로	-10.8459
▁스포	-10.8461
▁최고에요	-10.8462
▁미학	-10.8463
▁봐줄만	-10.8463
▁시체	-10.8464
져야	-10.8469
▁않아요	-10.8476
▁멜로영화	-10.8479
??????	-10.8483
▁물어	-10.8483
회부터	-10.8484
▁쓰러	-10.8485
같은데	-10.8486
▁갖게	-10.849
옷	-10.8495
▁바라는	-10.8496
▁16	-10.8496
▁점에서	-10.8499
촬영	-10.85
▁재수없	-10.85
갑자기	-10.8501
암튼	-10.8502
조아	-10.8505
▁최고최고	-10.8507
보지마세요	-10.8508
▁기대했던	-10.8509
▁상처를	-10.851
▁만들었으면	-10.851
폭력	-10.8513
해가는	-10.8517
▁내취향	-10.8526
▁미스테리	-10.8529
눈물이	-10.8539
▁첨으로	-10.8539
끝내	-10.854
아직	-10.8543
좋아하는데	-10.8546
남긴다	-10.8549
▁과정이	-10.8553
▁남아있는	-10.8553
▁흔하	-10.8556
▁해외	-10.856
있었던	-10.8561
볼때	-10.8564
졌으면	-10.8572
▁즐겨	-10.8574
▁정부	-10.8578
바른	-10.8578
점주고	-10.8581
▁나오네요	-10.8584
ᅲᅲᅲᅲᅲ	-10.8589
나봐요	-10.8589
▁주인공들이	-10.8595
룬	-10.8613
하려면	-10.8614
들끼리	-10.8615
▁아이를	-10.8616
▁허허	-10.8626
구먼	-10.8627
랍	-10.8628
댓	-10.863
콤	-10.863
랍니다	-10.8631
봇	-10.8631
ᄐ	-10.8632
▁듭니다	-10.8632
▁박찬욱	-10.8632
▁에드워드	-10.8632
▁영웅본색	-10.8632
▁테이큰	-10.8632
쇄	-10.8632
숲	-10.8632
턱	-10.8632
▁2.22	-10.8632
▁그냥저냥	-10.8632
▁아이언맨	-10.8632
▁팝콘	-10.8632
▁정주행	-10.8632
▁김희선	-10.8632
▁어딘가	-10.8632
▁흥미롭게	-10.8632
▁이하도	-10.8636
▁슈퍼맨	-10.8636
▁공룡	-10.8637
▁새삼	-10.8638
▁경악	-10.8646
▁반갑	-10.8647
▁취향이	-10.8651
▁긴장감과	-10.8651
▁액션물	-10.8651
▁히어로물	-10.8653
▁거기서	-10.8653
▁동화같은	-10.8654
▁심각하게	-10.8654
▁감동적이었다	-10.8655
보고싶은	-10.8655
▁게스트	-10.8657
▁출연자	-10.8661
▁좋더라	-10.8661
시키지	-10.8664
됬다	-10.8664
▁광기	-10.8664
▁웃기기	-10.8665
▁사람과	-10.8665
▁귀여워서	-10.8665
있다면	-10.8667
▁회상	-10.8668
▁강추합니다	-10.8669
▁만들었냐	-10.8672
▁러닝타임이	-10.8674
▁흉내내	-10.8675
뭔지	-10.8678
el	-10.868
▁있어보이	-10.8682
▁기대된다	-10.8683
▁어린아이	-10.8683
▁봐야한다	-10.8683
주고싶은	-10.8687
▁가능성	-10.8689
▁전율이	-10.869
▁않으면	-10.8693
▁대역	-10.8693
▁몰입하게	-10.8695
▁허구	-10.8695
잇엇	-10.8695
▁포함	-10.8698
▁편인데	-10.8699
앞에	-10.8702
그녀	-10.8703
한국영화	-10.8704
▁우리에게	-10.8707
높아	-10.8709
▁명배우	-10.8713
분들께	-10.8714
스러웠다	-10.8715
▁연주	-10.8717
깜	-10.8719
무서운	-10.872
탐	-10.872
오랜만에	-10.8722
전체	-10.8731
▁안봐서	-10.8731
▁거기	-10.8737
▁진부하다	-10.874
:)	-10.8748
▁일본에서	-10.8749
▁머야	-10.8751
었을텐데	-10.8762
▁다름	-10.8762
아닌데	-10.8766
공부	-10.8767
▁믿는	-10.8769
ma	-10.8773
▁만들어야	-10.8776
입장	-10.8786
im	-10.8786
▁못했던	-10.8797
남기	-10.8799
▁무기	-10.8804
웃긴	-10.8812
▁이딴게	-10.8819
▁망쳐	-10.8823
순수	-10.8825
▁싶다면	-10.8827
70	-10.8828
▁오랜	-10.8829
같애	-10.8831
때문	-10.8833
미치	-10.8834
말도안되	-10.8838
잘못	-10.8848
보기엔	-10.8849
넷	-10.8849
늬	-10.8849
Y	-10.8849
ᄊ	-10.8849
▁군더더기	-10.8849
▁점수준것들	-10.8849
룸	-10.8849
▁송승헌	-10.8849
릅	-10.8849
즉	-10.8849
▁손예진	-10.8849
▁어차피	-10.8849
▁권상우	-10.8849
▁오페라	-10.8849
▁외로움	-10.8849
▁흠잡을	-10.8849
▁왕가위	-10.8849
▁보낸다	-10.8849
점준것중	-10.885
▁심리묘사	-10.885
▁엠마	-10.885
▁어설프게	-10.885
▁반감	-10.8851
▁색채	-10.8852
땜시	-10.8853
▁웃으며	-10.8856
▁재탕	-10.8858
▁반응	-10.8862
▁멋져요	-10.8866
▁의한	-10.8869
▁아깝습니다	-10.887
하겠지만	-10.8871
▁웃다가	-10.8872
▁상식	-10.8872
▁힘들었다	-10.8873
▁뜬금없	-10.8879
▁느껴졌	-10.8879
낫다	-10.8881
▁결국엔	-10.8885
드리고	-10.8886
년간	-10.889
▁레오	-10.8895
▁이딴거	-10.8899
잼씀	-10.8899
▁말았다	-10.8903
▁공연	-10.8903
▁피식	-10.891
▁전설이	-10.8911
▁인연	-10.8911
▁여유	-10.8911
▁자세	-10.8914
▁경우	-10.8918
장님	-10.8919
▁지금보면	-10.8926
▁허나	-10.8929
▁걸작이다	-10.8939
▁십점	-10.8939
▁전라도	-10.8943
▁자위	-10.8947
삐	-10.8947
▁검색해	-10.895
죽여	-10.8952
▁매주	-10.8952
더럽게	-10.8952
킬링타임	-10.8953
▁보이고	-10.8956
볼때마다	-10.8958
▁최고인듯	-10.896
많고	-10.8968
▁나올까	-10.8969
▁ᄏᄏᄏᄏᄏᄏᄏᄏᄏᄏᄏᄏᄏᄏ	-10.8972
학대	-10.8973
많은것을	-10.8976
평생	-10.8979
▁다시봤는데	-10.898
op	-10.898
▁인식	-10.8989
같네요	-10.9
▁허접하고	-10.9002
▁이어지는	-10.9008
▁싫은	-10.9016
지루한	-10.9019
레기	-10.9023
▁필요하다	-10.9024
줄거리	-10.9028
▁장점	-10.9031
▁본듯한	-10.9039
▁적절	-10.9042
듣고	-10.9045
좋겠다	-10.9045
괜	-10.9064
▁가볍지	-10.9071
▁스필버그	-10.9071
▁깨달음	-10.9071
▁엉뚱	-10.9071
▁멘탈	-10.9071
▁픽션	-10.9071
▁나머진	-10.9071
▁아바타	-10.9072
▁컬트	-10.9072
▁가까이	-10.9072
▁예뻐서	-10.9072
▁수면제	-10.9073
▁택시	-10.9073
▁절묘	-10.9074
▁2015	-10.9075
▁낮추	-10.9077
▁과장된	-10.9079
할게요	-10.9079
버그	-10.9081
▁치료	-10.9081
▁대사와	-10.9082
않았다	-10.9086
▁음향	-10.9087
▁찍지	-10.9088
▁소품	-10.9088
ie	-10.9089
▁번역	-10.9089
줄알고	-10.9089
별점	-10.9092
▁모순	-10.9095
▁기억난다	-10.9096
▁우승	-10.9096
▁향한	-10.9096
▁경계	-10.9098
▁못따라	-10.9098
겠고	-10.9099
▁남긴	-10.9101
▁일찍	-10.9102
▁내시간	-10.9107
▁-_-;;	-10.9107
▁싶었는데	-10.9108
▁재밋고	-10.9111
▁알바생	-10.9115
▁로마	-10.9115
▁벌어	-10.9119
▁오직	-10.912
테니	-10.9122
한텐	-10.9124
▁면이	-10.9124
▁괜찮을	-10.9125
▁애정	-10.9132
▁정석	-10.9136
겠는가	-10.9142
모델	-10.9152
큼	-10.9159
.,.,	-10.9159
만든영화	-10.9162
▁go	-10.9166
▁외면	-10.9171
입니까	-10.9176
▁청년	-10.9177
마무리	-10.9179
무서움	-10.9179
그래픽	-10.918
▁성적	-10.918
▁스릴감	-10.9181
▁머냐	-10.9183
▁후반부로	-10.9183
▁풀어내	-10.9184
▁우울한	-10.9186
▁토니	-10.9187
▁밝혀	-10.9189
모르겠다	-10.9196
▁비해서	-10.9198
▁알려주	-10.9201
▁영상미와	-10.9205
따구	-10.9208
천재	-10.9212
▁흥미진진한	-10.9213
멋진	-10.9213
▁없으니	-10.9216
집에서	-10.9216
▁어울리	-10.9225
▁메세지를	-10.9231
되네	-10.9235
▁최악임	-10.924
였네	-10.9241
av	-10.9243
나이트	-10.9246
신부	-10.9246
▁안봄	-10.9258
원주고	-10.9259
엇음	-10.9263
▁명작임	-10.9271
▁시대적	-10.9273
그림	-10.9277
▁바라보는	-10.9278
▁와닿지	-10.929
밋	-10.9293
▁본방	-10.9296
▁겨울왕국	-10.9299
▁구혜선	-10.9299
▁도라에몽	-10.9299
▁봤는지	-10.9299
▁소피마르소	-10.9299
▁싸이코패스	-10.9299
▁학창시절	-10.9299
삘	-10.9299
썬	-10.9299
졋	-10.9299
▁엉망진창	-10.9299
넓	-10.9299
쇠	-10.9299
▁간간히	-10.9299
▁김명민	-10.9299
▁최민수	-10.9299
▁지저분	-10.9299
▁영향을	-10.9299
▁실상	-10.9301
><	-10.9302
▁머리속	-10.9304
▁저평가	-10.9307
▁욕나온다	-10.9308
2005	-10.9308
했었다	-10.931
▁열광	-10.931
▁커피	-10.9312
▁국산	-10.9312
▁흥미롭지	-10.9312
▁의견	-10.9312
▁공허	-10.9313
떨어지는	-10.9314
▁냉정	-10.9316
보니깐	-10.9319
설명	-10.9326
원래	-10.9327
▁식상하다	-10.9329
▁인간적으로	-10.9332
▁좋아하지	-10.9335
▁처음이네	-10.9336
▁이은주	-10.9345
▁있었습니다	-10.9345
▁불쌍해서	-10.9347
▁끝남	-10.9349
▁어디까지	-10.9352
▁자체로	-10.9354
궁금해	-10.9359
▁좋아했던	-10.9364
▁아닌것	-10.9371
▁이따위로	-10.9373
▁만든건지	-10.9373
▁법정	-10.9376
하는것도	-10.9379
▁빈약한	-10.9379
18	-10.9383
▁훈훈하고	-10.9384
▁손색이	-10.9395
웠던	-10.9404
▁천만	-10.9413
▁화가나	-10.9413
무서워	-10.9416
선생님	-10.9419
아름다운	-10.942
위주	-10.9428
▁의도를	-10.9429
그때	-10.9431
▁중국영화	-10.9432
질러	-10.9435
거같네요	-10.9437
ay	-10.944
▁형식	-10.944
감상	-10.9444
▁이것은	-10.9446
민호	-10.9446
노출	-10.9448
엉성	-10.9448
▁감동받	-10.9449
▁미안해	-10.9459
▁가져다	-10.9475
▁날리	-10.9477
대체	-10.9477
▁감동입니다	-10.9478
없었다	-10.9478
▁OOOO	-10.9478
걸작	-10.9488
▁보게되었	-10.9499
▁잼없다	-10.9502
▁등장하는	-10.9509
▁중학교	-10.9516
▁알게된	-10.9517
▁이런것도	-10.952
▁산만하	-10.952
드릴	-10.9527
인상깊었	-10.9529
킥	-10.9531
긍	-10.9531
헨	-10.9531
떳	-10.9531
맴	-10.9531
밍	-10.9531
꾹	-10.9531
very	-10.9531
▁안타까웠	-10.9531
▁어쨌든	-10.9531
▁국어책	-10.9531
▁다이하드	-10.9531
▁숨막히	-10.9531
▁웬만하면	-10.9531
스러울	-10.9531
▁콜린	-10.9532
밑에	-10.9532
▁틀림없	-10.9532
▁심오한	-10.9533
▁강아지	-10.9533
▁관람객	-10.9533
장군	-10.9534
▁기다렸	-10.9535
▁미친듯이	-10.9536
▁문득	-10.9536
▁패션	-10.954
-.-	-10.9543
▁재방송	-10.9543
▁살인자	-10.9544
▁기사	-10.9544
▁여태까지	-10.9545
▁출발	-10.9545
▁중반부터	-10.9545
▁뭐랄까	-10.9546
▁지루했음	-10.9549
▁이기적인	-10.9551
▁적극	-10.9556
▁감동적임	-10.9557
▁뉴스	-10.9559
▁미술	-10.956
▁신경쓰	-10.9562
▁보는동안	-10.9563
▁향기	-10.9571
▁없애	-10.9572
▁고작	-10.9575
좋아서	-10.9579
▁에로물	-10.9589
▁배울	-10.9592
▁끄는	-10.9593
▁네이버평점	-10.9594
▁믿을게	-10.9598
▁야하지도	-10.9602
영씨	-10.9602
쪽으로	-10.9604
▁괴수	-10.9606
▁개소리	-10.9611
척하는	-10.9612
▁걸리	-10.9621
넘치는	-10.9623
▁장소	-10.9631
편부터	-10.9637
▁데려다	-10.9637
▁죽일	-10.9637
▁아련한	-10.9642
혀서	-10.9651
▁이어지	-10.9654
▁흐르	-10.9655
▁동감	-10.9655
썩	-10.9656
재미없는	-10.9656
▁통해서	-10.966
것도아니고	-10.9662
잘봤습니다	-10.9663
액	-10.9663
쿨	-10.9664
네이버	-10.9667
▁잘했다	-10.9667
힘든	-10.967
▁마법	-10.9673
중간에	-10.9675
것들은	-10.9677
시티	-10.9678
성룡	-10.9681
▁베일	-10.9682
재밋어요	-10.9685
▁지금이나	-10.9688
▁죽는다	-10.9691
▁만들었네	-10.9695
끝날때까지	-10.9698
하죠	-10.97
하나하나	-10.9702
▁역겹	-10.9708
▁지워	-10.9724
없어요	-10.9725
팬이라	-10.9727
ᄍᄍᄍ	-10.9733
ᄒᄒᄒᄒ	-10.9738
▁깨닫	-10.9743
▁태어나	-10.975
롯	-10.9764
앵	-10.9767
흉	-10.9769
뚜	-10.9769
묶	-10.9769
캠	-10.9769
▁엑스맨	-10.9769
▁트랜스포머	-10.9769
겸	-10.9769
▁힙합	-10.9769
끓	-10.9769
▁김민종	-10.9769
▁박평식	-10.9769
▁멈추	-10.9769
▁농담	-10.9769
▁전지현	-10.977
▁갖춘	-10.9771
▁증명	-10.9771
파이팅	-10.9771
▁사라진	-10.9772
▁말이필요없다	-10.9772
▁첫번째	-10.9773
▁람보	-10.9774
▁안성기	-10.9774
▁중후반	-10.9777
▁시간아까워	-10.9777
▁애국심	-10.9778
▁빨간	-10.9779
▁아침드라마	-10.9782
▁러브스토리	-10.9783
▁모독	-10.9785
▁환상적인	-10.9787
▁부각	-10.9791
▁터지는	-10.9795
▁적당하다	-10.9796
▁재미없었음	-10.9797
작전	-10.9801
▁이따구로	-10.9802
▁데뷔작	-10.9802
▁더욱더	-10.9803
▁소중하	-10.9805
사장	-10.981
▁찍으	-10.9811
▁굉장한	-10.9813
▁자격	-10.9813
▁가관	-10.9819
▁정통	-10.9819
봤을땐	-10.982
▁198	-10.9822
▁조악	-10.9822
왔습니다	-10.9824
▁보고싶네요	-10.9833
할정도	-10.9844
▁많음	-10.9854
▁내놓	-10.9855
▁명작이라고	-10.9858
▁약하다	-10.9859
▁들여	-10.9861
▁모여	-10.9876
▁돌아오	-10.9888
▁본적이	-10.9889
주관적	-10.9892
▁없을까	-10.9894
사극	-10.9895
▁되어야	-10.99
H	-10.9911
특유의	-10.9913
한마디로	-10.9913
ᄉᄇ	-10.9916
유쾌	-10.9917
▁이영화보고	-10.9922
했더니	-10.9927
60	-10.9933
억울	-10.9935
▁가상	-10.9936
▁못하네	-10.994
▁대학생	-10.9941
▁좋구	-10.9961
웠음	-10.9965
년동안	-10.9967
▁통쾌한	-10.997
▁불쾌한	-10.9978
▁나올수	-10.9979
있을까	-10.9982
으세요	-10.9983
설마	-10.9986
재미있음	-10.9987
▁보는사람	-10.9997
▁재밋어	-10.9997
▁인도영화	-10.9997
즌	-10.9998
▁호감	-11.0001
▁운동	-11.0001
하잖아	-11.0002
읍	-11.0011
안좋	-11.0012
▁떠오르는	-11.0012
드래곤	-11.0013
▁신데렐라	-11.0013
▁이탈리아	-11.0013
▁톰크루즈	-11.0013
▁흐지부지	-11.0013
뎌	-11.0013
펠	-11.0013
헝	-11.0013
▁정확히	-11.0013
찜찜	-11.0013
▁더더욱	-11.0013
▁사무라이	-11.0013
▁오우삼	-11.0013
▁신세경	-11.0013
그나저나	-11.0013
▁어떠한	-11.0013
▁장동건	-11.0013
▁드래곤볼	-11.0013
▁엽문	-11.0013
꼬맹이	-11.0014
▁모자란	-11.0014
▁흑역사	-11.0014
▁색다르	-11.0014
▁스킵	-11.0014
▁아쉬웠지만	-11.0014
▁색깔	-11.0014
▁전도연	-11.0015
▁학살	-11.0015
▁깜놀	-11.0015
안쓰는데	-11.0017
▁담담하	-11.0018
밖엔	-11.0018
▁이민기	-11.0019
▁에릭	-11.0022
▁몰락	-11.0022
▁허탈	-11.0024
▁신세계	-11.0024
이라는게	-11.0026
▁지브리	-11.0027
▁복수극	-11.0027
▁태양	-11.0029
▁피곤	-11.0031
▁좋아하시는	-11.0031
▁가라	-11.0035
갈수	-11.0039
▁99	-11.0039
수가없다	-11.0039
▁백배	-11.004
▁남친	-11.0042
▁제왕	-11.0043
▁틀어주	-11.0044
▁초반부터	-11.0045
▁남기고	-11.0047
▁의미없는	-11.0055
▁임신	-11.0056
▁울림	-11.0057
▁소소하	-11.006
주의자	-11.0064
▁성경	-11.0068
타령	-11.0079
▁추천한다	-11.008
▁변신	-11.0082
▁빠지게	-11.0085
▁모아	-11.009
▁최하	-11.009
▁그시절	-11.0096
직원	-11.0096
다시보고싶	-11.0101
자매	-11.0102
▁슬펐다	-11.0107
▁명작이네요	-11.0112
▁특이한	-11.0116
▁도움이	-11.0121
▁생각나게	-11.0121
지않나	-11.0123
필드	-11.0123
자막	-11.0125
비행	-11.0125
▁장난감	-11.0134
▁재밌게봤는데	-11.0134
▁만날	-11.0139
키우	-11.0146
볼려고	-11.0148
▁따뜻함	-11.0152
취향	-11.0156
▁남자배우	-11.0162
퇴	-11.0166
▁낚였네	-11.0169
쫌	-11.0169
본영화중에	-11.0172
필름	-11.0175
▁아름다웠	-11.0186
▁공포감	-11.0197
▁잔인하고	-11.0199
▁다시보게	-11.0203
ᄒᄒᄒᄒᄒ	-11.0218
졌어요	-11.022
▁비교하면	-11.0225
▁이해되	-11.0226
▁공감대	-11.0234
탁월한	-11.0245
싼	-11.0258
중딩	-11.0258
써요	-11.0259
믹	-11.026
끗	-11.0263
깡	-11.0263
뎁	-11.0263
줫	-11.0263
탠	-11.0263
▁매끄럽지	-11.0263
▁인상깊게	-11.0263
겄	-11.0263
딕	-11.0263
뼈	-11.0263
펴	-11.0263
훗	-11.0263
^_^	-11.0263
▁미장센	-11.0263
▁어설퍼	-11.0263
▁엉터리	-11.0263
▁키아누	-11.0263
▁황정민	-11.0263
▁최민식	-11.0263
습니당	-11.0263
▁윌리스	-11.0263
▁함부로	-11.0263
▁완죤	-11.0264
▁다니엘	-11.0264
▁일어날	-11.0264
▁2003	-11.0264
▁이정재	-11.0264
▁8.5	-11.0265
▁높네	-11.0267
▁보여줌	-11.0267
://	-11.0267
▁낚여서	-11.0268
헌터	-11.027
▁꺼져	-11.0272
▁극찬	-11.0273
몇번	-11.0273
십니다	-11.0274
▁마틴	-11.0274
▁실패작	-11.0277
▁쏘우	-11.0278
▁드문	-11.0278
▁노튼	-11.0279
▁오글거려서	-11.0279
점도아깝다	-11.0281
▁끝난다	-11.0281
▁질문	-11.0282
▁존잼	-11.0282
▁잔잔하지만	-11.0283
▁집단	-11.0285
▁유령	-11.0285
와이프	-11.0286
▁사람마다	-11.0288
▁카피	-11.029
▁한번씩	-11.029
▁히트	-11.029
▁단역	-11.0292
볼꺼	-11.0294
▁드물	-11.0295
▁무슨말이	-11.0295
▁늙었	-11.0298
엿다	-11.0299
▁담아	-11.0306
▁잼나요	-11.0308
▁보러갔	-11.0309
연애	-11.032
▁유치하기	-11.0327
▁아름다웠다	-11.0328
할텐데	-11.0329
하루	-11.0332
얘	-11.0336
▁또봐도	-11.0338
감성	-11.0339
▁말아먹은	-11.0345
대장	-11.0345
가아니라	-11.0351
바탕	-11.0366
▁날려	-11.0368
▁퇴보	-11.0371
▁생각했던	-11.0384
하시네요	-11.0402
▁혼자서	-11.0406
▁결말까지	-11.0417
점만점	-11.0417
▁깔끔	-11.0428
귀여워	-11.0432
개연성	-11.0432
그렇지	-11.0433
히어로	-11.0434
▁다음편	-11.0434
페이지	-11.0435
cg	-11.044
▁밀어	-11.0442
▁재밌게본	-11.0444
▁강하게	-11.0449
▁조폭영화	-11.0449
영웅	-11.0449
인것같다	-11.0451
▁허무함	-11.0452
▁진정성	-11.0461
씩이나	-11.0466
ᄃᄃᄃᄃ	-11.0482
유머	-11.0485
▁만세	-11.0498
▁미스터	-11.0499
섯	-11.05
나보네	-11.0509
남편	-11.0514
딜	-11.0515
퉁	-11.0519
뱅	-11.0519
밉	-11.0519
펼	-11.052
밨	-11.052
윽	-11.052
▁과대평가	-11.052
▁윌리엄	-11.052
뉘	-11.052
벙	-11.052
썻	-11.052
▁가슴아픈	-11.052
▁차태현	-11.052
▁정당화	-11.052
▁징징	-11.052
▁클라스	-11.052
▁멀쩡	-11.052
▁솔까	-11.052
▁납치	-11.052
▁거슬리	-11.052
지르는	-11.052
▁젊음	-11.052
▁찬사를	-11.0521
▁존스	-11.0521
▁경의를	-11.0523
▁죽기전에	-11.0524
징그러	-11.0524
전달	-11.0525
▁상당한	-11.0525
▁고마운	-11.0525
▁돈낭비	-11.0525
▁댄스	-11.0527
▁장혁	-11.053
▁우롱	-11.0531
▁황금	-11.0534
▁필요없음	-11.0537
▁영광	-11.0539
▁재밌기만	-11.0539
노동자	-11.0542
▁재미나게	-11.0543
▁돈아깝다	-11.0544
▁울었습니다	-11.0545
▁겉멋만	-11.0548
▁몰랐는데	-11.0552
▁슬퍼요	-11.0555
▁나오다니	-11.0557
▁안타깝네요	-11.0557
PD	-11.0559
▁재현	-11.0562
▁기록	-11.0565
▁하던가	-11.0569
▁슬프네요	-11.057
▁어케	-11.0572
▁집어	-11.0573
▁답답해서	-11.0584
▁재미있어서	-11.0587
▁없었는데	-11.0591
죽음	-11.0592
작렬	-11.0592
▁에러	-11.0593
▁꼭봐야	-11.0596
클럽	-11.0606
▁안좋은	-11.0608
하느라	-11.0609
▁사망	-11.0611
▁so	-11.0619
것같습니다	-11.0629
닼	-11.0634
▁꺼내	-11.0636
갔으면	-11.0636
만들엇	-11.0637
이아니라	-11.0645
▁볼만한데	-11.0646
▁다른사람	-11.0649
▁뽑아	-11.0661
▁어색함	-11.0674
저예산	-11.0703
▁모르나	-11.072
지마시길	-11.0724
▁비현실적이	-11.0731
변화	-11.0738
영상미	-11.0739
알바들	-11.0744
뿔	-11.0774
날때	-11.0774
▁아쉬워	-11.0775
풋풋	-11.0778
옵	-11.0783
쉣	-11.0783
▁다세포소녀	-11.0783
럿	-11.0783
릉	-11.0783
맷	-11.0783
쏙	-11.0783
코스프레	-11.0783
푼	-11.0783
▁끝판왕	-11.0783
▁다크나이트	-11.0783
안타까워	-11.0783
▁아프리카	-11.0783
▁김태희	-11.0783
▁공중파	-11.0783
▁모성애	-11.0783
▁긴박감	-11.0783
▁여기저기	-11.0783
▁임청하	-11.0783
▁타이틀	-11.0783
▁ᄇᄉ	-11.0783
▁아이러니	-11.0783
▁레이첼	-11.0783
▁혹평	-11.0783
▁2004	-11.0783
▁어지간	-11.0783
▁다운로드	-11.0784
▁사기꾼	-11.0784
▁노골적	-11.0784
▁크리스찬	-11.0785
▁담백하	-11.0785
▁사라져	-11.0786
▁성찰	-11.0787
▁어딜	-11.0788
창있네	-11.0788
▁원작소설	-11.0788
▁짱짱맨	-11.0789
▁바꾼	-11.0789
▁억지설정	-11.0789
▁재주	-11.0791
▁대표적인	-11.0792
였으나	-11.0793
▁이따구	-11.0794
▁몇번이나	-11.0797
▁뿌리	-11.0797
▁제정신	-11.0798
▁실화라는	-11.0801
볼만한	-11.0805
▁불행	-11.0807
▁어렸을적	-11.0809
▁황당하	-11.0809
▁요약	-11.0814
▁분명히	-11.0815
▁알려준	-11.0816
▁볼만했는데	-11.0819
▁도중에	-11.0823
▁특수	-11.0823
▁짧아	-11.0823
겁니까	-11.0827
달리	-11.083
▁알겠지만	-11.083
▁썩어	-11.0839
▁그지같은	-11.0841
영화자체는	-11.0849
▁좋아하네요	-11.0851
합니까	-11.0852
활동	-11.0855
▁처음이네요	-11.0857
▁남발	-11.086
▁데미	-11.086
▁현실에서	-11.0861
▁있나요	-11.0862
▁힘내	-11.0869
만드네	-11.087
▁고수	-11.0871
▁무리수	-11.0871
▁해피	-11.0872
▁할배	-11.0875
▁빌리	-11.0879
▁일본판	-11.0881
등급	-11.0882
▁존재하는	-11.0891
찾기	-11.0893
죽는줄	-11.0897
▁유혹	-11.091
▁찾아볼	-11.091
▁주먹	-11.092
였다니	-11.0927
싶어서	-11.0929
▁좋아한다	-11.0936
▁멋있어	-11.0938
▁외국영화	-11.0942
▁기독교인	-11.0942
▁되어서	-11.0944
▁떠들	-11.0948
해야한다	-11.0954
▁손색	-11.0955
▁300	-11.0957
마른	-11.0974
▁강제	-11.0978
쭉	-11.0979
왜이래	-11.0981
완벽	-11.0982
▁배려	-11.0988
아이돌	-11.0991
123	-11.0992
다시봐도	-11.0996
▁메리	-11.0996
했냐	-11.1
마냥	-11.1003
▁끝날때	-11.1008
▁표정연기	-11.1021
▁봐줄	-11.1025
티비에서	-11.1032
▁드러나	-11.1033
▁굳굳	-11.1049
쎄	-11.1052
뜩	-11.1052
▁똑바로	-11.1053
▁인종차별	-11.1053
룹	-11.1053
켈	-11.1053
▁고맙습니다	-11.1053
▁드림웍스	-11.1053
▁미야자키	-11.1053
▁송혜교	-11.1053
둬	-11.1053
빤	-11.1053
앜	-11.1053
욬	-11.1053
웰	-11.1053
핏	-11.1053
▁자본주의	-11.1053
▁절제된	-11.1053
펀	-11.1053
쌩	-11.1053
▁어둡고	-11.1053
개인적으론	-11.1053
▁2013	-11.1053
나옵니다	-11.1053
▁태어난	-11.1053
▁오인혜	-11.1053
▁정신나간	-11.1053
▁사로잡	-11.1054
▁더럽고	-11.1054
▁감수성	-11.1054
▁best	-11.1054
▁끊임없	-11.1054
▁돋보인다	-11.1055
▁7.5	-11.1055
▁눈요기	-11.1055
▁모티브	-11.1056
▁가해자	-11.1056
▁짐승	-11.1057
등등	-11.1059
▁감옥	-11.106
▁휴먼	-11.106
펙트	-11.106
▁접근	-11.1061
▁지나친	-11.1063
▁서극	-11.1063
▁존경합니다	-11.1064
묘사	-11.1065
▁출현	-11.1066
▁절반	-11.1069
라이브	-11.107
▁총알	-11.1073
▁스토리라인	-11.1073
덕후	-11.1074
▁중간부터	-11.1075
따윈	-11.1078
▁대실망	-11.1079
집중	-11.1082
▁못생겼	-11.1082
▁일탈	-11.1082
▁남자라면	-11.1084
▁예산	-11.1087
▁건강	-11.1095
▁경제	-11.1101
▁슬프지만	-11.1102
▁나은듯	-11.1102
▁초등학교때	-11.1103
▁없구나	-11.1105
▁발레	-11.1105
▁울었던	-11.1107
▁무색	-11.1107
과도한	-11.1111
▁있겠지	-11.1115
▁아까워요	-11.1119
▁예쁘게	-11.1123
▁철학적인	-11.1123
▁전락	-11.1124
▁재밋네요	-11.1131
▁재밋는데	-11.1133
▁잃어	-11.1137
▁부디	-11.1137
알았	-11.1137
엇어요	-11.1144
▁차마	-11.1144
써서	-11.1146
왔던	-11.115
느님	-11.1162
▁마크	-11.1165
별반개도	-11.1172
▁향해	-11.1185
▁지루하기만	-11.1187
▁wh	-11.1187
-_	-11.1205
▁몰입되	-11.1212
▁솔직한	-11.1213
▁존재한다	-11.1217
하지않은	-11.1223
▁존재감	-11.1227
▁예술성	-11.1231
때문이	-11.1232
▁어린이들	-11.1236
때메	-11.1253
짓거리	-11.1259
대단히	-11.1261
▁마르	-11.1268
불륜	-11.127
챙겨	-11.127
일수도	-11.1271
▁압도	-11.1275
별루	-11.1294
달까	-11.1301
▁느껴져	-11.1308
▁환상적이	-11.1322
챙	-11.1326
첩	-11.1329
띵	-11.1331
둡	-11.1331
탭	-11.1331
▁뮤직비디오	-11.1331
▁파워레인저	-11.1331
툰	-11.1331
▁클린트	-11.1331
mbc	-11.1331
▁뚝뚝	-11.1331
▁뜨거운	-11.1331
▁송지효	-11.1331
▁팍팍	-11.1331
▁나쁘진	-11.1331
▁두려움	-11.1331
떄문에	-11.1331
▁한쿡영화	-11.1331
▁비정상	-11.1331
▁이연희	-11.1331
▁흐뭇	-11.1331
▁더럽다	-11.1332
▁무너지	-11.1332
▁뉴욕	-11.1333
앵글	-11.1333
▁즐겁고	-11.1334
ᄂᄂ	-11.1334
▁짧게	-11.1334
배속으로	-11.1335
▁놀랬	-11.1336
▁초능력	-11.1336
▁터져	-11.1336
▁비싼	-11.1336
▁비롯	-11.1337
▁사랑스럽	-11.1337
▁사라졌	-11.1339
것일까	-11.1345
▁끌려	-11.1345
홍보	-11.1346
줬으면	-11.1348
▁넘어선	-11.1349
♡♡	-11.1349
부턴	-11.1352
▁성룡영화	-11.1353
▁얘들	-11.1356
영화관에서	-11.1361
보기싫	-11.1362
▁받아들이	-11.1365
▁중학교때	-11.1366
▁현실적으로	-11.1367
▁그지없	-11.1368
▁사실적으로	-11.1368
▁훈훈하	-11.1376
▁피터	-11.1378
▁가졌	-11.1379
▁개독	-11.1381
▁최고였습니다	-11.1381
▁부럽다	-11.1382
약간	-11.1387
이건뭐	-11.139
▁미국판	-11.1393
▁담아내	-11.1396
낚였	-11.1404
▁되었는데	-11.141
▁않았음	-11.1412
▁인간적인	-11.1414
▁멀리	-11.1427
▁좋았어	-11.1439
라기보다	-11.144
▁다시보고싶은	-11.1443
▁첨이네	-11.1444
하고픈	-11.1463
▁잃지	-11.1477
녀석들	-11.1478
▁광팬	-11.148
▁be	-11.1503
▁불편함	-11.1512
▁환자	-11.1514
겐	-11.1525
▁확실한	-11.1533
봣음	-11.1539
▁죽을뻔	-11.1543
--;	-11.1545
릇	-11.155
▁표현했다	-11.1556
▁잠자	-11.1557
러브	-11.1557
▁기억될	-11.1558
톰	-11.1558
씹	-11.1559
흐름	-11.156
카메라	-11.1561
진정한	-11.1564
슬퍼	-11.1564
이쁘고	-11.1565
시간낭비	-11.1565
좋았어요	-11.1583
고싶지	-11.1583
먼저	-11.1584
조각	-11.1592
훌륭한	-11.16
관련	-11.1607
▁감동받았	-11.1609
♡♡♡	-11.1613
제작비	-11.1614
펑	-11.1616
쯧	-11.1616
꿨	-11.1617
↓	-11.1617
▁고스란히	-11.1617
▁서프라이즈	-11.1617
▁엉덩이	-11.1617
▁임권택	-11.1617
▁찝찝한	-11.1617
▁카메론	-11.1617
▁클리셰	-11.1617
▁팀버튼	-11.1617
▁홧팅	-11.1617
▁양동근	-11.1617
▁인터뷰	-11.1617
▁일베충	-11.1617
꺄	-11.1617
▁말았어야	-11.1617
▁어우러진	-11.1617
▁주상욱	-11.1617
▁조승우	-11.1617
▁김강우	-11.1617
▁구역질	-11.1617
▁암걸리	-11.1617
▁신민아	-11.1617
▁The	-11.1617
▁웅장	-11.1618
▁힘내세요	-11.1618
▁이범수	-11.1618
▁흥미롭고	-11.1618
▁김구라	-11.1618
▁잃어버린	-11.1618
▁은퇴	-11.1619
남녀	-11.1619
▁알게해준	-11.162
▁유지태	-11.1622
▁모르겟다	-11.1622
▁튀어	-11.1623
▁움직이는	-11.1623
▁구멍	-11.1624
up	-11.1625
▁친절	-11.1625
봣습니다	-11.1625
▁그럼에도	-11.1625
▁활용	-11.1626
▁고인의	-11.1627
▁지들끼리	-11.1629
▁어이없어서	-11.1629
점대라니	-11.163
▁추락	-11.163
▁잘생기고	-11.163
▁성숙	-11.1632
▁선정적	-11.1635
▁간절	-11.1636
▁불법	-11.1636
▁타락	-11.1637
▁여왕	-11.1638
▁신념	-11.1642
▁좋아한다면	-11.1646
▁없었으면	-11.1652
영환줄	-11.1655
▁98	-11.1657
▁뻔히	-11.1658
▁잼없음	-11.166
▁관객에게	-11.166
▁허무하게	-11.1666
▁훌륭함	-11.167
베르	-11.167
▁먹먹하다	-11.1673
▁좋아해요	-11.1676
▁깎아	-11.1677
▁애국	-11.1678
▁재밌당	-11.1679
같았음	-11.1696
배우님	-11.1701
▁그지같	-11.1705
▁전투씬	-11.1706
▁않았으면	-11.1707
그래요	-11.1715
어이없네	-11.1728
ge	-11.1753
번씩	-11.1754
인간들	-11.1755
재미잇	-11.1759
▁엉성함	-11.177
▁외치	-11.1776
▁던지는	-11.178
▁재미있네	-11.1781
볼걸	-11.1797
가능한	-11.1801
▁의식	-11.1806
▁197	-11.1811
▁빨아	-11.1818
▁수준이하	-11.1821
▁누워	-11.1827
▁조금씩	-11.1835
▁되돌아	-11.1846
ll	-11.186
▁제작사	-11.186
낙	-11.1862
아줌마	-11.1863
느와르	-11.1863
왜이리	-11.1868
이쁘다	-11.1871
est	-11.1873
▁단편영화	-11.1884
그자체	-11.1884
▁초중반	-11.1889
예능	-11.189
존재	-11.189
하곤	-11.1902
넼	-11.1911
▁펭귄	-11.1911
흰	-11.1911
▁ebs	-11.1911
▁놀래키	-11.1911
▁서스펜스	-11.1911
▁웹툰	-11.1911
텀	-11.1911
▁원주율	-11.1911
▁베트남	-11.1911
▁환타지	-11.1911
▁큐브	-11.1911
▁조용히	-11.1911
▁강지환	-11.1911
▁임수정	-11.1911
▁불후의	-11.1911
▁플레이	-11.1911
▁러셀	-11.1911
▁일요일	-11.1911
씨리즈	-11.1911
▁닥터	-11.1911
▁퍼즐	-11.1911
▁어울려	-11.1912
▁리메이크작	-11.1912
▁이해안가	-11.1913
▁푸른	-11.1913
▁증말	-11.1913
▁일깨워주는	-11.1913
▁가끔씩	-11.1914
▁특징	-11.1914
▁고찰	-11.1914
▁언론	-11.1918
▁빠져드는	-11.1918
흥미를	-11.1919
▁알았더니	-11.1919
▁자세히	-11.1919
▁닮아	-11.1922
▁않았을까	-11.1923
▁찾아볼수	-11.1923
▁지루했어요	-11.1924
▁산만한	-11.1924
▁끼워	-11.1927
▁여튼	-11.1929
▁놀라울	-11.1929
▁중반부	-11.193
▁물씬	-11.193
▁볼만해요	-11.1931
▁지났지만	-11.1932
▁공감가는	-11.1932
거든요	-11.1933
▁우익	-11.1934
▁깔끔하고	-11.1936
▁돌려줘	-11.1937
▁우왕	-11.1938
45	-11.1938
▁때문이다	-11.194
▁엉성하다	-11.1945
▁최고였어요	-11.1949
▁도통	-11.1949
▁상영시간	-11.1949
▁말해주는	-11.195
▁생각나네요	-11.1954
싶을때	-11.1955
▁됐는데	-11.1958
▁나누	-11.196
멘트	-11.1961
▁주목	-11.1964
▁감동도없고	-11.1964
▁허술하고	-11.1965
▁뻔해서	-11.1972
▁존내	-11.1975
▁어린이용	-11.1977
▁비극적	-11.1979
교육	-11.198
하지마세요	-11.1982
▁압도적	-11.1983
▁볼거없	-11.1993
▁드러내	-11.1994
졌습니다	-11.2
▁초딩들	-11.2006
영화제에서	-11.2008
엿음	-11.2027
▁중반까지	-11.2031
요소를	-11.2034
레이드	-11.2049
겠군	-11.2053
야되는데	-11.2053
▁진부함	-11.207
▁재미있었던	-11.207
시켜주	-11.2077
쳐먹	-11.2084
▁부른	-11.2097
ol	-11.213
깎	-11.2174
▁상관	-11.2175
OST	-11.2176
감사합니다	-11.2176
훨씬	-11.2177
▁부럽	-11.2184
95	-11.2188
극장판	-11.2188
▁오글거려	-11.2194
픔	-11.2196
▁어처구니없	-11.2205
콧	-11.221
▁정치적	-11.2212
쿡	-11.2213
맙	-11.2214
쉰	-11.2214
쌈	-11.2214
엎	-11.2214
재밌게봤습니다	-11.2214
췄	-11.2214
톨	-11.2214
▁기대됩니다	-11.2214
▁묻혀	-11.2214
▁보냅니다	-11.2214
▁오리지널	-11.2214
▁재발견	-11.2214
▁컨저링	-11.2214
人	-11.2214
뒀	-11.2214
뱉	-11.2214
뺨	-11.2214
콕	-11.2214
▁내러티브	-11.2214
▁ocn	-11.2214
▁어울린다	-11.2214
▁멘붕	-11.2214
▁삽입	-11.2214
▁하이킥	-11.2214
▁ᄅᄋ	-11.2214
▁저절로	-11.2214
▁잠수함	-11.2214
▁흡사	-11.2214
^.^	-11.2215
▁록키	-11.2215
▁간첩	-11.2215
▁위대함	-11.2215
▁묘미	-11.2216
귀요미	-11.2216
▁온몸	-11.2216
▁생략	-11.2217
▁스티브	-11.2217
▁떠오르	-11.2218
▁잔인하기만	-11.222
▁말이필요없는	-11.222
▁잃고	-11.222
▁증거	-11.2221
▁대표작	-11.2221
▁깨알	-11.2223
▁역쉬	-11.2223
완성	-11.2223
▁구리다	-11.2223
▁빡치	-11.2227
▁바랬	-11.2229
▁절실	-11.2229
시리즈중	-11.2229
괴물	-11.223
▁재료	-11.2231
▁해도해도	-11.2232
동아리	-11.2233
▁가르쳐	-11.2234
▁만들어주세요	-11.2234
거예요	-11.2235
▁언급	-11.2235
▁딱딱	-11.2235
▁내보내	-11.2237
▁전세계	-11.2238
▁원표	-11.224
▁헐크	-11.2241
▁모르겠는데	-11.2257
안됐	-11.226
▁이나영	-11.2261
▁고발	-11.2263
▁아쉽긴	-11.2264
▁실소	-11.2265
▁별로였음	-11.2267
▁아동용	-11.227
▁더빙판	-11.2283
▁가려	-11.2292
스럽네	-11.2296
▁필수	-11.2298
관계를	-11.2322
▁가식	-11.2335
▁모른	-11.2353
폭탄	-11.2357
하지않는	-11.2362
▁비현실적인	-11.2364
내놔	-11.2364
채널에서	-11.2376
▁악평	-11.2399
티브	-11.2406
빼	-11.2421
같으니	-11.2433
▁비현실적	-11.2443
쳤던	-11.2451
▁읽어보	-11.2474
다음으로	-11.2485
▁성우들	-11.2491
▁겉멋	-11.2491
▁붙여	-11.2492
퀄리티	-11.2494
10000	-11.2496
넌	-11.2498
녀석	-11.2498
젼	-11.2503
슈퍼	-11.2504
괜히	-11.2507
탈출	-11.2507
낮아서	-11.2507
좋앗	-11.2508
방울	-11.2514
▁공짜	-11.2517
방법	-11.2519
움직이	-11.252
률	-11.2526
q	-11.2526
엣	-11.2526
짬	-11.2526
쏠	-11.2526
Z	-11.2526
▁매트릭스	-11.2526
▁슬래셔	-11.2526
▁에일리언	-11.2526
▁용두사미	-11.2526
▁인터스텔라	-11.2526
▁채플린	-11.2526
▁혹성탈출	-11.2526
륵	-11.2526
흙	-11.2526
▁이스트우드	-11.2526
륙	-11.2526
▁홍금보	-11.2526
댐	-11.2526
▁박신양	-11.2526
▁불면증	-11.2526
▁기분좋게	-11.2526
▁엉엉	-11.2526
▁관람불가	-11.2526
▁섭외	-11.2526
▁케이트	-11.2526
▁나타내	-11.2527
▁그들만의	-11.2527
▁묘하게	-11.2528
▁잘만들어진	-11.2528
씁니다	-11.2528
▁유아인	-11.2528
▁별한개도	-11.2529
▁닮은	-11.2529
▁패턴	-11.2529
즐거워	-11.2529
▁스콧	-11.253
▁묻어나는	-11.253
▁씁쓸한	-11.253
▁경쾌	-11.253
▁내인생최고의	-11.2531
▁미치도록	-11.2531
천국	-11.2532
▁재평가	-11.2533
▁맞춘	-11.2534
▁적절히	-11.2535
▁당최	-11.2536
▁케이지	-11.2536
▁아까웠던	-11.2538
▁느낌이랄까	-11.2539
▁웃어야	-11.2541
▁악플	-11.2542
▁신나게	-11.2543
▁공존	-11.2544
▁모든것을	-11.2544
▁동료	-11.2545
▁속아서	-11.2545
▁고향	-11.2547
▁창조	-11.2547
▁말아라	-11.2548
▁이번엔	-11.2549
▁지금껏	-11.255
▁장나라	-11.2552
붕괴	-11.2553
▁중요하다	-11.2556
▁많았던	-11.2558
▁예매	-11.2558
짱짱짱	-11.2559
▁무얼	-11.256
▁소름돋았	-11.256
▁심심해서	-11.256
▁알수없는	-11.2561
▁최저	-11.2567
▁노예	-11.2568
▁종영	-11.257
▁몽환적인	-11.257
봣던	-11.2571
▁만들겠다	-11.2572
▁졸면서	-11.2575
▁멋있어요	-11.2576
▁뻔하지만	-11.2578
▁불편하다	-11.258
▁아니겠지	-11.258
끼들	-11.2585
같았는데	-11.2589
▁서사	-11.2592
그릇	-11.26
▁죽을때	-11.26
▁작위적인	-11.2605
파티	-11.2609
해주길래	-11.2615
▁재밌겠	-11.2619
올림	-11.2627
황당	-11.266
▁합쳐	-11.2672
알수있	-11.2683
ᅳᅮ	-11.273
버렸음	-11.2739
ᅲᅲᅲᅲᅲᅲᅲᅲ	-11.274
본것중	-11.2774
▁고르	-11.2788
빼놓	-11.279
채널	-11.2822
낳	-11.2827
슬픈	-11.2839
잔인하	-11.2843
을위해	-11.2844
교훈	-11.2844
빼면	-11.2845
씁	-11.2846
▁평점조절	-11.2847
#	-11.2849
ᅦ	-11.2849
▁스칼렛	-11.2849
긔	-11.2849
댈	-11.2849
샀	-11.2849
샹	-11.2849
팡	-11.2849
펄	-11.2849
▁KBS	-11.2849
▁가볍고	-11.2849
▁쌩뚱맞	-11.2849
▁쏠쏠	-11.2849
▁역사왜곡	-11.2849
▁콘서트	-11.2849
▁크리스토퍼	-11.2849
댕	-11.2849
됌	-11.2849
샷	-11.2849
숫	-11.2849
쌀	-11.2849
쿄	-11.2849
헷	-11.2849
▁오타쿠	-11.2849
▁맙시다	-11.2849
묵직한	-11.2849
▁탕웨이	-11.2849
▁나발이고	-11.2849
▁두근두근	-11.2849
▁못생긴	-11.2849
▁스텝업	-11.2849
결론	-11.2849
▁사다코	-11.2849
▁오그라든다	-11.2849
▁화려함	-11.2849
▁집어넣	-11.2849
▁훈남	-11.285
▁2001	-11.285
▁고질라	-11.285
바이러스	-11.285
▁담아낸	-11.2851
▁둘째	-11.2851
▁이승기	-11.2852
▁저녁	-11.2852
▁무게감	-11.2852
▁용가리	-11.2853
▁과잉	-11.2853
▁웬만한	-11.2854
▁결합	-11.2854
▁이름값	-11.2854
▁지루하지않고	-11.2855
▁감동적이었습니다	-11.2856
▁환불	-11.2856
▁질질짜	-11.2857
▁응원합니다	-11.2858
ent	-11.2859
▁내겐	-11.2862
▁깔끔하게	-11.2862
▁위하여	-11.2862
▁스릴있고	-11.2863
▁팬이라면	-11.2866
중요한	-11.2866
▁줄리아	-11.2866
▁시간아까움	-11.2867
섹스	-11.2867
▁치열	-11.2868
▁따뜻하게	-11.2869
▁바라보	-11.287
▁씨발	-11.287
▁봤었던	-11.2873
▁멋있었다	-11.2873
▁느린	-11.2874
▁차원이	-11.2875
▁실화라니	-11.2876
▁허술하다	-11.2876
▁느꼈던	-11.2878
▁젊은이들	-11.2882
▁대책	-11.2882
좋아할만한	-11.2904
▁좀비물	-11.2913
▁첫장면	-11.2918
▁봐왔	-11.2929
▁오락성	-11.2932
▁고래	-11.2937
▁서우	-11.2944
해줬으면	-11.2945
▁놈들이	-11.2997
재밋게봣	-11.3005
ul	-11.3013
▁집중력	-11.302
객관적으로	-11.3057
로인해	-11.309
▁밑에분	-11.3099
▁평론	-11.3119
▁보여주려	-11.3119
같습니다	-11.3127
몇번이고	-11.314
캬	-11.3176
뽑	-11.3176
녹	-11.3176
끊	-11.3177
줍	-11.318
핳	-11.3182
냅	-11.3182
됴	-11.3182
▁리암니슨	-11.3182
▁어설픔	-11.3182
샌	-11.3182
샬	-11.3182
엌	-11.3182
웩	-11.3182
칩	-11.3182
횽	-11.3182
▁줄리엣	-11.3182
▁휴머니즘	-11.3182
꽂	-11.3182
▁뭔내용인지	-11.3182
▁양조위	-11.3182
▁강혜정	-11.3182
▁신현준	-11.3182
▁흘렀	-11.3182
▁강호동	-11.3182
▁충무로	-11.3182
▁어떨까	-11.3182
▁어려울	-11.3182
▁이순신	-11.3182
▁빅뱅	-11.3182
안남기는데	-11.3183
▁정재영	-11.3183
ᅩᅩ	-11.3183
▁몬스터	-11.3183
▁침묵	-11.3184
▁0.5	-11.3184
▁레이싱	-11.3184
▁거대한	-11.3184
▁촬영기법	-11.3184
▁팔아먹	-11.3184
▁어려웠	-11.3184
▁자칫	-11.3184
▁에로틱	-11.3185
▁촌스러운	-11.3186
▁꺼버렸다	-11.3186
▁갖추	-11.3186
@@	-11.3187
점드림	-11.3188
▁No	-11.3189
▁때우기	-11.3189
▁프레디	-11.3189
▁맞지않	-11.3192
▁와이어	-11.3193
▁오싹	-11.3193
▁졸려서	-11.3193
▁과장되	-11.3193
▁정도껏	-11.3193
▁말할것도	-11.3196
▁느꼈습니다	-11.3196
▁처참	-11.3198
▁아름다웠던	-11.3199
▁재미있던데	-11.3199
▁다를게	-11.32
▁질투	-11.3202
할수밖에	-11.3202
엉망	-11.3203
▁호평	-11.3203
버젼	-11.3206
▁남주인공	-11.3209
▁도덕	-11.321
▁알앗	-11.3213
헤헤	-11.3214
▁어쩌라는	-11.3218
▁예수님	-11.3224
▁do	-11.3238
▁앞부분	-11.324
영환데	-11.3242
ig	-11.3265
▁어수선하	-11.3286
▁풀었	-11.3344
닼ᄏᄏᄏ	-11.3374
▁교감	-11.3387
하우스	-11.34
ill	-11.3409
▁도움	-11.3421
▁굉장	-11.3457
종류	-11.3486
잊혀지	-11.3494
▁탄탄하	-11.3501
재밋엇	-11.3511
▁사실적이	-11.3522
죤	-11.3526
훔	-11.3526
훼	-11.3527
듀	-11.3527
▁kbs	-11.3527
▁리즈시절	-11.3527
▁스탤론	-11.3527
▁인상깊은	-11.3527
▁후덜덜	-11.3527
닦	-11.3527
안봤으면	-11.3527
탔	-11.3527
햄	-11.3527
▁브래드피트	-11.3527
▁왠만해선	-11.3527
촉	-11.3527
▁김하늘	-11.3527
▁서부극	-11.3527
▁에이리언	-11.3527
▁무슨내용인지	-11.3527
▁홍진호	-11.3527
▁로드무비	-11.3527
▁올레티비	-11.3527
▁치밀한	-11.3527
-0-	-11.3527
▁불필요한	-11.3527
▁알맹이	-11.3527
▁이동욱	-11.3527
▁안쓰러	-11.3527
▁나중엔	-11.3527
쥐어짜	-11.3527
▁뛰쳐	-11.3527
▁못미치는	-11.3527
▁and	-11.3527
스캔들	-11.3527
▁전문성우	-11.3527
▁한정된	-11.3527
▁콤비	-11.3527
▁박해일	-11.3528
▁빵터짐	-11.3528
▁예뻐요	-11.3528
▁이성재	-11.3528
▁흔히	-11.3528
김남길	-11.3528
bbbb	-11.3528
▁유아용	-11.3528
▁루이스	-11.3529
▁가득찬	-11.353
▁이준기	-11.3531
▁실컷	-11.3532
▁황홀	-11.3532
쪼	-11.3532
▁발휘	-11.3532
곰	-11.3532
빅	-11.3532
▁악몽	-11.3533
▁얼른	-11.3533
웬	-11.3533
▁깨알같은	-11.3533
▁적나라하	-11.3533
매니아	-11.3534
▁신파극	-11.3534
저렇게	-11.3534
오히려	-11.3534
▁저평가된	-11.3535
▁억지스러움	-11.3536
▁선율	-11.3536
▁첨본다	-11.3536
gt	-11.3537
▁뇌리에	-11.3537
예고편	-11.3537
▁언제쯤	-11.3538
흥행	-11.3539
▁놓친	-11.354
짜증난다	-11.354
▁미안하지만	-11.3542
▁찾았다	-11.3542
▁몰입하면서	-11.3546
▁끝내주는	-11.3546
ore	-11.3547
▁고백	-11.3548
▁조용하	-11.3605
그치만	-11.3611
때문인지	-11.3627
▁떠난	-11.3632
▁어린애들	-11.3632
과정을	-11.3666
나쁘지않	-11.3675
싶을정도	-11.369
볼수없	-11.3721
▁기분좋은	-11.3749
어수선	-11.3779
찍었	-11.3791
취향은	-11.3796
▁어이가없	-11.3841
찾았	-11.3849
버렸어	-11.3863
재미가없	-11.3868
뀌	-11.3881
뭇	-11.3883
naver	-11.3884
뻘	-11.3884
도그렇고	-11.3884
▁아메리칸	-11.3884
▁찝찝함	-11.3884
▁최곱니다	-11.3884
뺀	-11.3884
솟	-11.3884
씌	-11.3884
젓	-11.3884
쫙	-11.3884
쬐	-11.3884
▁웨슬리	-11.3884
▁크루즈	-11.3884
프로젝트	-11.3884
▁떠올리게	-11.3884
▁무의미한	-11.3884
▁한예슬	-11.3884
○	-11.3884
▁문근영	-11.3884
▁추악한	-11.3884
▁부자연스럽	-11.3884
▁단체로	-11.3884
▁뒤집어	-11.3884
▁잘생김	-11.3884
▁고현정	-11.3884
▁쌍욕	-11.3884
봅시다	-11.3884
▁페이크다큐	-11.3884
▁암울한	-11.3884
▁연관성	-11.3884
▁2008	-11.3884
▁옹박	-11.3884
tion	-11.3885
▁빨리감기	-11.3885
▁유오성	-11.3885
허니잼	-11.3885
▁슈렉	-11.3886
▁졸업작품	-11.3886
▁매튜	-11.3886
▁깜찍	-11.3886
▁꺼버림	-11.3886
뿐더러	-11.3886
▁일어난	-11.3887
▁조인성	-11.3887
▁하얀	-11.3889
▁my	-11.3889
▁육체	-11.389
▁화가난다	-11.389
▁느껴짐	-11.3891
▁재치있	-11.3892
▁투표	-11.3894
▁일대기	-11.3894
▁껏다	-11.3894
▁습작	-11.3895
▁적응	-11.3896
▁미흡	-11.3896
▁대략	-11.3897
▁괜찮던데	-11.3898
▁미치겠다	-11.3899
▁녹화	-11.3899
▁명배우들	-11.3899
펑펑	-11.3901
▁추잡	-11.3902
J	-11.3902
good	-11.3904
별한개	-11.3904
▁완소	-11.3905
▁대가리	-11.3905
▁창작	-11.3906
청춘	-11.3909
▁교차	-11.391
▁졸업	-11.391
▁소리지르	-11.3922
을위한	-11.3932
▁밥먹	-11.3968
지말아야	-11.3983
▁즐겨보	-11.3989
같았다	-11.4007
▁객관적	-11.4021
▁서민	-11.4037
기억에남는	-11.4062
▁드러난	-11.4112
▁특별하	-11.4114
all	-11.4174
어쩔수없	-11.4237
시끄러	-11.425
있으면서	-11.4251
튜	-11.4252
펐	-11.4254
쵝	-11.4254
▁페이크	-11.4254
zzz	-11.4254
ᄑ	-11.4254
▁로보캅	-11.4254
▁멜깁슨	-11.4254
▁어벤져스	-11.4254
▁엑스트라	-11.4254
▁원맨쇼	-11.4254
▁유치뽕짝	-11.4254
뇨	-11.4254
덥	-11.4254
돕	-11.4254
쌔	-11.4254
쑤	-11.4254
욧	-11.4254
▁떠오른다	-11.4254
▁보면볼수록	-11.4254
힛	-11.4254
▁까메오	-11.4254
▁브래드	-11.4254
▁스타일리쉬	-11.4254
▁노무현	-11.4254
▁무책임	-11.4254
욜	-11.4254
▁덴젤	-11.4254
▁장쯔이	-11.4255
▁지하철	-11.4255
지맙시다	-11.4255
▁눈뜨고	-11.4255
▁애절한	-11.4255
▁중딩때	-11.4255
▁금요일	-11.4255
▁훈련	-11.4255
▁피라냐	-11.4255
▁최선을	-11.4255
▁옹호	-11.4255
▁차가운	-11.4255
오디션	-11.4255
테잎	-11.4255
▁에너지	-11.4255
▁가면갈수록	-11.4255
▁믿겨지지	-11.4255
기승전	-11.4256
▁여진구	-11.4256
▁싱겁	-11.4256
▁크리스틴	-11.4256
▁나눠	-11.4256
▁나타난	-11.4256
▁한지민	-11.4256
▁시청율	-11.4256
연기너무잘	-11.4258
▁갑갑	-11.4259
▁흥해라	-11.4259
▁영화관가서	-11.426
▁끝내준다	-11.426
보고난후	-11.4261
▁빠순이들	-11.4262
▁개념없	-11.4263
▁독백	-11.4264
▁급전개	-11.4264
▁외로운	-11.4264
▁회복	-11.4265
▁측면	-11.4265
▁이해못하	-11.4267
▁출연료	-11.4267
▁엔딩곡	-11.427
▁명곡	-11.4272
▁탁월	-11.4282
슬픔	-11.4288
훈훈	-11.4288
뮤지컬	-11.4289
프랑스	-11.4289
아무튼	-11.429
1,2	-11.4291
홍콩	-11.4292
몸매	-11.4295
▁볼게없	-11.4296
뻔한스토리	-11.4305
게아니라	-11.4311
cgv	-11.4316
▁경쟁	-11.4328
기다리	-11.435
▁따듯하	-11.4388
보게됨	-11.441
기위한	-11.4412
겻	-11.4632
렘	-11.4638
궈	-11.4639
껍	-11.4639
갸	-11.4639
롬	-11.4639
썽	-11.4639
좁	-11.4639
짖	-11.4639
괘	-11.4639
쪄	-11.4639
짠	-11.4686
꽝	-11.4688
[	-11.4688
꽤	-11.4689
갇	-11.5038
훌	-11.5039
훅	-11.5039
톡	-11.5039
ᅭ	-11.5039
ᆞ	-11.5039
’	-11.5039
쌤	-11.5039
얹	-11.5039
퍽	-11.5039
꿋	-11.5039
밭	-11.5039
씽	-11.5039
캅	-11.5039
폼	-11.5102
곁	-11.5364
삽	-11.5455
륭	-11.5456
윙	-11.5456
·	-11.5456
엥	-11.5456
꼼	-11.5456
댔	-11.5456
갤	-11.5456
햐	-11.5456
\	-11.5456
짤	-11.5538
걱	-11.589
쩡	-11.589
뤽	-11.589
깬	-11.5891
늠	-11.5891
뛴	-11.5891
뤘	-11.5891
얕	-11.5891
몹	-11.5891
셰	-11.5891
핍	-11.5891
횡	-11.5891
붓	-11.5891
밑	-11.6233
얀	-11.6339
늑	-11.6344
뭥	-11.6345
힙	-11.6345
깽	-11.6345
쟝	-11.6345
‘	-11.6345
낱	-11.6345
뜰	-11.6345
붐	-11.6345
썅	-11.6345
윗	-11.6345
쨩	-11.6345
퀼	-11.6345
놉	-11.6345
Q	-11.6345
낰	-11.6345
뎈	-11.6345
잭	-11.647
얻	-11.6471
밌	-11.6815
낌	-11.6818
낄	-11.682
캔	-11.6821
겜	-11.6821
됀	-11.6821
“	-11.6821
굼	-11.6821
꺅	-11.6821
웁	-11.6821
짭	-11.6821
팜	-11.6821
곸	-11.6821
슌	-11.6821
앳	-11.6821
얌	-11.6821
쵸	-11.6821
|	-11.6821
헬	-11.6972
떤	-11.7296
첼	-11.7321
ᅣ	-11.7321
ᅧ	-11.7321
꾀	-11.7321
뱃	-11.7321
휼	-11.7321
꿉	-11.7321
쑈	-11.7321
융	-11.7321
젬	-11.7321
텍	-11.7321
뚤	-11.7321
뵈	-11.7321
냉	-11.7491
푹	-11.7495
및	-11.7495
맡	-11.7496
펙	-11.7833
뷔	-11.7846
찜	-11.7847
댜	-11.7848
빽	-11.7848
돠	-11.7848
빔	-11.7848
샴	-11.7848
섰	-11.7848
힝	-11.7848
싯	-11.7848
얔	-11.7848
땀	-11.8051
욯	-11.8403
”	-11.8403
甲	-11.8403
땟	-11.8403
떴	-11.8403
멕	-11.8403
쁠	-11.8403
욘	-11.8403
쟤	-11.8403
짚	-11.8403
쾅	-11.8403
쿤	-11.8403
퀘	-11.8403
→	-11.8403
쉘	-11.8403
캣	-11.8403
훨	-11.864
칫	-11.8987
뇬	-11.8991
뺐	-11.8991
킷	-11.8991
훤	-11.8991
乃	-11.8991
갚	-11.8991
귄	-11.8991
댁	-11.8991
룻	-11.8991
맬	-11.8991
뭍	-11.8991
숴	-11.8991
웡	-11.8991
웹	-11.8991
읎	-11.8991
퉷	-11.8991
걔	-11.8991
넉	-11.8991
곧	-11.9265
젝	-11.9616
♬	-11.9616
、	-11.9616
괄	-11.9616
뮬	-11.9616
좃	-11.9616
죵	-11.9616
됏	-11.9616
챔	-11.9616
꿰	-11.9616
헛	-11.9928
쩐	-12.0191
無	-12.0283
겅	-12.0283
넥	-12.0283
뤠	-12.0283
벡	-12.0283
뿅	-12.0283
뿍	-12.0283
겔	-12.0283
멧	-12.0283
믓	-12.0283
슥	-12.0283
첸	-12.0283
킁	-12.0283
쏜	-12.0283
땜	-12.0894
녁	-12.0991
썹	-12.0997
홉	-12.0997
껌	-12.0997
끽	-12.0997
뺑	-12.0997
잰	-12.0997
찼	-12.0997
쳇	-12.0997
텨	-12.0997
풉	-12.0997
휙	-12.0997
눅	-12.0997
륨	-12.0997
잌	-12.0997
툴	-12.0997
퐁	-12.0997
핰	-12.0997
흣	-12.0997
쨔	-12.0997
뒷	-12.1415
쒯	-12.1767
꽈	-12.1767
넝	-12.1767
샵	-12.1767
슐	-12.1767
춥	-12.1767
』	-12.1767
굶	-12.1767
굽	-12.1767
깼	-12.1767
꼐	-12.1767
넛	-12.1767
넴	-12.1767
돔	-12.1767
볶	-12.1767
쪙	-12.1767
칵	-12.1767
뒹	-12.1767
섀	-12.1767
쫑	-12.1767
렜	-12.1767
얍	-12.1767
챈	-12.1767
멱	-12.26
캄	-12.26
뎃	-12.26
밸	-12.26
쎈	-12.26
왁	-12.26
욥	-12.26
콱	-12.26
햅	-12.26
헿	-12.26
『	-12.26
갯	-12.26
냔	-12.26
넨	-12.26
졷	-12.26
팰	-12.26
뻗	-12.26
눕	-12.26
ᄡ	-12.3157
컥	-12.3506
꼇	-12.3508
쒸	-12.3509
뒈	-12.3509
줏	-12.3509
컵	-12.3509
곀	-12.3509
궤	-12.3509
랖	-12.3509
혓	-12.3509
괸	-12.3509
꺠	-12.3509
벳	-12.3509
뷁	-12.3509
쑥	-12.3509
{	-12.3509
}	-12.3509
봅	-12.4507
잎	-12.4507
갘	-12.4509
끙	-12.4509
떵	-12.4509
앰	-12.4509
잦	-12.4509
챤	-12.4509
툼	-12.4509
펭	-12.4509
딥	-12.4509
읭	-12.4509
짰	-12.4509
쨰	-12.4509
쿼	-12.4509
ᄈ	-12.4509
깟	-12.4509
눔	-12.4509
딛	-12.4509
쫘	-12.4509
롹	-12.4509
뿡	-12.4509
死	-12.4509
닛	-12.4509
$	-12.4509
옛	-12.5262
뭣	-12.5269
쏭	-12.562
뺄	-12.562
앱	-12.562
쳣	-12.562
팟	-12.562
⌒	-12.562
♪	-12.562
뭄	-12.562
읊	-12.562
컹	-12.562
큭	-12.562
女	-12.562
쮸	-12.562
밓	-12.562
촬	-12.6864
킵	-12.6867
캘	-12.687
떙	-12.687
꿇	-12.687
뽐	-12.687
슝	-12.687
쥰	-12.687
챦	-12.687
콰	-12.687
ᆪ	-12.687
作	-12.687
냠	-12.687
렙	-12.687
뮈	-12.687
믈	-12.687
븅	-12.687
숏	-12.687
옇	-12.687
쨍	-12.687
찟	-12.687
찹	-12.687
촐	-12.687
퀵	-12.687
팥	-12.687
웍	-12.687
캉	-12.687
ン	-12.687
랔	-12.687
밈	-12.8299
퀀	-12.8299
굉	-12.9965
옳	-13.1614
눠	-13.1956
췌	-13.1964
텝	-13.4403
탤	-13.7799
햏	-14.2664
햌	-14.2665
츈	-14.2666
챘	-14.2667
짘	-14.2668
죨	-14.2669
뛸	-14.267
덟	-14.2671
훠	-14.2672
짊	-14.2673
왘	-14.2674
씸	-14.2675
썪	-14.2676
쌉	-14.2677
숟	-14.2678
빴	-14.2679
벚	-14.268
랗	-14.2681
냨	-14.2682
괭	-14.2683
흩	-14.2684
헵	-14.2685
헴	-14.2686
땔	-14.2687
故	-14.2688
헠	-14.2689
쥑	-14.269
잴	-14.2691
윅	-14.2692
닠	-14.2693
놧	-14.2694
뀜	-14.2695
껑	-14.2696
훑	-14.2697
홥	-14.2698
촛	-14.2699
앍	-14.27
뉜	-14.2701
샛	-14.2702
덱	-14.2703
낍	-14.2704
괞	-14.2705
휠	-14.2706
츤	-14.2707
좔	-14.2708
꺾	-14.2709
횟	-14.271
핥	-14.2711
폄	-14.2712
큽	-14.2713
옜	-14.2714
샐	-14.2715
쁩	-14.2716
뀔	-14.2717
휩	-14.2718
핡	-14.2719
큘	-14.272
콥	-14.2721
촘	-14.2722
뺴	-14.2723
멎	-14.2724
뵙	-14.2725
꺽	-14.2726
긁	-14.2727
딪	-14.2728
펏	-14.2729
릎	-14.273
낡	-14.2731
씻	-14.2732
녔	-14.2733
굵	-14.2734
셸	-14.2735
닳	-14.2736
켠	-14.2737
쥔	-14.2738
왼	-14.2739
귓	-14.274
픕	-14.2741
딨	-14.2742
넋	-14.2743
빚	-14.2744
꽥	-14.2745
뀐	-14.2746
뭡	-14.2747
얽	-14.2748
앓	-14.2749
쫒	-14.275
쨋	-14.2751
텅	-14.2752
꽉	-14.2753
붉	-14.2754
땠	-14.2755
홧	-14.2756
멤	-14.2757
둠	-14.2758
밟	-14.2759
뿜	-14.276
틋	-14.2761
빕	-14.2762
컸	-14.2763
뻣	-14.2764
옮	-14.2765
핸	-14.2766
맑	-14.2767
찢	-14.2768
엮	-14.2769
팠	-14.277
쨌	-14.2771
쫄	-14.2772
틸	-14.2773
띄	-14.2774
겪	-14.2775
껐	-14.2776
왤	-14.2777
뻤	-14.2778
쏟	-14.2779
닙	-14.278
딧	-14.2781
듭	-14.2782
꿔	-14.2783
섞	-14.2784
겉	-14.2785
획	-14.2786
쁨	-14.2787
됩	-14.2788
늦	-14.2789
볍	-14.279
찝	-14.2791
묻	-14.2792
똑	-14.2793
랐	-14.2794
깊	-14.2795
떻	-14.2796
렸	-14.2797
렇	-14.2798
봤	-14.2799
