<unk>	0
<s>	0
</s>	0
▁영화	-4.66075
▁너무	-4.92346
▁정말	-4.98093
▁진짜	-5.25415
▁이	-5.41039
▁영화.	-5.75135
▁왜	-5.84194
▁더	-5.84867
▁이런	-5.85174
▁그냥	-5.86133
▁수	-5.95035
▁영화를	-6.01709
▁잘	-6.06166
▁다	-6.07005
▁보고	-6.0933
▁좀	-6.13492
▁그	-6.14519
▁영화가	-6.14808
▁영화는	-6.1485
▁본	-6.19861
▁최고의	-6.25829
▁내가	-6.33864
▁ᄏᄏ	-6.34115
▁없는	-6.35837
▁이건	-6.39904
▁이렇게	-6.42765
▁완전	-6.4605
▁평점	-6.46845
▁봤는데	-6.47245
▁있는	-6.4834
▁좋은	-6.49329
▁이거	-6.49387
▁이게	-6.52357
▁보는	-6.5604
▁평점이	-6.56857
▁다시	-6.57172
▁내	-6.57871
▁그리고	-6.59346
▁참	-6.62165
▁많이	-6.63977
▁역시	-6.65272
▁난	-6.69617
▁연기	-6.72083
▁재밌게	-6.74385
▁한	-6.75139
▁것	-6.78684
▁하는	-6.8179
▁또	-6.82277
▁쓰레기	-6.84913
▁아	-6.85415
▁꼭	-6.86596
▁가장	-6.86766
▁보면	-6.86851
▁드라마	-6.87107
▁ᄏᄏᄏ	-6.93903
▁마지막	-6.96212
▁스토리	-7.01292
▁무슨	-7.03178
▁없고	-7.04896
▁볼	-7.07165
▁같은	-7.07478
▁없다.	-7.08741
▁ᅲᅲ	-7.08847
▁끝까지	-7.09166
▁ᄏ	-7.09485
▁대한	-7.09592
▁안	-7.09913
▁.	-7.10235
▁만든	-7.11099
▁솔직히	-7.11425
▁넘	-7.13514
▁봐도	-7.13848
▁하지만	-7.17596
▁전혀	-7.17828
▁뭐	-7.18878
▁말이	-7.18995
▁영화의	-7.20652
▁내내	-7.21011
▁아주	-7.2258
▁10점	-7.22945
▁지금	-7.24545
▁최악의	-7.26298
▁할	-7.26804
▁다른	-7.27696
▁..	-7.28081
▁ᄒᄒ	-7.2821
▁뭔가	-7.28467
▁그래도	-7.31746
▁어떻게	-7.32415
▁많은	-7.3255
▁재미있게	-7.3255
▁연기가	-7.33903
▁영화..	-7.33903
▁별	-7.36246
▁중	-7.37509
▁이걸	-7.39075
▁하고	-7.3994
▁모두	-7.41104
▁연기도	-7.41397
▁ᅳᅳ	-7.43325
▁재미	-7.43926
▁보다가	-7.44378
▁스토리가	-7.4453
▁아름다운	-7.4529
▁없다	-7.45443
▁근데	-7.45903
▁계속	-7.46519
▁제대로	-7.46829
▁최고	-7.47451
▁나오는	-7.47607
▁않고	-7.47607
▁제일	-7.48077
▁때문에	-7.48391
▁모든	-7.48391
▁아니라	-7.48549
▁영화에	-7.49341
▁내용이	-7.495
▁내용도	-7.49979
▁나는	-7.50943
▁별로	-7.51429
▁차라리	-7.52572
▁아직도	-7.53396
▁시간	-7.53562
▁않은	-7.54061
▁...	-7.54562
▁감독	-7.5473
▁감독이	-7.55572
▁감독의	-7.55911
▁시간이	-7.57451
▁때	-7.57969
▁스토리도	-7.5884
▁않는	-7.59894
▁여운이	-7.59894
▁만드는	-7.60071
▁한번	-7.60071
▁특히	-7.60426
▁오랜만에	-7.60604
▁아닌	-7.61139
▁재미도	-7.61497
▁보면서	-7.61677
▁1점	-7.61857
▁영화...	-7.61857
▁도대체	-7.62762
▁딱	-7.63309
▁보다	-7.63309
▁나도	-7.63492
▁마지막에	-7.63859
▁영화!	-7.64043
▁아깝다	-7.66278
▁나름	-7.66466
▁아까운	-7.66655
▁와	-7.66655
▁작품	-7.68179
▁배우들	-7.68563
▁하나	-7.68756
▁배우들의	-7.68949
▁^^	-7.69531
▁없이	-7.69921
▁영화다.	-7.69921
▁걍	-7.70313
▁영화라고	-7.711
▁좋아하는	-7.71298
▁그런	-7.72493
▁줄	-7.72493
▁주는	-7.735
▁못	-7.73703
▁보기	-7.73703
▁얼마나	-7.74927
▁요즘	-7.75752
▁보는내내	-7.76167
▁이제	-7.76167
▁절대	-7.76167
▁연기는	-7.76375
▁이영화	-7.76584
▁이해가	-7.76584
▁지루하고	-7.77002
▁액션	-7.77212
▁개인적으로	-7.77633
▁남는	-7.77633
▁아니고	-7.77844
▁조금	-7.78056
▁같다.	-7.7848
▁영화로	-7.7848
▁진심	-7.7848
▁뻔한	-7.78693
▁있다.	-7.78907
▁영화도	-7.79335
▁1점도	-7.80414
▁기억에	-7.80414
▁재미가	-7.81285
▁처음	-7.81285
▁그저	-7.81504
▁엄청	-7.81724
▁아무리	-7.82165
▁너무나	-7.82607
▁ᄏᄏᄏᄏ	-7.82829
▁멋진	-7.83722
▁생각이	-7.83946
▁봤던	-7.85076
▁한국	-7.85532
▁되는	-7.86911
▁전	-7.86911
▁좋고	-7.88075
▁매우	-7.8878
▁게	-7.89253
▁사람이	-7.89253
▁괜찮은	-7.89728
▁감동	-7.90206
▁하나도	-7.90206
▁그렇게	-7.90445
▁이야기	-7.90685
▁두	-7.90926
▁극장에서	-7.91167
▁싶은	-7.92872
▁것이	-7.93118
▁건	-7.93612
▁안되는	-7.93612
▁결국	-7.9386
▁함께	-7.9386
▁위해	-7.95109
▁위한	-7.9536
▁마음이	-7.96628
▁가슴이	-7.96883
▁내용은	-7.96883
▁같이	-7.97911
▁지루한	-7.97911
▁갈수록	-7.9817
▁그나마	-7.9817
▁개	-7.9895
▁내용	-7.99474
▁된	-7.99737
▁뭘	-7.99737
▁못한	-8.00264
▁명작	-8.00795
▁돈	-8.01061
▁영화다	-8.01328
▁주인공	-8.01328
▁큰	-8.01328
▁재밌는	-8.01596
▁제발	-8.01596
▁인생	-8.01864
▁것도	-8.02403
▁연기를	-8.02674
▁!	-8.04313
▁그래서	-8.04589
▁꽤	-8.0598
▁훨씬	-8.06542
▁ᄒ	-8.07107
▁나온	-8.07675
▁간만에	-8.0796
▁어떤	-8.0796
▁듯	-8.08247
▁영화중	-8.08247
▁아깝다.	-8.08533
▁영화입니다.	-8.08821
▁ᅲ	-8.10273
▁재밌고	-8.11154
▁나	-8.11449
▁밖에	-8.11449
▁거	-8.11745
▁것을	-8.11745
▁눈물이	-8.12043
▁어설픈	-8.12043
▁있고	-8.12043
▁다들	-8.1264
▁보지	-8.1264
▁영화관에서	-8.1264
▁ᅮᅮ	-8.12939
▁대해	-8.12939
▁생각을	-8.12939
▁저	-8.12939
▁누가	-8.1324
▁상당히	-8.1324
▁배우	-8.13542
▁사람들이	-8.13542
▁스토리는	-8.14452
▁진정한	-8.15064
▁감동을	-8.15989
▁연출	-8.16299
▁영화,	-8.16299
▁봤다.	-8.16922
▁생각보다	-8.16922
▁감동도	-8.17235
▁정도로	-8.17235
▁걸	-8.17549
▁결말이	-8.17549
▁대체	-8.1818
▁재밌다	-8.18814
▁잔잔한	-8.19133
▁배우들이	-8.19774
▁좋다	-8.19774
▁바로	-8.20096
▁아니다.	-8.20096
▁우리	-8.20096
▁감동적인	-8.2042
▁느낌이	-8.20744
▁오늘	-8.20744
▁중간에	-8.20744
▁보여주는	-8.21069
▁주고	-8.21069
▁보게	-8.21723
▁좋다.	-8.21723
▁아니	-8.22051
▁,	-8.2238
▁뭔	-8.2238
▁사람	-8.2238
▁일본	-8.2238
▁굉장히	-8.23709
▁나와서	-8.23709
▁우리나라	-8.23709
▁될	-8.24718
▁원작을	-8.24718
▁거의	-8.25056
▁장면이	-8.25396
▁평점을	-8.26421
▁재미는	-8.27111
▁해서	-8.27458
▁갑자기	-8.27806
▁존나	-8.27806
▁보니	-8.28155
▁자체가	-8.28505
▁여자	-8.29563
▁코미디	-8.29563
▁알고	-8.29918
▁느낌	-8.30275
▁좋았다.	-8.30275
▁~	-8.30633
▁기억이	-8.30633
▁약간	-8.31714
▁당시	-8.32077
▁봤습니다.	-8.32077
▁이영화를	-8.32077
▁재미있는	-8.32807
▁비해	-8.33174
▁사람은	-8.33174
▁싶다.	-8.33174
▁장면	-8.33174
▁그러나	-8.33542
▁말	-8.33542
▁있어서	-8.33542
▁충분히	-8.33912
▁제가	-8.34283
▁기대	-8.34655
▁훌륭한	-8.34655
▁마음에	-8.35404
▁항상	-8.35404
▁그런지	-8.36919
▁대박	-8.37302
▁봐서	-8.37302
▁저는	-8.37302
▁것은	-8.37686
▁말도	-8.38458
▁어디서	-8.38458
▁새로운	-8.38846
▁처음부터	-8.39236
▁그대로	-8.39627
▁준	-8.39627
▁맘에	-8.4002
▁봤지만	-8.40415
▁주인공이	-8.40415
▁가지고	-8.41208
▁감독은	-8.41208
▁나의	-8.41208
▁볼만한	-8.41208
▁작품.	-8.41608
▁재미없다	-8.42008
▁전개가	-8.42008
▁수가	-8.42411
▁없어서	-8.42411
▁가슴	-8.43221
▁더욱	-8.43221
▁이딴	-8.43628
▁일단	-8.43628
▁드라마.	-8.44448
▁봤다	-8.44448
▁사람들	-8.44448
▁한마디로	-8.44448
▁이영화는	-8.4486
▁있지만	-8.4486
▁좋은데	-8.4486
▁사람들은	-8.45274
▁점점	-8.45274
▁무조건	-8.4569
▁사랑을	-8.4569
▁생각하게	-8.4569
▁다시봐도	-8.46107
▁뭐가	-8.46107
▁했는데	-8.46107
▁도저히	-8.46527
▁시리즈	-8.46527
▁같다	-8.46948
▁몰입도	-8.47371
▁연기력	-8.47371
▁재미없는	-8.47371
▁엄청난	-8.47795
▁아니다	-8.48222
▁아직	-8.48222
▁?	-8.4865
▁모르고	-8.4865
▁오히려	-8.4865
▁전형적인	-8.49512
▁재밌어요	-8.49946
▁평점은	-8.49946
▁대단한	-8.50381
▁굿	-8.50819
▁이야기를	-8.50819
▁그게	-8.51259
▁감동이	-8.517
▁평점에	-8.517
▁이것도	-8.52144
▁하지	-8.52144
▁없음	-8.52589
▁-	-8.53036
▁따뜻한	-8.53486
▁전부	-8.53486
▁막장	-8.53937
▁영화인데	-8.53937
▁예전에	-8.53937
▁완벽한	-8.53937
▁있다	-8.53937
▁해도	-8.53937
▁최악	-8.54391
▁억지로	-8.54847
▁인간의	-8.54847
▁액션도	-8.55304
▁원래	-8.55304
▁제	-8.55304
▁짱	-8.55304
▁최고다	-8.56226
▁너무너무	-8.5669
▁배우가	-8.5669
▁우연히	-8.57156
▁특유의	-8.57156
▁스릴러	-8.57624
▁긴장감	-8.58095
▁ᄍᄍ	-8.58568
▁만들어	-8.58568
▁영화!!	-8.58568
▁처음으로	-8.59043
▁하면	-8.5952
▁않는다.	-8.6
▁자꾸	-8.6
▁재밌음	-8.6
▁지금도	-8.6
▁네이버	-8.60482
▁별점	-8.60482
▁장면은	-8.60482
▁몇	-8.60966
▁보세요	-8.60966
▁아무것도	-8.60966
▁B급	-8.61453
▁느낄	-8.61453
▁이미	-8.61453
▁못하는	-8.61942
▁정도	-8.61942
▁3류	-8.62433
▁사랑	-8.62433
▁영화보다	-8.62433
▁중에	-8.62433
▁한다.	-8.62927
▁생각	-8.63423
▁저도	-8.63423
▁듯한	-8.64423
▁수준	-8.64423
▁유치한	-8.64423
▁물론	-8.64927
▁믿고	-8.64927
▁또한	-8.65433
▁보는데	-8.65433
▁돈주고	-8.65942
▁그의	-8.66454
▁알	-8.66454
▁영화라	-8.66454
▁원작	-8.66454
▁그만	-8.66968
▁기분	-8.66968
▁더럽게	-8.66968
▁이런걸	-8.66968
▁빨리	-8.67485
▁왜이리	-8.67485
▁!!	-8.68004
▁너무나도	-8.68004
▁말고	-8.68004
▁돈이	-8.68526
▁드라마를	-8.68526
▁스토리에	-8.68526
▁아이들이	-8.68526
▁어느	-8.68526
▁재미있고	-8.68526
▁저런	-8.68526
▁모습이	-8.69051
▁반전	-8.69051
▁연출이	-8.69051
▁유치하고	-8.69051
▁최고!	-8.69051
▁듯.	-8.69579
▁라는	-8.69579
▁영화에서	-8.69579
▁삶을	-8.7011
▁이야기가	-8.7011
▁있는데	-8.7011
▁지금까지	-8.7011
▁같은데	-8.70643
▁억지	-8.70643
▁기대하고	-8.71179
▁막	-8.71179
▁모르겠다.	-8.71179
▁소재는	-8.71179
▁재밌다.	-8.71179
▁하게	-8.71179
▁느끼게	-8.71718
▁쓰레기영화	-8.71718
▁어릴때	-8.71718
▁OO	-8.7226
▁마치	-8.7226
▁결말	-8.72805
▁드라마가	-8.72805
▁않다.	-8.72805
▁확실히	-8.72805
▁남자	-8.73353
▁마음을	-8.73353
▁애들	-8.73353
▁좋았다	-8.73353
▁괜히	-8.73904
▁싶다	-8.73904
▁이런게	-8.73904
▁지금봐도	-8.73904
▁영화~	-8.74458
▁진부한	-8.74458
▁다소	-8.75015
▁모습을	-8.75015
▁이해	-8.75015
▁자신의	-8.75015
▁화려한	-8.75015
▁눈물	-8.75575
▁영화중에	-8.75575
▁이젠	-8.75575
▁재미없고	-8.75575
▁전체적으로	-8.75575
▁없었다.	-8.76139
▁눈이	-8.77275
▁미친	-8.77275
▁혼자	-8.77275
▁....	-8.77848
▁앞으로	-8.77848
▁영화였다.	-8.77848
▁한국영화	-8.77848
▁내용을	-8.78425
▁느낌.	-8.78425
▁무엇보다	-8.78425
▁부분이	-8.78425
▁스토리와	-8.78425
▁왠지	-8.78425
▁이영화가	-8.78425
▁재밌는데	-8.78425
▁가는	-8.79004
▁대사	-8.79004
▁여자가	-8.79004
▁여전히	-8.79004
▁있다는	-8.79004
▁모르는	-8.79587
▁비슷한	-8.79587
▁이상	-8.79587
▁후	-8.79587
▁그런데	-8.80174
▁애니메이션	-8.80174
▁없음.	-8.80174
▁나를	-8.80764
▁날	-8.80764
▁소재를	-8.80764
▁어렸을때	-8.80764
▁연기에	-8.80764
▁캐릭터	-8.80764
▁드라마는	-8.81357
▁사람을	-8.81357
▁사실	-8.81357
▁액션은	-8.81357
▁허접한	-8.81357
▁ᄒᄒᄒ	-8.81954
▁왜이렇게	-8.81954
▁추천	-8.81954
▁노잼	-8.82555
▁아니면	-8.82555
▁재미없음	-8.82555
▁봐야	-8.83159
▁순수한	-8.83159
▁스토리를	-8.83159
▁좋아요	-8.83767
▁그들의	-8.84379
▁깊은	-8.84379
▁높은	-8.84379
▁보고나서	-8.84379
▁보는게	-8.84379
▁볼때마다	-8.84379
▁아쉬운	-8.84379
▁연기와	-8.84379
▁이리	-8.84379
▁있을	-8.84379
▁통해	-8.84379
▁뭐야	-8.84994
▁반전이	-8.84994
▁아무	-8.84994
▁졸작	-8.84994
▁눈을	-8.85613
▁매력적인	-8.85613
▁아님	-8.85613
▁옛날	-8.85613
▁유쾌한	-8.85613
▁지난	-8.85613
▁현실을	-8.85613
▁슬픈	-8.86236
▁어이없는	-8.86236
▁음악	-8.86236
▁전에	-8.86236
▁점수	-8.86236
▁굳이	-8.86863
▁먼저	-8.86863
▁보기엔	-8.86863
▁영화보고	-8.87494
▁이런영화	-8.87494
▁주인공의	-8.87494
▁독특한	-8.88129
▁애니	-8.88129
▁액션이	-8.88129
▁못하고	-8.88768
▁부족한	-8.88768
▁;;	-8.89411
▁보여준	-8.89411
▁어색한	-8.89411
▁연기력이	-8.89411
▁전개	-8.89411
▁졸라	-8.89411
▁기대를	-8.90059
▁봤어요	-8.90059
▁안하고	-8.90059
▁이유가	-8.90059
▁언제	-8.9071
▁재미를	-8.9071
▁그렇고	-8.91366
▁나만	-8.91366
▁매력이	-8.91366
▁이런거	-8.91366
▁배우의	-8.92026
▁스토리,	-8.92026
▁시나리오	-8.92026
▁영화지만	-8.92026
▁지루하다	-8.92026
▁모르겠다	-8.9269
▁음악이	-8.9269
▁있었던	-8.9269
▁힘든	-8.9269
▁과연	-8.93359
▁귀여운	-8.93359
▁볼수	-8.93359
▁아름답고	-8.93359
▁알았는데	-8.93359
▁있어	-8.93359
▁재미없다.	-8.93359
▁재밌네요	-8.93359
▁해준	-8.93359
▁감동적이고	-8.94032
▁다만	-8.94032
▁여주인공	-8.94032
▁저렇게	-8.94032
▁참고	-8.94032
▁평범한	-8.94032
▁공포	-8.9471
▁느껴지는	-8.9471
▁만들지	-8.9471
▁없어	-8.9471
▁이야기.	-8.9471
▁감동과	-8.95393
▁보이는	-8.95393
▁사람의	-8.95393
▁사랑에	-8.95393
▁사랑이	-8.95393
▁역대	-8.95393
▁영화네요	-8.95393
▁지루함	-8.95393
▁봤다가	-8.9608
▁삶의	-8.9608
▁역시나	-8.9608
▁영화입니다	-8.9608
▁티비에서	-8.9608
▁ᄉᄇ	-8.96772
▁공감이	-8.96772
▁공포영화	-8.96772
▁처음엔	-8.96772
▁OOO	-8.97469
▁ᄏᄏᄏᄏᄏ	-8.97469
▁귀엽고	-8.97469
▁볼수록	-8.97469
▁소재가	-8.97469
▁신선한	-8.97469
▁아까움	-8.97469
▁아니지만	-8.97469
▁이상한	-8.97469
▁이정도면	-8.97469
▁알게	-8.98171
▁준다.	-8.98171
▁그닥	-8.98878
▁살짝	-8.98878
▁수작	-8.98878
▁아쉽다.	-8.98878
▁지루하지	-8.98878
▁지루해서	-8.98878
▁등	-8.9959
▁로맨스	-8.9959
▁몰입이	-8.9959
▁해주는	-8.9959
▁것이다.	-9.00306
▁마음	-9.00306
▁만들어진	-9.00306
▁뭔지	-9.00306
▁정말로	-9.00306
▁좋아서	-9.00306
▁중간중간	-9.00306
▁지루하다.	-9.00306
▁질질	-9.00306
▁개연성	-9.01028
▁만들	-9.01028
▁세상에	-9.01028
▁우리가	-9.01028
▁하는데	-9.01028
▁하면서	-9.01028
▁봤습니다	-9.01756
▁삼류	-9.01756
▁속	-9.01756
▁연출도	-9.01756
▁영	-9.01756
▁가서	-9.02488
▁드는	-9.02488
▁시간을	-9.02488
▁있었다.	-9.02488
▁자기	-9.02488
▁가진	-9.03226
▁그리	-9.03226
▁떨어지는	-9.03226
▁보세요.	-9.03226
▁봤으면	-9.03226
▁않을	-9.03226
▁했던	-9.03226
▁감독님	-9.0397
▁봐야할	-9.0397
▁이유는	-9.0397
▁인생을	-9.0397
▁점수를	-9.0397
▁제목이	-9.0397
▁진심으로	-9.0397
▁가볍게	-9.04719
▁나오고	-9.04719
▁나중에	-9.04719
▁반전도	-9.04719
▁번	-9.04719
▁사랑하는	-9.04719
▁서로	-9.04719
▁어린	-9.04719
▁필요	-9.04719
▁80년대	-9.05474
▁90년대	-9.05474
▁나왔으면	-9.05474
▁대충	-9.05474
▁쓴	-9.05474
▁여기	-9.05474
▁영화....	-9.05474
▁이후	-9.05474
▁있다면	-9.05474
▁크게	-9.05474
▁했지만	-9.05474
▁-_-	-9.06234
▁끝나고	-9.06234
▁노래	-9.06234
▁않게	-9.06234
▁애들이	-9.06234
▁없고,	-9.06234
▁짜증나는	-9.06234
▁필요없는	-9.06234
▁했다.	-9.06234
▁기분이	-9.07
▁언제나	-9.07
▁추억의	-9.07
▁눈물을	-9.07772
▁느낌을	-9.07772
▁되게	-9.07772
▁만큼	-9.07772
▁봐라	-9.07772
▁쉽게	-9.07772
▁아..	-9.07772
▁연출,	-9.07772
▁있게	-9.07772
▁합니다.	-9.07772
▁겁나	-9.08551
▁낮아서	-9.08551
▁부터	-9.08551
▁사랑과	-9.08551
▁소재로	-9.08551
▁열심히	-9.08551
▁음악도	-9.08551
▁이제야	-9.08551
▁작품이	-9.08551
▁죄다	-9.08551
▁나에게	-9.09335
▁몰라도	-9.09335
▁뭐냐	-9.09335
▁불구하고	-9.09335
▁시대를	-9.09335
▁않는다	-9.09335
▁결말은	-9.10126
▁단순한	-9.10126
▁배우들도	-9.10126
▁대한민국	-9.10922
▁더이상	-9.10922
▁뛰어난	-9.10922
▁맞는	-9.10922
▁밑에	-9.10922
▁봤음	-9.10922
▁사는	-9.10922
▁없을	-9.10922
▁있을까?	-9.10922
▁0점은	-9.11726
▁무엇을	-9.11726
▁보니까	-9.11726
▁아쉽다	-9.11726
▁어이가	-9.11726
▁엉성한	-9.11726
▁잼있게	-9.11726
▁좀더	-9.11726
▁좋아	-9.11726
▁좋았고	-9.11726
▁지금은	-9.11726
▁말을	-9.12535
▁모든게	-9.12535
▁미국	-9.12535
▁사랑스러운	-9.12535
▁생애	-9.12535
▁아는	-9.12535
▁제목	-9.12535
▁까지	-9.13352
▁하다.	-9.13352
▁한다	-9.13352
▁강추	-9.14175
▁결말도	-9.14175
▁수도	-9.14175
▁잘만든	-9.14175
▁ᅳ	-9.15005
▁걸작	-9.15005
▁그럭저럭	-9.15005
▁내인생	-9.15005
▁둘다	-9.15005
▁수준이	-9.15005
▁실제	-9.15005
▁옛날에	-9.15005
▁인생의	-9.15005
▁젤	-9.15005
▁최고.	-9.15005
▁캐스팅	-9.15005
▁같습니다.	-9.15841
▁남자가	-9.15841
▁누구나	-9.15841
▁늘	-9.15841
▁몇번을	-9.15841
▁생각한다.	-9.15841
▁소재	-9.15841
▁속에	-9.15841
▁작품을	-9.15841
▁잔잔하고	-9.15841
▁평생	-9.15841
▁프랑스	-9.15841
▁남을	-9.16685
▁대사가	-9.16685
▁딱히	-9.16685
▁아놔	-9.16685
▁어릴적	-9.16685
▁단지	-9.17536
▁보고나면	-9.17536
▁생각나는	-9.17536
▁여주	-9.17536
▁오래	-9.17536
▁집에서	-9.17536
▁흔한	-9.17536
▁그걸	-9.18395
▁긴	-9.18395
▁무서운	-9.18395
▁봤었는데	-9.18395
▁생각없이	-9.18395
▁웃기고	-9.18395
▁유쾌하고	-9.18395
▁작가가	-9.18395
▁좋네요	-9.18395
▁초반에	-9.18395
▁같아서	-9.19261
▁다시한번	-9.19261
▁되지	-9.19261
▁몰입해서	-9.19261
▁없지만	-9.19261
▁영화였습니다.	-9.19261
▁이런영화가	-9.19261
▁좋았는데	-9.19261
▁판타지	-9.19261
▁가끔	-9.20134
▁낮은	-9.20134
▁된다.	-9.20134
▁라고	-9.20134
▁보고싶은	-9.20134
▁아깝지	-9.20134
▁안되고	-9.20134
▁음악과	-9.20134
▁의외로	-9.20134
▁준다	-9.20134
▁탄탄한	-9.20134
▁가	-9.21015
▁그렇다고	-9.21015
▁덕분에	-9.21015
▁사랑은	-9.21015
▁없네	-9.21015
▁2점	-9.21904
▁그때	-9.21904
▁단	-9.21904
▁만들고	-9.21904
▁뻔하고	-9.21904
▁슬프고	-9.21904
▁실망	-9.21904
▁알바	-9.21904
▁있으면	-9.21904
▁첫	-9.21904
▁감정을	-9.22801
▁더빙	-9.22801
▁말로	-9.22801
▁봤는데,	-9.22801
▁분명	-9.22801
▁생각하고	-9.22801
▁스토리.	-9.22801
▁재미있어요	-9.22801
▁즐겁게	-9.22801
▁지	-9.22801
▁+	-9.23706
▁0점	-9.23706
▁긴장감도	-9.23706
▁나서	-9.23706
▁드럽게	-9.23706
▁만	-9.23706
▁안보고	-9.23706
▁영화네요.	-9.23706
▁영화임	-9.23706
▁원작의	-9.23706
▁위대한	-9.23706
▁이후로	-9.23706
▁좋음	-9.23706
▁처럼	-9.23706
▁더불어	-9.24619
▁떠나서	-9.24619
▁발연기	-9.24619
▁사랑의	-9.24619
▁신선하고	-9.24619
▁이거보고	-9.24619
▁초반	-9.24619
▁같아요	-9.25541
▁게다가	-9.25541
▁나오면	-9.25541
▁남자의	-9.25541
▁말하고	-9.25541
▁않지만	-9.25541
▁어려운	-9.25541
▁잊혀지지	-9.25541
▁장면에서	-9.25541
▁지나치게	-9.25541
▁그럼	-9.26471
▁극장판	-9.26471
▁방금	-9.26471
▁손발이	-9.26471
▁어제	-9.26471
▁연기력도	-9.26471
▁의미를	-9.26471
▁현실적인	-9.26471
▁OOO기	-9.2741
▁나올	-9.2741
▁빼고는	-9.2741
▁사람들의	-9.2741
▁아오	-9.2741
▁같아	-9.28358
▁따뜻해지는	-9.28358
▁로맨틱	-9.28358
▁본다면	-9.28358
▁완전히	-9.28358
▁웃음이	-9.28358
▁유명한	-9.28358
▁입니다.	-9.28358
▁하나의	-9.28358
▁ᅳᅳ;	-9.29315
▁비디오	-9.29315
▁암튼	-9.29315
▁엔딩	-9.29315
▁연기,	-9.29315
▁이유를	-9.29315
▁작가	-9.29315
▁좋겠다.	-9.29315
▁찍은	-9.29315
▁한국영화는	-9.29315
▁!!!	-9.30281
▁the	-9.30281
▁같아요.	-9.30281
▁개연성이	-9.30281
▁그다지	-9.30281
▁되고	-9.30281
▁모두가	-9.30281
▁벌써	-9.30281
▁않았다.	-9.30281
▁여배우	-9.30281
▁이해할	-9.30281
▁참으로	-9.30281
▁ᄃᄃ	-9.31256
▁꿈을	-9.31256
▁모르게	-9.31256
▁봣는데	-9.31256
▁이정도	-9.31256
▁재밌었는데	-9.31256
▁최근	-9.31256
▁평점보고	-9.31256
▁ᅲᅲᅲ	-9.32242
▁관한	-9.32242
▁느끼는	-9.32242
▁무섭지도	-9.32242
▁삶에	-9.32242
▁순간	-9.32242
▁싸구려	-9.32242
▁않다	-9.32242
▁어렸을	-9.32242
▁없다는	-9.32242
▁영상	-9.32242
▁우리의	-9.32242
▁좋았던	-9.32242
▁쫌	-9.32242
▁최고다.	-9.32242
▁그녀의	-9.33237
▁꿀잼	-9.33237
▁단연	-9.33237
▁봤는데..	-9.33237
▁없었다	-9.33237
▁예쁜	-9.33237
▁우리는	-9.33237
▁웃기지도	-9.33237
▁인간이	-9.33237
▁잊지	-9.33237
▁전개도	-9.33237
▁주연	-9.33237
▁지루하게	-9.33237
▁현재	-9.33237
▁훨	-9.33237
▁9점	-9.34242
▁눈	-9.34242
▁되어	-9.34242
▁맨날	-9.34242
▁목소리	-9.34242
▁보며	-9.34242
▁빼고	-9.34242
▁산으로	-9.34242
▁앞으로도	-9.34242
▁영화보면서	-9.34242
▁작품은	-9.34242
▁잔인한	-9.34242
▁재미와	-9.34242
▁존	-9.34242
▁표현한	-9.34242
▁하나.	-9.34242
▁하다	-9.34242
▁학교에서	-9.34242
▁가슴에	-9.35257
▁감동의	-9.35257
▁눈에	-9.35257
▁든다.	-9.35257
▁봄	-9.35257
▁왜케	-9.35257
▁왠만하면	-9.35257
▁이쁘고	-9.35257
▁재미있다.	-9.35257
▁정도의	-9.35257
▁좋아해서	-9.35257
▁명작.	-9.36283
▁반개도	-9.36283
▁스토리의	-9.36283
▁장르가	-9.36283
▁진부하고	-9.36283
▁캐릭터가	-9.36283
▁평이	-9.36283
▁해	-9.36283
▁긴장감이	-9.37319
▁끝나는	-9.37319
▁넘치는	-9.37319
▁동안	-9.37319
▁매력	-9.37319
▁수준의	-9.37319
▁시청률	-9.37319
▁아...	-9.37319
▁아닌데	-9.37319
▁인해	-9.37319
▁재미있다	-9.37319
▁즐거운	-9.37319
▁킬링타임용	-9.37319
▁흥미로운	-9.37319
▁관객을	-9.38366
▁다음	-9.38366
▁아이가	-9.38366
▁영원히	-9.38366
▁영화이다.	-9.38366
▁자신이	-9.38366
▁포스터	-9.38366
▁만들어도	-9.39424
▁멍청한	-9.39424
▁뭐지?	-9.39424
▁배우를	-9.39424
▁세상을	-9.39424
▁알았다.	-9.39424
▁여러	-9.39424
▁자신을	-9.39424
▁재미없어	-9.39424
▁저질	-9.39424
▁점수가	-9.39424
▁펑펑	-9.39424
▁10점을	-9.40494
▁나와	-9.40494
▁다룬	-9.40494
▁막판에	-9.40494
▁만한	-9.40494
▁보다는	-9.40494
▁심하게	-9.40494
▁최고!!	-9.40494
▁하는지	-9.40494
▁행복한	-9.40494
▁힘이	-9.40494
▁가치가	-9.41575
▁분들은	-9.41575
▁분위기	-9.41575
▁어찌	-9.41575
▁이제서야	-9.41575
▁잊을	-9.41575
▁평론가	-9.41575
▁한심한	-9.41575
▁감히	-9.42668
▁대놓고	-9.42668
▁만화	-9.42668
▁문제가	-9.42668
▁뭐지	-9.42668
▁보지마세요	-9.42668
▁분위기가	-9.42668
▁뿐	-9.42668
▁생각나서	-9.42668
▁소름	-9.42668
▁어디	-9.42668
▁이번	-9.42668
▁인간	-9.42668
▁좋았으나	-9.42668
▁지나도	-9.42668
▁:	-9.43773
▁가슴을	-9.43773
▁개연성도	-9.43773
▁것.	-9.43773
▁낫다	-9.43773
▁다시는	-9.43773
▁말할	-9.43773
▁매력을	-9.43773
▁시절	-9.43773
▁연출과	-9.43773
▁올해	-9.43773
▁하나같이	-9.43773
▁한데	-9.43773
▁기대안하고	-9.4489
▁끝이	-9.4489
▁똑같은	-9.4489
▁모르겠지만	-9.4489
▁비디오로	-9.4489
▁생각하면	-9.4489
▁아닌가	-9.4489
▁아이들	-9.4489
▁얼굴	-9.4489
▁영화였다	-9.4489
▁원작이	-9.4489
▁재밌었다.	-9.4489
▁좋게	-9.4489
▁좋았습니다.	-9.4489
▁주인공은	-9.4489
▁진정	-9.4489
▁결말을	-9.4602
▁나쁘지	-9.4602
▁뒤로	-9.4602
▁만들면	-9.4602
▁머	-9.4602
▁봤네요	-9.4602
▁속에서	-9.4602
▁아까워	-9.4602
▁이래서	-9.4602
▁이야기는	-9.4602
▁있음	-9.4602
▁저예산	-9.4602
▁짜증	-9.4602
▁감정이	-9.47163
▁노래도	-9.47163
▁더러운	-9.47163
▁반전은	-9.47163
▁봤어요.	-9.47163
▁생각하는	-9.47163
▁애들은	-9.47163
▁온	-9.47163
▁젊은	-9.47163
▁좋았어요	-9.47163
▁느낌의	-9.48319
▁두고	-9.48319
▁몰입도가	-9.48319
▁의미가	-9.48319
▁재밋게	-9.48319
▁전기세가	-9.48319
▁좋은영화	-9.48319
▁지루할	-9.48319
▁최고로	-9.48319
▁푹	-9.48319
▁헐	-9.48319
▁훈훈한	-9.48319
▁답답한	-9.49489
▁명작이다	-9.49489
▁박수를	-9.49489
▁보려고	-9.49489
▁생각합니다.	-9.49489
▁스스로	-9.49489
▁안된다.	-9.49489
▁않음	-9.49489
▁없네요	-9.49489
▁여운을	-9.49489
▁작은	-9.49489
▁좋지만	-9.49489
▁질리지	-9.49489
▁ᅮ	-9.50672
▁그건	-9.50672
▁노래가	-9.50672
▁느낄수	-9.50672
▁되었다.	-9.50672
▁없었던	-9.50672
▁재미없게	-9.50672
▁전설의	-9.50672
▁좋을	-9.50672
▁주기도	-9.50672
▁중국	-9.50672
▁필요한	-9.50672
▁한국의	-9.50672
▁함	-9.50672
▁가족	-9.5187
▁결코	-9.5187
▁꽤나	-9.5187
▁나쁜	-9.5187
▁난다.	-9.5187
▁먹고	-9.5187
▁발로	-9.5187
▁보기에는	-9.5187
▁본게	-9.5187
▁봤는데...	-9.5187
▁부분도	-9.5187
▁비하면	-9.5187
▁쓰레기같은	-9.5187
▁여기서	-9.5187
▁연기력은	-9.5187
▁울고	-9.5187
▁이런영화를	-9.5187
▁재밌다고	-9.5187
▁좋았지만	-9.5187
▁주제를	-9.5187
▁하는게	-9.5187
▁그런가	-9.53082
▁극장가서	-9.53082
▁깊이	-9.53082
▁깨닫게	-9.53082
▁돈을	-9.53082
▁둘	-9.53082
▁따라	-9.53082
▁몇몇	-9.53082
▁봤더니	-9.53082
▁소중한	-9.53082
▁수많은	-9.53082
▁시리즈는	-9.53082
▁아무런	-9.53082
▁여주가	-9.53082
▁자체는	-9.53082
▁포스터가	-9.53082
▁혹은	-9.53082
▁개봉	-9.54309
▁말도안되는	-9.54309
▁말하는	-9.54309
▁무척	-9.54309
▁빼면	-9.54309
▁생각으로	-9.54309
▁성룡	-9.54309
▁실제로	-9.54309
▁쓰레기.	-9.54309
▁아예	-9.54309
▁안됨	-9.54309
▁알바들	-9.54309
▁약간의	-9.54309
▁이것이	-9.54309
▁좋았음	-9.54309
▁집중해서	-9.54309
▁할말이	-9.54309
▁현실	-9.54309
▁감동은	-9.55551
▁나오지	-9.55551
▁대해서	-9.55551
▁를	-9.55551
▁배우들은	-9.55551
▁볼만	-9.55551
▁봤는데도	-9.55551
▁살면서	-9.55551
▁소설을	-9.55551
▁식상한	-9.55551
▁아마	-9.55551
▁아직까지	-9.55551
▁여자의	-9.55551
▁역대급	-9.55551
▁영상이	-9.55551
▁예쁘고	-9.55551
▁이상의	-9.55551
▁재밌었다	-9.55551
▁재밌었어요	-9.55551
▁참신한	-9.55551
▁처음에는	-9.55551
▁최악.	-9.55551
▁8점	-9.56809
▁감독을	-9.56809
▁구성이	-9.56809
▁끝	-9.56809
▁답답하고	-9.56809
▁또다른	-9.56809
▁못할	-9.56809
▁못해	-9.56809
▁살고	-9.56809
▁색다른	-9.56809
▁소재도	-9.56809
▁소재와	-9.56809
▁심지어	-9.56809
▁쓸데없이	-9.56809
▁않아	-9.56809
▁억지스러운	-9.56809
▁없다..	-9.56809
▁역사를	-9.56809
▁일이	-9.56809
▁있지	-9.56809
▁장면도	-9.56809
▁정작	-9.56809
▁직접	-9.56809
▁찾아	-9.56809
▁한편의	-9.56809
▁0점이	-9.58083
▁1편은	-9.58083
▁ᄋᄋ	-9.58083
▁거기에	-9.58083
▁공감	-9.58083
▁그래	-9.58083
▁길게	-9.58083
▁다양한	-9.58083
▁데리고	-9.58083
▁드라마..	-9.58083
▁많고	-9.58083
▁멜로	-9.58083
▁무지	-9.58083
▁아름답게	-9.58083
▁일본영화	-9.58083
▁장면을	-9.58083
▁재미있음	-9.58083
▁죽는줄	-9.58083
▁중요한	-9.58083
▁지금의	-9.58083
▁책을	-9.58083
▁추억이	-9.58083
▁친구가	-9.58083
▁한번도	-9.58083
▁합니다	-9.58083
▁희망을	-9.58083
▁1편보다	-9.59373
▁2편은	-9.59373
▁교훈을	-9.59373
▁그린	-9.59373
▁그야말로	-9.59373
▁내용과	-9.59373
▁만들었다.	-9.59373
▁명작을	-9.59373
▁반드시	-9.59373
▁배우는	-9.59373
▁손에	-9.59373
▁안에	-9.59373
▁원작에	-9.59373
▁이건뭐	-9.59373
▁있었지만	-9.59373
▁재미없어서	-9.59373
▁잼	-9.59373
▁확	-9.59373
▁/	-9.6068
▁3점	-9.6068
▁겨우	-9.6068
▁그만큼	-9.6068
▁모든걸	-9.6068
▁모르겠고	-9.6068
▁분들	-9.6068
▁소소한	-9.6068
▁싶은데	-9.6068
▁싶지	-9.6068
▁안타까운	-9.6068
▁없는데	-9.6068
▁영상과	-9.6068
▁영화보는	-9.6068
▁영화와	-9.6068
▁의	-9.6068
▁중에서	-9.6068
▁최근에	-9.6068
▁한참	-9.6068
▁4점	-9.62005
▁of	-9.62005
▁낫다.	-9.62005
▁당신은	-9.62005
▁당연히	-9.62005
▁마지막까지	-9.62005
▁뭐하나	-9.62005
▁보여주고	-9.62005
▁본다.	-9.62005
▁볼만함	-9.62005
▁살다살다	-9.62005
▁아닌듯	-9.62005
▁엄마	-9.62005
▁영상미	-9.62005
▁영화!!!	-9.62005
▁영화임.	-9.62005
▁완성도	-9.62005
▁유일하게	-9.62005
▁이상하게	-9.62005
▁죽이고	-9.62005
▁10년이	-9.63347
▁tv	-9.63347
▁강렬한	-9.63347
▁나에겐	-9.63347
▁남는다.	-9.63347
▁너무도	-9.63347
▁단순히	-9.63347
▁두번	-9.63347
▁듣고	-9.63347
▁먼가	-9.63347
▁소름이	-9.63347
▁수작.	-9.63347
▁시리즈중	-9.63347
▁아닐까	-9.63347
▁없네요.	-9.63347
▁유일한	-9.63347
▁이런건	-9.63347
▁이해하기	-9.63347
▁일부러	-9.63347
▁재밌었음	-9.63347
▁태어나서	-9.63347
▁특별한	-9.63347
▁따뜻하고	-9.64708
▁볼게	-9.64708
▁뿐이다.	-9.64708
▁순	-9.64708
▁시청률이	-9.64708
▁실화를	-9.64708
▁아름답다.	-9.64708
▁오브	-9.64708
▁이해를	-9.64708
▁일본의	-9.64708
▁있을까	-9.64708
▁재밌어서	-9.64708
▁적당히	-9.64708
▁전쟁	-9.64708
▁정말이지	-9.64708
▁좋겠다	-9.64708
▁지루해	-9.64708
▁하다가	-9.64708
▁했으면	-9.64708
▁헐리우드	-9.64708
▁그것도	-9.66087
▁그렇지	-9.66087
▁기대했는데	-9.66087
▁높게	-9.66087
▁다시보니	-9.66087
▁대단하다	-9.66087
▁둘이	-9.66087
▁레알	-9.66087
▁많아서	-9.66087
▁많은걸	-9.66087
▁못했다.	-9.66087
▁반전을	-9.66087
▁별로다	-9.66087
▁보기에	-9.66087
▁숨겨진	-9.66087
▁아픈	-9.66087
▁연출은	-9.66087
▁영화인	-9.66087
▁이뻐서	-9.66087
▁있던	-9.66087
▁잼나게	-9.66087
▁줄거리	-9.66087
▁짱!	-9.66087
▁처음이다	-9.66087
▁첨엔	-9.66087
▁하나로	-9.66087
▁1편	-9.67486
▁같네요	-9.67486
▁그저그런	-9.67486
▁기억	-9.67486
▁넘게	-9.67486
▁돋보이는	-9.67486
▁마음으로	-9.67486
▁모습	-9.67486
▁무엇인지	-9.67486
▁별로..	-9.67486
▁보시길	-9.67486
▁불편한	-9.67486
▁사람도	-9.67486
▁살아가는	-9.67486
▁새벽에	-9.67486
▁설마	-9.67486
▁안된다	-9.67486
▁않아서	-9.67486
▁어쩔	-9.67486
▁없게	-9.67486
▁엉성하고	-9.67486
▁엔딩이	-9.67486
▁웃으면서	-9.67486
▁웃음	-9.67486
▁이토록	-9.67486
▁입니다	-9.67486
▁처음에	-9.67486
▁카메라	-9.67486
▁케이블에서	-9.67486
▁킬링타임용으로	-9.67486
▁하는거	-9.67486
▁70년대	-9.68904
▁ᄏᄏᄏᄏᄏᄏ	-9.68904
▁놓고	-9.68904
▁도	-9.68904
▁드라마!	-9.68904
▁리메이크	-9.68904
▁머리	-9.68904
▁머리가	-9.68904
▁보길	-9.68904
▁본지	-9.68904
▁사실을	-9.68904
▁아니라고	-9.68904
▁아님.	-9.68904
▁엄마가	-9.68904
▁여자는	-9.68904
▁영상미가	-9.68904
▁우와	-9.68904
▁웃고	-9.68904
▁이보다	-9.68904
▁일본은	-9.68904
▁출연한	-9.68904
▁하길래	-9.68904
▁흐르는	-9.68904
▁1편이	-9.70343
▁2	-9.70343
▁가벼운	-9.70343
▁감사합니다.	-9.70343
▁나름대로	-9.70343
▁남은	-9.70343
▁놀라운	-9.70343
▁단순	-9.70343
▁댓글	-9.70343
▁봤네요.	-9.70343
▁시간가는줄	-9.70343
▁시간에	-9.70343
▁어울리는	-9.70343
▁얼굴이	-9.70343
▁예전	-9.70343
▁오	-9.70343
▁웃긴	-9.70343
▁이런영화는	-9.70343
▁인생에	-9.70343
▁있어야	-9.70343
▁잘봤습니다.	-9.70343
▁전쟁의	-9.70343
▁짜증나서	-9.70343
▁치고	-9.70343
▁같음	-9.71803
▁남주	-9.71803
▁다르게	-9.71803
▁따로	-9.71803
▁땜에	-9.71803
▁만든다.	-9.71803
▁배우도	-9.71803
▁생각도	-9.71803
▁액션을	-9.71803
▁어느정도	-9.71803
▁언제봐도	-9.71803
▁여주인공이	-9.71803
▁연출력	-9.71803
▁영화라는	-9.71803
▁유쾌하게	-9.71803
▁이름	-9.71803
▁재미도없고	-9.71803
▁적어도	-9.71803
▁좋아요.	-9.71803
▁한번쯤	-9.71803
▁했다	-9.71803
▁2시간	-9.73284
▁=	-9.73284
▁결론은	-9.73284
▁그동안	-9.73284
▁느낌은	-9.73284
▁명작은	-9.73284
▁목소리가	-9.73284
▁보긴	-9.73284
▁봐라.	-9.73284
▁봤다면	-9.73284
▁세	-9.73284
▁소중함을	-9.73284
▁시간만	-9.73284
▁시나리오가	-9.73284
▁아깝다..	-9.73284
▁아쉬움이	-9.73284
▁없다...	-9.73284
▁음	-9.73284
▁이름이	-9.73284
▁인간은	-9.73284
▁있습니다.	-9.73284
▁잘못	-9.73284
▁재미로	-9.73284
▁재미없네	-9.73284
▁제목만	-9.73284
▁좋아할	-9.73284
▁진짜..	-9.73284
▁한국영화의	-9.73284
▁헐리웃	-9.73284
▁홍콩	-9.73284
▁희대의	-9.73284
▁1점은	-9.74788
▁ᅲ.ᅲ	-9.74788
▁갠적으로	-9.74788
▁기대없이	-9.74788
▁끝난	-9.74788
▁높아서	-9.74788
▁당시에	-9.74788
▁동시에	-9.74788
▁된다	-9.74788
▁때마다	-9.74788
▁만들어서	-9.74788
▁소재의	-9.74788
▁아이들과	-9.74788
▁않음.	-9.74788
▁어릴	-9.74788
▁어설프고	-9.74788
▁어쩜	-9.74788
▁오래된	-9.74788
▁울리는	-9.74788
▁이딴걸	-9.74788
▁있음.	-9.74788
▁잠깐	-9.74788
▁전개와	-9.74788
▁정말..	-9.74788
▁죽은	-9.74788
▁지루함.	-9.74788
▁코믹	-9.74788
▁프로그램	-9.74788
▁현실과	-9.74788
▁화가	-9.74788
▁;	-9.76315
▁갈	-9.76315
▁감사합니다	-9.76315
▁갖고	-9.76315
▁것에	-9.76315
▁굿굿	-9.76315
▁궁금해서	-9.76315
▁그것을	-9.76315
▁그렇다	-9.76315
▁내용의	-9.76315
▁덜	-9.76315
▁등등	-9.76315
▁만점	-9.76315
▁매력에	-9.76315
▁뭐라	-9.76315
▁시즌	-9.76315
▁안봐도	-9.76315
▁영화들	-9.76315
▁영화만	-9.76315
▁욕	-9.76315
▁있다고	-9.76315
▁있었는데	-9.76315
▁제작비	-9.76315
▁최악이다	-9.76315
▁하나하나가	-9.76315
▁한편	-9.76315
▁:)	-9.77865
▁가득한	-9.77865
▁그것이	-9.77865
▁나머지	-9.77865
▁낮게	-9.77865
▁데	-9.77865
▁도무지	-9.77865
▁디즈니	-9.77865
▁미국의	-9.77865
▁병맛	-9.77865
▁비추	-9.77865
▁빛을	-9.77865
▁빠진	-9.77865
▁생에	-9.77865
▁시대에	-9.77865
▁시작부터	-9.77865
▁싶을	-9.77865
▁쓸데없는	-9.77865
▁액션과	-9.77865
▁연출.	-9.77865
▁오랫만에	-9.77865
▁잔뜩	-9.77865
▁잔잔하게	-9.77865
▁잘하고	-9.77865
▁정도면	-9.77865
▁좋아하는데	-9.77865
▁죽는	-9.77865
▁중간	-9.77865
▁짜증나고	-9.77865
▁코메디	-9.77865
▁하나하나	-9.77865
▁해야	-9.77865
▁가족이	-9.7944
▁강한	-9.7944
▁김기덕	-9.7944
▁내가본	-9.7944
▁내생에	-9.7944
▁넌	-9.7944
▁멋지고	-9.7944
▁별로고	-9.7944
▁비주얼	-9.7944
▁아깝고	-9.7944
▁아닌가?	-9.7944
▁없는게	-9.7944
▁위해서	-9.7944
▁은근히	-9.7944
▁이런류의	-9.7944
▁자주	-9.7944
▁장난	-9.7944
▁재미없음.	-9.7944
▁재밌어	-9.7944
▁전반적으로	-9.7944
▁졸작.	-9.7944
▁지루	-9.7944
▁진짜로	-9.7944
▁최악이다.	-9.7944
▁포스터에	-9.7944
▁한국에서	-9.7944
▁현실이	-9.7944
▁공포를	-9.8104
▁괜찮은데	-9.8104
▁구성	-9.8104
▁나이가	-9.8104
▁대부분	-9.8104
▁떨어지고	-9.8104
▁몰입감	-9.8104
▁봐도봐도	-9.8104
▁봤을	-9.8104
▁봤음.	-9.8104
▁빛나는	-9.8104
▁사람이라면	-9.8104
▁소리	-9.8104
▁시간낭비	-9.8104
▁않고,	-9.8104
▁영원한	-9.8104
▁왤케	-9.8104
▁이름을	-9.8104
▁이쁜	-9.8104
▁자기가	-9.8104
▁조금은	-9.8104
▁죽이는	-9.8104
▁채널	-9.8104
▁필요없다	-9.8104
▁혹시	-9.8104
▁가고	-9.82666
▁가족의	-9.82666
▁나랑	-9.82666
▁드라마의	-9.82666
▁마라	-9.82666
▁받은	-9.82666
▁배경이	-9.82666
▁설정	-9.82666
▁세상이	-9.82666
▁시대의	-9.82666
▁쓰고	-9.82666
▁아나	-9.82666
▁아들이	-9.82666
▁어쩌면	-9.82666
▁없으면	-9.82666
▁왠	-9.82666
▁인생이	-9.82666
▁잘봤습니다	-9.82666
▁재미있네요	-9.82666
▁재밌어요.	-9.82666
▁적절한	-9.82666
▁좋다고	-9.82666
▁짝이	-9.82666
▁친구랑	-9.82666
▁탄탄하고	-9.82666
▁하	-9.82666
▁하지만,	-9.82666
▁할수	-9.82666
▁ᄍᄍᄍ	-9.84319
▁감독과	-9.84319
▁같네요.	-9.84319
▁공감도	-9.84319
▁그래픽	-9.84319
▁나은	-9.84319
▁너	-9.84319
▁드라마에	-9.84319
▁뜬금없는	-9.84319
▁마세요	-9.84319
▁마이클	-9.84319
▁말하고자	-9.84319
▁무섭고	-9.84319
▁믿고보는	-9.84319
▁본다	-9.84319
▁볼수있는	-9.84319
▁봐야하는	-9.84319
▁사람들을	-9.84319
▁삶이	-9.84319
▁아까움.	-9.84319
▁아저씨	-9.84319
▁액션영화	-9.84319
▁어른이	-9.84319
▁이것보단	-9.84319
▁인생은	-9.84319
▁장면들이	-9.84319
▁정도는	-9.84319
▁제목을	-9.84319
▁제임스	-9.84319
▁짧은	-9.84319
▁하네요	-9.84319
▁good	-9.86
▁~~	-9.86
▁각본	-9.86
▁감독도	-9.86
▁관객	-9.86
▁괜찮게	-9.86
▁나옴	-9.86
▁내용에	-9.86
▁다운	-9.86
▁들고	-9.86
▁마지막이	-9.86
▁모습은	-9.86
▁받을	-9.86
▁베스트	-9.86
▁보단	-9.86
▁보시면	-9.86
▁생각했는데	-9.86
▁아무도	-9.86
▁알겠는데	-9.86
▁액션,	-9.86
▁영화인지	-9.86
▁웃겨	-9.86
▁있는지	-9.86
▁작품이다.	-9.86
▁정도가	-9.86
▁좋습니다.	-9.86
▁좋았음.	-9.86
▁캐릭터들이	-9.86
▁캐릭터를	-9.86
▁표현	-9.86
▁허술한	-9.86
▁황당한	-9.86
▁10	-9.87709
▁10점.	-9.87709
▁기대가	-9.87709
▁나온다.	-9.87709
▁드라마...	-9.87709
▁뜬금없이	-9.87709
▁로버트	-9.87709
▁마지막엔	-9.87709
▁만들어낸	-9.87709
▁만들었는지	-9.87709
▁많은데	-9.87709
▁먼	-9.87709
▁뮤지컬	-9.87709
▁및	-9.87709
▁보았던	-9.87709
▁보지마라	-9.87709
▁볼려고	-9.87709
▁분들이	-9.87709
▁불쌍한	-9.87709
▁세상	-9.87709
▁시리즈의	-9.87709
▁쓰는	-9.87709
▁아무생각없이	-9.87709
▁아버지의	-9.87709
▁아쉽지만	-9.87709
▁어색하고	-9.87709
▁요소가	-9.87709
▁의도가	-9.87709
▁작가의	-9.87709
▁전체적인	-9.87709
▁점	-9.87709
▁점수는	-9.87709
▁점이	-9.87709
▁진한	-9.87709
▁집중이	-9.87709
▁짜증이	-9.87709
▁짱짱	-9.87709
▁착한	-9.87709
▁처음이다.	-9.87709
▁풋풋한	-9.87709
▁허접	-9.87709
▁화이팅	-9.87709
▁10자	-9.89449
▁1시간	-9.89449
▁2편이	-9.89449
▁ᅳᅳ;;	-9.89449
▁가면	-9.89449
▁가지	-9.89449
▁공감할	-9.89449
▁과거	-9.89449
▁그들이	-9.89449
▁담긴	-9.89449
▁듯..	-9.89449
▁떠나	-9.89449
▁마이너스	-9.89449
▁맛이	-9.89449
▁맞지	-9.89449
▁명복을	-9.89449
▁배우들을	-9.89449
▁보기가	-9.89449
▁부분	-9.89449
▁분	-9.89449
▁빠져서	-9.89449
▁빼곤	-9.89449
▁뿐.	-9.89449
▁수준을	-9.89449
▁스릴도	-9.89449
▁시작	-9.89449
▁시작해서	-9.89449
▁아이들의	-9.89449
▁연기력에	-9.89449
▁영화나	-9.89449
▁이쁘다	-9.89449
▁재미없다고	-9.89449
▁재밌네요.	-9.89449
▁재밌습니다	-9.89449
▁정신	-9.89449
▁주인공들	-9.89449
▁진지하게	-9.89449
▁집에	-9.89449
▁참...	-9.89449
▁최소	-9.89449
▁추천합니다.	-9.89449
▁포스터만	-9.89449
▁2편	-9.91219
▁CG가	-9.91219
▁가능한	-9.91219
▁교훈도	-9.91219
▁긴장감을	-9.91219
▁깊게	-9.91219
▁내용인지	-9.91219
▁는	-9.91219
▁마무리	-9.91219
▁말그대로	-9.91219
▁무언가	-9.91219
▁뭐..	-9.91219
▁배경	-9.91219
▁버리고	-9.91219
▁보던	-9.91219
▁안보는게	-9.91219
▁엄청나게	-9.91219
▁여러번	-9.91219
▁오로지	-9.91219
▁요즘은	-9.91219
▁유치해서	-9.91219
▁이제는	-9.91219
▁잊고	-9.91219
▁자극적인	-9.91219
▁작품성	-9.91219
▁전개.	-9.91219
▁전개는	-9.91219
▁진짜...	-9.91219
▁첨부터	-9.91219
▁캐릭터도	-9.91219
▁타고	-9.91219
▁하며	-9.91219
▁한개도	-9.91219
▁후반부	-9.91219
▁후에	-9.91219
▁1	-9.9302
▁CG	-9.9302
▁^	-9.9302
▁ost	-9.9302
▁가까운	-9.9302
▁가히	-9.9302
▁그렇지만	-9.9302
▁기가	-9.9302
▁끝나서	-9.9302
▁나온다	-9.9302
▁느껴진다.	-9.9302
▁다시금	-9.9302
▁다신	-9.9302
▁말고는	-9.9302
▁반전에	-9.9302
▁받고	-9.9302
▁보았는데	-9.9302
▁보여준다.	-9.9302
▁상황을	-9.9302
▁설정이	-9.9302
▁스릴	-9.9302
▁시종일관	-9.9302
▁아까울	-9.9302
▁알았다	-9.9302
▁앞에	-9.9302
▁여러모로	-9.9302
▁여자들	-9.9302
▁예고편	-9.9302
▁울면서	-9.9302
▁이상하고	-9.9302
▁작가님	-9.9302
▁정도.	-9.9302
▁좀비	-9.9302
▁주기	-9.9302
▁주제가	-9.9302
▁짜증만	-9.9302
▁첨	-9.9302
▁초딩	-9.9302
▁혹시나	-9.9302
▁흥미를	-9.9302
▁7점	-9.94855
▁ᄃᄃᄃ	-9.94855
▁ᄏᄏᄏᄏᄏᄏᄏ	-9.94855
▁내게	-9.94855
▁내생애	-9.94855
▁담은	-9.94855
▁멋있는	-9.94855
▁명작이다.	-9.94855
▁모를	-9.94855
▁뭐라고	-9.94855
▁봄.	-9.94855
▁부분은	-9.94855
▁살린	-9.94855
▁생각할	-9.94855
▁세계	-9.94855
▁스티븐	-9.94855
▁시도는	-9.94855
▁싫다	-9.94855
▁아쉬움	-9.94855
▁없다고	-9.94855
▁없지	-9.94855
▁역사상	-9.94855
▁영화보다가	-9.94855
▁왠만한	-9.94855
▁이야기의	-9.94855
▁인상적인	-9.94855
▁전문가	-9.94855
▁좋네요.	-9.94855
▁좋았을	-9.94855
▁하도	-9.94855
▁화면	-9.94855
▁I	-9.96725
▁TV에서	-9.96725
▁강추!	-9.96725
▁건지	-9.96725
▁것만	-9.96725
▁견자단	-9.96725
▁곧	-9.96725
▁깔끔한	-9.96725
▁나이	-9.96725
▁드디어	-9.96725
▁땐	-9.96725
▁만약	-9.96725
▁만점에	-9.96725
▁멋지게	-9.96725
▁받는	-9.96725
▁보고나니	-9.96725
▁보았습니다.	-9.96725
▁빠져	-9.96725
▁삶과	-9.96725
▁생각은	-9.96725
▁세상에서	-9.96725
▁순수하고	-9.96725
▁스토리..	-9.96725
▁싸우는	-9.96725
▁쓰래기	-9.96725
▁없고...	-9.96725
▁역겨운	-9.96725
▁역사에	-9.96725
▁연출력이	-9.96725
▁영상도	-9.96725
▁영화관	-9.96725
▁영화인듯	-9.96725
▁이상은	-9.96725
▁이연걸	-9.96725
▁있고,	-9.96725
▁재미없어요	-9.96725
▁재미있었다.	-9.96725
▁재밋다	-9.96725
▁재밌네	-9.96725
▁재밌음.	-9.96725
▁전개,	-9.96725
▁좋았습니다	-9.96725
▁추천합니다	-9.96725
▁충격적인	-9.96725
▁표현이	-9.96725
▁형편없는	-9.96725
▁후회	-9.96725
▁;;;	-9.98629
▁감정	-9.98629
▁개봉한	-9.98629
▁개뿔	-9.98629
▁공짜로	-9.98629
▁구성도	-9.98629
▁국내	-9.98629
▁그가	-9.98629
▁그당시	-9.98629
▁나머지는	-9.98629
▁남자는	-9.98629
▁다시보고	-9.98629
▁달리	-9.98629
▁당신의	-9.98629
▁듯...	-9.98629
▁똑같이	-9.98629
▁망한	-9.98629
▁몰입도도	-9.98629
▁밤에	-9.98629
▁별로.	-9.98629
▁보고싶다	-9.98629
▁비록	-9.98629
▁생각해	-9.98629
▁소름끼치는	-9.98629
▁어휴	-9.98629
▁여러가지	-9.98629
▁여자를	-9.98629
▁연예인	-9.98629
▁이영화의	-9.98629
▁인상	-9.98629
▁잘못된	-9.98629
▁잠이	-9.98629
▁지루함을	-9.98629
▁짜증나	-9.98629
▁초등학교	-9.98629
▁추천하고	-9.98629
▁친구	-9.98629
▁한다는	-9.98629
▁해라	-9.98629
▁공포가	-10.0057
▁글을	-10.0057
▁깜짝	-10.0057
▁끝을	-10.0057
▁니	-10.0057
▁당신이	-10.0057
▁도데체	-10.0057
▁독특하고	-10.0057
▁두고두고	-10.0057
▁드라마로	-10.0057
▁뛰어넘는	-10.0057
▁마냥	-10.0057
▁망작	-10.0057
▁맡은	-10.0057
▁매일	-10.0057
▁명성에	-10.0057
▁미소가	-10.0057
▁배경으로	-10.0057
▁보인다.	-10.0057
▁성룡의	-10.0057
▁수록	-10.0057
▁싶어서	-10.0057
▁아들	-10.0057
▁아무튼	-10.0057
▁않을까	-10.0057
▁알수	-10.0057
▁어울리지	-10.0057
▁어이	-10.0057
▁에서	-10.0057
▁에휴	-10.0057
▁영화속	-10.0057
▁오래전에	-10.0057
▁이도저도	-10.0057
▁일을	-10.0057
▁자연스럽게	-10.0057
▁찾아서	-10.0057
▁최고라고	-10.0057
▁표현할	-10.0057
▁현실은	-10.0057
▁10점주는	-10.0255
▁is	-10.0255
▁ᅲᅲᅲᅲ	-10.0255
▁가장한	-10.0255
▁가족을	-10.0255
▁간	-10.0255
▁개막장	-10.0255
▁거지같은	-10.0255
▁결말.	-10.0255
▁굳	-10.0255
▁그려낸	-10.0255
▁근래	-10.0255
▁글고	-10.0255
▁길을	-10.0255
▁끝도	-10.0255
▁다큐	-10.0255
▁다큐멘터리	-10.0255
▁대단하다.	-10.0255
▁대사도	-10.0255
▁더빙이	-10.0255
▁문제를	-10.0255
▁뭐고	-10.0255
▁보아도	-10.0255
▁보여	-10.0255
▁섬세한	-10.0255
▁소설	-10.0255
▁스트레스	-10.0255
▁시리즈를	-10.0255
▁신의	-10.0255
▁아니라면	-10.0255
▁않았다	-10.0255
▁야	-10.0255
▁어두운	-10.0255
▁영화^^	-10.0255
▁영화냐?	-10.0255
▁영화이다	-10.0255
▁오랫동안	-10.0255
▁와우	-10.0255
▁완벽하게	-10.0255
▁웃김	-10.0255
▁음악은	-10.0255
▁의도는	-10.0255
▁이거보단	-10.0255
▁이따위	-10.0255
▁읽고	-10.0255
▁있었으면	-10.0255
▁재미없다..	-10.0255
▁재밌다는	-10.0255
▁정말...	-10.0255
▁정신이	-10.0255
▁제작비가	-10.0255
▁조금만	-10.0255
▁조잡한	-10.0255
▁진지한	-10.0255
▁쩐다	-10.0255
▁참..	-10.0255
▁초딩때	-10.0255
▁필요가	-10.0255
▁하기엔	-10.0255
▁하나가	-10.0255
▁하나는	-10.0255
▁M창	-10.0457
▁ᄒᄒᄒᄒ	-10.0457
▁감동.	-10.0457
▁것들이	-10.0457
▁관심이	-10.0457
▁글	-10.0457
▁나오는데	-10.0457
▁남아	-10.0457
▁네	-10.0457
▁뒤	-10.0457
▁들었다.	-10.0457
▁명작이	-10.0457
▁바탕으로	-10.0457
▁반	-10.0457
▁본거	-10.0457
▁볼만하다	-10.0457
▁분위기는	-10.0457
▁사랑스럽고	-10.0457
▁설정은	-10.0457
▁속편	-10.0457
▁애니는	-10.0457
▁얘기를	-10.0457
▁어린시절	-10.0457
▁어쩔수	-10.0457
▁없습니다.	-10.0457
▁에	-10.0457
▁영화라서	-10.0457
▁영환데	-10.0457
▁요새	-10.0457
▁웃음을	-10.0457
▁유치하다	-10.0457
▁이만한	-10.0457
▁잠을	-10.0457
▁재미있는데	-10.0457
▁재밌습니다.	-10.0457
▁지루했다.	-10.0457
▁총	-10.0457
▁평을	-10.0457
▁007	-10.0663
▁20대	-10.0663
▁2는	-10.0663
▁감독에게	-10.0663
▁같다..	-10.0663
▁공포는	-10.0663
▁그거	-10.0663
▁극장	-10.0663
▁극장에	-10.0663
▁느낀	-10.0663
▁다운받아서	-10.0663
▁닥치고	-10.0663
▁대신	-10.0663
▁돈내고	-10.0663
▁둘째치고	-10.0663
▁뒤에	-10.0663
▁들	-10.0663
▁때가	-10.0663
▁때는	-10.0663
▁많다.	-10.0663
▁매번	-10.0663
▁명작!	-10.0663
▁몸매	-10.0663
▁뭐...	-10.0663
▁별점이	-10.0663
▁보통	-10.0663
▁본건데	-10.0663
▁불륜	-10.0663
▁수는	-10.0663
▁쉽지	-10.0663
▁스토리나	-10.0663
▁스토리로	-10.0663
▁슬프다.	-10.0663
▁않았지만	-10.0663
▁애초에	-10.0663
▁어처구니	-10.0663
▁영상은	-10.0663
▁영화인줄	-10.0663
▁영화적	-10.0663
▁우린	-10.0663
▁을	-10.0663
▁음악,	-10.0663
▁음악을	-10.0663
▁의미도	-10.0663
▁잠	-10.0663
▁제니퍼	-10.0663
▁짜증나게	-10.0663
▁최고임	-10.0663
▁캐스팅이	-10.0663
▁한국판	-10.0663
▁힘들다	-10.0663
▁10대	-10.0874
▁10점은	-10.0874
▁1편에	-10.0874
▁5점	-10.0874
▁a	-10.0874
▁you	-10.0874
▁감명깊게	-10.0874
▁감성을	-10.0874
▁과정이	-10.0874
▁극중	-10.0874
▁기대하지	-10.0874
▁긴장감과	-10.0874
▁긴장감은	-10.0874
▁끝에	-10.0874
▁남는다	-10.0874
▁노답	-10.0874
▁높아	-10.0874
▁눈으로	-10.0874
▁느꼈다.	-10.0874
▁느낌..	-10.0874
▁대	-10.0874
▁드라마!!	-10.0874
▁든	-10.0874
▁들어	-10.0874
▁마라.	-10.0874
▁많다	-10.0874
▁말은	-10.0874
▁망친	-10.0874
▁모든것이	-10.0874
▁모습에	-10.0874
▁무섭다	-10.0874
▁범죄	-10.0874
▁보았다.	-10.0874
▁보이지	-10.0874
▁사랑하고	-10.0874
▁살	-10.0874
▁세월이	-10.0874
▁쓰레기는	-10.0874
▁아니라,	-10.0874
▁아래	-10.0874
▁아이를	-10.0874
▁없나?	-10.0874
▁연기하는	-10.0874
▁영상미도	-10.0874
▁와서	-10.0874
▁이렇게까지	-10.0874
▁이하도	-10.0874
▁잃은	-10.0874
▁있나	-10.0874
▁있으나	-10.0874
▁절로	-10.0874
▁제목에	-10.0874
▁주인공들이	-10.0874
▁첨으로	-10.0874
▁캐릭터는	-10.0874
▁편하게	-10.0874
▁한다고	-10.0874
▁함.	-10.0874
▁핵노잼	-10.0874
▁현실성	-10.0874
▁후하게	-10.0874
▁힘들다.	-10.0874
▁힘을	-10.0874
▁OST	-10.1089
▁거기다	-10.1089
▁관객이	-10.1089
▁굿!	-10.1089
▁꿈과	-10.1089
▁나라	-10.1089
▁난해한	-10.1089
▁누군지	-10.1089
▁느끼고	-10.1089
▁느와르	-10.1089
▁무거운	-10.1089
▁미국식	-10.1089
▁믿기지	-10.1089
▁믿을	-10.1089
▁봤을때	-10.1089
▁삶	-10.1089
▁삶은	-10.1089
▁상처를	-10.1089
▁성우	-10.1089
▁세련된	-10.1089
▁수준.	-10.1089
▁시간도	-10.1089
▁시간아깝다	-10.1089
▁시리즈가	-10.1089
▁쓰레기를	-10.1089
▁아닙니다.	-10.1089
▁아름답다	-10.1089
▁안타깝다.	-10.1089
▁알바가	-10.1089
▁얘기	-10.1089
▁언제까지	-10.1089
▁오는	-10.1089
▁완성도가	-10.1089
▁웃겨서	-10.1089
▁웰메이드	-10.1089
▁음...	-10.1089
▁의미있는	-10.1089
▁자연스러운	-10.1089
▁자체	-10.1089
▁잘하는	-10.1089
▁장르를	-10.1089
▁전편보다	-10.1089
▁조낸	-10.1089
▁좋았어요.	-10.1089
▁좋음.	-10.1089
▁주성치	-10.1089
▁주인공들의	-10.1089
▁찾는	-10.1089
▁책	-10.1089
▁초반엔	-10.1089
▁충분한	-10.1089
▁코미디.	-10.1089
▁행복하게	-10.1089
▁후반부에	-10.1089
▁1점을	-10.1309
▁1편의	-10.1309
▁ᅳ.ᅳ	-10.1309
▁가족과	-10.1309
▁거지	-10.1309
▁괜찮았는데	-10.1309
▁군대	-10.1309
▁기발한	-10.1309
▁기억나는	-10.1309
▁난다	-10.1309
▁낮은지	-10.1309
▁느껴지지	-10.1309
▁당장	-10.1309
▁독립영화	-10.1309
▁동화같은	-10.1309
▁되면	-10.1309
▁드라마도	-10.1309
▁딸	-10.1309
▁만난	-10.1309
▁몇번	-10.1309
▁모르지만	-10.1309
▁묘한	-10.1309
▁밋밋한	-10.1309
▁빈	-10.1309
▁산만하고	-10.1309
▁살아있는	-10.1309
▁생각해보게	-10.1309
▁숨은	-10.1309
▁슬프다	-10.1309
▁시사회	-10.1309
▁싫다.	-10.1309
▁심각하게	-10.1309
▁아~	-10.1309
▁아버지가	-10.1309
▁아직까지도	-10.1309
▁않았던	-10.1309
▁액션의	-10.1309
▁연기의	-10.1309
▁영화다..	-10.1309
▁와...	-10.1309
▁왜이래	-10.1309
▁욕을	-10.1309
▁욕이	-10.1309
▁울	-10.1309
▁워낙	-10.1309
▁원작은	-10.1309
▁원하는	-10.1309
▁유치	-10.1309
▁의미	-10.1309
▁의해	-10.1309
▁있구나	-10.1309
▁작품에	-10.1309
▁적	-10.1309
▁젠장	-10.1309
▁조폭	-10.1309
▁좋으나	-10.1309
▁지가	-10.1309
▁지극히	-10.1309
▁진실을	-10.1309
▁쳐	-10.1309
▁크리스마스	-10.1309
▁티비로	-10.1309
▁한동안	-10.1309
▁호불호가	-10.1309
▁흘러가는	-10.1309
▁10년	-10.1533
▁1점.	-10.1533
▁ᄒᄃᄃ	-10.1533
▁감독,	-10.1533
▁감동,	-10.1533
▁감이	-10.1533
▁결국엔	-10.1533
▁결국은	-10.1533
▁길이	-10.1533
▁나머진	-10.1533
▁나왔던	-10.1533
▁남는게	-10.1533
▁낮아	-10.1533
▁노래는	-10.1533
▁늦게	-10.1533
▁대사와	-10.1533
▁마지막은	-10.1533
▁만들수	-10.1533
▁메세지를	-10.1533
▁못한다.	-10.1533
▁별로...	-10.1533
▁별로임	-10.1533
▁사람들에게	-10.1533
▁사회적	-10.1533
▁소장하고	-10.1533
▁시간과	-10.1533
▁아까운영화	-10.1533
▁아깝다...	-10.1533
▁아니고,	-10.1533
▁아무나	-10.1533
▁아픔을	-10.1533
▁안보면	-10.1533
▁앞에서	-10.1533
▁애니를	-10.1533
▁억지스런	-10.1533
▁엔딩은	-10.1533
▁여배우의	-10.1533
▁여주인공의	-10.1533
▁역사	-10.1533
▁연기만	-10.1533
▁영화랑	-10.1533
▁영화인것	-10.1533
▁오글거리는	-10.1533
▁온갖	-10.1533
▁와..	-10.1533
▁웬	-10.1533
▁이거보다	-10.1533
▁이것보다	-10.1533
▁이라는	-10.1533
▁인물들의	-10.1533
▁절대로	-10.1533
▁점수준것들	-10.1533
▁점에서	-10.1533
▁죽음을	-10.1533
▁초반에는	-10.1533
▁추억을	-10.1533
▁출연	-10.1533
▁캐스팅은	-10.1533
▁평가	-10.1533
▁풀어낸	-10.1533
▁학교	-10.1533
▁한번더	-10.1533
▁현실적이고	-10.1533
▁화끈한	-10.1533
▁100%	-10.1763
▁2편도	-10.1763
▁게임	-10.1763
▁고전	-10.1763
▁기억을	-10.1763
▁니가	-10.1763
▁당시엔	-10.1763
▁되서	-10.1763
▁든다	-10.1763
▁러닝타임이	-10.1763
▁레전드	-10.1763
▁만들다니	-10.1763
▁못한다	-10.1763
▁못함	-10.1763
▁보게된	-10.1763
▁보고있는데	-10.1763
▁보지도	-10.1763
▁브루스	-10.1763
▁생각함	-10.1763
▁소리가	-10.1763
▁시간은	-10.1763
▁시대가	-10.1763
▁심장이	-10.1763
▁싶다면	-10.1763
▁싶어	-10.1763
▁아까워서	-10.1763
▁아니다..	-10.1763
▁아진짜	-10.1763
▁애	-10.1763
▁어차피	-10.1763
▁여기에	-10.1763
▁영화에요	-10.1763
▁오직	-10.1763
▁웃기는	-10.1763
▁이딴게	-10.1763
▁이해도	-10.1763
▁인	-10.1763
▁입장에서	-10.1763
▁잊을수	-10.1763
▁장르	-10.1763
▁적당한	-10.1763
▁적은	-10.1763
▁전개에	-10.1763
▁좋아했던	-10.1763
▁주지	-10.1763
▁죽고	-10.1763
▁줄거리가	-10.1763
▁중의	-10.1763
▁지금보면	-10.1763
▁쭉	-10.1763
▁최소한	-10.1763
▁코난	-10.1763
▁필요없다.	-10.1763
▁한계를	-10.1763
▁했더니	-10.1763
▁허무한	-10.1763
▁&	-10.1999
▁10점이	-10.1999
▁3	-10.1999
▁같고	-10.1999
▁고등학교	-10.1999
▁나면	-10.1999
▁놀랍다.	-10.1999
▁높다.	-10.1999
▁느낌도	-10.1999
▁되는데	-10.1999
▁만들었으면	-10.1999
▁만으로도	-10.1999
▁면이	-10.1999
▁명품	-10.1999
▁뭐하는	-10.1999
▁바라보는	-10.1999
▁별루	-10.1999
▁보고도	-10.1999
▁보라고	-10.1999
▁봤다..	-10.1999
▁빠른	-10.1999
▁뻔	-10.1999
▁살리지	-10.1999
▁상황이	-10.1999
▁수작이다.	-10.1999
▁스타일	-10.1999
▁싶네요.	-10.1999
▁않은데	-10.1999
▁어설프게	-10.1999
▁연기.	-10.1999
▁연기력과	-10.1999
▁영향을	-10.1999
▁영화라지만	-10.1999
▁웃으며	-10.1999
▁으로	-10.1999
▁이영화에	-10.1999
▁이유	-10.1999
▁있어요	-10.1999
▁자체도	-10.1999
▁잠시	-10.1999
▁좋아하지만	-10.1999
▁찍고	-10.1999
▁최고!!!	-10.1999
▁킬링타임	-10.1999
▁킬링타임용으로도	-10.1999
▁편집	-10.1999
▁향한	-10.1999
▁흠	-10.1999
▁흥미롭게	-10.1999
▁CG는	-10.224
▁SF	-10.224
▁간간히	-10.224
▁강추!!	-10.224
▁거기서	-10.224
▁괜찮고	-10.224
▁귀여워서	-10.224
▁그들을	-10.224
▁내용.	-10.224
▁돈으로	-10.224
▁드라마중	-10.224
▁딸이	-10.224
▁마무리가	-10.224
▁만화를	-10.224
▁멋지다	-10.224
▁뭐냐?	-10.224
▁뭐니	-10.224
▁미래를	-10.224
▁미친듯이	-10.224
▁바랍니다.	-10.224
▁반도	-10.224
▁버린	-10.224
▁분위기를	-10.224
▁사극	-10.224
▁설명이	-10.224
▁손발	-10.224
▁시대	-10.224
▁쓰레기다.	-10.224
▁아쉽네요	-10.224
▁아이들에게	-10.224
▁억지스럽고	-10.224
▁에로	-10.224
▁여운도	-10.224
▁연기로	-10.224
▁영상미와	-10.224
▁영화냐	-10.224
▁영화들이	-10.224
▁예뻐서	-10.224
▁올	-10.224
▁우리나라의	-10.224
▁의도를	-10.224
▁이것은	-10.224
▁이어지는	-10.224
▁인간적으로	-10.224
▁있네요	-10.224
▁제대로된	-10.224
▁제로	-10.224
▁제목은	-10.224
▁좋고,	-10.224
▁주연의	-10.224
▁줍니다.	-10.224
▁청소년	-10.224
▁추천!	-10.224
▁커녕	-10.224
▁평론가들	-10.224
▁표정이	-10.224
▁할때	-10.224
▁형님	-10.224
▁환상적인	-10.224
▁후반부로	-10.224
▁ᄏᄏᄏᄏᄏᄏᄏᄏ	-10.2487
▁감성이	-10.2487
▁개인적인	-10.2487
▁걸작.	-10.2487
▁것과	-10.2487
▁귀신	-10.2487
▁높다	-10.2487
▁느낌이다.	-10.2487
▁니들이	-10.2487
▁더욱더	-10.2487
▁되었다	-10.2487
▁드립니다.	-10.2487
▁때의	-10.2487
▁마다	-10.2487
▁막판	-10.2487
▁많은것을	-10.2487
▁맨	-10.2487
▁메세지가	-10.2487
▁뭐야?	-10.2487
▁배우와	-10.2487
▁보게되는	-10.2487
▁보러	-10.2487
▁볼때	-10.2487
▁봐야지	-10.2487
▁불륜을	-10.2487
▁불쌍하다	-10.2487
▁빠져들게	-10.2487
▁사람과	-10.2487
▁설정과	-10.2487
▁세상의	-10.2487
▁스릴러.	-10.2487
▁시대적	-10.2487
▁싫어하는	-10.2487
▁심한	-10.2487
▁싶네요	-10.2487
▁싶었던	-10.2487
▁아버지	-10.2487
▁아빠가	-10.2487
▁안가는	-10.2487
▁알려주는	-10.2487
▁어쩌다	-10.2487
▁영화화	-10.2487
▁우리에게	-10.2487
▁웃기다	-10.2487
▁웬만하면	-10.2487
▁의미없는	-10.2487
▁이상으로	-10.2487
▁이야기에	-10.2487
▁일	-10.2487
▁작가는	-10.2487
▁재미있어요.	-10.2487
▁재밌었던	-10.2487
▁잭	-10.2487
▁잼있다	-10.2487
▁전문	-10.2487
▁제이슨	-10.2487
▁지금이나	-10.2487
▁짜리	-10.2487
▁카리스마	-10.2487
▁커서	-10.2487
▁탁월한	-10.2487
▁패러디	-10.2487
▁편견을	-10.2487
▁하네	-10.2487
▁훈훈하고	-10.2487
▁훌륭하다.	-10.2487
▁1편을	-10.274
▁가득	-10.274
▁간다.	-10.274
▁개노잼	-10.274
▁개인적으로는	-10.274
▁걸로	-10.274
▁과장된	-10.274
▁관심을	-10.274
▁귀여워	-10.274
▁그를	-10.274
▁끝.	-10.274
▁나와도	-10.274
▁낚여서	-10.274
▁남아있는	-10.274
▁넘어	-10.274
▁답이	-10.274
▁대사는	-10.274
▁먹는	-10.274
▁멋있다	-10.274
▁못해서	-10.274
▁무섭게	-10.274
▁발연기에	-10.274
▁번을	-10.274
▁보인다	-10.274
▁봅니다.	-10.274
▁사람마다	-10.274
▁사회의	-10.274
▁생각합니다	-10.274
▁싶으면	-10.274
▁쓰레기가	-10.274
▁쓰레기다	-10.274
▁안봐서	-10.274
▁애들도	-10.274
▁어디로	-10.274
▁없고..	-10.274
▁없네.	-10.274
▁이것저것	-10.274
▁이런것도	-10.274
▁있긴	-10.274
▁있네	-10.274
▁있었다	-10.274
▁자고	-10.274
▁작품..	-10.274
▁장르의	-10.274
▁재미있었어요	-10.274
▁재밌던데	-10.274
▁조차	-10.274
▁주인공을	-10.274
▁줌	-10.274
▁줌.	-10.274
▁줘도	-10.274
▁짜증난다	-10.274
▁쩌는	-10.274
▁책으로	-10.274
▁천재	-10.274
▁초반부터	-10.274
▁충격	-10.274
▁캐릭터의	-10.274
▁코미디는	-10.274
▁통해서	-10.274
▁했는지	-10.274
▁허나	-10.274
▁흥미진진한	-10.274
▁0점을	-10.3
▁1점이	-10.3
▁30분	-10.3
▁C급	-10.3
▁b급	-10.3
▁ost도	-10.3
▁감성	-10.3
▁것이다	-10.3
▁게임을	-10.3
▁결과는	-10.3
▁고작	-10.3
▁공감을	-10.3
▁과거를	-10.3
▁괜찮았던	-10.3
▁굉장한	-10.3
▁그는	-10.3
▁남자를	-10.3
▁다보고	-10.3
▁당시에는	-10.3
▁대사를	-10.3
▁대작	-10.3
▁돈은	-10.3
▁동네	-10.3
▁됩니다.	-10.3
▁들어도	-10.3
▁들지	-10.3
▁많아	-10.3
▁망할	-10.3
▁메시지가	-10.3
▁못했던	-10.3
▁밑도	-10.3
▁보지마세요.	-10.3
▁본영화	-10.3
▁부족	-10.3
▁사람에게	-10.3
▁사상	-10.3
▁상당한	-10.3
▁소재에	-10.3
▁시나리오도	-10.3
▁아닐까?	-10.3
▁아련한	-10.3
▁아이들은	-10.3
▁안타깝다	-10.3
▁않네요.	-10.3
▁야하지도	-10.3
▁어린이	-10.3
▁어쨌든	-10.3
▁없고.	-10.3
▁없던	-10.3
▁없어도	-10.3
▁여배우가	-10.3
▁영화?	-10.3
▁영화내내	-10.3
▁영화중에서	-10.3
▁오그라드는	-10.3
▁울었다.	-10.3
▁웃다가	-10.3
▁웃음과	-10.3
▁원작과	-10.3
▁은근	-10.3
▁의한	-10.3
▁이기적인	-10.3
▁이따위로	-10.3
▁이런식으로	-10.3
▁재밋어요	-10.3
▁전율이	-10.3
▁정확히	-10.3
▁좋았고,	-10.3
▁좋지	-10.3
▁주제는	-10.3
▁죽기전에	-10.3
▁중반부터	-10.3
▁짜증남	-10.3
▁초	-10.3
▁최고였다.	-10.3
▁최초의	-10.3
▁퀄리티가	-10.3
▁킬링타임용도	-10.3
▁평	-10.3
▁평점도	-10.3
▁하...	-10.3
▁할리우드	-10.3
▁!!!!	-10.3266
▁2014년	-10.3266
▁TV	-10.3266
▁tv에서	-10.3266
▁갖다	-10.3266
▁갖춘	-10.3266
▁겉멋만	-10.3266
▁공포영화가	-10.3266
▁기대한	-10.3266
▁기본	-10.3266
▁남자주인공	-10.3266
▁대단히	-10.3266
▁대표적인	-10.3266
▁뒤늦게	-10.3266
▁딴	-10.3266
▁떨어진다	-10.3266
▁또봐도	-10.3266
▁리얼	-10.3266
▁만화가	-10.3266
▁멋있고	-10.3266
▁명작이라고	-10.3266
▁무섭지	-10.3266
▁문제는	-10.3266
▁믿을게	-10.3266
▁반전.	-10.3266
▁방송	-10.3266
▁보는동안	-10.3266
▁부족하다.	-10.3266
▁분명히	-10.3266
▁불쾌한	-10.3266
▁생각만	-10.3266
▁소재만	-10.3266
▁속이	-10.3266
▁아깝네	-10.3266
▁아니라서	-10.3266
▁아만다	-10.3266
▁않나?	-10.3266
▁애가	-10.3266
▁액션만	-10.3266
▁없나요?	-10.3266
▁역할을	-10.3266
▁연기한	-10.3266
▁연출을	-10.3266
▁영국	-10.3266
▁영상,	-10.3266
▁영화라는게	-10.3266
▁영화란	-10.3266
▁오글거려서	-10.3266
▁왜?	-10.3266
▁의외의	-10.3266
▁이따구로	-10.3266
▁이야기..	-10.3266
▁이영화보고	-10.3266
▁인생에서	-10.3266
▁일본영화는	-10.3266
▁일찍	-10.3266
▁있어도	-10.3266
▁잔잔하지만	-10.3266
▁장면과	-10.3266
▁재밋음	-10.3266
▁재밌을	-10.3266
▁적이	-10.3266
▁좋겠어요	-10.3266
▁죽을	-10.3266
▁지루함이	-10.3266
▁짝퉁	-10.3266
▁척	-10.3266
▁최고입니다	-10.3266
▁캐릭터와	-10.3266
▁편	-10.3266
▁한번쯤은	-10.3266
▁함부로	-10.3266
▁했으나	-10.3266
▁현실에	-10.3266
▁흥미진진	-10.3266
▁흥행	-10.3266
▁-_-;;	-10.354
▁18	-10.354
▁3편은	-10.354
▁8점은	-10.354
▁강하게	-10.354
▁개봉당시	-10.354
▁경의를	-10.354
▁괜찮음	-10.354
▁구성과	-10.354
▁궁금하다.	-10.354
▁급	-10.354
▁끝은	-10.354
▁내고	-10.354
▁넘넘	-10.354
▁다른건	-10.354
▁다음으로	-10.354
▁답답해서	-10.354
▁됨.	-10.354
▁두번째	-10.354
▁드립니다	-10.354
▁들어간	-10.354
▁들어서	-10.354
▁등장하는	-10.354
▁만든영화	-10.354
▁말아먹은	-10.354
▁망작.	-10.354
▁매력은	-10.354
▁머리를	-10.354
▁메시지를	-10.354
▁면에서	-10.354
▁명성을	-10.354
▁명작입니다.	-10.354
▁미드	-10.354
▁배경과	-10.354
▁보고싶은데	-10.354
▁보는거	-10.354
▁보지마셈	-10.354
▁본듯한	-10.354
▁봤고	-10.354
▁봤네	-10.354
▁분위기도	-10.354
▁분위기에	-10.354
▁불쌍해서	-10.354
▁비교하면	-10.354
▁빈약한	-10.354
▁스토리지만	-10.354
▁시트콤	-10.354
▁아,	-10.354
▁아빠	-10.354
▁아이돌	-10.354
▁어떠한	-10.354
▁없어요	-10.354
▁여자들이	-10.354
▁영화같은	-10.354
▁영화에서는	-10.354
▁왔는데	-10.354
▁유치함	-10.354
▁의문이	-10.354
▁이를	-10.354
▁있겠지만	-10.354
▁있었고	-10.354
▁작품의	-10.354
▁잔잔하면서도	-10.354
▁재미있습니다.	-10.354
▁재미있어서	-10.354
▁재밋고	-10.354
▁점은	-10.354
▁지는	-10.354
▁지루하기	-10.354
▁짐	-10.354
▁짜집기	-10.354
▁참고로	-10.354
▁최고의영화	-10.354
▁하네요.	-10.354
▁할말을	-10.354
▁할머니	-10.354
▁행복을	-10.354
▁화이팅!	-10.354
▁,,	-10.3822
▁movie	-10.3822
▁ᅲᅮ	-10.3822
▁간다	-10.3822
▁감동..	-10.3822
▁감동적이다.	-10.3822
▁같습니다	-10.3822
▁것들을	-10.3822
▁그에	-10.3822
▁남는건	-10.3822
▁노래를	-10.3822
▁다시봤는데	-10.3822
▁다큐를	-10.3822
▁담고	-10.3822
▁더더욱	-10.3822
▁됨	-10.3822
▁들게	-10.3822
▁또는	-10.3822
▁막상	-10.3822
▁몸을	-10.3822
▁문득	-10.3822
▁믿지	-10.3822
▁본격	-10.3822
▁부디	-10.3822
▁부분에서	-10.3822
▁부분을	-10.3822
▁빠지게	-10.3822
▁사람만	-10.3822
▁사실이	-10.3822
▁살아	-10.3822
▁상상력이	-10.3822
▁시걸	-10.3822
▁실망이	-10.3822
▁심리	-10.3822
▁심리를	-10.3822
▁싸이코	-10.3822
▁아이	-10.3822
▁않아도	-10.3822
▁않으면	-10.3822
▁앤	-10.3822
▁야한	-10.3822
▁어둡고	-10.3822
▁어디가	-10.3822
▁없었음	-10.3822
▁여러분	-10.3822
▁여태까지	-10.3822
▁역사적	-10.3822
▁영상미는	-10.3822
▁영화들은	-10.3822
▁이딴거	-10.3822
▁이번에	-10.3822
▁이야기...	-10.3822
▁이어	-10.3822
▁이유로	-10.3822
▁일본에서	-10.3822
▁잔인하고	-10.3822
▁잘봤어요	-10.3822
▁전쟁을	-10.3822
▁전편의	-10.3822
▁절제된	-10.3822
▁제시카	-10.3822
▁좋겠네요	-10.3822
▁좋습니다	-10.3822
▁줄수	-10.3822
▁즐겁고	-10.3822
▁지나	-10.3822
▁지루함의	-10.3822
▁쩝	-10.3822
▁추억	-10.3822
▁추천.	-10.3822
▁캐릭터,	-10.3822
▁케이블	-10.3822
▁특이한	-10.3822
▁팬이	-10.3822
▁평가를	-10.3822
▁하고,	-10.3822
▁흐름이	-10.3822
▁""	-10.4112
▁10점준	-10.4112
▁20년이	-10.4112
▁3편	-10.4112
▁The	-10.4112
▁best	-10.4112
▁감독님의	-10.4112
▁갑니다.	-10.4112
▁갖게	-10.4112
▁같음.	-10.4112
▁개같은	-10.4112
▁개봉을	-10.4112
▁결말에	-10.4112
▁고	-10.4112
▁고인의	-10.4112
▁관객에게	-10.4112
▁괜찮았다.	-10.4112
▁구성은	-10.4112
▁굿~	-10.4112
▁귀신이	-10.4112
▁그럼에도	-10.4112
▁나고	-10.4112
▁나름의	-10.4112
▁나올때	-10.4112
▁남기는	-10.4112
▁남의	-10.4112
▁남자라면	-10.4112
▁낭비	-10.4112
▁노력이	-10.4112
▁늙은	-10.4112
▁더럽고	-10.4112
▁도중에	-10.4112
▁때도	-10.4112
▁떨어진다.	-10.4112
▁뜨거운	-10.4112
▁로그인	-10.4112
▁마세요.	-10.4112
▁마음의	-10.4112
▁마이	-10.4112
▁머리에	-10.4112
▁몰입하게	-10.4112
▁몸이	-10.4112
▁무비	-10.4112
▁바라는	-10.4112
▁범인	-10.4112
▁본건	-10.4112
▁부족하고	-10.4112
▁사랑.	-10.4112
▁새삼	-10.4112
▁생각함.	-10.4112
▁스릴이	-10.4112
▁슬프지만	-10.4112
▁시나리오를	-10.4112
▁시원한	-10.4112
▁심히	-10.4112
▁쓸	-10.4112
▁안맞는	-10.4112
▁애니가	-10.4112
▁액션에	-10.4112
▁약	-10.4112
▁언젠가	-10.4112
▁엄마의	-10.4112
▁영웅	-10.4112
▁영화였습니다	-10.4112
▁영화자체는	-10.4112
▁옆에	-10.4112
▁예쁘게	-10.4112
▁우울한	-10.4112
▁웃을	-10.4112
▁은	-10.4112
▁이도	-10.4112
▁이상을	-10.4112
▁이연걸의	-10.4112
▁인간들	-10.4112
▁인기	-10.4112
▁인물의	-10.4112
▁인상깊게	-10.4112
▁일반	-10.4112
▁일본이	-10.4112
▁있지만,	-10.4112
▁자유를	-10.4112
▁재미있었는데	-10.4112
▁전작의	-10.4112
▁제목과	-10.4112
▁졸	-10.4112
▁좀...	-10.4112
▁좋다..	-10.4112
▁중2병	-10.4112
▁지나친	-10.4112
▁진짜.	-10.4112
▁짜증난다.	-10.4112
▁차마	-10.4112
▁총체적	-10.4112
▁최대의	-10.4112
▁취향은	-10.4112
▁취향이	-10.4112
▁캐스팅도	-10.4112
▁코드가	-10.4112
▁퀄리티	-10.4112
▁터지는	-10.4112
▁편의	-10.4112
▁편인데	-10.4112
▁평소	-10.4112
▁하긴	-10.4112
▁현실적으로	-10.4112
▁호러	-10.4112
▁휴	-10.4112
▁흥미롭고	-10.4112
▁1개도	-10.441
▁to	-10.441
▁ᄏᄏᄏᄏᄏᄏᄏᄏᄏ	-10.441
▁ᅲ_ᅲ	-10.441
▁가치도	-10.441
▁가치를	-10.441
▁건가?	-10.441
▁결말까지	-10.441
▁공포도	-10.441
▁공포영화는	-10.441
▁과정을	-10.441
▁괜찮다.	-10.441
▁교훈	-10.441
▁굿.	-10.441
▁그들은	-10.441
▁그때의	-10.441
▁그런거	-10.441
▁그럴	-10.441
▁꼭보세요	-10.441
▁끌고	-10.441
▁남	-10.441
▁낮네	-10.441
▁낮다	-10.441
▁넘어선	-10.441
▁높은지	-10.441
▁누구도	-10.441
▁달리는	-10.441
▁덕에	-10.441
▁돈과	-10.441
▁드라마,	-10.441
▁들었다	-10.441
▁만들기	-10.441
▁못했다	-10.441
▁무슨말이	-10.441
▁문제	-10.441
▁뭐하자는	-10.441
▁받아서	-10.441
▁별로다.	-10.441
▁보고싶다.	-10.441
▁보기에도	-10.441
▁보았다	-10.441
▁볼만하다.	-10.441
▁비해서	-10.441
▁빠지는	-10.441
▁빵	-10.441
▁뻔해서	-10.441
▁사랑으로	-10.441
▁상상을	-10.441
▁상영	-10.441
▁성우가	-10.441
▁성장	-10.441
▁소리만	-10.441
▁손색이	-10.441
▁스릴러가	-10.441
▁스릴러를	-10.441
▁시나리오에	-10.441
▁싶다..	-10.441
▁아깝네요	-10.441
▁아깝다는	-10.441
▁아니고..	-10.441
▁아니지만,	-10.441
▁아닌것	-10.441
▁안되서	-10.441
▁안됨.	-10.441
▁않나	-10.441
▁액션.	-10.441
▁얘기가	-10.441
▁없었으면	-10.441
▁여자주인공	-10.441
▁영화계의	-10.441
▁영화다...	-10.441
▁영화라니	-10.441
▁요소를	-10.441
▁우리들의	-10.441
▁음..	-10.441
▁있을까.	-10.441
▁작품입니다.	-10.441
▁작품중	-10.441
▁장면만	-10.441
▁좋아하지	-10.441
▁주제도	-10.441
▁지겹다	-10.441
▁찬사를	-10.441
▁찾기	-10.441
▁초등학교때	-10.441
▁최고인	-10.441
▁치고는	-10.441
▁톰	-10.441
▁평균	-10.441
▁허세	-10.441
▁허접하고	-10.441
▁현실의	-10.441
▁홍상수	-10.441
▁.....	-10.4718
▁??	-10.4718
▁M창있네	-10.4718
▁각자의	-10.4718
▁감동적으로	-10.4718
▁고스란히	-10.4718
▁과	-10.4718
▁그냥저냥	-10.4718
▁그런가?	-10.4718
▁그립다	-10.4718
▁글쎄	-10.4718
▁기대도	-10.4718
▁기자	-10.4718
▁깔끔하고	-10.4718
▁나네요	-10.4718
▁남기고	-10.4718
▁남긴	-10.4718
▁넘은	-10.4718
▁놓은	-10.4718
▁느낌?	-10.4718
▁더빙은	-10.4718
▁도움이	-10.4718
▁돌아보게	-10.4718
▁되어서	-10.4718
▁된다는	-10.4718
▁뒤죽박죽	-10.4718
▁러닝타임	-10.4718
▁막장으로	-10.4718
▁만들었다	-10.4718
▁메세지는	-10.4718
▁명작입니다	-10.4718
▁모르겠음	-10.4718
▁못하다.	-10.4718
▁무언가를	-10.4718
▁별점을	-10.4718
▁보다니	-10.4718
▁보지마	-10.4718
▁복잡한	-10.4718
▁봐	-10.4718
▁사람들도	-10.4718
▁사회	-10.4718
▁새롭게	-10.4718
▁생각한다	-10.4718
▁설정에	-10.4718
▁솔직한	-10.4718
▁수준은	-10.4718
▁스케일	-10.4718
▁스케일이	-10.4718
▁시선으로	-10.4718
▁시절의	-10.4718
▁싶습니다.	-10.4718
▁싶었는데	-10.4718
▁씬	-10.4718
▁아놀드	-10.4718
▁악역	-10.4718
▁안간다.	-10.4718
▁안나오는	-10.4718
▁안본다	-10.4718
▁알려준	-10.4718
▁어째	-10.4718
▁없다는게	-10.4718
▁에드워드	-10.4718
▁에라이	-10.4718
▁에피소드	-10.4718
▁여배우들	-10.4718
▁여운	-10.4718
▁여태	-10.4718
▁연기자들	-10.4718
▁영화~~	-10.4718
▁영화라면	-10.4718
▁예고편이	-10.4718
▁오글거리고	-10.4718
▁오늘도	-10.4718
▁완젼	-10.4718
▁외계인	-10.4718
▁우리나라는	-10.4718
▁유머	-10.4718
▁유머가	-10.4718
▁이래	-10.4718
▁이해불가	-10.4718
▁인물	-10.4718
▁인물이	-10.4718
▁일깨워주는	-10.4718
▁자동차	-10.4718
▁작품!	-10.4718
▁장면의	-10.4718
▁재미나게	-10.4718
▁재미없었다	-10.4718
▁재미없었다.	-10.4718
▁재미있습니다	-10.4718
▁재밌어요!	-10.4718
▁재밌었고	-10.4718
▁잼있는	-10.4718
▁저절로	-10.4718
▁전작에	-10.4718
▁정신을	-10.4718
▁조용히	-10.4718
▁좋다!	-10.4718
▁주제에	-10.4718
▁질	-10.4718
▁집	-10.4718
▁철학적인	-10.4718
▁첫번째	-10.4718
▁최고..	-10.4718
▁충격을	-10.4718
▁커플	-10.4718
▁컴퓨터	-10.4718
▁코미디가	-10.4718
▁킬링	-10.4718
▁틈이	-10.4718
▁표정	-10.4718
▁하나?	-10.4718
▁하니	-10.4718
▁할까?	-10.4718
▁허무하게	-10.4718
▁형	-10.4718
▁흥미	-10.4718
▁힘들게	-10.4718
▁20년	-10.5035
▁OST가	-10.5035
▁]	-10.5035
▁가까이	-10.5035
▁각	-10.5035
▁각본,	-10.5035
▁감정이입이	-10.5035
▁같지만	-10.5035
▁것만으로도	-10.5035
▁경찰	-10.5035
▁과도한	-10.5035
▁구성,	-10.5035
▁군대에서	-10.5035
▁극장판은	-10.5035
▁기대는	-10.5035
▁기대되는	-10.5035
▁기대했던	-10.5035
▁기억도	-10.5035
▁기회가	-10.5035
▁꿈꾸는	-10.5035
▁나니	-10.5035
▁낮지?	-10.5035
▁내용으로	-10.5035
▁넘는	-10.5035
▁놈들은	-10.5035
▁느껴진다	-10.5035
▁대사들이	-10.5035
▁돈만	-10.5035
▁떠오르는	-10.5035
▁러시아	-10.5035
▁만화는	-10.5035
▁멋지다.	-10.5035
▁명불허전	-10.5035
▁몇번이나	-10.5035
▁모든것을	-10.5035
▁모르겠네요	-10.5035
▁모습과	-10.5035
▁묘하게	-10.5035
▁무척이나	-10.5035
▁뭔가가	-10.5035
▁뭘까?	-10.5035
▁미치도록	-10.5035
▁박진감	-10.5035
▁배경도	-10.5035
▁배트맨	-10.5035
▁본적이	-10.5035
▁부족하다	-10.5035
▁뿐...	-10.5035
▁사랑,	-10.5035
▁사랑도	-10.5035
▁사실적으로	-10.5035
▁살다	-10.5035
▁상영관이	-10.5035
▁생각나게	-10.5035
▁생각에	-10.5035
▁생각하며	-10.5035
▁선택한	-10.5035
▁성인	-10.5035
▁세상은	-10.5035
▁스포츠	-10.5035
▁시작은	-10.5035
▁아니야	-10.5035
▁아이와	-10.5035
▁압권	-10.5035
▁어디에	-10.5035
▁어렵다.	-10.5035
▁어른들이	-10.5035
▁어이없고	-10.5035
▁어이없어서	-10.5035
▁엄마랑	-10.5035
▁없다!	-10.5035
▁여성	-10.5035
▁여튼	-10.5035
▁연속	-10.5035
▁열정이	-10.5035
▁영화였어요.	-10.5035
▁영화였음	-10.5035
▁예쁘다	-10.5035
▁예상	-10.5035
▁원	-10.5035
▁이때	-10.5035
▁이번엔	-10.5035
▁이야기도	-10.5035
▁이정도로	-10.5035
▁인간적인	-10.5035
▁있네요.	-10.5035
▁있는게	-10.5035
▁있습니다	-10.5035
▁잊지못할	-10.5035
▁잘생기고	-10.5035
▁재미만	-10.5035
▁재밌게봤는데	-10.5035
▁좋아하고	-10.5035
▁좋아한다면	-10.5035
▁중학교	-10.5035
▁지루했다	-10.5035
▁참나	-10.5035
▁찾을	-10.5035
▁최초로	-10.5035
▁편집이	-10.5035
▁폴	-10.5035
▁하는건	-10.5035
▁하이틴	-10.5035
▁한거	-10.5035
▁한마디	-10.5035
▁한없이	-10.5035
▁해리포터	-10.5035
▁현실성이	-10.5035
▁혼자서	-10.5035
▁훌륭하다	-10.5035
▁힐링	-10.5035
▁10점!	-10.5363
▁10점만점에	-10.5363
▁21세기	-10.5363
▁[	-10.5363
▁ost가	-10.5363
▁very	-10.5363
▁ᄃ	-10.5363
▁ᄍ	-10.5363
▁♥	-10.5363
▁가끔씩	-10.5363
▁같지	-10.5363
▁개그	-10.5363
▁개인의	-10.5363
▁객관적으로	-10.5363
▁고마운	-10.5363
▁공포영화를	-10.5363
▁관객의	-10.5363
▁군더더기	-10.5363
▁그래픽은	-10.5363
▁기대에	-10.5363
▁기분.	-10.5363
▁깊이가	-10.5363
▁나을듯	-10.5363
▁남네요	-10.5363
▁내용,	-10.5363
▁놀랐다.	-10.5363
▁뇌가	-10.5363
▁눈빛	-10.5363
▁느껴졌다.	-10.5363
▁느꼈던	-10.5363
▁니콜라스	-10.5363
▁동생	-10.5363
▁됐다.	-10.5363
▁둘의	-10.5363
▁드라마라고	-10.5363
▁드라마입니다.	-10.5363
▁따뜻하게	-10.5363
▁떨어짐	-10.5363
▁로빈	-10.5363
▁만들려고	-10.5363
▁만들어라	-10.5363
▁말밖에	-10.5363
▁말하면	-10.5363
▁말해서	-10.5363
▁맘이	-10.5363
▁매력있는	-10.5363
▁매주	-10.5363
▁명작...	-10.5363
▁몰랐다.	-10.5363
▁못함.	-10.5363
▁묵직한	-10.5363
▁묻어나는	-10.5363
▁물	-10.5363
▁반전의	-10.5363
▁발	-10.5363
▁배우만	-10.5363
▁별거	-10.5363
▁보느니	-10.5363
▁보다보다	-10.5363
▁보진	-10.5363
▁본방사수	-10.5363
▁봅니다	-10.5363
▁봤는지	-10.5363
▁부르는	-10.5363
▁분노가	-10.5363
▁블랙	-10.5363
▁뻔하지만	-10.5363
▁사랑해	-10.5363
▁상황에	-10.5363
▁생각해서	-10.5363
▁서로를	-10.5363
▁설득력	-10.5363
▁성룡이	-10.5363
▁속의	-10.5363
▁손	-10.5363
▁시나리오,	-10.5363
▁실화	-10.5363
▁아이고	-10.5363
▁아침에	-10.5363
▁않습니다.	-10.5363
▁알게해준	-10.5363
▁양아치	-10.5363
▁어찌나	-10.5363
▁얼마	-10.5363
▁영화~!	-10.5363
▁영화네	-10.5363
▁예술	-10.5363
▁왕	-10.5363
▁우리나라에	-10.5363
▁우선	-10.5363
▁이리도	-10.5363
▁이쁘게	-10.5363
▁이해할수	-10.5363
▁이후에	-10.5363
▁인간을	-10.5363
▁일상을	-10.5363
▁임팩트	-10.5363
▁있나?	-10.5363
▁있다니	-10.5363
▁잘해서	-10.5363
▁재미없다...	-10.5363
▁재밌지도	-10.5363
▁잼있어요	-10.5363
▁저급한	-10.5363
▁적절히	-10.5363
▁전쟁영화	-10.5363
▁제작진	-10.5363
▁조금씩	-10.5363
▁좋아지는	-10.5363
▁좋아할만한	-10.5363
▁지금까지도	-10.5363
▁진행이	-10.5363
▁찍는	-10.5363
▁참을	-10.5363
▁청춘의	-10.5363
▁최고였다	-10.5363
▁최악의영화	-10.5363
▁캐릭터들	-10.5363
▁크리스찬	-10.5363
▁통쾌한	-10.5363
▁프로	-10.5363
▁한번은	-10.5363
▁해도해도	-10.5363
▁화이팅!!	-10.5363
▁1,	-10.5702
▁10분	-10.5702
▁10점도	-10.5702
▁10점짜리	-10.5702
▁in	-10.5702
▁ᄌᄂ	-10.5702
▁ᄏᄏᄏᄏᄏᄏᄏᄏᄏᄏᄏ	-10.5702
▁가볍고	-10.5702
▁가슴아픈	-10.5702
▁감동적	-10.5702
▁감흥이	-10.5702
▁갔는데	-10.5702
▁계기가	-10.5702
▁공감가는	-10.5702
▁과거의	-10.5702
▁괜찮았음	-10.5702
▁귀여움	-10.5702
▁기존	-10.5702
▁깔끔하게	-10.5702
▁끝내	-10.5702
▁나옴.	-10.5702
▁나왔다.	-10.5702
▁남녀	-10.5702
▁남자와	-10.5702
▁남주가	-10.5702
▁네티즌	-10.5702
▁누군가	-10.5702
▁느낌...	-10.5702
▁느리고	-10.5702
▁니들	-10.5702
▁다니는	-10.5702
▁다운받아	-10.5702
▁담아낸	-10.5702
▁던지는	-10.5702
▁도통	-10.5702
▁돈도	-10.5702
▁드	-10.5702
▁드문	-10.5702
▁등장	-10.5702
▁뗄	-10.5702
▁똥	-10.5702
▁똥을	-10.5702
▁리뷰	-10.5702
▁마지막으로	-10.5702
▁만나	-10.5702
▁만나서	-10.5702
▁만드네	-10.5702
▁만점을	-10.5702
▁말아야	-10.5702
▁말에	-10.5702
▁머야	-10.5702
▁몰랐는데	-10.5702
▁몰랐다	-10.5702
▁몸	-10.5702
▁무서워	-10.5702
▁무서워서	-10.5702
▁미소를	-10.5702
▁미스	-10.5702
▁반전과	-10.5702
▁배우,	-10.5702
▁뱀파이어	-10.5702
▁별다른	-10.5702
▁보면서도	-10.5702
▁보이고	-10.5702
▁복수를	-10.5702
▁본듯	-10.5702
▁볼만했는데	-10.5702
▁분위기와	-10.5702
▁불후의	-10.5702
▁블록버스터	-10.5702
▁빨갱이	-10.5702
▁뻔히	-10.5702
▁사람으로	-10.5702
▁사랑해요	-10.5702
▁사이에서	-10.5702
▁사회에	-10.5702
▁살인을	-10.5702
▁상황	-10.5702
▁생각난다.	-10.5702
▁섹스	-10.5702
▁속아서	-10.5702
▁스타일의	-10.5702
▁시간의	-10.5702
▁시청자를	-10.5702
▁식의	-10.5702
▁신나게	-10.5702
▁신이	-10.5702
▁심심한	-10.5702
▁심하다	-10.5702
▁씬은	-10.5702
▁아까웠던	-10.5702
▁아쉽네요.	-10.5702
▁아이의	-10.5702
▁아줌마	-10.5702
▁안봄	-10.5702
▁안에서	-10.5702
▁애니.	-10.5702
▁어우러진	-10.5702
▁영상으로	-10.5702
▁영화인데도	-10.5702
▁영화일	-10.5702
▁오글오글	-10.5702
▁와닿는	-10.5702
▁완죤	-10.5702
▁우는	-10.5702
▁웃겼다	-10.5702
▁인간들은	-10.5702
▁있어요.	-10.5702
▁자	-10.5702
▁자체.	-10.5702
▁작품...	-10.5702
▁작품성은	-10.5702
▁작품이라	-10.5702
▁잡는	-10.5702
▁재난	-10.5702
▁재미있었다	-10.5702
▁재미있었습니다.	-10.5702
▁저게	-10.5702
▁졸면서	-10.5702
▁좋아하시는	-10.5702
▁좋았을텐데	-10.5702
▁중국의	-10.5702
▁즐길	-10.5702
▁지났지만	-10.5702
▁진	-10.5702
▁진행	-10.5702
▁집중도	-10.5702
▁찝찝한	-10.5702
▁차이가	-10.5702
▁철학적	-10.5702
▁초등학생	-10.5702
▁초반의	-10.5702
▁촬영	-10.5702
▁포스터는	-10.5702
▁하정우	-10.5702
▁한국영화가	-10.5702
▁해야지	-10.5702
▁해준다.	-10.5702
▁허술하고	-10.5702
▁흑인	-10.5702
▁흠..	-10.5702
▁희망이	-10.5702
▁힘들	-10.5702
▁100점	-10.6053
▁10년전에	-10.6053
▁10점준다	-10.6053
▁1점준다	-10.6053
▁3번	-10.6053
▁4.44	-10.6053
▁6점	-10.6053
▁and	-10.6053
▁ᄋ	-10.6053
▁감동적이다	-10.6053
▁같다...	-10.6053
▁같은데...	-10.6053
▁거다.	-10.6053
▁거대한	-10.6053
▁곳에서	-10.6053
▁관계를	-10.6053
▁굳굳	-10.6053
▁그들만의	-10.6053
▁그지	-10.6053
▁그지같은	-10.6053
▁나가는	-10.6053
▁나오기	-10.6053
▁나이에	-10.6053
▁나중엔	-10.6053
▁내는	-10.6053
▁내돈	-10.6053
▁너는	-10.6053
▁누나	-10.6053
▁눈물도	-10.6053
▁다르다.	-10.6053
▁당연한	-10.6053
▁당최	-10.6053
▁데이빗	-10.6053
▁되었습니다.	-10.6053
▁드라마보다	-10.6053
▁듣기	-10.6053
▁듣는	-10.6053
▁류승범	-10.6053
▁류의	-10.6053
▁리뷰를	-10.6053
▁리얼하게	-10.6053
▁마음은	-10.6053
▁마지막의	-10.6053
▁막장드라마	-10.6053
▁만나는	-10.6053
▁만든다	-10.6053
▁만들기도	-10.6053
▁만들어준	-10.6053
▁만큼은	-10.6053
▁맞게	-10.6053
▁멋있다.	-10.6053
▁메세지도	-10.6053
▁몇번이고	-10.6053
▁몰입을	-10.6053
▁무엇이	-10.6053
▁뭔가를	-10.6053
▁바보	-10.6053
▁받아	-10.6053
▁배경을	-10.6053
▁배우들만	-10.6053
▁배우로	-10.6053
▁배우분들	-10.6053
▁보고,	-10.6053
▁봤을까	-10.6053
▁불필요한	-10.6053
▁비교가	-10.6053
▁비중이	-10.6053
▁빛이	-10.6053
▁빠져드는	-10.6053
▁빵빵	-10.6053
▁새	-10.6053
▁새롭고	-10.6053
▁생각해도	-10.6053
▁생겨서	-10.6053
▁생긴	-10.6053
▁성인이	-10.6053
▁속은	-10.6053
▁쉬운	-10.6053
▁슬퍼서	-10.6053
▁시나리오는	-10.6053
▁시원하게	-10.6053
▁식으로	-10.6053
▁실망.	-10.6053
▁심오한	-10.6053
▁싶지만	-10.6053
▁쓰레기..	-10.6053
▁쓰레기로	-10.6053
▁아니다...	-10.6053
▁아니라는	-10.6053
▁아닌,	-10.6053
▁아름다웠던	-10.6053
▁안나오고	-10.6053
▁약간은	-10.6053
▁어떻게든	-10.6053
▁없으니	-10.6053
▁엉엉	-10.6053
▁여주의	-10.6053
▁역겹다	-10.6053
▁연기자들의	-10.6053
▁연출의	-10.6053
▁열라	-10.6053
▁영화관에	-10.6053
▁영화네요..	-10.6053
▁예고편만	-10.6053
▁옛	-10.6053
▁와닿지	-10.6053
▁우리네	-10.6053
▁우정	-10.6053
▁울었다	-10.6053
▁움직이는	-10.6053
▁웃는	-10.6053
▁위에	-10.6053
▁위험한	-10.6053
▁유치함.	-10.6053
▁이거는	-10.6053
▁이상도	-10.6053
▁이야기와	-10.6053
▁이해하고	-10.6053
▁인간들이	-10.6053
▁인물들	-10.6053
▁있었습니다.	-10.6053
▁있으니	-10.6053
▁자극하는	-10.6053
▁자세히	-10.6053
▁작위적인	-10.6053
▁잔잔하니	-10.6053
▁잔혹한	-10.6053
▁잡고	-10.6053
▁장난하나	-10.6053
▁장르는	-10.6053
▁재미없네요	-10.6053
▁재미있다고	-10.6053
▁재밌게봤어요	-10.6053
▁재밌다!	-10.6053
▁잼있음	-10.6053
▁저것도	-10.6053
▁전부다	-10.6053
▁정말정말	-10.6053
▁정우성	-10.6053
▁존재	-10.6053
▁졸려서	-10.6053
▁좋겠습니다.	-10.6053
▁주인공도	-10.6053
▁중간부터	-10.6053
▁중학교때	-10.6053
▁지금껏	-10.6053
▁지들끼리	-10.6053
▁진정으로	-10.6053
▁찾아볼	-10.6053
▁청춘	-10.6053
▁최고다!	-10.6053
▁쵝오	-10.6053
▁충실한	-10.6053
▁치밀한	-10.6053
▁포르노	-10.6053
▁피해자	-10.6053
▁하려고	-10.6053
▁한계가	-10.6053
▁한숨만	-10.6053
▁한테	-10.6053
▁해놓고	-10.6053
▁향해	-10.6053
▁화면이	-10.6053
▁훌륭하고	-10.6053
▁1도	-10.6417
▁1점주기도	-10.6417
▁1편도	-10.6417
▁20년전	-10.6417
▁2시간이	-10.6417
▁3D로	-10.6417
▁4	-10.6417
▁EBS에서	-10.6417
▁OST도	-10.6417
▁my	-10.6417
▁ᄅᄋ	-10.6417
▁가는줄	-10.6417
▁각본이	-10.6417
▁같았다.	-10.6417
▁개인적으론	-10.6417
▁거짓말	-10.6417
▁고통을	-10.6417
▁공포영화의	-10.6417
▁굿!!	-10.6417
▁귀엽다	-10.6417
▁그것은	-10.6417
▁그녀는	-10.6417
▁그래픽이	-10.6417
▁기억은	-10.6417
▁기억이..	-10.6417
▁꼴	-10.6417
▁끝날	-10.6417
▁끝날때까지	-10.6417
▁나라를	-10.6417
▁나라의	-10.6417
▁나쁘진	-10.6417
▁나에게는	-10.6417
▁나오네	-10.6417
▁나온다고	-10.6417
▁남고	-10.6417
▁내일	-10.6417
▁냄새가	-10.6417
▁누구	-10.6417
▁다같이	-10.6417
▁다행이다	-10.6417
▁단체로	-10.6417
▁대박!	-10.6417
▁대본	-10.6417
▁돈아까워	-10.6417
▁동영상	-10.6417
▁동화	-10.6417
▁뚝뚝	-10.6417
▁만날	-10.6417
▁많지만	-10.6417
▁먹먹한	-10.6417
▁몰입하면서	-10.6417
▁못보고	-10.6417
▁몽환적인	-10.6417
▁무의미한	-10.6417
▁미국에서	-10.6417
▁방법이	-10.6417
▁배경은	-10.6417
▁범인이	-10.6417
▁별로였다.	-10.6417
▁별한개도	-10.6417
▁보고서	-10.6417
▁보구	-10.6417
▁보기는	-10.6417
▁보시길..	-10.6417
▁볼거리	-10.6417
▁볼거리가	-10.6417
▁볼만했다	-10.6417
▁볼만했다.	-10.6417
▁봤다는	-10.6417
▁봤을땐	-10.6417
▁비	-10.6417
▁사랑스런	-10.6417
▁산만한	-10.6417
▁삼류영화	-10.6417
▁생각하지	-10.6417
▁생각했던	-10.6417
▁생생하게	-10.6417
▁세계를	-10.6417
▁소년의	-10.6417
▁소름돋는	-10.6417
▁소재,	-10.6417
▁솔까	-10.6417
▁슬픔	-10.6417
▁슬픔이	-10.6417
▁시나리오와	-10.6417
▁시선을	-10.6417
▁시즌2	-10.6417
▁심각한	-10.6417
▁심심해서	-10.6417
▁심형래	-10.6417
▁쓰레기라고	-10.6417
▁쓰레기영화.	-10.6417
▁아니고...	-10.6417
▁아니지	-10.6417
▁아름다움을	-10.6417
▁아이들을	-10.6417
▁아침	-10.6417
▁안나옴	-10.6417
▁안될	-10.6417
▁안봤으면	-10.6417
▁알게된	-10.6417
▁알겠지만	-10.6417
▁알고보니	-10.6417
▁알수없는	-10.6417
▁어느새	-10.6417
▁어렸을적	-10.6417
▁어머니의	-10.6417
▁어째서	-10.6417
▁없나	-10.6417
▁없었는데	-10.6417
▁에효	-10.6417
▁여성의	-10.6417
▁여자들의	-10.6417
▁여주인공은	-10.6417
▁영혼을	-10.6417
▁영화였어요	-10.6417
▁영화인거	-10.6417
▁영환	-10.6417
▁왔습니다.	-10.6417
▁왠만해선	-10.6417
▁웃기지	-10.6417
▁웃음만	-10.6417
▁음악에	-10.6417
▁인내심을	-10.6417
▁인지	-10.6417
▁잃고	-10.6417
▁잃어버린	-10.6417
▁있다는게	-10.6417
▁장면,	-10.6417
▁장면에	-10.6417
▁재미없음..	-10.6417
▁재미있네요.	-10.6417
▁재미있었음	-10.6417
▁재밌기만	-10.6417
▁재밌어요~	-10.6417
▁적나라하게	-10.6417
▁전편에	-10.6417
▁정신나간	-10.6417
▁정통	-10.6417
▁조합	-10.6417
▁좋았다..	-10.6417
▁중간중간에	-10.6417
▁중반	-10.6417
▁줘서	-10.6417
▁지루하다..	-10.6417
▁지루하지않고	-10.6417
▁짧아서	-10.6417
▁짱!!	-10.6417
▁찾고	-10.6417
▁첨에	-10.6417
▁최고라	-10.6417
▁최고라는	-10.6417
▁출연진	-10.6417
▁캐릭터들의	-10.6417
▁코미디도	-10.6417
▁코미디를	-10.6417
▁티가	-10.6417
▁티비	-10.6417
▁팬이라면	-10.6417
▁평론가들은	-10.6417
▁하..	-10.6417
▁하기	-10.6417
▁한계	-10.6417
▁한국은	-10.6417
▁한번씩	-10.6417
▁한시간	-10.6417
▁했음	-10.6417
▁행동이	-10.6417
▁획을	-10.6417
▁흘러도	-10.6417
▁힘	-10.6417
▁20분	-10.6794
▁2시간동안	-10.6794
▁30대	-10.6794
▁9점은	-10.6794
▁각본과	-10.6794
▁감동...	-10.6794
▁감정의	-10.6794
▁같기도	-10.6794
▁개나	-10.6794
▁개판	-10.6794
▁거기	-10.6794
▁걸까?	-10.6794
▁걸작이다.	-10.6794
▁것,	-10.6794
▁결혼	-10.6794
▁관객들	-10.6794
▁관람	-10.6794
▁괜찮다	-10.6794
▁극치	-10.6794
▁기준으로	-10.6794
▁긴장을	-10.6794
▁깨알같은	-10.6794
▁끊임없이	-10.6794
▁나루토	-10.6794
▁나왔는데	-10.6794
▁낚인	-10.6794
▁남네요.	-10.6794
▁남자들의	-10.6794
▁났다.	-10.6794
▁내겐	-10.6794
▁내면의	-10.6794
▁내시간	-10.6794
▁노출	-10.6794
▁능가하는	-10.6794
▁니들은	-10.6794
▁답답해	-10.6794
▁더한	-10.6794
▁되어야	-10.6794
▁될수	-10.6794
▁드라마~	-10.6794
▁듭니다.	-10.6794
▁등이	-10.6794
▁등장인물	-10.6794
▁때론	-10.6794
▁떠올리게	-10.6794
▁또보고	-10.6794
▁똑바로	-10.6794
▁라이언	-10.6794
▁마음속에	-10.6794
▁막장의	-10.6794
▁말자	-10.6794
▁말해주는	-10.6794
▁맛을	-10.6794
▁몇년이	-10.6794
▁모르겠음.	-10.6794
▁모습도	-10.6794
▁못미치는	-10.6794
▁못보겠다	-10.6794
▁못하게	-10.6794
▁못하다	-10.6794
▁무섭다.	-10.6794
▁무얼	-10.6794
▁무협	-10.6794
▁미국이	-10.6794
▁미화	-10.6794
▁믿는	-10.6794
▁받았다.	-10.6794
▁배가	-10.6794
▁보고난	-10.6794
▁보세요~	-10.6794
▁보여서	-10.6794
▁보이지만	-10.6794
▁복수가	-10.6794
▁본인이	-10.6794
▁봤다...	-10.6794
▁봤어요~	-10.6794
▁봤었던	-10.6794
▁분위기의	-10.6794
▁불편하고	-10.6794
▁비현실적인	-10.6794
▁사건을	-10.6794
▁사회를	-10.6794
▁생각.	-10.6794
▁섹시한	-10.6794
▁스릴러의	-10.6794
▁스릴있고	-10.6794
▁신나는	-10.6794
▁썩	-10.6794
▁쓰레기네	-10.6794
▁씁쓸한	-10.6794
▁아니었으면	-10.6794
▁아쉬웠지만	-10.6794
▁아역	-10.6794
▁아이도	-10.6794
▁아프고	-10.6794
▁안나와서	-10.6794
▁안했는데	-10.6794
▁알바들이	-10.6794
▁알수가	-10.6794
▁암울한	-10.6794
▁애니메이션은	-10.6794
▁액션으로	-10.6794
▁어디까지	-10.6794
▁언니	-10.6794
▁없다면	-10.6794
▁없었지만	-10.6794
▁역을	-10.6794
▁연기력,	-10.6794
▁영상을	-10.6794
▁영어	-10.6794
▁영화야	-10.6794
▁영화인가?	-10.6794
▁완벽하다.	-10.6794
▁완벽히	-10.6794
▁외에는	-10.6794
▁요소는	-10.6794
▁의미는	-10.6794
▁이걸보고	-10.6794
▁이드라마	-10.6794
▁이들이	-10.6794
▁이란	-10.6794
▁이러한	-10.6794
▁이쁨	-10.6794
▁이정도는	-10.6794
▁이해하지	-10.6794
▁이후의	-10.6794
▁인물들이	-10.6794
▁인한	-10.6794
▁일요일	-10.6794
▁읽은	-10.6794
▁있는것도	-10.6794
▁자체를	-10.6794
▁작품이다	-10.6794
▁잔인하게	-10.6794
▁잔잔하면서	-10.6794
▁잘만들어진	-10.6794
▁장르에	-10.6794
▁재미있을	-10.6794
▁재미있음.	-10.6794
▁재밋는	-10.6794
▁적당	-10.6794
▁제법	-10.6794
▁존내	-10.6794
▁좀..	-10.6794
▁주면	-10.6794
▁주변	-10.6794
▁죽인	-10.6794
▁중에서도	-10.6794
▁지루하기만	-10.6794
▁지루하지만	-10.6794
▁진짜진짜	-10.6794
▁찌질한	-10.6794
▁처음.	-10.6794
▁쳐도	-10.6794
▁총을	-10.6794
▁최고...	-10.6794
▁최고입니다.	-10.6794
▁치는	-10.6794
▁필요한가?	-10.6794
▁한가지	-10.6794
▁한국에	-10.6794
▁한국인	-10.6794
▁한정된	-10.6794
▁했습니다.	-10.6794
▁헛웃음만	-10.6794
▁형사	-10.6794
▁화끈하게	-10.6794
▁화려하고	-10.6794
▁후속작	-10.6794
▁흐름을	-10.6794
▁,,,	-10.7187
▁->	-10.7187
▁3D	-10.7187
▁8점대	-10.7187
▁???	-10.7187
▁A급	-10.7187
▁TV로	-10.7187
▁♡	-10.7187
▁가득찬	-10.7187
▁가면갈수록	-10.7187
▁가족영화	-10.7187
▁감독.	-10.7187
▁감동으로	-10.7187
▁감성팔이	-10.7187
▁같은데..	-10.7187
▁거리가	-10.7187
▁거부감이	-10.7187
▁게이	-10.7187
▁결론이	-10.7187
▁고로	-10.7187
▁교과서	-10.7187
▁그냥..	-10.7187
▁그때는	-10.7187
▁그래픽도	-10.7187
▁그렇다.	-10.7187
▁그립다.	-10.7187
▁극단적인	-10.7187
▁기독교	-10.7187
▁기분만	-10.7187
▁김수현	-10.7187
▁끄는	-10.7187
▁끝나지	-10.7187
▁나라가	-10.7187
▁나발이고	-10.7187
▁낚이지	-10.7187
▁남자들이	-10.7187
▁내용전개가	-10.7187
▁넘치고	-10.7187
▁다른거	-10.7187
▁달콤한	-10.7187
▁더빙을	-10.7187
▁때부터	-10.7187
▁떨어진	-10.7187
▁라스트	-10.7187
▁로봇	-10.7187
▁마구	-10.7187
▁만들다	-10.7187
▁만들었나	-10.7187
▁만들었을까?	-10.7187
▁말하지	-10.7187
▁맛	-10.7187
▁맛에	-10.7187
▁메세지	-10.7187
▁명작..	-10.7187
▁모	-10.7187
▁모두들	-10.7187
▁모두를	-10.7187
▁모른다.	-10.7187
▁목숨을	-10.7187
▁무언가가	-10.7187
▁뭐여	-10.7187
▁미야자키	-10.7187
▁미화하는	-10.7187
▁민망한	-10.7187
▁바보가	-10.7187
▁반지의	-10.7187
▁받아야	-10.7187
▁보기도	-10.7187
▁보기드문	-10.7187
▁보다보면	-10.7187
▁보자	-10.7187
▁복수	-10.7187
▁볼거리도	-10.7187
▁볼수가	-10.7187
▁부른	-10.7187
▁뿐..	-10.7187
▁사건의	-10.7187
▁사라진	-10.7187
▁상	-10.7187
▁상상력을	-10.7187
▁서서히	-10.7187
▁세번	-10.7187
▁솔직하게	-10.7187
▁슬프게	-10.7187
▁슬픔을	-10.7187
▁시시한	-10.7187
▁실패한	-10.7187
▁아들과	-10.7187
▁아들을	-10.7187
▁아마도	-10.7187
▁아무래도	-10.7187
▁아버지를	-10.7187
▁아쉽긴	-10.7187
▁안본	-10.7187
▁안타깝고	-10.7187
▁않네요	-10.7187
▁알아야	-10.7187
▁암	-10.7187
▁앞뒤	-10.7187
▁애니메이션.	-10.7187
▁애니메이션이	-10.7187
▁애를	-10.7187
▁언제쯤	-10.7187
▁없어요.	-10.7187
▁연기...	-10.7187
▁연기까지	-10.7187
▁연출로	-10.7187
▁연출한	-10.7187
▁영화다!	-10.7187
▁영화면	-10.7187
▁영화에선	-10.7187
▁영화에요.	-10.7187
▁영화자체가	-10.7187
▁예상치	-10.7187
▁완성도는	-10.7187
▁완성도를	-10.7187
▁외계인이	-10.7187
▁우리나라에서	-10.7187
▁울었던	-10.7187
▁웃음도	-10.7187
▁원작보다	-10.7187
▁웬만한	-10.7187
▁유치하지만	-10.7187
▁음악만	-10.7187
▁이것	-10.7187
▁이만큼	-10.7187
▁이해는	-10.7187
▁읽는	-10.7187
▁잃지	-10.7187
▁임창정	-10.7187
▁있었음	-10.7187
▁자연스럽고	-10.7187
▁작품도	-10.7187
▁장	-10.7187
▁장국영	-10.7187
▁재미있었고	-10.7187
▁재밌게본	-10.7187
▁저리	-10.7187
▁저의	-10.7187
▁저평가된	-10.7187
▁전작	-10.7187
▁전쟁이	-10.7187
▁제작	-10.7187
▁좋아하면	-10.7187
▁죄를	-10.7187
▁주옥같은	-10.7187
▁주제	-10.7187
▁주제로	-10.7187
▁지구를	-10.7187
▁짧게	-10.7187
▁차가운	-10.7187
▁철없는	-10.7187
▁최대	-10.7187
▁최악임	-10.7187
▁추악한	-10.7187
▁출연하는	-10.7187
▁친구를	-10.7187
▁카메론	-10.7187
▁캐릭터들도	-10.7187
▁캐릭터에	-10.7187
▁캐스팅에	-10.7187
▁클린트	-10.7187
▁태어난	-10.7187
▁텐데	-10.7187
▁평가가	-10.7187
▁하기에는	-10.7187
▁하나를	-10.7187
▁하던	-10.7187
▁한국형	-10.7187
▁한다면	-10.7187
▁했는데,	-10.7187
▁행복해지는	-10.7187
▁홍콩영화	-10.7187
▁후반	-10.7187
▁후반에	-10.7187
▁후반으로	-10.7187
▁후에도	-10.7187
▁후회하지	-10.7187
▁흔적이	-10.7187
▁흔히	-10.7187
▁흥행에	-10.7187
▁0점도	-10.7595
▁19금	-10.7595
▁1편과	-10.7595
▁2가	-10.7595
▁3,	-10.7595
▁60년대	-10.7595
▁CG도	-10.7595
▁DVD	-10.7595
▁OO같은	-10.7595
▁cg가	-10.7595
▁가치	-10.7595
▁개연성은	-10.7595
▁것처럼	-10.7595
▁계속해서	-10.7595
▁공포물	-10.7595
▁공포영화.	-10.7595
▁관계가	-10.7595
▁그나저나	-10.7595
▁그땐	-10.7595
▁극장서	-10.7595
▁극적인	-10.7595
▁기	-10.7595
▁기분좋게	-10.7595
▁까는	-10.7595
▁꿈에	-10.7595
▁꿈이	-10.7595
▁끝날때	-10.7595
▁나온거	-10.7595
▁나온다는	-10.7595
▁나참	-10.7595
▁낚였다	-10.7595
▁날이	-10.7595
▁남편이	-10.7595
▁낳은	-10.7595
▁내용이나	-10.7595
▁노력한	-10.7595
▁놈들이	-10.7595
▁눈과	-10.7595
▁눈빛이	-10.7595
▁느끼지	-10.7595
▁다르다	-10.7595
▁다를게	-10.7595
▁다큐.	-10.7595
▁달달한	-10.7595
▁답답하다	-10.7595
▁당시의	-10.7595
▁당신	-10.7595
▁당신을	-10.7595
▁더빙도	-10.7595
▁된다고	-10.7595
▁따듯한	-10.7595
▁로맨스를	-10.7595
▁만나고	-10.7595
▁말았어야	-10.7595
▁말하려는	-10.7595
▁망했는지	-10.7595
▁매년	-10.7595
▁메시지는	-10.7595
▁모두에게	-10.7595
▁모르겠네	-10.7595
▁몰입도는	-10.7595
▁몸에	-10.7595
▁박보영	-10.7595
▁배우들로	-10.7595
▁별로인	-10.7595
▁보세요!	-10.7595
▁보여주지	-10.7595
▁본질을	-10.7595
▁북한	-10.7595
▁블랙코미디	-10.7595
▁빡쳐서	-10.7595
▁사실에	-10.7595
▁사실적인	-10.7595
▁생각한	-10.7595
▁소녀의	-10.7595
▁소리를	-10.7595
▁숨막히는	-10.7595
▁숨이	-10.7595
▁스케일도	-10.7595
▁신기한	-10.7595
▁신데렐라	-10.7595
▁신비로운	-10.7595
▁싶었다.	-10.7595
▁써도	-10.7595
▁쓰지	-10.7595
▁아냐?	-10.7595
▁아닌거	-10.7595
▁아들의	-10.7595
▁아름다움	-10.7595
▁아쉬울	-10.7595
▁아이들도	-10.7595
▁안의	-10.7595
▁않았으면	-10.7595
▁알겠다	-10.7595
▁알았더니	-10.7595
▁애니메이션을	-10.7595
▁약한	-10.7595
▁어	-10.7595
▁어려서	-10.7595
▁얼굴도	-10.7595
▁얼른	-10.7595
▁없냐?	-10.7595
▁없습니다	-10.7595
▁없었다면	-10.7595
▁엉망	-10.7595
▁여자와	-10.7595
▁여자친구랑	-10.7595
▁역할	-10.7595
▁연기..	-10.7595
▁연출력도	-10.7595
▁연출에	-10.7595
▁영화관가서	-10.7595
▁영화보면	-10.7595
▁영화였는데	-10.7595
▁영화지	-10.7595
▁영화처럼	-10.7595
▁예쁘다.	-10.7595
▁예술을	-10.7595
▁오랜	-10.7595
▁오빠	-10.7595
▁완전한	-10.7595
▁원피스	-10.7595
▁음악의	-10.7595
▁이건좀	-10.7595
▁이야	-10.7595
▁이영화에서	-10.7595
▁일본식	-10.7595
▁있는데,	-10.7595
▁작품성이	-10.7595
▁잔잔히	-10.7595
▁잘생긴	-10.7595
▁재미,	-10.7595
▁재밋는데	-10.7595
▁재밌다..	-10.7595
▁저거	-10.7595
▁조잡하고	-10.7595
▁존재가	-10.7595
▁좋을듯	-10.7595
▁주려고	-10.7595
▁주변에	-10.7595
▁죽음	-10.7595
▁즉	-10.7595
▁증말	-10.7595
▁짜임새	-10.7595
▁찍지	-10.7595
▁차	-10.7595
▁차원이	-10.7595
▁참신하고	-10.7595
▁처절한	-10.7595
▁철저히	-10.7595
▁최고~	-10.7595
▁최고봉	-10.7595
▁최고인듯	-10.7595
▁최선을	-10.7595
▁케빈	-10.7595
▁코메디.	-10.7595
▁코미디로	-10.7595
▁크고	-10.7595
▁터미네이터	-10.7595
▁특수효과	-10.7595
▁특히나	-10.7595
▁평소에	-10.7595
▁풋풋하고	-10.7595
▁필름	-10.7595
▁필요는	-10.7595
▁하나만	-10.7595
▁하니까	-10.7595
▁한순간도	-10.7595
▁허무하고	-10.7595
▁허허	-10.7595
▁화장실	-10.7595
▁확실한	-10.7595
▁후한	-10.7595
▁흥미진진하고	-10.7595
▁1이	-10.802
▁2000년대	-10.802
▁2점부터	-10.802
▁5	-10.802
▁7점은	-10.802
▁OOOO	-10.802
▁ocn에서	-10.802
▁ᄀ	-10.802
▁ᄉ	-10.802
▁가짜	-10.802
▁가치는	-10.802
▁감동적이었다.	-10.802
▁감성적인	-10.802
▁고양이	-10.802
▁공감되는	-10.802
▁관심	-10.802
▁광고	-10.802
▁괴물이	-10.802
▁귀가	-10.802
▁그녀가	-10.802
▁그래두	-10.802
▁그림이	-10.802
▁극	-10.802
▁기괴한	-10.802
▁기대이상으로	-10.802
▁기분좋은	-10.802
▁기억하는	-10.802
▁기회를	-10.802
▁꼭봐라	-10.802
▁꿈	-10.802
▁끔찍한	-10.802
▁끝남	-10.802
▁끝으로	-10.802
▁나오니	-10.802
▁나와야	-10.802
▁나왔다	-10.802
▁남지	-10.802
▁너무하네	-10.802
▁네이버에서	-10.802
▁년	-10.802
▁노는	-10.802
▁노래와	-10.802
▁노출이	-10.802
▁놀라울	-10.802
▁놈이	-10.802
▁다가오는	-10.802
▁다니엘	-10.802
▁다행	-10.802
▁대한민국의	-10.802
▁동심을	-10.802
▁되네요.	-10.802
▁되었는데	-10.802
▁둔	-10.802
▁뒤로갈수록	-10.802
▁드라마에서	-10.802
▁들어가	-10.802
▁듬	-10.802
▁따라서	-10.802
▁때문이다.	-10.802
▁또다시	-10.802
▁리얼한	-10.802
▁마니	-10.802
▁마이너스는	-10.802
▁만드는게	-10.802
▁만들어내는	-10.802
▁많았던	-10.802
▁말만	-10.802
▁매끄럽지	-10.802
▁멋있게	-10.802
▁멋짐	-10.802
▁명작임	-10.802
▁모두다	-10.802
▁모자란	-10.802
▁몰입감이	-10.802
▁못생긴	-10.802
▁무간도	-10.802
▁무려	-10.802
▁미국은	-10.802
▁바가	-10.802
▁방식이	-10.802
▁보겠다	-10.802
▁보았지만	-10.802
▁보자고	-10.802
▁볼땐	-10.802
▁부실한	-10.802
▁분이	-10.802
▁불쌍	-10.802
▁비행기	-10.802
▁빵점	-10.802
▁뿐만	-10.802
▁사랑이야기	-10.802
▁사랑합니다	-10.802
▁사운드	-10.802
▁사투리	-10.802
▁살아야	-10.802
▁샘	-10.802
▁성우를	-10.802
▁속편은	-10.802
▁속편이	-10.802
▁손꼽히는	-10.802
▁수작!	-10.802
▁스크린으로	-10.802
▁스페인	-10.802
▁시리즈로	-10.802
▁실망을	-10.802
▁싶다는	-10.802
▁싶음	-10.802
▁쏙	-10.802
▁쓰레기도	-10.802
▁씬이	-10.802
▁아류작	-10.802
▁아쉬움.	-10.802
▁안간다	-10.802
▁안고	-10.802
▁안되는데	-10.802
▁안봤지만	-10.802
▁않고..	-10.802
▁않았는데	-10.802
▁알아서	-10.802
▁알았네	-10.802
▁알았음	-10.802
▁어거지	-10.802
▁어디선가	-10.802
▁어린이용	-10.802
▁어설프다	-10.802
▁어이없음	-10.802
▁어케	-10.802
▁억지감동	-10.802
▁엄마는	-10.802
▁엄마와	-10.802
▁없냐	-10.802
▁없었고	-10.802
▁없음...	-10.802
▁엑스맨	-10.802
▁여기저기	-10.802
▁여실히	-10.802
▁여주는	-10.802
▁여주인공도	-10.802
▁여행	-10.802
▁역쉬	-10.802
▁역할이	-10.802
▁연결이	-10.802
▁연기나	-10.802
▁연기력을	-10.802
▁영화고	-10.802
▁영화다운	-10.802
▁영화보는내내	-10.802
▁영화좀	-10.802
▁예전의	-10.802
▁오리지널	-10.802
▁왕조현	-10.802
▁외국	-10.802
▁외엔	-10.802
▁욕만	-10.802
▁욕하고	-10.802
▁운명을	-10.802
▁웃기네	-10.802
▁유덕화	-10.802
▁유치하다.	-10.802
▁유치해	-10.802
▁이미지가	-10.802
▁이상하다	-10.802
▁이전	-10.802
▁이전에	-10.802
▁익숙한	-10.802
▁인기가	-10.802
▁인상깊은	-10.802
▁인정	-10.802
▁일부	-10.802
▁잊을수가	-10.802
▁작품으로	-10.802
▁잤다	-10.802
▁장난하냐?	-10.802
▁재밌어요!!	-10.802
▁잼없음	-10.802
▁정신건강에	-10.802
▁제목도	-10.802
▁제작된	-10.802
▁조금이라도	-10.802
▁조악한	-10.802
▁주고싶다	-10.802
▁주말에	-10.802
▁주인공과	-10.802
▁죽음의	-10.802
▁줄거리는	-10.802
▁줄거리에	-10.802
▁지구	-10.802
▁짐캐리	-10.802
▁짠한	-10.802
▁짧지만	-10.802
▁찡한	-10.802
▁처음이네	-10.802
▁크리스토퍼	-10.802
▁파라노말	-10.802
▁판타지를	-10.802
▁표현을	-10.802
▁피가	-10.802
▁하고...	-10.802
▁하늘을	-10.802
▁하다니	-10.802
▁하여금	-10.802
▁한국이	-10.802
▁한효주	-10.802
▁할까	-10.802
▁했다는	-10.802
▁환상의	-10.802
▁흥미가	-10.802
▁-_-;	-10.8465
▁0	-10.8465
▁12세	-10.8465
▁1위	-10.8465
▁1점짜리	-10.8465
▁7점대	-10.8465
▁9점대	-10.8465
▁cg도	-10.8465
▁ᄏᄏᄏᄏᄏᄏᄏᄏᄏᄏᄏᄏᄏ	-10.8465
▁가져다	-10.8465
▁각각의	-10.8465
▁감독님이	-10.8465
▁감동이다	-10.8465
▁감명	-10.8465
▁감상	-10.8465
▁개연성없는	-10.8465
▁걸린	-10.8465
▁공감은	-10.8465
▁과거에	-10.8465
▁관계	-10.8465
▁관점에서	-10.8465
▁괜찮았다	-10.8465
▁괜찮았음.	-10.8465
▁괴물	-10.8465
▁국산	-10.8465
▁귀에	-10.8465
▁그녀	-10.8465
▁그러면	-10.8465
▁그자체	-10.8465
▁극을	-10.8465
▁극의	-10.8465
▁길	-10.8465
▁끝내주는	-10.8465
▁나레이션	-10.8465
▁나음	-10.8465
▁나한테	-10.8465
▁날로	-10.8465
▁낸	-10.8465
▁넘어서	-10.8465
▁네가	-10.8465
▁네이버는	-10.8465
▁노래만	-10.8465
▁놀란	-10.8465
▁다가	-10.8465
▁다음에	-10.8465
▁달고	-10.8465
▁달달하고	-10.8465
▁담겨있는	-10.8465
▁담담하게	-10.8465
▁답답	-10.8465
▁대략	-10.8465
▁대사,	-10.8465
▁데려다	-10.8465
▁돋보였던	-10.8465
▁돌아가고	-10.8465
▁됐는데	-10.8465
▁된게	-10.8465
▁디카프리오	-10.8465
▁디테일한	-10.8465
▁러셀	-10.8465
▁로그인하게	-10.8465
▁마틴	-10.8465
▁만든거	-10.8465
▁만족	-10.8465
▁말이다.	-10.8465
▁말이필요없다	-10.8465
▁맞아	-10.8465
▁매	-10.8465
▁먹먹해지는	-10.8465
▁몇안되는	-10.8465
▁모르겟다	-10.8465
▁모르겠는데	-10.8465
▁모르겠다..	-10.8465
▁몰라서	-10.8465
▁몰래	-10.8465
▁몰입도를	-10.8465
▁못하겠다.	-10.8465
▁무섭지도않고	-10.8465
▁무작정	-10.8465
▁물씬	-10.8465
▁뭐하러	-10.8465
▁미국에	-10.8465
▁바람	-10.8465
▁바보로	-10.8465
▁발견한	-10.8465
▁밝고	-10.8465
▁배급사	-10.8465
▁버렸다.	-10.8465
▁벌어지는	-10.8465
▁별을	-10.8465
▁보니깐	-10.8465
▁보다도	-10.8465
▁본것	-10.8465
▁볼거리는	-10.8465
▁볼만한데	-10.8465
▁볼만함.	-10.8465
▁봤다고	-10.8465
▁분들께	-10.8465
▁브라이언	-10.8465
▁빠르고	-10.8465
▁사건	-10.8465
▁상황과	-10.8465
▁색감이	-10.8465
▁생각난다	-10.8465
▁생각지도	-10.8465
▁생각해보면	-10.8465
▁섬세하고	-10.8465
▁소설의	-10.8465
▁속지	-10.8465
▁수작이다	-10.8465
▁수준도	-10.8465
▁순간이	-10.8465
▁스릴러도	-10.8465
▁스타워즈	-10.8465
▁슬픈영화	-10.8465
▁시간가는	-10.8465
▁시선이	-10.8465
▁신들린	-10.8465
▁신은	-10.8465
▁실망..	-10.8465
▁실망이다	-10.8465
▁실망한	-10.8465
▁싫은	-10.8465
▁싶어요	-10.8465
▁싶어지는	-10.8465
▁쓰레기임	-10.8465
▁아버지와	-10.8465
▁아쉽고	-10.8465
▁아쉽다..	-10.8465
▁아우	-10.8465
▁아직은	-10.8465
▁아카데미	-10.8465
▁아프다.	-10.8465
▁안된	-10.8465
▁안된다는	-10.8465
▁않을까?	-10.8465
▁알겠다.	-10.8465
▁알면서도	-10.8465
▁알수있는	-10.8465
▁알지	-10.8465
▁앞뒤가	-10.8465
▁애니로	-10.8465
▁애절한	-10.8465
▁액션씬이	-10.8465
▁야이	-10.8465
▁약빨고	-10.8465
▁어릴적에	-10.8465
▁얼굴을	-10.8465
▁없음..	-10.8465
▁에이	-10.8465
▁여자들은	-10.8465
▁역량이	-10.8465
▁연기자	-10.8465
▁열받아서	-10.8465
▁영혼이	-10.8465
▁영화!!!!	-10.8465
▁영화니까	-10.8465
▁영화다!!	-10.8465
▁영화인데,	-10.8465
▁욕나온다	-10.8465
▁욕하면서	-10.8465
▁용서가	-10.8465
▁이것을	-10.8465
▁이러니	-10.8465
▁이런영화에	-10.8465
▁이름만	-10.8465
▁이미지	-10.8465
▁이은	-10.8465
▁인간에	-10.8465
▁임팩트가	-10.8465
▁잇는	-10.8465
▁있다..	-10.8465
▁자는	-10.8465
▁자체의	-10.8465
▁자칫	-10.8465
▁작품,	-10.8465
▁작품입니다	-10.8465
▁잘한다	-10.8465
▁재밋네요	-10.8465
▁재밌긴	-10.8465
▁재밌었습니다.	-10.8465
▁전개를	-10.8465
▁전쟁에	-10.8465
▁전체	-10.8465
▁정말....	-10.8465
▁정치적	-10.8465
▁존재하는	-10.8465
▁좋네	-10.8465
▁주연배우	-10.8465
▁주연으로	-10.8465
▁줄거리도	-10.8465
▁줍니다	-10.8465
▁중요한건	-10.8465
▁즐기는	-10.8465
▁지나서	-10.8465
▁진부하다.	-10.8465
▁책도	-10.8465
▁초반은	-10.8465
▁최고다..	-10.8465
▁춤	-10.8465
▁취향	-10.8465
▁코믹한	-10.8465
▁크레딧	-10.8465
▁통한	-10.8465
▁팬이라서	-10.8465
▁페이크	-10.8465
▁편이	-10.8465
▁평점좀	-10.8465
▁풀어가는	-10.8465
▁하던가	-10.8465
▁하세요	-10.8465
▁하필	-10.8465
▁하하	-10.8465
▁한국식	-10.8465
▁한명	-10.8465
▁할아버지	-10.8465
▁해줘서	-10.8465
▁했을	-10.8465
▁현실성도	-10.8465
▁현실에서	-10.8465
▁현재의	-10.8465
▁10년전	-10.893
▁1점주는	-10.893
▁30년	-10.893
▁8점대는	-10.893
▁DVD로	-10.893
▁so	-10.893
▁vs	-10.893
▁~~~	-10.893
▁ᄏᄏᄏᄏᄏᄏᄏᄏᄏᄏ	-10.893
▁가슴으로	-10.893
▁가운데	-10.893
▁감동적입니다.	-10.893
▁강동원	-10.893
▁강력한	-10.893
▁개나소나	-10.893
▁개콘	-10.893
▁겁니다.	-10.893
▁것으로	-10.893
▁결말의	-10.893
▁공포의	-10.893
▁교훈이	-10.893
▁그러니	-10.893
▁그러니까	-10.893
▁극과	-10.893
▁글쎄.	-10.893
▁급하게	-10.893
▁기대보다	-10.893
▁기대하면서	-10.893
▁기존의	-10.893
▁길고	-10.893
▁꽝	-10.893
▁끔	-10.893
▁나같은	-10.893
▁나오게	-10.893
▁나오는거	-10.893
▁나오는게	-10.893
▁나오면서	-10.893
▁나올까	-10.893
▁나이를	-10.893
▁난생	-10.893
▁납득이	-10.893
▁낮다.	-10.893
▁내용이지만	-10.893
▁널	-10.893
▁네이버에	-10.893
▁노력은	-10.893
▁놓친	-10.893
▁뇌리에	-10.893
▁눈뜨고	-10.893
▁느끼는게	-10.893
▁느낀다.	-10.893
▁다루는	-10.893
▁다르겠지만	-10.893
▁다시보게	-10.893
▁다시보면	-10.893
▁다행이다.	-10.893
▁단순하고	-10.893
▁닮은	-10.893
▁당하고	-10.893
▁대단하다고	-10.893
▁대박이다	-10.893
▁대학	-10.893
▁되야	-10.893
▁드릅게	-10.893
▁들어가는	-10.893
▁등장인물들이	-10.893
▁러브	-10.893
▁로맨스도	-10.893
▁만화영화	-10.893
▁많지	-10.893
▁말대로	-10.893
▁맞춘	-10.893
▁매력도	-10.893
▁매회	-10.893
▁머가	-10.893
▁머냐	-10.893
▁먹칠을	-10.893
▁모냐	-10.893
▁못하네	-10.893
▁못하지만	-10.893
▁무슨생각으로	-10.893
▁문제.	-10.893
▁미국판	-10.893
▁미래의	-10.893
▁미치지	-10.893
▁밋밋하고	-10.893
▁바란다.	-10.893
▁밤	-10.893
▁배우에	-10.893
▁백배	-10.893
▁버금가는	-10.893
▁베드신	-10.893
▁벤	-10.893
▁별반개도	-10.893
▁별이	-10.893
▁보고싶어요	-10.893
▁보는줄	-10.893
▁보다.	-10.893
▁보여준다	-10.893
▁본영화중	-10.893
▁볼줄	-10.893
▁봤을때는	-10.893
▁분은	-10.893
▁불가능한	-10.893
▁브래드	-10.893
▁비슷하게	-10.893
▁뻔하다.	-10.893
▁사라지고	-10.893
▁사람들에겐	-10.893
▁사랑..	-10.893
▁사랑이란	-10.893
▁생각과	-10.893
▁생생한	-10.893
▁설레는	-10.893
▁설명은	-10.893
▁설정,	-10.893
▁설정도	-10.893
▁섬세하게	-10.893
▁소소하게	-10.893
▁스릴러는	-10.893
▁스릴은	-10.893
▁스타	-10.893
▁스타일이	-10.893
▁스토리...	-10.893
▁스토리만	-10.893
▁시	-10.893
▁시절을	-10.893
▁실력이	-10.893
▁싫어서	-10.893
▁심장을	-10.893
▁싶다...	-10.893
▁싸우고	-10.893
▁쓸쓸한	-10.893
▁씨	-10.893
▁아기자기한	-10.893
▁아까웠다	-10.893
▁아닙니다	-10.893
▁아오이	-10.893
▁아이디어가	-10.893
▁아이유	-10.893
▁아픔과	-10.893
▁아픔이	-10.893
▁안돼	-10.893
▁안되게	-10.893
▁안봤는데	-10.893
▁안좋은	-10.893
▁않는데	-10.893
▁않았고	-10.893
▁알겠으나	-10.893
▁야동을	-10.893
▁어중간한	-10.893
▁어쩌고	-10.893
▁얼굴만	-10.893
▁없네...	-10.893
▁없는듯	-10.893
▁엉망인	-10.893
▁에로영화	-10.893
▁엔딩까지	-10.893
▁역사의	-10.893
▁연애	-10.893
▁열정과	-10.893
▁영상미에	-10.893
▁영화까지	-10.893
▁영화들을	-10.893
▁영화로서	-10.893
▁예상되는	-10.893
▁오래오래	-10.893
▁외모가	-10.893
▁외에	-10.893
▁우뢰매	-10.893
▁원작도	-10.893
▁유머와	-10.893
▁유치하기	-10.893
▁이라고	-10.893
▁이쁘다.	-10.893
▁이소룡	-10.893
▁이야기,	-10.893
▁이야기로	-10.893
▁이연희	-10.893
▁이유.	-10.893
▁이유없이	-10.893
▁이하	-10.893
▁일어나는	-10.893
▁있나요?	-10.893
▁잊혀지지가	-10.893
▁자막	-10.893
▁자식	-10.893
▁자체로	-10.893
▁작품이라고	-10.893
▁잘만들었다	-10.893
▁잘하네요	-10.893
▁장난하냐	-10.893
▁재미있어	-10.893
▁재미있었던	-10.893
▁재밌었어요.	-10.893
▁잼있고	-10.893
▁잼있네요	-10.893
▁저희	-10.893
▁정말.	-10.893
▁제목부터	-10.893
▁제목처럼	-10.893
▁제외하면	-10.893
▁제작한	-10.893
▁조금이나마	-10.893
▁조연	-10.893
▁조지	-10.893
▁좋다...	-10.893
▁좋은거	-10.893
▁주윤발	-10.893
▁죽어서	-10.893
▁줄거리를	-10.893
▁지겨운	-10.893
▁지독한	-10.893
▁지루함과	-10.893
▁진수를	-10.893
▁진짜....	-10.893
▁짱이다	-10.893
▁짱짱맨	-10.893
▁찍어도	-10.893
▁찍을	-10.893
▁첨이다	-10.893
▁첫사랑	-10.893
▁초반부	-10.893
▁최강의	-10.893
▁최대한	-10.893
▁추천한다.	-10.893
▁치곤	-10.893
▁친구들이랑	-10.893
▁친구와	-10.893
▁킬링타임도	-10.893
▁티비에	-10.893
▁팀	-10.893
▁편안하게	-10.893
▁평은	-10.893
▁평점만	-10.893
▁포스터를	-10.893
▁표현했다.	-10.893
▁픽사	-10.893
▁하루	-10.893
▁하루종일	-10.893
▁하지마라	-10.893
▁하지말고	-10.893
▁하지원	-10.893
▁하하하	-10.893
▁한대	-10.893
▁한때	-10.893
▁한방에	-10.893
▁해피엔딩	-10.893
▁했다면	-10.893
▁했어요	-10.893
▁했지만,	-10.893
▁행동을	-10.893
▁향수를	-10.893
▁홍보	-10.893
▁흠...	-10.893
▁)	-10.9418
▁15세	-10.9418
▁1개	-10.9418
▁1편보단	-10.9418
▁2.22	-10.9418
▁20세기	-10.9418
▁2도	-10.9418
▁2번	-10.9418
▁3대	-10.9418
▁5개	-10.9418
▁5분	-10.9418
▁ᅮᅲ	-10.9418
▁가만히	-10.9418
▁가족은	-10.9418
▁각본을	-10.9418
▁각자	-10.9418
▁감	-10.9418
▁감독이나	-10.9418
▁감동!	-10.9418
▁감동도없고	-10.9418
▁감동에	-10.9418
▁감동적이에요	-10.9418
▁갑니다	-10.9418
▁같다는	-10.9418
▁개봉하지	-10.9418
▁개봉했을때	-10.9418
▁것들	-10.9418
▁것들은	-10.9418
▁것의	-10.9418
▁결론	-10.9418
▁곳에	-10.9418
▁공부	-10.9418
▁과하게	-10.9418
▁과한	-10.9418
▁관련	-10.9418
▁구석이	-10.9418
▁궁금하다	-10.9418
▁그것	-10.9418
▁그녀를	-10.9418
▁그런대로	-10.9418
▁그리운	-10.9418
▁그림	-10.9418
▁그만좀	-10.9418
▁그와	-10.9418
▁글구	-10.9418
▁기억될	-10.9418
▁꼽히는	-10.9418
▁끝난다.	-10.9418
▁나오지만	-10.9418
▁나올법한	-10.9418
▁나올수	-10.9418
▁나와는	-10.9418
▁난무하는	-10.9418
▁남들이	-10.9418
▁남편	-10.9418
▁낫겠다	-10.9418
▁내취향은	-10.9418
▁놀랍다	-10.9418
▁놈들	-10.9418
▁놓치지	-10.9418
▁누구에게나	-10.9418
▁느껴질	-10.9418
▁느낌과	-10.9418
▁니콜	-10.9418
▁다는	-10.9418
▁다큐의	-10.9418
▁단어가	-10.9418
▁도라에몽	-10.9418
▁돌아가는	-10.9418
▁된다면	-10.9418
▁드네요.	-10.9418
▁드라마다	-10.9418
▁드라마인데	-10.9418
▁딸을	-10.9418
▁딸의	-10.9418
▁땀을	-10.9418
▁떨어짐.	-10.9418
▁로	-10.9418
▁마지막장면	-10.9418
▁만들어야	-10.9418
▁만들었네	-10.9418
▁만들었다면	-10.9418
▁만들었던	-10.9418
▁만큼의	-10.9418
▁많네	-10.9418
▁많음	-10.9418
▁말았다.	-10.9418
▁말자.	-10.9418
▁말할것도	-10.9418
▁먹먹하고	-10.9418
▁명작이라	-10.9418
▁명작중의	-10.9418
▁모든면에서	-10.9418
▁몰라	-10.9418
▁못본	-10.9418
▁못지	-10.9418
▁무료로	-10.9418
▁무서운거	-10.9418
▁무섭다고	-10.9418
▁미안하다	-10.9418
▁미안하지만	-10.9418
▁미치는	-10.9418
▁발견	-10.9418
▁발연기가	-10.9418
▁방황하는	-10.9418
▁배우들과	-10.9418
▁버리는	-10.9418
▁법한	-10.9418
▁벗어나지	-10.9418
▁보는것	-10.9418
▁보는듯한	-10.9418
▁보면볼수록	-10.9418
▁보석같은	-10.9418
▁보셈	-10.9418
▁보일	-10.9418
▁보지말고	-10.9418
▁본인	-10.9418
▁볼만합니다.	-10.9418
▁봐줄만	-10.9418
▁봤나	-10.9418
▁봤어도	-10.9418
▁부끄러운	-10.9418
▁부분에	-10.9418
▁부족함이	-10.9418
▁불멸의	-10.9418
▁비극을	-10.9418
▁비싼	-10.9418
▁비추.	-10.9418
▁사람으로서	-10.9418
▁사랑스럽다	-10.9418
▁사랑할	-10.9418
▁살인	-10.9418
▁상황에서	-10.9418
▁생각해볼	-10.9418
▁선생님이	-10.9418
▁선택	-10.9418
▁설정을	-10.9418
▁소설이	-10.9418
▁속편.	-10.9418
▁송승헌	-10.9418
▁순수하게	-10.9418
▁순수함을	-10.9418
▁시간아까움	-10.9418
▁시사회로	-10.9418
▁시사회에서	-10.9418
▁시절이	-10.9418
▁식상하고	-10.9418
▁신	-10.9418
▁신민아	-10.9418
▁심심할때	-10.9418
▁쌍팔년도	-10.9418
▁쓰면	-10.9418
▁씨발	-10.9418
▁아까웠다.	-10.9418
▁아깝습니다.	-10.9418
▁아니더라도	-10.9418
▁아름다웠다.	-10.9418
▁아저씨가	-10.9418
▁안나온다.	-10.9418
▁암이	-10.9418
▁액션씬	-10.9418
▁어거지로	-10.9418
▁어우	-10.9418
▁어정쩡한	-10.9418
▁어쨋든	-10.9418
▁언니가	-10.9418
▁없이도	-10.9418
▁엉뚱한	-10.9418
▁엉터리	-10.9418
▁여름	-10.9418
▁여름에	-10.9418
▁여운과	-10.9418
▁역겹다.	-10.9418
▁연출이나	-10.9418
▁영화로만	-10.9418
▁영화보다는	-10.9418
▁영화예요	-10.9418
▁오글	-10.9418
▁오프닝	-10.9418
▁올레티비	-10.9418
▁완벽	-10.9418
▁외로운	-10.9418
▁요즘엔	-10.9418
▁욕하는	-10.9418
▁용기를	-10.9418
▁우리를	-10.9418
▁우울하고	-10.9418
▁울었어요	-10.9418
▁위로가	-10.9418
▁은은한	-10.9418
▁의상	-10.9418
▁이건진짜	-10.9418
▁이러면	-10.9418
▁이름으로	-10.9418
▁이정재	-10.9418
▁인터넷	-10.9418
▁일은	-10.9418
▁일품	-10.9418
▁있는거	-10.9418
▁있다가	-10.9418
▁자리를	-10.9418
▁잔인하지도	-10.9418
▁장난이	-10.9418
▁재미있어요!	-10.9418
▁재밌지	-10.9418
▁잼나요	-10.9418
▁저평가	-10.9418
▁전설이	-10.9418
▁전성기	-10.9418
▁전체를	-10.9418
▁점도	-10.9418
▁정	-10.9418
▁정당화	-10.9418
▁정신병자	-10.9418
▁정신없이	-10.9418
▁정이	-10.9418
▁조금더	-10.9418
▁조용한	-10.9418
▁조카	-10.9418
▁좀비영화	-10.9418
▁좋겠어요.	-10.9418
▁주세요	-10.9418
▁주셔서	-10.9418
▁죽기	-10.9418
▁죽어도	-10.9418
▁줄리아	-10.9418
▁중심으로	-10.9418
▁지금보니	-10.9418
▁지루하다고	-10.9418
▁지루하지도	-10.9418
▁지루했음	-10.9418
▁진수	-10.9418
▁진실	-10.9418
▁진실은	-10.9418
▁진지하고	-10.9418
▁진하게	-10.9418
▁질이	-10.9418
▁쩔어	-10.9418
▁채	-10.9418
▁채널을	-10.9418
▁처음본다	-10.9418
▁천재적인	-10.9418
▁철학이	-10.9418
▁촌스러운	-10.9418
▁촌스럽고	-10.9418
▁촌스럽지	-10.9418
▁최고네요	-10.9418
▁치밀하고	-10.9418
▁코미디의	-10.9418
▁클레멘타인	-10.9418
▁탈을	-10.9418
▁티	-10.9418
▁팬	-10.9418
▁포장한	-10.9418
▁폭력	-10.9418
▁필요없음	-10.9418
▁하고..	-10.9418
▁하여간	-10.9418
▁하지만..	-10.9418
▁한국영화를	-10.9418
▁한번보고	-10.9418
▁한번에	-10.9418
▁한심하다.	-10.9418
▁현대	-10.9418
▁화면도	-10.9418
▁확실하게	-10.9418
▁후회함	-10.9418
▁흥미롭지	-10.9418
▁//	-10.9931
▁0개는	-10.9931
▁10점줌	-10.9931
▁11점을	-10.9931
▁1은	-10.9931
▁1회부터	-10.9931
▁6살	-10.9931
▁6점대	-10.9931
▁9점.	-10.9931
▁A	-10.9931
▁bb	-10.9931
▁ebs에서	-10.9931
▁i	-10.9931
▁this	-10.9931
▁ᄀᄀ	-10.9931
▁가능성을	-10.9931
▁가족끼리	-10.9931
▁감성에	-10.9931
▁감정에	-10.9931
▁감탄	-10.9931
▁강혜정	-10.9931
▁개그맨	-10.9931
▁개성이	-10.9931
▁개성있는	-10.9931
▁개인적	-10.9931
▁개잼	-10.9931
▁거친	-10.9931
▁건지..	-10.9931
▁겁나게	-10.9931
▁게이는	-10.9931
▁결혼하고	-10.9931
▁경쾌한	-10.9931
▁곳이	-10.9931
▁관객은	-10.9931
▁구성.	-10.9931
▁국어책	-10.9931
▁굿굿굿	-10.9931
▁궁금하게	-10.9931
▁귀여워요	-10.9931
▁그걸로	-10.9931
▁그런건	-10.9931
▁그런게	-10.9931
▁그럴듯한	-10.9931
▁그려진	-10.9931
▁극치.	-10.9931
▁극치를	-10.9931
▁극혐	-10.9931
▁기본적으로	-10.9931
▁기본적인	-10.9931
▁기억하고	-10.9931
▁기타	-10.9931
▁깜놀	-10.9931
▁껐다	-10.9931
▁끼워	-10.9931
▁나도모르게	-10.9931
▁나서도	-10.9931
▁나오는건	-10.9931
▁남긴다.	-10.9931
▁남녀의	-10.9931
▁남자들	-10.9931
▁낫다고	-10.9931
▁낯선	-10.9931
▁내리는	-10.9931
▁녹아있는	-10.9931
▁높고	-10.9931
▁높이	-10.9931
▁누구를	-10.9931
▁눈만	-10.9931
▁느껴져서	-10.9931
▁느꼈다	-10.9931
▁느낄수있는	-10.9931
▁능력이	-10.9931
▁다시보기	-10.9931
▁당하는	-10.9931
▁당할	-10.9931
▁대사에	-10.9931
▁돈아깝다	-10.9931
▁돋보인	-10.9931
▁동성애	-10.9931
▁됩니다	-10.9931
▁드라마중에	-10.9931
▁드림	-10.9931
▁들을	-10.9931
▁디워	-10.9931
▁디테일	-10.9931
▁때리고	-10.9931
▁떨어져서	-10.9931
▁레이첼	-10.9931
▁마시길	-10.9931
▁마음도	-10.9931
▁만든건지	-10.9931
▁만든것	-10.9931
▁만화책	-10.9931
▁말이필요없는	-10.9931
▁망치는	-10.9931
▁맞고	-10.9931
▁맞다.	-10.9931
▁맞은	-10.9931
▁매력과	-10.9931
▁명작!!	-10.9931
▁명작이네요	-10.9931
▁모아서	-10.9931
▁모처럼	-10.9931
▁목소리는	-10.9931
▁몸매가	-10.9931
▁못보겠다.	-10.9931
▁못본게	-10.9931
▁못한게	-10.9931
▁묘사가	-10.9931
▁무난한	-10.9931
▁무튼	-10.9931
▁물론이고	-10.9931
▁뭐임	-10.9931
▁미리	-10.9931
▁바치는	-10.9931
▁반복되는	-10.9931
▁발전이	-10.9931
▁배경,	-10.9931
▁배꼽	-10.9931
▁범인은	-10.9931
▁별로네요	-10.9931
▁별로임.	-10.9931
▁별하나도	-10.9931
▁보는건	-10.9931
▁보라	-10.9931
▁보시고	-10.9931
▁보시길.	-10.9931
▁본후	-10.9931
▁볼거	-10.9931
▁볼만합니다	-10.9931
▁볼만해요	-10.9931
▁볼수없는	-10.9931
▁봤는대	-10.9931
▁봤어요!	-10.9931
▁부산	-10.9931
▁부족.	-10.9931
▁비교도	-10.9931
▁비참한	-10.9931
▁비호감	-10.9931
▁뿐,	-10.9931
▁뿐이다	-10.9931
▁사건이	-10.9931
▁사랑하게	-10.9931
▁사서	-10.9931
▁사이	-10.9931
▁사이에	-10.9931
▁사진	-10.9931
▁살렸다	-10.9931
▁살렸다.	-10.9931
▁살아갈	-10.9931
▁살지	-10.9931
▁새록새록	-10.9931
▁새벽	-10.9931
▁서프라이즈	-10.9931
▁성격	-10.9931
▁성격이	-10.9931
▁세계가	-10.9931
▁순간의	-10.9931
▁순수함이	-10.9931
▁스타뎀	-10.9931
▁슬픔과	-10.9931
▁시걸의	-10.9931
▁시청자	-10.9931
▁신경	-10.9931
▁신고	-10.9931
▁실망스럽다.	-10.9931
▁실컷	-10.9931
▁실화라서	-10.9931
▁심장	-10.9931
▁싶어요.	-10.9931
▁싶을정도로	-10.9931
▁아.	-10.9931
▁아니네	-10.9931
▁아니었다.	-10.9931
▁아닌가요?	-10.9931
▁아쉬운건	-10.9931
▁악역이	-10.9931
▁안가고	-10.9931
▁안나온다	-10.9931
▁안되네	-10.9931
▁안보는	-10.9931
▁안쓰는데	-10.9931
▁안타깝네요	-10.9931
▁앞서간	-10.9931
▁애는	-10.9931
▁약을	-10.9931
▁어딘가	-10.9931
▁어색하지	-10.9931
▁어색해서	-10.9931
▁어찌보면	-10.9931
▁얼굴에	-10.9931
▁얼굴은	-10.9931
▁엄마한테	-10.9931
▁없구	-10.9931
▁없지만,	-10.9931
▁엔딩도	-10.9931
▁역겹고	-10.9931
▁연기들이	-10.9931
▁열연이	-10.9931
▁영구와	-10.9931
▁영화,,	-10.9931
▁영화네.	-10.9931
▁영화라고...	-10.9931
▁영화보단	-10.9931
▁영화사에	-10.9931
▁오글거려	-10.9931
▁올만에	-10.9931
▁와~	-10.9931
▁왜이래?	-10.9931
▁외	-10.9931
▁요	-10.9931
▁우디	-10.9931
▁우리도	-10.9931
▁우리와	-10.9931
▁우정이	-10.9931
▁웃겼음	-10.9931
▁웃기기도	-10.9931
▁웃기려고	-10.9931
▁웃어야	-10.9931
▁웃었다.	-10.9931
▁원숭이	-10.9931
▁유발	-10.9931
▁유익한	-10.9931
▁이건...	-10.9931
▁이런데	-10.9931
▁이루는	-10.9931
▁이리저리	-10.9931
▁이병헌	-10.9931
▁인내심	-10.9931
▁인도	-10.9931
▁인디아나	-10.9931
▁인상적이다.	-10.9931
▁인줄	-10.9931
▁일본영화의	-10.9931
▁일상	-10.9931
▁일상의	-10.9931
▁일어날	-10.9931
▁임청하	-10.9931
▁입	-10.9931
▁있기에	-10.9931
▁자막이	-10.9931
▁자연의	-10.9931
▁작품인데	-10.9931
▁잘된	-10.9931
▁잘보고	-10.9931
▁잡은	-10.9931
▁재개봉	-10.9931
▁재난영화	-10.9931
▁재미없네..	-10.9931
▁재미없을	-10.9931
▁재밌었어요!	-10.9931
▁재밌지만	-10.9931
▁저버리지	-10.9931
▁전라도	-10.9931
▁전작을	-10.9931
▁절묘한	-10.9931
▁정체성을	-10.9931
▁정치	-10.9931
▁제목으로	-10.9931
▁제외한	-10.9931
▁좋다~	-10.9931
▁좋아했는데	-10.9931
▁좋으면	-10.9931
▁좋은데,	-10.9931
▁주	-10.9931
▁주인공인	-10.9931
▁줄은	-10.9931
▁중딩때	-10.9931
▁줘야	-10.9931
▁지나면	-10.9931
▁지루함..	-10.9931
▁지브리	-10.9931
▁집중	-10.9931
▁짜여진	-10.9931
▁짜증을	-10.9931
▁짧고	-10.9931
▁짱!!!	-10.9931
▁찍어서	-10.9931
▁초등학생때	-10.9931
▁초점을	-10.9931
▁총으로	-10.9931
▁최강	-10.9931
▁최고,	-10.9931
▁최고에요	-10.9931
▁최소한의	-10.9931
▁최후의	-10.9931
▁추억에	-10.9931
▁추천!!	-10.9931
▁충분하다.	-10.9931
▁친구에게	-10.9931
▁칼로	-10.9931
▁캐서린	-10.9931
▁캬	-10.9931
▁콜린	-10.9931
▁키아누	-10.9931
▁팍팍	-10.9931
▁팝콘	-10.9931
▁팬이라	-10.9931
▁평가할	-10.9931
▁평점으로	-10.9931
▁포기한	-10.9931
▁풍부한	-10.9931
▁하나만으로도	-10.9931
▁하려는	-10.9931
▁학창시절	-10.9931
▁한국어	-10.9931
▁한국영화에	-10.9931
▁할머니가	-10.9931
▁할지	-10.9931
▁해보고	-10.9931
▁했다고	-10.9931
▁행복은	-10.9931
▁형제의	-10.9931
▁화면에	-10.9931
▁후반부는	-10.9931
▁흐지부지	-10.9931
▁히어로물	-10.9931
▁--	-11.0472
▁10번도	-11.0472
▁1편에서	-11.0472
▁3점.	-11.0472
▁3편이	-11.0472
▁B급도	-11.0472
▁B급영화	-11.0472
▁Good	-11.0472
▁OST는	-11.0472
▁^^*	-11.0472
▁it	-11.0472
▁sf	-11.0472
▁ᅮ.ᅮ	-11.0472
▁각각	-11.0472
▁감독아	-11.0472
▁감동적임	-11.0472
▁감안해도	-11.0472
▁강아지	-11.0472
▁강지환	-11.0472
▁같아요~	-11.0472
▁개그는	-11.0472
▁개꿀잼	-11.0472
▁건질게	-11.0472
▁걸작!	-11.0472
▁걸작을	-11.0472
▁것보다	-11.0472
▁견자단이	-11.0472
▁결과가	-11.0472
▁경찰이	-11.0472
▁고민을	-11.0472
▁곳곳에	-11.0472
▁관객들을	-11.0472
▁관객들의	-11.0472
▁관람객	-11.0472
▁괜찮다고	-11.0472
▁교훈과	-11.0472
▁구리고	-11.0472
▁권상우	-11.0472
▁그이상	-11.0472
▁그이하도	-11.0472
▁그치만	-11.0472
▁극장판이	-11.0472
▁글쎄..	-11.0472
▁기대된다	-11.0472
▁기대된다.	-11.0472
▁기대하게	-11.0472
▁기대하며	-11.0472
▁기발하고	-11.0472
▁기억이...	-11.0472
▁길다.	-11.0472
▁김민종	-11.0472
▁김혜수	-11.0472
▁깊이있는	-11.0472
▁껐다.	-11.0472
▁꼬마	-11.0472
▁꼽으라면	-11.0472
▁꼽을	-11.0472
▁끝나면	-11.0472
▁나가고	-11.0472
▁나라는	-11.0472
▁나오길래	-11.0472
▁나오는지	-11.0472
▁나온게	-11.0472
▁나왔음	-11.0472
▁나은듯	-11.0472
▁나중에는	-11.0472
▁나지	-11.0472
▁나한테는	-11.0472
▁낚였네	-11.0472
▁남자들은	-11.0472
▁남자랑	-11.0472
▁낮지	-11.0472
▁내생의	-11.0472
▁내용없는	-11.0472
▁넣고	-11.0472
▁눈도	-11.0472
▁느낀다	-11.0472
▁느낌으로	-11.0472
▁느와르의	-11.0472
▁다녀온	-11.0472
▁다시보고싶은	-11.0472
▁담백하게	-11.0472
▁담백한	-11.0472
▁답답하다.	-11.0472
▁답을	-11.0472
▁당시에도	-11.0472
▁당췌	-11.0472
▁대박!!	-11.0472
▁돈에	-11.0472
▁돋는	-11.0472
▁되도	-11.0472
▁되돌아	-11.0472
▁될듯	-11.0472
▁두시간	-11.0472
▁드라마다.	-11.0472
▁듯!	-11.0472
▁등의	-11.0472
▁따라한	-11.0472
▁따스한	-11.0472
▁딸과	-11.0472
▁떨어져	-11.0472
▁뜻이	-11.0472
▁리	-11.0472
▁만드냐	-11.0472
▁만큼이나	-11.0472
▁만화로	-11.0472
▁말하려고	-11.0472
▁말할수	-11.0472
▁맘	-11.0472
▁맞나?	-11.0472
▁맞추기	-11.0472
▁메시지도	-11.0472
▁명화	-11.0472
▁모르겠네요.	-11.0472
▁모른다	-11.0472
▁모여	-11.0472
▁모여서	-11.0472
▁몰입	-11.0472
▁못하면	-11.0472
▁무리가	-11.0472
▁무시하고	-11.0472
▁무엇인가	-11.0472
▁뭐,	-11.0472
▁뭐?	-11.0472
▁미묘한	-11.0472
▁반담	-11.0472
▁밝은	-11.0472
▁배역이	-11.0472
▁배우고	-11.0472
▁버렸다	-11.0472
▁범죄를	-11.0472
▁변하는	-11.0472
▁별로지만	-11.0472
▁별점은	-11.0472
▁보느라	-11.0472
▁보세요..	-11.0472
▁보여줄	-11.0472
▁본인은	-11.0472
▁볼만하고	-11.0472
▁부담없이	-11.0472
▁불러	-11.0472
▁비교	-11.0472
▁비슷해서	-11.0472
▁빕니다.	-11.0472
▁빠르게	-11.0472
▁뻔하디	-11.0472
▁사랑스럽다.	-11.0472
▁사랑이라는	-11.0472
▁사랑합니다.	-11.0472
▁사소한	-11.0472
▁사실은	-11.0472
▁사회가	-11.0472
▁삼가	-11.0472
▁새끼	-11.0472
▁생각하니	-11.0472
▁샤를리즈	-11.0472
▁설정.	-11.0472
▁성공	-11.0472
▁성공한	-11.0472
▁성우들	-11.0472
▁세기의	-11.0472
▁섹시하고	-11.0472
▁소지섭	-11.0472
▁손을	-11.0472
▁송강호	-11.0472
▁수준..	-11.0472
▁숨어있는	-11.0472
▁슈퍼맨	-11.0472
▁스릴과	-11.0472
▁스릴러물	-11.0472
▁스파이더맨	-11.0472
▁시각으로	-11.0472
▁시시하고	-11.0472
▁시작한	-11.0472
▁시작해	-11.0472
▁시키는	-11.0472
▁식상하다	-11.0472
▁신경을	-11.0472
▁신하균	-11.0472
▁실망시키지	-11.0472
▁싫어	-11.0472
▁심금을	-11.0472
▁심리묘사가	-11.0472
▁싶은건지	-11.0472
▁쓰레기들	-11.0472
▁아!	-11.0472
▁아까워요	-11.0472
▁아니,	-11.0472
▁아련하고	-11.0472
▁아마추어	-11.0472
▁아이는	-11.0472
▁악당	-11.0472
▁악당이	-11.0472
▁안감	-11.0472
▁안맞고	-11.0472
▁안습	-11.0472
▁안타깝지만	-11.0472
▁안하는데	-11.0472
▁않길	-11.0472
▁않네	-11.0472
▁않았습니다.	-11.0472
▁알았지만	-11.0472
▁압도적인	-11.0472
▁애들한테	-11.0472
▁애잔한	-11.0472
▁약하고	-11.0472
▁어렵게	-11.0472
▁어서	-11.0472
▁어이없게	-11.0472
▁어이없다	-11.0472
▁어처구니가	-11.0472
▁엄정화	-11.0472
▁없군	-11.0472
▁없었음.	-11.0472
▁여자애가	-11.0472
▁여행을	-11.0472
▁역사는	-11.0472
▁역사와	-11.0472
▁연기들도	-11.0472
▁연기력으로	-11.0472
▁연기며	-11.0472
▁열정을	-11.0472
▁영화"	-11.0472
▁영화같다.	-11.0472
▁영화에는	-11.0472
▁영화였음.	-11.0472
▁영화이지만	-11.0472
▁영화인가	-11.0472
▁영화입니다..	-11.0472
▁옆에서	-11.0472
▁예고편에	-11.0472
▁오늘은	-11.0472
▁오락영화	-11.0472
▁오래도록	-11.0472
▁오유에서	-11.0472
▁요즘에	-11.0472
▁욕나오는	-11.0472
▁욕심이	-11.0472
▁우리나라도	-11.0472
▁우정과	-11.0472
▁원작인	-11.0472
▁웬지	-11.0472
▁유발하는	-11.0472
▁유치뽕짝	-11.0472
▁유치하게	-11.0472
▁응?	-11.0472
▁의지가	-11.0472
▁이때까지	-11.0472
▁이상해	-11.0472
▁이야기라	-11.0472
▁이용한	-11.0472
▁이유도	-11.0472
▁이정도의	-11.0472
▁이탈리아	-11.0472
▁이하의	-11.0472
▁인물을	-11.0472
▁인상적	-11.0472
▁일본영화가	-11.0472
▁일본을	-11.0472
▁일어난	-11.0472
▁있나.	-11.0472
▁있는것	-11.0472
▁있을때	-11.0472
▁자극적이고	-11.0472
▁자신에게	-11.0472
▁잔	-11.0472
▁잔인하기만	-11.0472
▁잘만	-11.0472
▁잘함	-11.0472
▁잤다.	-11.0472
▁장면.	-11.0472
▁재미난	-11.0472
▁재미없었던	-11.0472
▁잼씀	-11.0472
▁잼없다	-11.0472
▁잼있다.	-11.0472
▁저건	-11.0472
▁전개로	-11.0472
▁전쟁은	-11.0472
▁전지현	-11.0472
▁전혀없는	-11.0472
▁절라	-11.0472
▁접한	-11.0472
▁정도다.	-11.0472
▁정서를	-11.0472
▁정확한	-11.0472
▁조니뎁	-11.0472
▁조연들의	-11.0472
▁좀비가	-11.0472
▁종교적인	-11.0472
▁종종	-11.0472
▁좋아요~	-11.0472
▁좋아하게	-11.0472
▁좋아하네요	-11.0472
▁좋았는데..	-11.0472
▁좋았는데...	-11.0472
▁주인공으로	-11.0472
▁죽음은	-11.0472
▁지나가는	-11.0472
▁지날수록	-11.0472
▁지들	-11.0472
▁지루하다...	-11.0472
▁지루했던	-11.0472
▁진자	-11.0472
▁진행되는	-11.0472
▁질질끌고	-11.0472
▁집중하게	-11.0472
▁짓	-11.0472
▁차승원	-11.0472
▁차이를	-11.0472
▁참.	-11.0472
▁찾아가는	-11.0472
▁처음입니다.	-11.0472
▁철저한	-11.0472
▁최고네요.	-11.0472
▁최악..	-11.0472
▁추구하는	-11.0472
▁충격과	-11.0472
▁치면	-11.0472
▁친구들	-11.0472
▁코믹도	-11.0472
▁투자한	-11.0472
▁파격적인	-11.0472
▁팬이지만	-11.0472
▁편히	-11.0472
▁평가는	-11.0472
▁포스가	-11.0472
▁표현하는	-11.0472
▁풍기는	-11.0472
▁피아노	-11.0472
▁필요도	-11.0472
▁하고자	-11.0472
▁하나씩	-11.0472
▁하면서도	-11.0472
▁하자	-11.0472
▁한국을	-11.0472
▁해라.	-11.0472
▁해피엔딩으로	-11.0472
▁허술하다.	-11.0472
▁현실감	-11.0472
▁형이	-11.0472
▁호흡이	-11.0472
▁훌륭했다.	-11.0472
▁흔하디	-11.0472
▁흡입력이	-11.0472
▁희생을	-11.0472
▁히어로	-11.0472
▁힘들었다.	-11.0472
▁'	-11.1043
▁1.	-11.1043
▁2015년	-11.1043
▁2시간을	-11.1043
▁CG에	-11.1043
▁CG와	-11.1043
▁OCN에서	-11.1043
▁ᄏᄏᄏᄏᄏᄏᄏᄏᄏᄏᄏᄏᄏᄏ	-11.1043
▁ᅳ,.ᅳ	-11.1043
▁가문의	-11.1043
▁가볍지	-11.1043
▁가슴아프고	-11.1043
▁가지게	-11.1043
▁감독에	-11.1043
▁감동입니다.	-11.1043
▁감동적이네요	-11.1043
▁감동적이네요.	-11.1043
▁감동적입니다	-11.1043
▁감명깊은	-11.1043
▁갔다가	-11.1043
▁개가	-11.1043
▁거기다가	-11.1043
▁거장	-11.1043
▁거지?	-11.1043
▁거품	-11.1043
▁것..	-11.1043
▁겪는	-11.1043
▁결말..	-11.1043
▁경험을	-11.1043
▁공간에서	-11.1043
▁공포와	-11.1043
▁관객들이	-11.1043
▁괜찮네요	-11.1043
▁괜찮았고	-11.1043
▁괜찮음.	-11.1043
▁구지	-11.1043
▁국내에서	-11.1043
▁굿,	-11.1043
▁그닥...	-11.1043
▁그대로의	-11.1043
▁그들	-11.1043
▁근래에	-11.1043
▁글쎄...	-11.1043
▁금방	-11.1043
▁기다리고	-11.1043
▁기다리는	-11.1043
▁기억.	-11.1043
▁긴장감,	-11.1043
▁끄고	-11.1043
▁나네요.	-11.1043
▁나라면	-11.1043
▁나오지도	-11.1043
▁나왔는지	-11.1043
▁나을	-11.1043
▁나음.	-11.1043
▁나이먹고	-11.1043
▁나타난	-11.1043
▁남았다.	-11.1043
▁남자지만	-11.1043
▁낫겠다.	-11.1043
▁낭비.	-11.1043
▁내면을	-11.1043
▁너도	-11.1043
▁너무재밌어요	-11.1043
▁넣어서	-11.1043
▁노출은	-11.1043
▁놀라게	-11.1043
▁놀랍고	-11.1043
▁놈	-11.1043
▁누군가를	-11.1043
▁눈물은	-11.1043
▁눈은	-11.1043
▁느낌이다	-11.1043
▁니네	-11.1043
▁다시보기로	-11.1043
▁당연	-11.1043
▁대부분의	-11.1043
▁대사로	-11.1043
▁대표작	-11.1043
▁대하여	-11.1043
▁덴젤	-11.1043
▁도대체가	-11.1043
▁돈아깝고	-11.1043
▁돋보인다.	-11.1043
▁동생이	-11.1043
▁되길	-11.1043
▁드러나는	-11.1043
▁드리고	-11.1043
▁들었던	-11.1043
▁따분한	-11.1043
▁때,	-11.1043
▁때로는	-11.1043
▁떠나지	-11.1043
▁떨어지지만	-11.1043
▁또하나의	-11.1043
▁레이	-11.1043
▁리암	-11.1043
▁마블	-11.1043
▁마지막에는	-11.1043
▁마지막을	-11.1043
▁마지막회	-11.1043
▁막장이	-11.1043
▁만드는데	-11.1043
▁만들려면	-11.1043
▁만들었냐	-11.1043
▁말인가?	-11.1043
▁말처럼	-11.1043
▁맞지만	-11.1043
▁매미	-11.1043
▁먹먹하다.	-11.1043
▁먼지	-11.1043
▁멋있음	-11.1043
▁멋져요	-11.1043
▁명작으로	-11.1043
▁명작이다..	-11.1043
▁모르겠다...	-11.1043
▁모르겠으나	-11.1043
▁모르면	-11.1043
▁몰랐던	-11.1043
▁몰입감도	-11.1043
▁못해도	-11.1043
▁못했지만	-11.1043
▁묘사한	-11.1043
▁무고한	-11.1043
▁무술	-11.1043
▁무식한	-11.1043
▁무엇보다도	-11.1043
▁뭉클한	-11.1043
▁뭐든	-11.1043
▁뭐랄까	-11.1043
▁뭐이리	-11.1043
▁미	-11.1043
▁미래는	-11.1043
▁미화시킨	-11.1043
▁밀려오는	-11.1043
▁밑에분	-11.1043
▁바뀌고	-11.1043
▁바뀌는	-11.1043
▁바람에	-11.1043
▁박찬욱	-11.1043
▁반성해라	-11.1043
▁반전,	-11.1043
▁발랄한	-11.1043
▁방송에	-11.1043
▁방식으로	-11.1043
▁배경음악	-11.1043
▁범죄자	-11.1043
▁법을	-11.1043
▁보고싶네요	-11.1043
▁보낸다.	-11.1043
▁보려면	-11.1043
▁보소	-11.1043
▁본다는	-11.1043
▁본인의	-11.1043
▁볼만은	-11.1043
▁봐줄	-11.1043
▁봤어요^^	-11.1043
▁봤으니	-11.1043
▁봤지만,	-11.1043
▁부럽다	-11.1043
▁부부	-11.1043
▁분노를	-11.1043
▁분량	-11.1043
▁분위기만	-11.1043
▁불끄고	-11.1043
▁비디오용	-11.1043
▁빠질	-11.1043
▁뻔뻔한	-11.1043
▁사기	-11.1043
▁사람들만	-11.1043
▁살기	-11.1043
▁상관없이	-11.1043
▁생각나네요	-11.1043
▁생각밖에	-11.1043
▁설경구	-11.1043
▁설정으로	-11.1043
▁수작이	-11.1043
▁수작이라고	-11.1043
▁수준이다.	-11.1043
▁스칼렛	-11.1043
▁스타일은	-11.1043
▁스티브	-11.1043
▁슬프네요	-11.1043
▁시도	-11.1043
▁신기하고	-11.1043
▁신기할	-11.1043
▁실망스러운	-11.1043
▁실상을	-11.1043
▁실화라고	-11.1043
▁실화라는	-11.1043
▁십점	-11.1043
▁싶게	-11.1043
▁싶었다	-11.1043
▁싶을때	-11.1043
▁썩은	-11.1043
▁쓰레기영화는	-11.1043
▁아기	-11.1043
▁아깝다고	-11.1043
▁아니었음	-11.1043
▁아닐까.	-11.1043
▁아동용	-11.1043
▁아메리칸	-11.1043
▁아쉬워요	-11.1043
▁아쉽다...	-11.1043
▁아이디어	-11.1043
▁아이언맨	-11.1043
▁아프다	-11.1043
▁안나	-11.1043
▁앉아	-11.1043
▁않고...	-11.1043
▁않다..	-11.1043
▁않다는	-11.1043
▁알려지지	-11.1043
▁알았음.	-11.1043
▁압권.	-11.1043
▁애니매이션	-11.1043
▁애니메이션의	-11.1043
▁애니의	-11.1043
▁액션씬은	-11.1043
▁약하다	-11.1043
▁양동근	-11.1043
▁어느것	-11.1043
▁어느하나	-11.1043
▁어떨지	-11.1043
▁어렵고	-11.1043
▁어렵다	-11.1043
▁어마어마한	-11.1043
▁어머니	-11.1043
▁어색	-11.1043
▁어수선하고	-11.1043
▁어울린다.	-11.1043
▁어쩔수없이	-11.1043
▁어처구니없는	-11.1043
▁어휴...	-11.1043
▁언젠가는	-11.1043
▁엄마를	-11.1043
▁없네요..	-11.1043
▁없는거	-11.1043
▁없는것	-11.1043
▁없는영화	-11.1043
▁없으며	-11.1043
▁엉망.	-11.1043
▁여	-11.1043
▁연극을	-11.1043
▁연예인이	-11.1043
▁영상.	-11.1043
▁영화같다	-11.1043
▁영화라도	-11.1043
▁영화여서	-11.1043
▁영활	-11.1043
▁옛다	-11.1043
▁오버	-11.1043
▁올바른	-11.1043
▁완벽하다	-11.1043
▁울게	-11.1043
▁웃기다.	-11.1043
▁유럽	-11.1043
▁유치하다고	-11.1043
▁음식	-11.1043
▁음향	-11.1043
▁이거밖에	-11.1043
▁이거보면	-11.1043
▁이걸로	-11.1043
▁이것만	-11.1043
▁이것밖에	-11.1043
▁이들을	-11.1043
▁이들의	-11.1043
▁이딴영화가	-11.1043
▁이때부터	-11.1043
▁이렇게나	-11.1043
▁이름에	-11.1043
▁이범수	-11.1043
▁이보단	-11.1043
▁이제껏	-11.1043
▁이지만	-11.1043
▁인상이	-11.1043
▁일점도	-11.1043
▁있는가?	-11.1043
▁있다는걸	-11.1043
▁있도록	-11.1043
▁있지?	-11.1043
▁자격이	-11.1043
▁자식을	-11.1043
▁자신만의	-11.1043
▁자체에	-11.1043
▁작품성을	-11.1043
▁잘해	-11.1043
▁장면에선	-11.1043
▁장진	-11.1043
▁재미없으면	-11.1043
▁재미있었어요.	-11.1043
▁재밌는영화	-11.1043
▁재밌당	-11.1043
▁재밌었음.	-11.1043
▁재밌으면	-11.1043
▁저기	-11.1043
▁저랑	-11.1043
▁저예산으로	-11.1043
▁전개..	-11.1043
▁전개되는	-11.1043
▁전개의	-11.1043
▁전율을	-11.1043
▁전의	-11.1043
▁전체가	-11.1043
▁전편을	-11.1043
▁전하고자	-11.1043
▁점을	-11.1043
▁정서에	-11.1043
▁정주행	-11.1043
▁제작진은	-11.1043
▁제작진이	-11.1043
▁조금도	-11.1043
▁조화	-11.1043
▁졸작을	-11.1043
▁졸작이	-11.1043
▁졸잼	-11.1043
▁좋아라	-11.1043
▁좋아요!	-11.1043
▁좋았어요!	-11.1043
▁주고싶다.	-11.1043
▁주는건	-11.1043
▁죽음이	-11.1043
▁줄리엣	-11.1043
▁중학생때	-11.1043
▁지겹고	-11.1043
▁지금에서야	-11.1043
▁지대로	-11.1043
▁지루하고,	-11.1043
▁지루한건	-11.1043
▁지르고	-11.1043
▁진실된	-11.1043
▁짓을	-11.1043
▁짙은	-11.1043
▁짜증나네	-11.1043
▁짱나	-11.1043
▁찍어	-11.1043
▁차태현	-11.1043
▁찬	-11.1043
▁참....	-11.1043
▁책은	-11.1043
▁책이	-11.1043
▁처음이자	-11.1043
▁처절하게	-11.1043
▁첨이다.	-11.1043
▁초딩이	-11.1043
▁초월한	-11.1043
▁추리	-11.1043
▁추억으로	-11.1043
▁추억은	-11.1043
▁추천해주고	-11.1043
▁친구들이	-11.1043
▁카리스마가	-11.1043
▁클라스	-11.1043
▁타란티노	-11.1043
▁투	-11.1043
▁특별히	-11.1043
▁편.	-11.1043
▁포스터보고	-11.1043
▁포켓몬	-11.1043
▁프로그램이	-11.1043
▁필요없이	-11.1043
▁필요하다	-11.1043
▁하나,	-11.1043
▁하나..	-11.1043
▁하던데	-11.1043
▁하아	-11.1043
▁하여튼	-11.1043
▁한건	-11.1043
▁한건지	-11.1043
▁한국에도	-11.1043
▁한다..	-11.1043
▁한심하다	-11.1043
▁한장면	-11.1043
▁함께한	-11.1043
▁했다...	-11.1043
▁했어도	-11.1043
▁했어야	-11.1043
▁했었는데	-11.1043
▁행동	-11.1043
▁허무맹랑한	-11.1043
▁현실감이	-11.1043
▁현재를	-11.1043
▁화면은	-11.1043
▁환상	-11.1043
▁후회할	-11.1043
▁흔해빠진	-11.1043
▁흠뻑	-11.1043
▁흥미진진하게	-11.1043
▁흥행을	-11.1043
▁힘들고	-11.1043
▁10,	-11.1649
▁10년도	-11.1649
▁1점도아깝다	-11.1649
▁2004년	-11.1649
▁5번	-11.1649
▁7점이	-11.1649
▁>	-11.1649
▁EBS	-11.1649
▁^^;	-11.1649
▁be	-11.1649
▁cg	-11.1649
▁dvd	-11.1649
▁love	-11.1649
▁tv로	-11.1649
▁ᄏᄏᄏᄏᄏᄏᄏᄏᄏᄏᄏᄏᄏᄏᄏ	-11.1649
▁ᅮᅮᅮ	-11.1649
▁가난한	-11.1649
▁가수	-11.1649
▁가슴속에	-11.1649
▁간신히	-11.1649
▁간에	-11.1649
▁갈등과	-11.1649
▁감동적이었다	-11.1649
▁감안하고	-11.1649
▁강력	-11.1649
▁강추.	-11.1649
▁강추합니다	-11.1649
▁개인	-11.1649
▁거냐?	-11.1649
▁건데	-11.1649
▁건질	-11.1649
▁걷는	-11.1649
▁결말...	-11.1649
▁곁에	-11.1649
▁고딩때	-11.1649
▁고맙습니다	-11.1649
▁고생한	-11.1649
▁골때리는	-11.1649
▁공감되지	-11.1649
▁공감하기	-11.1649
▁공유	-11.1649
▁과언이	-11.1649
▁괜찮지만	-11.1649
▁교훈적인	-11.1649
▁구하기	-11.1649
▁구할	-11.1649
▁국민	-11.1649
▁권하고	-11.1649
▁그러다	-11.1649
▁그런걸	-11.1649
▁그렇다치고	-11.1649
▁기대하는	-11.1649
▁기묘한	-11.1649
▁기분을	-11.1649
▁기억난다	-11.1649
▁기억속에	-11.1649
▁기준이	-11.1649
▁김강우	-11.1649
▁깊고	-11.1649
▁꼽는	-11.1649
▁꾸준히	-11.1649
▁꾹	-11.1649
▁나까지	-11.1649
▁나쁘게	-11.1649
▁나에게도	-11.1649
▁나오니까	-11.1649
▁나온건	-11.1649
▁낚시	-11.1649
▁낚였다.	-11.1649
▁난잡한	-11.1649
▁납니다.	-11.1649
▁났다	-11.1649
▁낮은게	-11.1649
▁내용도없고	-11.1649
▁너를	-11.1649
▁너의	-11.1649
▁넣어	-11.1649
▁넣은	-11.1649
▁네이버평점	-11.1649
▁노	-11.1649
▁노골적으로	-11.1649
▁놈은	-11.1649
▁누군가가	-11.1649
▁눈부신	-11.1649
▁느린	-11.1649
▁늘어지는	-11.1649
▁능력을	-11.1649
▁님	-11.1649
▁님들	-11.1649
▁다르지	-11.1649
▁다른영화	-11.1649
▁다큐는	-11.1649
▁단어	-11.1649
▁단편	-11.1649
▁대단하고	-11.1649
▁대박.	-11.1649
▁대체적으로	-11.1649
▁대통령	-11.1649
▁더럽다	-11.1649
▁돈낭비	-11.1649
▁돌려	-11.1649
▁돌아온	-11.1649
▁동물	-11.1649
▁동생이랑	-11.1649
▁동화를	-11.1649
▁되네요	-11.1649
▁되는지	-11.1649
▁되니	-11.1649
▁될지	-11.1649
▁드네요	-11.1649
▁드러난	-11.1649
▁들으면	-11.1649
▁들이	-11.1649
▁등을	-11.1649
▁따른	-11.1649
▁따위	-11.1649
▁딱봐도	-11.1649
▁러닝	-11.1649
▁러브라인	-11.1649
▁마디로	-11.1649
▁마저	-11.1649
▁마지막장면에서	-11.1649
▁마지막장면은	-11.1649
▁만들어주는	-11.1649
▁말투	-11.1649
▁맞다	-11.1649
▁매력의	-11.1649
▁매력있고	-11.1649
▁매력적	-11.1649
▁매미OO있네	-11.1649
▁머릿속에	-11.1649
▁먹은	-11.1649
▁멀쩡한	-11.1649
▁멜로영화	-11.1649
▁면도	-11.1649
▁면을	-11.1649
▁명	-11.1649
▁명대사	-11.1649
▁명배우들의	-11.1649
▁명작인데	-11.1649
▁명장면	-11.1649
▁몇개	-11.1649
▁몇년전에	-11.1649
▁모습에서	-11.1649
▁모아놓고	-11.1649
▁목소리도	-11.1649
▁못된	-11.1649
▁못하겠다	-11.1649
▁묘사	-11.1649
▁무비.	-11.1649
▁무서움	-11.1649
▁무슨내용인지	-11.1649
▁무지하게	-11.1649
▁무한한	-11.1649
▁문화를	-11.1649
▁뭐냐.	-11.1649
▁뭐하냐	-11.1649
▁뭔내용인지	-11.1649
▁뭔데	-11.1649
▁뭘까	-11.1649
▁뭣도	-11.1649
▁뭥미	-11.1649
▁미개한	-11.1649
▁바꿔서	-11.1649
▁바랍니다	-11.1649
▁박힌	-11.1649
▁발연기는	-11.1649
▁변하지	-11.1649
▁별로였던	-11.1649
▁별반	-11.1649
▁보고있는	-11.1649
▁보내는	-11.1649
▁보셨으면	-11.1649
▁보았습니다	-11.1649
▁보여줌.	-11.1649
▁보이는데	-11.1649
▁복잡하고	-11.1649
▁볼수있어서	-11.1649
▁볼시간에	-11.1649
▁봤는데....	-11.1649
▁봤습니다^^	-11.1649
▁봤습니다~	-11.1649
▁부모님	-11.1649
▁분노의	-11.1649
▁분들도	-11.1649
▁불쌍하다.	-11.1649
▁불쌍해	-11.1649
▁불편하다.	-11.1649
▁비가	-11.1649
▁비교해도	-11.1649
▁비주얼도	-11.1649
▁빌려서	-11.1649
▁빕니다	-11.1649
▁빠지지	-11.1649
▁빵터짐	-11.1649
▁뻔하지	-11.1649
▁사는게	-11.1649
▁사람으로써	-11.1649
▁사이의	-11.1649
▁사이코	-11.1649
▁산	-11.1649
▁상관없는	-11.1649
▁상상	-11.1649
▁상상도	-11.1649
▁상상력에	-11.1649
▁상태에서	-11.1649
▁새끼들	-11.1649
▁새로	-11.1649
▁색다르고	-11.1649
▁생각나고	-11.1649
▁생각나네	-11.1649
▁생각한다면	-11.1649
▁생기는	-11.1649
▁서	-11.1649
▁서우	-11.1649
▁선생님	-11.1649
▁선한	-11.1649
▁설득력이	-11.1649
▁설명도	-11.1649
▁소녀	-11.1649
▁소름끼치도록	-11.1649
▁속았다	-11.1649
▁속았다.	-11.1649
▁손예진	-11.1649
▁송강호의	-11.1649
▁수작을	-11.1649
▁수작입니다.	-11.1649
▁순수했던	-11.1649
▁스스로를	-11.1649
▁스크린에	-11.1649
▁스텝업	-11.1649
▁스토리며	-11.1649
▁슬래셔	-11.1649
▁슬슬	-11.1649
▁슬프다...	-11.1649
▁승리	-11.1649
▁시간아까운	-11.1649
▁시덥잖은	-11.1649
▁시리즈중에	-11.1649
▁시점에서	-11.1649
▁시청자가	-11.1649
▁실망했다.	-11.1649
▁실패작	-11.1649
▁싫어하는데	-11.1649
▁싸이코패스	-11.1649
▁쓰레기...	-11.1649
▁아....	-11.1649
▁아깝다!	-11.1649
▁아니고.	-11.1649
▁아님..	-11.1649
▁아름다움과	-11.1649
▁아름다워서	-11.1649
▁아무리봐도	-11.1649
▁아쉬웠다.	-11.1649
▁아쉽	-11.1649
▁아침부터	-11.1649
▁안다	-11.1649
▁안무섭고	-11.1649
▁안보는데	-11.1649
▁안봐	-11.1649
▁않는다..	-11.1649
▁않는다...	-11.1649
▁않아요	-11.1649
▁않았다면	-11.1649
▁알면서	-11.1649
▁알파치노	-11.1649
▁애매한	-11.1649
▁애틋한	-11.1649
▁액션물	-11.1649
▁액션영화가	-11.1649
▁얘기하고	-11.1649
▁어디가서	-11.1649
▁어디다	-11.1649
▁어디에도	-11.1649
▁어른들을	-11.1649
▁어린이들이	-11.1649
▁어쩐지	-11.1649
▁억지가	-11.1649
▁얻을	-11.1649
▁없는,	-11.1649
▁없었다..	-11.1649
▁없잖아	-11.1649
▁엉망이고	-11.1649
▁엉성하다.	-11.1649
▁여자도	-11.1649
▁여태껏	-11.1649
▁역	-11.1649
▁역사가	-11.1649
▁연기때문에	-11.1649
▁연기자들이	-11.1649
▁열	-11.1649
▁엽기적인	-11.1649
▁영...	-11.1649
▁영화감독	-11.1649
▁영화라고..	-11.1649
▁영화속의	-11.1649
▁영화예요.	-11.1649
▁영화인데..	-11.1649
▁영화임?	-11.1649
▁영화치곤	-11.1649
▁예.	-11.1649
▁예술로	-11.1649
▁오래간만에	-11.1649
▁온통	-11.1649
▁옷을	-11.1649
▁와중에	-11.1649
▁왤캐	-11.1649
▁욕나옴	-11.1649
▁우정을	-11.1649
▁우주	-11.1649
▁운	-11.1649
▁웃기긴	-11.1649
▁웃다	-11.1649
▁웅장한	-11.1649
▁위하여	-11.1649
▁유머도	-11.1649
▁유치찬란	-11.1649
▁유쾌	-11.1649
▁음....	-11.1649
▁음악.	-11.1649
▁음악까지	-11.1649
▁음악으로	-11.1649
▁이게뭐야	-11.1649
▁이게왜	-11.1649
▁이들에게	-11.1649
▁이럴	-11.1649
▁이번에는	-11.1649
▁이번에도	-11.1649
▁이용해	-11.1649
▁인데	-11.1649
▁인상적.	-11.1649
▁인연이	-11.1649
▁일깨워	-11.1649
▁일본에	-11.1649
▁입가에	-11.1649
▁입고	-11.1649
▁입을	-11.1649
▁있겠지	-11.1649
▁있는건	-11.1649
▁있었으나	-11.1649
▁있지.	-11.1649
▁자막으로	-11.1649
▁자연스레	-11.1649
▁잘만들었다.	-11.1649
▁잘생김	-11.1649
▁장동건	-11.1649
▁장면으로	-11.1649
▁재능이	-11.1649
▁재미없는데	-11.1649
▁재미없습니다.	-11.1649
▁재미없음...	-11.1649
▁재밋다고	-11.1649
▁재밌게봤다	-11.1649
▁재밌고,	-11.1649
▁재치있는	-11.1649
▁저급	-11.1649
▁저렴한	-11.1649
▁적극	-11.1649
▁적절하게	-11.1649
▁전개...	-11.1649
▁전달하고자	-11.1649
▁전달하는	-11.1649
▁전반적인	-11.1649
▁전설적인	-11.1649
▁전해지는	-11.1649
▁정보	-11.1649
▁정의는	-11.1649
▁정체가	-11.1649
▁제로.	-11.1649
▁조승우	-11.1649
▁조연들	-11.1649
▁조화가	-11.1649
▁존경합니다.	-11.1649
▁존재하지	-11.1649
▁졸작이다	-11.1649
▁종류의	-11.1649
▁좋겠네요.	-11.1649
▁좋네요~	-11.1649
▁좋아.	-11.1649
▁좋아하던	-11.1649
▁좋아해요	-11.1649
▁좋았지만,	-11.1649
▁좋은데..	-11.1649
▁주윤발의	-11.1649
▁죽어	-11.1649
▁죽이네	-11.1649
▁줄거리만	-11.1649
▁중국이	-11.1649
▁중반까지는	-11.1649
▁쥬라기	-11.1649
▁지닌	-11.1649
▁지루하진	-11.1649
▁진실이	-11.1649
▁진행도	-11.1649
▁집중을	-11.1649
▁쩌네	-11.1649
▁쯤	-11.1649
▁착하고	-11.1649
▁찾은	-11.1649
▁처음보는	-11.1649
▁초월하는	-11.1649
▁초호화	-11.1649
▁최고최고	-11.1649
▁최악!	-11.1649
▁최악...	-11.1649
▁최악은	-11.1649
▁춤을	-11.1649
▁친구한테	-11.1649
▁캐스팅,	-11.1649
▁코미디,	-11.1649
▁코미디와	-11.1649
▁팬으로서	-11.1649
▁편안한	-11.1649
▁표현된	-11.1649
▁피를	-11.1649
▁피해자가	-11.1649
▁필름이	-11.1649
▁하나!	-11.1649
▁하는것	-11.1649
▁하려면	-11.1649
▁한게	-11.1649
▁한국영화중	-11.1649
▁한국인이	-11.1649
▁한참을	-11.1649
▁할말	-11.1649
▁해석이	-11.1649
▁해주길래	-11.1649
▁했는데...	-11.1649
▁했음.	-11.1649
▁향연	-11.1649
▁허무	-11.1649
▁헐...	-11.1649
▁현대판	-11.1649
▁홍콩영화의	-11.1649
▁화나는	-11.1649
▁화면만	-11.1649
▁황당	-11.1649
▁훌륭함	-11.1649
▁흘러	-11.1649
▁흠잡을	-11.1649
▁흡입력	-11.1649
▁희망	-11.1649
▁힐링이	-11.1649
▁힘내세요	-11.1649
▁"이	-11.2295
▁10번	-11.2295
▁10점준다.	-11.2295
▁1인	-11.2295
▁2배속으로	-11.2295
▁2점준다	-11.2295
▁2탄	-11.2295
▁9점대는	-11.2295
▁9점을	-11.2295
▁CG로	-11.2295
▁OOO기영화	-11.2295
▁are	-11.2295
▁dvd로	-11.2295
▁no	-11.2295
▁~~~~~~	-11.2295
▁ᄏᄏᄏᄏᄏᄏᄏᄏᄏᄏᄏᄏ	-11.2295
▁ᄡ	-11.2295
▁가는데	-11.2295
▁가족들	-11.2295
▁가족들과	-11.2295
▁가족들이	-11.2295
▁가족에	-11.2295
▁가질	-11.2295
▁간직하고	-11.2295
▁감각적인	-11.2295
▁감성과	-11.2295
▁감안하면	-11.2295
▁갑	-11.2295
▁갓	-11.2295
▁같네	-11.2295
▁개도	-11.2295
▁개봉하는	-11.2295
▁개봉할	-11.2295
▁거슬린다.	-11.2295
▁거의다	-11.2295
▁거장의	-11.2295
▁거품이	-11.2295
▁건지...	-11.2295
▁것인가	-11.2295
▁결말만	-11.2295
▁결정적으로	-11.2295
▁경찰은	-11.2295
▁고등학교때	-11.2295
▁고통과	-11.2295
▁공포.	-11.2295
▁공포영화라고	-11.2295
▁관객들에게	-11.2295
▁관계에	-11.2295
▁구분이	-11.2295
▁구혜선	-11.2295
▁군인	-11.2295
▁그리고,	-11.2295
▁그보다	-11.2295
▁그은	-11.2295
▁극본	-11.2295
▁극장판을	-11.2295
▁극한의	-11.2295
▁기대안했는데	-11.2295
▁기막힌	-11.2295
▁기타노	-11.2295
▁길어서	-11.2295
▁김태희	-11.2295
▁껏다	-11.2295
▁꾸역꾸역	-11.2295
▁끌지	-11.2295
▁끝나고도	-11.2295
▁끝없는	-11.2295
▁끝판왕	-11.2295
▁나오길	-11.2295
▁나오네요	-11.2295
▁낚였어	-11.2295
▁남.	-11.2295
▁남자인	-11.2295
▁낮네요	-11.2295
▁내용만	-11.2295
▁내인생에	-11.2295
▁내인생의	-11.2295
▁년이	-11.2295
▁놀라고	-11.2295
▁높은거	-11.2295
▁누워서	-11.2295
▁눈물나게	-11.2295
▁느껴짐	-11.2295
▁느꼈습니다.	-11.2295
▁느낌!	-11.2295
▁다름	-11.2295
▁다봤는데	-11.2295
▁다이하드	-11.2295
▁다큐가	-11.2295
▁달라	-11.2295
▁담겨	-11.2295
▁담배	-11.2295
▁당대	-11.2295
▁대박...	-11.2295
▁댓글이	-11.2295
▁데려다가	-11.2295
▁독일	-11.2295
▁되었던	-11.2295
▁두근두근	-11.2295
▁두마리	-11.2295
▁드니로	-11.2295
▁드라마지만	-11.2295
▁들어가서	-11.2295
▁듯,	-11.2295
▁등에	-11.2295
▁등장인물이	-11.2295
▁디게	-11.2295
▁때까지	-11.2295
▁또라이	-11.2295
▁뛰어	-11.2295
▁런닝타임이	-11.2295
▁링	-11.2295
▁마무리.	-11.2295
▁마시고	-11.2295
▁마음속	-11.2295
▁만남	-11.2295
▁만드는지	-11.2295
▁만듬	-11.2295
▁만에	-11.2295
▁만화같은	-11.2295
▁말아라	-11.2295
▁맑고	-11.2295
▁맑은	-11.2295
▁맛은	-11.2295
▁맛있는	-11.2295
▁망쳤다.	-11.2295
▁맞나	-11.2295
▁맞아?	-11.2295
▁맞춰	-11.2295
▁매력적이고	-11.2295
▁매력적이다.	-11.2295
▁매혹적인	-11.2295
▁머리는	-11.2295
▁머리속에	-11.2295
▁멋진영화	-11.2295
▁메시지	-11.2295
▁몇번을봐도	-11.2295
▁모험	-11.2295
▁모호한	-11.2295
▁목적이	-11.2295
▁몸매는	-11.2295
▁무시한	-11.2295
▁문화	-11.2295
▁뭐.	-11.2295
▁뭐임?	-11.2295
▁뭐지..	-11.2295
▁뭔지도	-11.2295
▁뭡니까	-11.2295
▁미모와	-11.2295
▁민폐	-11.2295
▁바라본	-11.2295
▁박평식	-11.2295
▁밥	-11.2295
▁방법	-11.2295
▁배	-11.2295
▁배우에게	-11.2295
▁백인	-11.2295
▁버전	-11.2295
▁법.	-11.2295
▁별로였음	-11.2295
▁병	-11.2295
▁병입니다	-11.2295
▁보고싶어서	-11.2295
▁보고싶지	-11.2295
▁보기전에	-11.2295
▁보아야	-11.2295
▁보여줬는데	-11.2295
▁보지만	-11.2295
▁본다고	-11.2295
▁볼것	-11.2295
▁볼까	-11.2295
▁볼까말까	-11.2295
▁볼때는	-11.2295
▁봐야한다.	-11.2295
▁봤는데.	-11.2295
▁봤어야	-11.2295
▁봤어요..	-11.2295
▁봤으나	-11.2295
▁부드러운	-11.2295
▁부를	-11.2295
▁부모가	-11.2295
▁부분들이	-11.2295
▁북한의	-11.2295
▁분들에게	-11.2295
▁불	-11.2295
▁불륜은	-11.2295
▁붉은	-11.2295
▁비교적	-11.2295
▁비극	-11.2295
▁비극적인	-11.2295
▁비롯한	-11.2295
▁비오는	-11.2295
▁비주얼은	-11.2295
▁빌려	-11.2295
▁빠짐없이	-11.2295
▁사람에	-11.2295
▁사람에겐	-11.2295
▁사람한테	-11.2295
▁사랑...	-11.2295
▁사랑했던	-11.2295
▁살다가	-11.2295
▁상어	-11.2295
▁상처가	-11.2295
▁생각나	-11.2295
▁생생히	-11.2295
▁서울	-11.2295
▁섞인	-11.2295
▁선사하는	-11.2295
▁선택은	-11.2295
▁설레고	-11.2295
▁설명	-11.2295
▁설명할	-11.2295
▁섬뜩한	-11.2295
▁성룡은	-11.2295
▁소름끼치게	-11.2295
▁소설로	-11.2295
▁소소하고	-11.2295
▁소재.	-11.2295
▁소재나	-11.2295
▁손이	-11.2295
▁솔찍히	-11.2295
▁수밖에	-11.2295
▁숨	-11.2295
▁스콧	-11.2295
▁스크린에서	-11.2295
▁스토리전개가	-11.2295
▁스파이	-11.2295
▁슬펐다.	-11.2295
▁슬프다..	-11.2295
▁시끄럽고	-11.2295
▁시바	-11.2295
▁시작된	-11.2295
▁시절에	-11.2295
▁시청률은	-11.2295
▁시키지	-11.2295
▁신세경	-11.2295
▁신파	-11.2295
▁실상은	-11.2295
▁싫다고	-11.2295
▁싹	-11.2295
▁쓰레기라는	-11.2295
▁쓰레기에	-11.2295
▁아깝	-11.2295
▁아깝게	-11.2295
▁아내가	-11.2295
▁아는데	-11.2295
▁아니어도	-11.2295
▁아닌지	-11.2295
▁아님?	-11.2295
▁아쉬워	-11.2295
▁아이에게	-11.2295
▁아파서	-11.2295
▁아프리카	-11.2295
▁안감.	-11.2295
▁안나왔으면	-11.2295
▁안남기는데	-11.2295
▁안되나?	-11.2295
▁안됩니다.	-11.2295
▁안타까울	-11.2295
▁앉아서	-11.2295
▁않고.	-11.2295
▁않았나	-11.2295
▁알면	-11.2295
▁알았다..	-11.2295
▁애기	-11.2295
▁액션영화는	-11.2295
▁양심도	-11.2295
▁어땠을까	-11.2295
▁어렸을땐	-11.2295
▁어릴땐	-11.2295
▁어설퍼	-11.2295
▁어우러져	-11.2295
▁없는...	-11.2295
▁없었습니다.	-11.2295
▁에릭	-11.2295
▁엔딩을	-11.2295
▁여기는	-11.2295
▁여기서도	-11.2295
▁여느	-11.2295
▁여러가지로	-11.2295
▁여러가지를	-11.2295
▁여운은	-11.2295
▁여인의	-11.2295
▁여자애	-11.2295
▁여자주인공이	-11.2295
▁역에	-11.2295
▁연기파	-11.2295
▁연출..	-11.2295
▁였다.	-11.2295
▁영상만	-11.2295
▁영화ᄏᄏ	-11.2295
▁영화네요^^	-11.2295
▁영화네요~	-11.2295
▁영화로는	-11.2295
▁영화보는데	-11.2295
▁영화보다도	-11.2295
▁영화엔	-11.2295
▁영화임에도	-11.2295
▁영화평점	-11.2295
▁예	-11.2295
▁오락	-11.2295
▁오래전	-11.2295
▁오로라	-11.2295
▁오지	-11.2295
▁완소	-11.2295
▁완존	-11.2295
▁왔다	-11.2295
▁왜들	-11.2295
▁외국인	-11.2295
▁요소들이	-11.2295
▁욕망을	-11.2295
▁우왕	-11.2295
▁웃게	-11.2295
▁웃었다	-11.2295
▁원작으로	-11.2295
▁원표	-11.2295
▁위대함을	-11.2295
▁위안부	-11.2295
▁위에서	-11.2295
▁유명해서	-11.2295
▁유아용	-11.2295
▁의도로	-11.2295
▁의리	-11.2295
▁이건머	-11.2295
▁이다	-11.2295
▁이런일이	-11.2295
▁이럴거면	-11.2295
▁이렇게도	-11.2295
▁이루어진	-11.2295
▁이야기지만	-11.2295
▁이연걸이	-11.2295
▁이영화로	-11.2295
▁이처럼	-11.2295
▁이해안되는	-11.2295
▁인가?	-11.2295
▁인도영화	-11.2295
▁인생영화	-11.2295
▁인피니트	-11.2295
▁일상적인	-11.2295
▁임권택	-11.2295
▁입이	-11.2295
▁있었지만,	-11.2295
▁있을까..	-11.2295
▁작품들	-11.2295
▁잘어울리는	-11.2295
▁잘하시고	-11.2295
▁잠시나마	-11.2295
▁잠이나	-11.2295
▁장난으로	-11.2295
▁장점을	-11.2295
▁재미까지	-11.2295
▁재미없네...	-11.2295
▁재미없어도	-11.2295
▁재미에	-11.2295
▁재미있다!	-11.2295
▁재미있었습니다	-11.2295
▁재밌게봤음	-11.2295
▁저만	-11.2295
▁저에게	-11.2295
▁적당하다	-11.2295
▁절실히	-11.2295
▁정도..	-11.2295
▁정신없고	-11.2295
▁제목보고	-11.2295
▁제작진의	-11.2295
▁조합.	-11.2295
▁존나게	-11.2295
▁존재의	-11.2295
▁종교를	-11.2295
▁좋겠습니다	-11.2295
▁좋다는	-11.2295
▁좋아도	-11.2295
▁주고싶은	-11.2295
▁주는데	-11.2295
▁주연배우의	-11.2295
▁주연을	-11.2295
▁죽여버리고	-11.2295
▁죽일	-11.2295
▁줄이야.	-11.2295
▁중국판	-11.2295
▁즐거웠던	-11.2295
▁지금이	-11.2295
▁지들이	-11.2295
▁지루함...	-11.2295
▁지루합니다.	-11.2295
▁지저분한	-11.2295
▁지친	-11.2295
▁짐캐리의	-11.2295
▁집중할	-11.2295
▁짜임새가	-11.2295
▁짠하고	-11.2295
▁짱구	-11.2295
▁짱임	-11.2295
▁차분한	-11.2295
▁찰리	-11.2295
▁찾아보니	-11.2295
▁찾아봤는데	-11.2295
▁챙겨보는	-11.2295
▁처	-11.2295
▁처음..	-11.2295
▁첩보	-11.2295
▁초딩도	-11.2295
▁최고!!!!	-11.2295
▁최고였어요	-11.2295
▁최악으로	-11.2295
▁최지우	-11.2295
▁출연진에	-11.2295
▁충격이	-11.2295
▁캐릭터들은	-11.2295
▁캐스팅만	-11.2295
▁캐스팅을	-11.2295
▁케릭터가	-11.2295
▁케미가	-11.2295
▁코난이	-11.2295
▁코미디에	-11.2295
▁타는	-11.2295
▁탑	-11.2295
▁토끼를	-11.2295
▁퉤	-11.2295
▁특이하고	-11.2295
▁파고드는	-11.2295
▁편집도	-11.2295
▁펼쳐지는	-11.2295
▁포기	-11.2295
▁포인트가	-11.2295
▁포인트를	-11.2295
▁폭력을	-11.2295
▁표정과	-11.2295
▁표현의	-11.2295
▁푸른	-11.2295
▁풀어내는	-11.2295
▁풍경과	-11.2295
▁풍경이	-11.2295
▁하나님의	-11.2295
▁하는데,	-11.2295
▁하는데...	-11.2295
▁하지.	-11.2295
▁한글	-11.2295
▁한시도	-11.2295
▁한심하고	-11.2295
▁한줄	-11.2295
▁한쿡영화의	-11.2295
▁한편으로	-11.2295
▁할거	-11.2295
▁할수있는	-11.2295
▁해리슨	-11.2295
▁해요	-11.2295
▁해주세요	-11.2295
▁해피엔딩이	-11.2295
▁행복	-11.2295
▁헉	-11.2295
▁환상을	-11.2295
▁흐름	-11.2295
▁흑흑	-11.2295
▁흘러나오는	-11.2295
▁흥미도	-11.2295
▁흥행이	-11.2295
▁힘으로	-11.2295
▁......	-11.2985
▁10년만에	-11.2985
▁1등	-11.2985
▁2012	-11.2985
▁2012년	-11.2985
▁2014년에	-11.2985
▁2점은	-11.2985
▁2편을	-11.2985
▁3개	-11.2985
▁3는	-11.2985
▁4,	-11.2985
▁5점은	-11.2985
▁KBS	-11.2985
▁[4점]	-11.2985
▁but	-11.2985
▁for	-11.2985
▁me	-11.2985
▁not	-11.2985
▁ost는	-11.2985
▁ᄂᄂ	-11.2985
▁ᄇ	-11.2985
▁가게	-11.2985
▁가능성이	-11.2985
▁가시지	-11.2985
▁간단한	-11.2985
▁간의	-11.2985
▁갈리는	-11.2985
▁감독들	-11.2985
▁감동까지	-11.2985
▁감동있는	-11.2985
▁감동적이었습니다.	-11.2985
▁감사드립니다.	-11.2985
▁감사하게	-11.2985
▁감정은	-11.2985
▁감정이입	-11.2985
▁감회가	-11.2985
▁강요하는	-11.2985
▁갖는	-11.2985
▁같지도	-11.2985
▁거라	-11.2985
▁거야	-11.2985
▁것인지	-11.2985
▁결말로	-11.2985
▁고생	-11.2985
▁골	-11.2985
▁공포에	-11.2985
▁과거와	-11.2985
▁관객들은	-11.2985
▁관점이	-11.2985
▁광고를	-11.2985
▁교훈은	-11.2985
▁귀를	-11.2985
▁귀찮아서	-11.2985
▁그녀들의	-11.2985
▁그놈의	-11.2985
▁그다지...	-11.2985
▁그러면서	-11.2985
▁그러지	-11.2985
▁그럴듯하게	-11.2985
▁그려냈다.	-11.2985
▁그리워	-11.2985
▁그림체도	-11.2985
▁그이상도	-11.2985
▁그중	-11.2985
▁그토록	-11.2985
▁극으로	-11.2985
▁극히	-11.2985
▁근	-11.2985
▁급이	-11.2985
▁기대됩니다	-11.2985
▁기분나쁜	-11.2985
▁기억난다.	-11.2985
▁기억으로	-11.2985
▁길다	-11.2985
▁김수로	-11.2985
▁김희선	-11.2985
▁깨고	-11.2985
▁꺼버렸다.	-11.2985
▁꽉	-11.2985
▁끌리는	-11.2985
▁끝내준다.	-11.2985
▁나게	-11.2985
▁나두	-11.2985
▁나라에	-11.2985
▁나았다.	-11.2985
▁나오던	-11.2985
▁나왔다고	-11.2985
▁나왔다면	-11.2985
▁나처럼	-11.2985
▁남자주인공이	-11.2985
▁내면	-11.2985
▁내용이라	-11.2985
▁내용인지도	-11.2985
▁노력을	-11.2985
▁노잼.	-11.2985
▁노출도	-11.2985
▁누가봐도	-11.2985
▁누군가에겐	-11.2985
▁눈물나는	-11.2985
▁눈치	-11.2985
▁다만,	-11.2985
▁다음엔	-11.2985
▁다음편이	-11.2985
▁다크나이트	-11.2985
▁달라서	-11.2985
▁당당히	-11.2985
▁당한	-11.2985
▁대로	-11.2985
▁대부	-11.2985
▁대한민국에서	-11.2985
▁대화가	-11.2985
▁댓글에	-11.2985
▁독특하게	-11.2985
▁돋보인다	-11.2985
▁동성애를	-11.2985
▁되기	-11.2985
▁되려	-11.2985
▁되버린	-11.2985
▁되었으면	-11.2985
▁두번이나	-11.2985
▁두분	-11.2985
▁드라마!!!	-11.2985
▁드라마였다.	-11.2985
▁드라마와	-11.2985
▁드라마임	-11.2985
▁들었는데	-11.2985
▁들여서	-11.2985
▁따뜻함이	-11.2985
▁따라가지	-11.2985
▁따지면	-11.2985
▁땜시	-11.2985
▁떄문에	-11.2985
▁떠나는	-11.2985
▁뜨고	-11.2985
▁리얼리티가	-11.2985
▁만나면	-11.2985
▁만들어주세요	-11.2985
▁만들었냐?	-11.2985
▁만들었는데	-11.2985
▁많았다.	-11.2985
▁말론	-11.2985
▁말한다.	-11.2985
▁맛없는	-11.2985
▁망함	-11.2985
▁맞먹는	-11.2985
▁매력적으로	-11.2985
▁매미OO	-11.2985
▁멋있어서	-11.2985
▁멍청하고	-11.2985
▁명백한	-11.2985
▁명의	-11.2985
▁명작이라는	-11.2985
▁몇년	-11.2985
▁몇년만에	-11.2985
▁모르겠는	-11.2985
▁모습.	-11.2985
▁모습으로	-11.2985
▁모자라	-11.2985
▁목숨걸고	-11.2985
▁목을	-11.2985
▁몰입할	-11.2985
▁못하고,	-11.2985
▁무너지는	-11.2985
▁무서울	-11.2985
▁뭥미?	-11.2985
▁미모	-11.2985
▁미소	-11.2985
▁미스테리	-11.2985
▁미치겠다	-11.2985
▁미화한	-11.2985
▁믿겨지지	-11.2985
▁바란다	-11.2985
▁박중훈	-11.2985
▁반응이	-11.2985
▁반의	-11.2985
▁반전까지	-11.2985
▁반전으로	-11.2985
▁반전이라고	-11.2985
▁받지	-11.2985
▁발전을	-11.2985
▁방법을	-11.2985
▁방송에서	-11.2985
▁방향을	-11.2985
▁배경에	-11.2985
▁배경음악도	-11.2985
▁배경의	-11.2985
▁배슬기	-11.2985
▁배역	-11.2985
▁배운	-11.2985
▁벗고	-11.2985
▁변태	-11.2985
▁변화를	-11.2985
▁별볼일	-11.2985
▁별하나	-11.2985
▁보겠다.	-11.2985
▁보고나서도	-11.2985
▁보나	-11.2985
▁보는건지	-11.2985
▁보다보니	-11.2985
▁보신	-11.2985
▁보여주는데	-11.2985
▁보여줬던	-11.2985
▁보여지는	-11.2985
▁보이려고	-11.2985
▁보자.	-11.2985
▁보자마자	-11.2985
▁본사람들은	-11.2985
▁봐야될	-11.2985
▁봤었다.	-11.2985
▁봤음..	-11.2985
▁봤지만..	-11.2985
▁부분만	-11.2985
▁부자연스러운	-11.2985
▁부족함	-11.2985
▁부터가	-11.2985
▁부활	-11.2985
▁분명하다.	-11.2985
▁분위기나	-11.2985
▁불면증	-11.2985
▁불쌍하고	-11.2985
▁불친절한	-11.2985
▁비밀	-11.2985
▁비밀을	-11.2985
▁비현실적	-11.2985
▁비현실적이고	-11.2985
▁빌린	-11.2985
▁뻔하다	-11.2985
▁사고	-11.2985
▁사람.	-11.2985
▁사랑한다	-11.2985
▁사뭇	-11.2985
▁상상력과	-11.2985
▁상상력은	-11.2985
▁상식적으로	-11.2985
▁색감도	-11.2985
▁생각하는데	-11.2985
▁서로의	-11.2985
▁서정적인	-11.2985
▁선동영화	-11.2985
▁선생님의	-11.2985
▁선입견을	-11.2985
▁성	-11.2985
▁세련되고	-11.2985
▁소설도	-11.2985
▁소설은	-11.2985
▁송지효	-11.2985
▁수준낮은	-11.2985
▁수준으로	-11.2985
▁순간을	-11.2985
▁스릴러로	-11.2985
▁슬퍼	-11.2985
▁시간아까워	-11.2985
▁시골	-11.2985
▁시기에	-11.2985
▁시나리오의	-11.2985
▁신비롭고	-11.2985
▁신선했고	-11.2985
▁신인	-11.2985
▁신파극	-11.2985
▁실망도	-11.2985
▁실망이다.	-11.2985
▁실패	-11.2985
▁쌈마이	-11.2985
▁써서	-11.2985
▁쓰	-11.2985
▁씨네21	-11.2985
▁아깝네요.	-11.2985
▁아깝단	-11.2985
▁아날로그	-11.2985
▁아냐	-11.2985
▁아니네요	-11.2985
▁아니었다	-11.2985
▁아닌데..	-11.2985
▁아닌데...	-11.2985
▁아닌듯.	-11.2985
▁아담	-11.2985
▁아버지는	-11.2985
▁아빠를	-11.2985
▁아쉬웠던	-11.2985
▁아쉽게	-11.2985
▁아이랑	-11.2985
▁아저씨의	-11.2985
▁아팠다.	-11.2985
▁안나고	-11.2985
▁안돼는	-11.2985
▁안되요	-11.2985
▁안든다.	-11.2985
▁안본다.	-11.2985
▁안하는	-11.2985
▁않으면서	-11.2985
▁알고보면	-11.2985
▁알려진	-11.2985
▁알았는데,	-11.2985
▁알지만	-11.2985
▁앞으로는	-11.2985
▁액션영화의	-11.2985
▁야동	-11.2985
▁약하다.	-11.2985
▁얄팍한	-11.2985
▁어려울	-11.2985
▁어렸을때는	-11.2985
▁어른	-11.2985
▁어른을	-11.2985
▁얻은	-11.2985
▁얼굴과	-11.2985
▁없네..	-11.2985
▁없는..	-11.2985
▁없을것	-11.2985
▁엉성	-11.2985
▁엔딩에서	-11.2985
▁엔딩크레딧	-11.2985
▁여배우는	-11.2985
▁여신	-11.2985
▁여지껏	-11.2985
▁역의	-11.2985
▁역할은	-11.2985
▁연결도	-11.2985
▁연출력과	-11.2985
▁영..	-11.2985
▁영웅본색	-11.2985
▁영화~!!	-11.2985
▁영화ᄏ	-11.2985
▁영화네요...	-11.2985
▁영화들의	-11.2985
▁영화본	-11.2985
▁영화야?	-11.2985
▁영화인듯.	-11.2985
▁영화임..	-11.2985
▁영화지만,	-11.2985
▁영화치고	-11.2985
▁영화치고는	-11.2985
▁예술이	-11.2985
▁예측	-11.2985
▁옛날엔	-11.2985
▁오~	-11.2985
▁오그라든다	-11.2985
▁오늘의	-11.2985
▁오인혜	-11.2985
▁올해의	-11.2985
▁옴니버스	-11.2985
▁와닿는다.	-11.2985
▁왔습니다	-11.2985
▁왕가위	-11.2985
▁왜자꾸	-11.2985
▁왜캐	-11.2985
▁외모	-11.2985
▁요리	-11.2985
▁요소도	-11.2985
▁용가리	-11.2985
▁용기가	-11.2985
▁용기에	-11.2985
▁우리나라가	-11.2985
▁운동	-11.2985
▁울림이	-11.2985
▁울었음	-11.2985
▁웃겨요	-11.2985
▁웃긴다	-11.2985
▁웃김.	-11.2985
▁원작이랑	-11.2985
▁원조	-11.2985
▁원주율	-11.2985
▁웨슬리	-11.2985
▁웬만해선	-11.2985
▁유덕화가	-11.2985
▁유치하지	-11.2985
▁유치함의	-11.2985
▁으	-11.2985
▁의미로	-11.2985
▁의미에서	-11.2985
▁의심이	-11.2985
▁이기는	-11.2985
▁이다.	-11.2985
▁이런드라마	-11.2985
▁이런영화도	-11.2985
▁이렇게밖에	-11.2985
▁이룬	-11.2985
▁이민기	-11.2985
▁이상해서	-11.2985
▁이해하는	-11.2985
▁인간과	-11.2985
▁일깨워준	-11.2985
▁일도	-11.2985
▁일본인	-11.2985
▁일이다.	-11.2985
▁입에	-11.2985
▁입은	-11.2985
▁있다...	-11.2985
▁있었다면	-11.2985
▁있었을	-11.2985
▁있을까...	-11.2985
▁잊혀지질	-11.2985
▁자리에서	-11.2985
▁자신들의	-11.2985
▁자칭	-11.2985
▁작고	-11.2985
▁작품성도	-11.2985
▁잘못을	-11.2985
▁잘하네	-11.2985
▁잠수함	-11.2985
▁장면들	-11.2985
▁재	-11.2985
▁재미없는건	-11.2985
▁재미없다는	-11.2985
▁재미있네	-11.2985
▁재밌어요^^	-11.2985
▁재밌었다..	-11.2985
▁재밌음!	-11.2985
▁잼있었음	-11.2985
▁저지른	-11.2985
▁적을	-11.2985
▁전달하려는	-11.2985
▁전부인	-11.2985
▁전작보다	-11.2985
▁전편	-11.2985
▁전편과	-11.2985
▁전하는	-11.2985
▁정서가	-11.2985
▁정점을	-11.2985
▁제2의	-11.2985
▁제발..	-11.2985
▁제외하고	-11.2985
▁제외하고는	-11.2985
▁조절	-11.2985
▁조화를	-11.2985
▁존1나	-11.2985
▁존재감	-11.2985
▁좀만	-11.2985
▁좋고.	-11.2985
▁좋고..	-11.2985
▁좋구	-11.2985
▁좋더라	-11.2985
▁좋은영화.	-11.2985
▁좋지만,	-11.2985
▁죄없는	-11.2985
▁주상욱	-11.2985
▁주온	-11.2985
▁죽어가는	-11.2985
▁죽을때	-11.2985
▁죽을뻔	-11.2985
▁죽음에	-11.2985
▁죽지	-11.2985
▁중에서는	-11.2985
▁즐거웠다.	-11.2985
▁지겹다.	-11.2985
▁지나고	-11.2985
▁지나지	-11.2985
▁지루하기도	-11.2985
▁진리	-11.2985
▁진정성이	-11.2985
▁질을	-11.2985
▁짜	-11.2985
▁쪼금	-11.2985
▁찍으면	-11.2985
▁참된	-11.2985
▁책으로도	-11.2985
▁책임을	-11.2985
▁천재다.	-11.2985
▁철학을	-11.2985
▁첨본다	-11.2985
▁최고다...	-11.2985
▁최고였습니다.	-11.2985
▁최민수	-11.2985
▁최초	-11.2985
▁추천하는	-11.2985
▁춤추는	-11.2985
▁치밀어	-11.2985
▁친구는	-11.2985
▁케이지	-11.2985
▁코믹으로	-11.2985
▁크다.	-11.2985
▁탕웨이	-11.2985
▁톰크루즈	-11.2985
▁틀을	-11.2985
▁파리의	-11.2985
▁판치는	-11.2985
▁팬인데	-11.2985
▁편견이	-11.2985
▁편은	-11.2985
▁편집은	-11.2985
▁평범하지	-11.2985
▁평점과	-11.2985
▁포스터의	-11.2985
▁표현은	-11.2985
▁프로가	-11.2985
▁하고.	-11.2985
▁하고싶은	-11.2985
▁하나...	-11.2985
▁하는가?	-11.2985
▁하는건지	-11.2985
▁하다..	-11.2985
▁하루에	-11.2985
▁하시는	-11.2985
▁하아...	-11.2985
▁하이킥	-11.2985
▁하품만	-11.2985
▁학생들	-11.2985
▁한개	-11.2985
▁한낱	-11.2985
▁한마디만	-11.2985
▁한명도	-11.2985
▁한석규	-11.2985
▁핵	-11.2985
▁했습니다	-11.2985
▁했을까	-11.2985
▁했을까?	-11.2985
▁향연.	-11.2985
▁허니잼	-11.2985
▁허세만	-11.2985
▁허접하게	-11.2985
▁허접하다	-11.2985
▁현실적이어서	-11.2985
▁홀로	-11.2985
▁홍금보	-11.2985
▁화	-11.2985
▁후..	-11.2985
▁후속편	-11.2985
▁흘리며	-11.2985
▁(10자	-11.3726
▁--;	-11.3726
▁1人	-11.3726
▁1을	-11.3726
▁1인칭	-11.3726
▁2,	-11.3726
▁2001년	-11.3726
▁2003년	-11.3726
▁21세기에	-11.3726
▁2점을	-11.3726
▁3점도	-11.3726
▁3점은	-11.3726
▁5점이	-11.3726
▁7점대가	-11.3726
▁7점대는	-11.3726
▁9	-11.3726
▁90분	-11.3726
▁;;;;	-11.3726
▁cg는	-11.3726
▁c급	-11.3726
▁~~~~~~~	-11.3726
▁ᄀ-	-11.3726
▁ᄉᄀ	-11.3726
▁ᅳᅳᄏ	-11.3726
▁가끔은	-11.3726
▁가는게	-11.3726
▁가야	-11.3726
▁가정	-11.3726
▁각본에	-11.3726
▁간지	-11.3726
▁갈등	-11.3726
▁갈등이	-11.3726
▁감독한테	-11.3726
▁감동있고	-11.3726
▁감성은	-11.3726
▁감정선을	-11.3726
▁감흥도	-11.3726
▁강렬하게	-11.3726
▁강추합니다.	-11.3726
▁강하다.	-11.3726
▁같으면서도	-11.3726
▁같은데,	-11.3726
▁같음..	-11.3726
▁같잖은	-11.3726
▁개봉하고	-11.3726
▁개봉했을	-11.3726
▁거듭할수록	-11.3726
▁거리는	-11.3726
▁검은	-11.3726
▁것!	-11.3726
▁겉만	-11.3726
▁겨울에	-11.3726
▁견자단의	-11.3726
▁결과를	-11.3726
▁결말,	-11.3726
▁경우	-11.3726
▁경이로운	-11.3726
▁경찰을	-11.3726
▁고뇌와	-11.3726
▁고르는	-11.3726
▁공간	-11.3726
▁공감되고	-11.3726
▁공감하고	-11.3726
▁공감할수	-11.3726
▁공중파	-11.3726
▁과거가	-11.3726
▁괜찮았어요	-11.3726
▁구리다	-11.3726
▁구성을	-11.3726
▁구해서	-11.3726
▁국민이	-11.3726
▁군대를	-11.3726
▁귀신은	-11.3726
▁귀한	-11.3726
▁그랬지만	-11.3726
▁그러는데	-11.3726
▁그렇다쳐도	-11.3726
▁그림도	-11.3726
▁그림체가	-11.3726
▁그와중에	-11.3726
▁그외	-11.3726
▁그지없는	-11.3726
▁극단적	-11.3726
▁금치	-11.3726
▁기대안하고봤는데	-11.3726
▁기대이상	-11.3726
▁기대이하	-11.3726
▁기사	-11.3726
▁기억나는건	-11.3726
▁기억에서	-11.3726
▁긴박감	-11.3726
▁깊다.	-11.3726
▁까지는	-11.3726
▁깨달았다	-11.3726
▁깨달음을	-11.3726
▁꼬박꼬박	-11.3726
▁꽃보다	-11.3726
▁꾀	-11.3726
▁끊기는	-11.3726
▁끝남.	-11.3726
▁끝났으면	-11.3726
▁끝에서	-11.3726
▁낀	-11.3726
▁나약한	-11.3726
▁나왔다는	-11.3726
▁나이트	-11.3726
▁남녀노소	-11.3726
▁남는다..	-11.3726
▁남매의	-11.3726
▁남습니다.	-11.3726
▁남았던	-11.3726
▁남주는	-11.3726
▁낫지	-11.3726
▁내게는	-11.3726
▁내세운	-11.3726
▁내용없고	-11.3726
▁내용이랑	-11.3726
▁내용인데	-11.3726
▁내용전개	-11.3726
▁내인생최고의	-11.3726
▁내평생	-11.3726
▁냉정하게	-11.3726
▁너무좋아요	-11.3726
▁넘어가는	-11.3726
▁노력하는	-11.3726
▁노무현	-11.3726
▁노튼의	-11.3726
▁놀라서	-11.3726
▁놀랐다	-11.3726
▁높네	-11.3726
▁높아?	-11.3726
▁높지	-11.3726
▁누구인지	-11.3726
▁누님	-11.3726
▁눈물까지	-11.3726
▁눈빛은	-11.3726
▁느껴야	-11.3726
▁느끼며	-11.3726
▁느낀건	-11.3726
▁느낀게	-11.3726
▁느낌,	-11.3726
▁늘어지고	-11.3726
▁다르지만	-11.3726
▁다른걸	-11.3726
▁다를	-11.3726
▁다문화	-11.3726
▁다세포소녀	-11.3726
▁다시보니까	-11.3726
▁다운로드	-11.3726
▁다큐로	-11.3726
▁다큐멘터리가	-11.3726
▁다크	-11.3726
▁단,	-11.3726
▁답게	-11.3726
▁답답하게	-11.3726
▁답지	-11.3726
▁대단	-11.3726
▁대본을	-11.3726
▁대실망	-11.3726
▁대체로	-11.3726
▁대학교	-11.3726
▁대해서도	-11.3726
▁댓글보고	-11.3726
▁덤으로	-11.3726
▁도는	-11.3726
▁돈아까운	-11.3726
▁돌리고	-11.3726
▁돌아	-11.3726
▁되도않는	-11.3726
▁될것	-11.3726
▁됬는데	-11.3726
▁두번째로	-11.3726
▁드라마나	-11.3726
▁듯이	-11.3726
▁디즈니의	-11.3726
▁따윈	-11.3726
▁딸은	-11.3726
▁때려	-11.3726
▁때매	-11.3726
▁떠난	-11.3726
▁떡밥	-11.3726
▁뛰어나고	-11.3726
▁뜬	-11.3726
▁뜬금	-11.3726
▁라	-11.3726
▁랑	-11.3726
▁레이싱	-11.3726
▁로맨스로	-11.3726
▁로맨틱한	-11.3726
▁로봇이	-11.3726
▁리들리	-11.3726
▁리즈	-11.3726
▁마시길..	-11.3726
▁막장도	-11.3726
▁막장에	-11.3726
▁만든다는	-11.3726
▁만들거면	-11.3726
▁만들어버린	-11.3726
▁만들었다고	-11.3726
▁만들었을까	-11.3726
▁만으로	-11.3726
▁만화의	-11.3726
▁말곤	-11.3726
▁말았다	-11.3726
▁말이야	-11.3726
▁말지	-11.3726
▁맘대로	-11.3726
▁매력.	-11.3726
▁맴도는	-11.3726
▁멀	-11.3726
▁멈추지	-11.3726
▁메인	-11.3726
▁명배우	-11.3726
▁명작중에	-11.3726
▁모두의	-11.3726
▁모르겠고,	-11.3726
▁모르나	-11.3726
▁모야	-11.3726
▁목	-11.3726
▁목적을	-11.3726
▁못한다는	-11.3726
▁무비의	-11.3726
▁무심코	-11.3726
▁무엇하나	-11.3726
▁무협영화	-11.3726
▁문화적	-11.3726
▁물에	-11.3726
▁뭐든지	-11.3726
▁뭐야.	-11.3726
▁뭐죠?	-11.3726
▁미국을	-11.3726
▁미래에서	-11.3726
▁미스터리	-11.3726
▁믿음이	-11.3726
▁밀라	-11.3726
▁바꾼	-11.3726
▁바다	-11.3726
▁반성하게	-11.3726
▁받을만한	-11.3726
▁발연기와	-11.3726
▁방송을	-11.3726
▁배우.	-11.3726
▁변화가	-11.3726
▁별개로	-11.3726
▁별로였는데	-11.3726
▁보게됬는데	-11.3726
▁보고싶어	-11.3726
▁보내고	-11.3726
▁보시는	-11.3726
▁보아	-11.3726
▁보임	-11.3726
▁보지는	-11.3726
▁보통의	-11.3726
▁본방	-11.3726
▁본사람이	-11.3726
▁볼건	-11.3726
▁볼만했음	-11.3726
▁봐서는	-11.3726
▁봐야한다	-11.3726
▁봤다!	-11.3726
▁봤던건데	-11.3726
▁봤을때도	-11.3726
▁부모	-11.3726
▁부족하지만	-11.3726
▁불안한	-11.3726
▁비교를	-11.3726
▁비교할	-11.3726
▁비교해서	-11.3726
▁비로소	-11.3726
▁비운의	-11.3726
▁빠지고	-11.3726
▁뻔함	-11.3726
▁뻔해	-11.3726
▁사람,	-11.3726
▁사람에게는	-11.3726
▁사랑?	-11.3726
▁사랑하지	-11.3726
▁사실적이고	-11.3726
▁삭제	-11.3726
▁살아서	-11.3726
▁상상이	-11.3726
▁상업영화	-11.3726
▁상업적	-11.3726
▁상큼한	-11.3726
▁색감	-11.3726
▁색감과	-11.3726
▁색깔이	-11.3726
▁생각되는	-11.3726
▁생각된다.	-11.3726
▁생각없는	-11.3726
▁생각하면서	-11.3726
▁생각해보니	-11.3726
▁생각했다	-11.3726
▁생활을	-11.3726
▁서부극	-11.3726
▁섞어	-11.3726
▁선물	-11.3726
▁성에	-11.3726
▁성장하는	-11.3726
▁세계적인	-11.3726
▁세월을	-11.3726
▁섹시	-11.3726
▁소녀들의	-11.3726
▁소박한	-11.3726
▁속에서도	-11.3726
▁속편을	-11.3726
▁손으로	-11.3726
▁손잡고	-11.3726
▁수면제	-11.3726
▁수있는	-11.3726
▁수작..	-11.3726
▁수준에	-11.3726
▁순수	-11.3726
▁순식간에	-11.3726
▁순진한	-11.3726
▁슈퍼	-11.3726
▁스릴러라고	-11.3726
▁스필버그	-11.3726
▁슬퍼요	-11.3726
▁슬펐던	-11.3726
▁슬프지도	-11.3726
▁시나리오.	-11.3726
▁시작을	-11.3726
▁시작하고	-11.3726
▁시즌2는	-11.3726
▁식상하다.	-11.3726
▁식스센스	-11.3726
▁신기하다	-11.3726
▁신선함이	-11.3726
▁신현준	-11.3726
▁실망...	-11.3726
▁실수를	-11.3726
▁실화라니	-11.3726
▁심했다	-11.3726
▁싶다!	-11.3726
▁싶어도	-11.3726
▁싶어하는	-11.3726
▁싶지도	-11.3726
▁싸움	-11.3726
▁써라	-11.3726
▁쓰레기라	-11.3726
▁씹노잼	-11.3726
▁아까운데	-11.3726
▁아까움...	-11.3726
▁아까웠다!!!	-11.3726
▁아니란	-11.3726
▁아니었다면	-11.3726
▁아니잖아	-11.3726
▁아니지.	-11.3726
▁아니지..	-11.3726
▁아닐	-11.3726
▁아님...	-11.3726
▁아빠랑	-11.3726
▁아저씨는	-11.3726
▁아줌마가	-11.3726
▁악을	-11.3726
▁안나지만	-11.3726
▁안듬	-11.3726
▁안보길	-11.3726
▁안젤리나	-11.3726
▁안타깝네요.	-11.3726
▁안하면	-11.3726
▁않는게	-11.3726
▁않아요.	-11.3726
▁않았을	-11.3726
▁알고있는	-11.3726
▁알바들아	-11.3726
▁알아	-11.3726
▁알았는데...	-11.3726
▁알았으면	-11.3726
▁애니도	-11.3726
▁애니메이션으로	-11.3726
▁애써	-11.3726
▁액션신	-11.3726
▁양심적으로	-11.3726
▁얘기는	-11.3726
▁어느덧	-11.3726
▁어렴풋이	-11.3726
▁어른도	-11.3726
▁어른들의	-11.3726
▁어색하다.	-11.3726
▁어설프다.	-11.3726
▁어줍잖은	-11.3726
▁없는지	-11.3726
▁없다....	-11.3726
▁없어.	-11.3726
▁없으면서	-11.3726
▁엉망진창	-11.3726
▁에로물	-11.3726
▁에밀리	-11.3726
▁에휴...	-11.3726
▁여배우들의	-11.3726
▁여자랑	-11.3726
▁여전한	-11.3726
▁역시..	-11.3726
▁역할에	-11.3726
▁연애의	-11.3726
▁연출력.	-11.3726
▁열린	-11.3726
▁영~	-11.3726
▁영감을	-11.3726
▁영상미,	-11.3726
▁영상에	-11.3726
▁영상의	-11.3726
▁영혼의	-11.3726
▁영화네요!	-11.3726
▁영화든	-11.3726
▁영화만의	-11.3726
▁영화였지만	-11.3726
▁영화입니다!	-11.3726
▁영화평	-11.3726
▁영환줄	-11.3726
▁예쁨	-11.3726
▁예산	-11.3726
▁예상을	-11.3726
▁오늘날	-11.3726
▁오오	-11.3726
▁오우삼	-11.3726
▁올라갈때	-11.3726
▁올리고	-11.3726
▁와..진짜	-11.3726
▁와나	-11.3726
▁왔다갔다	-11.3726
▁왕가위의	-11.3726
▁요근래	-11.3726
▁용서	-11.3726
▁용서할	-11.3726
▁우아한	-11.3726
▁우정,	-11.3726
▁울었어요.	-11.3726
▁웃긴건	-11.3726
▁웃지	-11.3726
▁웹툰	-11.3726
▁유아인	-11.3726
▁응원합니다.	-11.3726
▁의리로	-11.3726
▁이거랑	-11.3726
▁이거보면서	-11.3726
▁이기적이고	-11.3726
▁이나영	-11.3726
▁이들은	-11.3726
▁이딴영화	-11.3726
▁이라도	-11.3726
▁이런저런	-11.3726
▁이렇지	-11.3726
▁이름도	-11.3726
▁이미지를	-11.3726
▁이쁘네요	-11.3726
▁이상함	-11.3726
▁이수근	-11.3726
▁이야기들이	-11.3726
▁이어서	-11.3726
▁이영화도	-11.3726
▁이해되지	-11.3726
▁인가	-11.3726
▁인상깊었던	-11.3726
▁인종차별	-11.3726
▁일방적인	-11.3726
▁일본판	-11.3726
▁일어나지	-11.3726
▁일에	-11.3726
▁잃게	-11.3726
▁임수정	-11.3726
▁입장에선	-11.3726
▁있는..	-11.3726
▁있는듯	-11.3726
▁있는영화	-11.3726
▁있다면..	-11.3726
▁있었을까?	-11.3726
▁있었음.	-11.3726
▁있음을	-11.3726
▁자다가	-11.3726
▁자세한	-11.3726
▁자신	-11.3726
▁자신에	-11.3726
▁자유와	-11.3726
▁작가야	-11.3726
▁작품!!	-11.3726
▁잔인하지만	-11.3726
▁잘나가다가	-11.3726
▁잘봤다.	-11.3726
▁잘하는데	-11.3726
▁잘한다.	-11.3726
▁잠든	-11.3726
▁잠만	-11.3726
▁잡지	-11.3726
▁장근석	-11.3726
▁장나라	-11.3726
▁장난감	-11.3726
▁재난영화의	-11.3726
▁재미.	-11.3726
▁재미가없다	-11.3726
▁재미없고,	-11.3726
▁재미없네요.	-11.3726
▁재미없어요.	-11.3726
▁재미없었는데	-11.3726
▁재미있다..	-11.3726
▁재밌게봄	-11.3726
▁재밌었는데...	-11.3726
▁재밌음ᄏᄏ	-11.3726
▁잼없는	-11.3726
▁저를	-11.3726
▁저에겐	-11.3726
▁전개나	-11.3726
▁전설	-11.3726
▁전해주는	-11.3726
▁전형적	-11.3726
▁젊은이들의	-11.3726
▁정도...	-11.3726
▁정도를	-11.3726
▁정신없는	-11.3726
▁정확하게	-11.3726
▁제목이랑	-11.3726
▁제작비로	-11.3726
▁제작비를	-11.3726
▁조	-11.3726
▁존재는	-11.3726
▁존잼	-11.3726
▁졸려	-11.3726
▁좋은게	-11.3726
▁좋을듯..	-11.3726
▁죄가	-11.3726
▁주는거	-11.3726
▁주려다가	-11.3726
▁주성치의	-11.3726
▁주어진	-11.3726
▁주연들의	-11.3726
▁주연이	-11.3726
▁주인공들은	-11.3726
▁주인공에게	-11.3726
▁주저없이	-11.3726
▁주지훈	-11.3726
▁죽을때까지	-11.3726
▁준다..	-11.3726
▁줄도	-11.3726
▁중년	-11.3726
▁중심이	-11.3726
▁중요성을	-11.3726
▁지났는데도	-11.3726
▁지루하다는	-11.3726
▁지루했어요	-11.3726
▁지루했어요.	-11.3726
▁진솔한	-11.3726
▁짙게	-11.3726
▁짜릿한	-11.3726
▁쩔고	-11.3726
▁찐한	-11.3726
▁찡하게	-11.3726
▁찾아보고	-11.3726
▁채널에서	-11.3726
▁챙겨보고	-11.3726
▁처음...	-11.3726
▁처음봄	-11.3726
▁처음부터끝까지	-11.3726
▁처음인	-11.3726
▁철저하게	-11.3726
▁최악인	-11.3726
▁최악입니다.	-11.3726
▁추천으로	-11.3726
▁추천한다	-11.3726
▁추천합니다!	-11.3726
▁춤도	-11.3726
▁충격적이고	-11.3726
▁취해	-11.3726
▁친구의	-11.3726
▁칼	-11.3726
▁커플이	-11.3726
▁컬트	-11.3726
▁케이트	-11.3726
▁코난은	-11.3726
▁코미디영화	-11.3726
▁코믹과	-11.3726
▁쿠엔틴	-11.3726
▁크리스	-11.3726
▁탄	-11.3726
▁턱없이	-11.3726
▁파워레인저	-11.3726
▁판타지의	-11.3726
▁팬으로써	-11.3726
▁펼치는	-11.3726
▁평론가는	-11.3726
▁평론가들의	-11.3726
▁평론가들이	-11.3726
▁평에	-11.3726
▁평정	-11.3726
▁포스	-11.3726
▁폰	-11.3726
▁폼만	-11.3726
▁표현하지	-11.3726
▁풍자	-11.3726
▁프랑스영화	-11.3726
▁프랑스의	-11.3726
▁필요하다.	-11.3726
▁하게하는	-11.3726
▁하나만으로	-11.3726
▁하다못해	-11.3726
▁하루를	-11.3726
▁하루하루	-11.3726
▁하야오	-11.3726
▁하얀	-11.3726
▁하지도	-11.3726
▁학생들이	-11.3726
▁한국영화.	-11.3726
▁한예슬	-11.3726
▁할려고	-11.3726
▁해리포터는	-11.3726
▁해주고	-11.3726
▁했나?	-11.3726
▁했네	-11.3726
▁했는데..	-11.3726
▁행복이	-11.3726
▁허접하다.	-11.3726
▁현	-11.3726
▁현실.	-11.3726
▁현실성을	-11.3726
▁화가난다	-11.3726
▁화나서	-11.3726
▁화난다	-11.3726
▁환타지	-11.3726
▁황당하고	-11.3726
▁황홀한	-11.3726
▁회를	-11.3726
▁후반부가	-11.3726
▁후반의	-11.3726
▁훌쩍	-11.3726
▁흑역사	-11.3726
▁흘리게	-11.3726
▁흥미로웠다.	-11.3726
▁흥행은	-11.3726
▁힘든데	-11.3726
▁힘들다..	-11.3726
▁"""	-11.4526
▁1,2	-11.4526
▁10개	-11.4526
▁10분만에	-11.4526
▁13일의	-11.4526
▁1보다	-11.4526
▁1점준	-11.4526
▁1점줌	-11.4526
▁2%	-11.4526
▁2.	-11.4526
▁2번째	-11.4526
▁2점도	-11.4526
▁2차	-11.4526
▁30년전	-11.4526
▁3시간	-11.4526
▁40대	-11.4526
▁4점이	-11.4526
▁8점이	-11.4526
▁Best	-11.4526
▁CGV에서	-11.4526
▁Very	-11.4526
▁^-^	-11.4526
▁^.^	-11.4526
▁^_^	-11.4526
▁ost만	-11.4526
▁we	-11.4526
▁ᄆᄎ	-11.4526
▁ᅳᅮ	-11.4526
▁↓	-11.4526
▁가슴찡한	-11.4526
▁가족영화로	-11.4526
▁가지는	-11.4526
▁갈등을	-11.4526
▁감독들이	-11.4526
▁감독이랑	-11.4526
▁감성의	-11.4526
▁감춰진	-11.4526
▁갑작스런	-11.4526
▁갔던	-11.4526
▁같다!	-11.4526
▁같아요!	-11.4526
▁같은거	-11.4526
▁같은데.	-11.4526
▁개그가	-11.4526
▁개그도	-11.4526
▁개그맨들	-11.4526
▁개를	-11.4526
▁개봉한지	-11.4526
▁개웃김	-11.4526
▁객관적인	-11.4526
▁거꾸로	-11.4526
▁거북한	-11.4526
▁거침없이	-11.4526
▁건지.	-11.4526
▁건진	-11.4526
▁걸작이다	-11.4526
▁것...	-11.4526
▁것같다.	-11.4526
▁것이라고	-11.4526
▁게임의	-11.4526
▁게임이	-11.4526
▁결과	-11.4526
▁결말과	-11.4526
▁경악을	-11.4526
▁경험이	-11.4526
▁계기로	-11.4526
▁고맙다	-11.4526
▁고민하게	-11.4526
▁공감대	-11.4526
▁공존하는	-11.4526
▁공주	-11.4526
▁공허한	-11.4526
▁관계의	-11.4526
▁관련된	-11.4526
▁괜찮네요.	-11.4526
▁괜찮아서	-11.4526
▁구로사와	-11.4526
▁국가의	-11.4526
▁굿바이	-11.4526
▁귀엽게	-11.4526
▁그냥...	-11.4526
▁그닥..	-11.4526
▁그당시에	-11.4526
▁그당시엔	-11.4526
▁그들에게	-11.4526
▁그래,	-11.4526
▁그랬다.	-11.4526
▁그러고	-11.4526
▁그런가..	-11.4526
▁그럴싸하게	-11.4526
▁그시절	-11.4526
▁금요일	-11.4526
▁기대됨	-11.4526
▁기대됩니다.	-11.4526
▁기대합니다	-11.4526
▁기대했다가	-11.4526
▁기대했지만	-11.4526
▁기분이다.	-11.4526
▁기술이	-11.4526
▁긴장도	-11.4526
▁김래원	-11.4526
▁김하늘	-11.4526
▁깨닫고	-11.4526
▁꿈은	-11.4526
▁끊이지	-11.4526
▁끝나기	-11.4526
▁끝난다	-11.4526
▁끝난후	-11.4526
▁끝내주게	-11.4526
▁나네	-11.4526
▁나로써는	-11.4526
▁나쁘지는	-11.4526
▁나오긴	-11.4526
▁나오네요.	-11.4526
▁나올때마다	-11.4526
▁나와라	-11.4526
▁난해하고	-11.4526
▁난해하다	-11.4526
▁날리고	-11.4526
▁남녀가	-11.4526
▁남음.	-11.4526
▁남주의	-11.4526
▁남주인공	-11.4526
▁남편을	-11.4526
▁낭비한	-11.4526
▁낮네요.	-11.4526
▁내용까지	-11.4526
▁낼	-11.4526
▁너무좋고	-11.4526
▁너무한다	-11.4526
▁넘치게	-11.4526
▁노골적인	-11.4526
▁노답이다	-11.4526
▁높지?	-11.4526
▁놓을	-11.4526
▁놓칠	-11.4526
▁뇌	-11.4526
▁누구냐	-11.4526
▁누구든	-11.4526
▁누군가는	-11.4526
▁눈감고	-11.4526
▁눈물과	-11.4526
▁느껴져	-11.4526
▁느껴졌다	-11.4526
▁느슨한	-11.4526
▁늙어	-11.4526
▁니들도	-11.4526
▁니미	-11.4526
▁다르고	-11.4526
▁다있냐	-11.4526
▁다좋은데	-11.4526
▁단언컨데	-11.4526
▁단점은	-11.4526
▁달린	-11.4526
▁담담한	-11.4526
▁답	-11.4526
▁대단합니다	-11.4526
▁대박..	-11.4526
▁대박임	-11.4526
▁대부분이	-11.4526
▁대작을	-11.4526
▁대표적	-11.4526
▁대학생	-11.4526
▁댓글도	-11.4526
▁댓글을	-11.4526
▁더러워	-11.4526
▁더빙으로	-11.4526
▁던져주는	-11.4526
▁데이	-11.4526
▁도전하는	-11.4526
▁독립영화가	-11.4526
▁돌려줘	-11.4526
▁돌리다가	-11.4526
▁돼서	-11.4526
▁돼지	-11.4526
▁되나?	-11.4526
▁되는거	-11.4526
▁되돌아보게	-11.4526
▁되었지만	-11.4526
▁두배우의	-11.4526
▁두사람의	-11.4526
▁둘째	-11.4526
▁뒤를	-11.4526
▁뒤에서	-11.4526
▁뒤통수	-11.4526
▁드니로의	-11.4526
▁드라마네요	-11.4526
▁드라마틱한	-11.4526
▁드림웍스	-11.4526
▁듣보잡	-11.4526
▁들었지만	-11.4526
▁들여	-11.4526
▁들지만	-11.4526
▁등장인물들	-11.4526
▁등장인물들의	-11.4526
▁디카프리오의	-11.4526
▁따분하고	-11.4526
▁딴건	-11.4526
▁땀이	-11.4526
▁때묻지	-11.4526
▁떼지	-11.4526
▁뚜렷한	-11.4526
▁뛰어넘은	-11.4526
▁란	-11.4526
▁레옹	-11.4526
▁로망	-11.4526
▁로맨스가	-11.4526
▁로맨스는	-11.4526
▁루즈한	-11.4526
▁뤽	-11.4526
▁마누라	-11.4526
▁마무리도	-11.4526
▁마음과	-11.4526
▁마지막장면이	-11.4526
▁만드나	-11.4526
▁만들다.	-11.4526
▁만들다니...	-11.4526
▁만들어놓고	-11.4526
▁만들어라.	-11.4526
▁만들어주셔서	-11.4526
▁만들었나?	-11.4526
▁만점짜리	-11.4526
▁만화도	-11.4526
▁만화책을	-11.4526
▁많네요	-11.4526
▁말도안되게	-11.4526
▁말로는	-11.4526
▁말이필요없음	-11.4526
▁말하자면	-11.4526
▁맘에든다	-11.4526
▁맙시다.	-11.4526
▁맞춰서	-11.4526
▁맥이	-11.4526
▁머리속에서	-11.4526
▁머릿속을	-11.4526
▁먹먹하게	-11.4526
▁멀리	-11.4526
▁멋있었다.	-11.4526
▁멍청하게	-11.4526
▁메마른	-11.4526
▁멘탈	-11.4526
▁명연기	-11.4526
▁명작중	-11.4526
▁모니카	-11.4526
▁모른다는	-11.4526
▁모습만	-11.4526
▁모티브로	-11.4526
▁몬가	-11.4526
▁몰입도와	-11.4526
▁몰입하기	-11.4526
▁몹시	-11.4526
▁못되는	-11.4526
▁못보는	-11.4526
▁못봐주겠다.	-11.4526
▁못했고	-11.4526
▁무개념	-11.4526
▁무대	-11.4526
▁무서웠다	-11.4526
▁무슨..	-11.4526
▁무슨...	-11.4526
▁무진장	-11.4526
▁문화의	-11.4526
▁뭐냐..	-11.4526
▁뭐이런	-11.4526
▁뭔지..	-11.4526
▁미모는	-11.4526
▁미치게	-11.4526
▁바람을	-11.4526
▁바람이	-11.4526
▁바를	-11.4526
▁밖에는	-11.4526
▁반가운	-11.4526
▁반성	-11.4526
▁반은	-11.4526
▁받았던	-11.4526
▁받았을	-11.4526
▁발연기,	-11.4526
▁발음	-11.4526
▁발음도	-11.4526
▁밥도	-11.4526
▁밥을	-11.4526
▁배경만	-11.4526
▁배역을	-11.4526
▁배우나	-11.4526
▁배울	-11.4526
▁버릴	-11.4526
▁번역은	-11.4526
▁베낀	-11.4526
▁별로라고	-11.4526
▁병맛.	-11.4526
▁병맛같은	-11.4526
▁보게됐는데	-11.4526
▁보고있으면	-11.4526
▁보기를	-11.4526
▁보기좋은	-11.4526
▁보낸다	-11.4526
▁보는데도	-11.4526
▁보는듯	-11.4526
▁보더라도	-11.4526
▁보려는	-11.4526
▁보여주기	-11.4526
▁보여줌	-11.4526
▁보여줬으면	-11.4526
▁보이나	-11.4526
▁복수는	-11.4526
▁복수의	-11.4526
▁본성을	-11.4526
▁볼걸	-11.4526
▁볼만하네요	-11.4526
▁봄...	-11.4526
▁봐야겠다	-11.4526
▁봐왔지만	-11.4526
▁봤더만	-11.4526
▁봤어요!!	-11.4526
▁부모의	-11.4526
▁부자연스럽고	-11.4526
▁북한을	-11.4526
▁분위기,	-11.4526
▁불쌍하게	-11.4526
▁불쌍함	-11.4526
▁블레이드	-11.4526
▁비극이	-11.4526
▁비우고	-11.4526
▁비쥬얼	-11.4526
▁빙자한	-11.4526
▁빠져들어	-11.4526
▁빨간	-11.4526
▁뻔한스토리	-11.4526
▁뽀로로	-11.4526
▁사극을	-11.4526
▁사다코	-11.4526
▁사람이나	-11.4526
▁사람이면	-11.4526
▁사람인데	-11.4526
▁사랑스럽게	-11.4526
▁사랑한다면	-11.4526
▁사실.	-11.4526
▁사실과	-11.4526
▁산드라	-11.4526
▁살릴	-11.4526
▁삼천포로	-11.4526
▁상태로	-11.4526
▁상투적인	-11.4526
▁생	-11.4526
▁생각보단	-11.4526
▁생각했다.	-11.4526
▁생명을	-11.4526
▁생명의	-11.4526
▁서극	-11.4526
▁서스펜스	-11.4526
▁선	-11.4526
▁선과	-11.4526
▁선택의	-11.4526
▁성룡,	-11.4526
▁성적	-11.4526
▁세계관이	-11.4526
▁세번째	-11.4526
▁세심한	-11.4526
▁소장	-11.4526
▁소재로한	-11.4526
▁소중히	-11.4526
▁속아	-11.4526
▁속으로	-11.4526
▁손가락에	-11.4526
▁숀	-11.4526
▁수고	-11.4526
▁수준...	-11.4526
▁순간부터	-11.4526
▁슈퍼액션에서	-11.4526
▁스릴감	-11.4526
▁스릴러,	-11.4526
▁스릴러?	-11.4526
▁스릴러에	-11.4526
▁스케일은	-11.4526
▁스토리에서	-11.4526
▁스토리전개	-11.4526
▁시각이	-11.4526
▁시끄러워서	-11.4526
▁시리즈.	-11.4526
▁시작하자마자	-11.4526
▁시즌1은	-11.4526
▁시즌3	-11.4526
▁시청	-11.4526
▁시청률을	-11.4526
▁시켜서	-11.4526
▁시한부	-11.4526
▁식	-11.4526
▁신은경	-11.4526
▁실사	-11.4526
▁실제로는	-11.4526
▁실제로도	-11.4526
▁실화라는게	-11.4526
▁싫음	-11.4526
▁심사위원	-11.4526
▁싱거운	-11.4526
▁싶고	-11.4526
▁쓰래기영화	-11.4526
▁쓰레기의	-11.4526
▁쓰레기인	-11.4526
▁쓰레기중에	-11.4526
▁쓰레기통에	-11.4526
▁아기자기하고	-11.4526
▁아깝습니다	-11.4526
▁아끼는	-11.4526
▁아내	-11.4526
▁아놀드의	-11.4526
▁아니냐	-11.4526
▁아니다!	-11.4526
▁아닌듯..	-11.4526
▁아류	-11.4526
▁아류작.	-11.4526
▁아름다움에	-11.4526
▁아쉬움을	-11.4526
▁아아	-11.4526
▁아이들이랑	-11.4526
▁아이디어는	-11.4526
▁아청법	-11.4526
▁악의	-11.4526
▁안난다.	-11.4526
▁안되면	-11.4526
▁안된다고	-11.4526
▁안들고	-11.4526
▁안목이	-11.4526
▁안좋아하는데	-11.4526
▁안주는데	-11.4526
▁안타깝습니다.	-11.4526
▁안했으면	-11.4526
▁않았을까	-11.4526
▁않았음.	-11.4526
▁않음..	-11.4526
▁알겠는데,	-11.4526
▁알바의	-11.4526
▁알았습니다.	-11.4526
▁알파치노의	-11.4526
▁압권이다.	-11.4526
▁앞	-11.4526
▁애기가	-11.4526
▁애기들	-11.4526
▁애니중	-11.4526
▁애쓰는	-11.4526
▁애절하고	-11.4526
▁액션마저	-11.4526
▁액션영화.	-11.4526
▁야구	-11.4526
▁야구를	-11.4526
▁어느순간	-11.4526
▁어딜봐서	-11.4526
▁어렵지만	-11.4526
▁어른들은	-11.4526
▁어린나이에	-11.4526
▁어머니가	-11.4526
▁어이없다.	-11.4526
▁어이없어	-11.4526
▁어이없이	-11.4526
▁억지스럽게	-11.4526
▁얼마전	-11.4526
▁없구나	-11.4526
▁없나요	-11.4526
▁엉덩이	-11.4526
▁엉성하게	-11.4526
▁에이리언	-11.4526
▁에이미	-11.4526
▁에일리언	-11.4526
▁에휴..	-11.4526
▁엔딩에	-11.4526
▁엔딩크레딧이	-11.4526
▁여기서부터	-11.4526
▁여기선	-11.4526
▁여배우도	-11.4526
▁여자에게	-11.4526
▁여자친구가	-11.4526
▁여친이	-11.4526
▁역량	-11.4526
▁연기자가	-11.4526
▁연인	-11.4526
▁연출력은	-11.4526
▁연출력의	-11.4526
▁였어요	-11.4526
▁영화.....	-11.4526
▁영화;	-11.4526
▁영화감독이	-11.4526
▁영화들에	-11.4526
▁영화라고는	-11.4526
▁영화라기	-11.4526
▁영화라니...	-11.4526
▁영화를...	-11.4526
▁영화이고	-11.4526
▁영화이긴	-11.4526
▁영화임...	-11.4526
▁영화입니다...	-11.4526
▁영화자체도	-11.4526
▁영화판	-11.4526
▁영환지	-11.4526
▁예고편을	-11.4526
▁예술은	-11.4526
▁예술의	-11.4526
▁예전부터	-11.4526
▁오드리	-11.4526
▁오면	-11.4526
▁오우	-11.4526
▁옥의	-11.4526
▁온다.	-11.4526
▁온몸에	-11.4526
▁온전히	-11.4526
▁외로움을	-11.4526
▁요세	-11.4526
▁욕망의	-11.4526
▁욕심을	-11.4526
▁욕할	-11.4526
▁용감한	-11.4526
▁용두사미	-11.4526
▁우리들	-11.4526
▁우리집	-11.4526
▁우주에	-11.4526
▁울다가	-11.4526
▁울린	-11.4526
▁울었네요	-11.4526
▁웃기게	-11.4526
▁웃기면서	-11.4526
▁원한다면	-11.4526
▁위로를	-11.4526
▁윌리스	-11.4526
▁유명	-11.4526
▁유역비	-11.4526
▁유지태	-11.4526
▁윤계상	-11.4526
▁으리가	-11.4526
▁의문을	-11.4526
▁의심스럽다.	-11.4526
▁이가	-11.4526
▁이감독	-11.4526
▁이거보느니	-11.4526
▁이건뭐..	-11.4526
▁이끌어가는	-11.4526
▁이딴것도	-11.4526
▁이라	-11.4526
▁이름은	-11.4526
▁이뻐	-11.4526
▁이상이	-11.4526
▁이상하다.	-11.4526
▁이소룡의	-11.4526
▁이소룡이	-11.4526
▁이스트우드	-11.4526
▁이승기	-11.4526
▁이시대에	-11.4526
▁이의	-11.4526
▁이자벨	-11.4526
▁이제와서	-11.4526
▁이해안됨	-11.4526
▁인기를	-11.4526
▁인물에	-11.4526
▁인생과	-11.4526
▁인터넷에서	-11.4526
▁일으키는	-11.4526
▁일주일	-11.4526
▁임	-11.4526
▁잇고	-11.4526
▁있구나.	-11.4526
▁있기	-11.4526
▁있기는	-11.4526
▁있나..	-11.4526
▁있냐	-11.4526
▁있다!	-11.4526
▁있어보이려고	-11.4526
▁있었나	-11.4526
▁있을지	-11.4526
▁자꾸만	-11.4526
▁자리가	-11.4526
▁자연과	-11.4526
▁자연스럽지	-11.4526
▁자연을	-11.4526
▁자유롭게	-11.4526
▁자의	-11.4526
▁작년에	-11.4526
▁작품에서	-11.4526
▁잘짜여진	-11.4526
▁잘한	-11.4526
▁잡을	-11.4526
▁장쯔이	-11.4526
▁재미라도	-11.4526
▁재미없었음	-11.4526
▁재미있던데	-11.4526
▁재밋다.	-11.4526
▁재밋어	-11.4526
▁재밌네.	-11.4526
▁재밌다!!	-11.4526
▁재방	-11.4526
▁재앙	-11.4526
▁잼있는데	-11.4526
▁저냥	-11.4526
▁전부터	-11.4526
▁전세계	-11.4526
▁절망적인	-11.4526
▁절정	-11.4526
▁점수도	-11.4526
▁정도껏	-11.4526
▁정말,	-11.4526
▁정석	-11.4526
▁정의가	-11.4526
▁제레미	-11.4526
▁제발좀	-11.4526
▁제작을	-11.4526
▁조카가	-11.4526
▁조폭영화	-11.4526
▁졸작이다.	-11.4526
▁좀비물	-11.4526
▁종교적	-11.4526
▁좋겠다..	-11.4526
▁좋아한다.	-11.4526
▁좋았다고	-11.4526
▁좋은건	-11.4526
▁좋은듯	-11.4526
▁좋은영화가	-11.4526
▁죄송하지만	-11.4526
▁주관적인	-11.4526
▁주구장창	-11.4526
▁주된	-11.4526
▁주변에서	-11.4526
▁주신	-11.4526
▁주윤발이	-11.4526
▁주인공.	-11.4526
▁주인공들도	-11.4526
▁죽는다	-11.4526
▁죽음.	-11.4526
▁중반까지	-11.4526
▁중요하지	-11.4526
▁중요한지	-11.4526
▁중학생	-11.4526
▁쥐어짜는	-11.4526
▁즐거움을	-11.4526
▁즐겨	-11.4526
▁즐기고	-11.4526
▁지겨워	-11.4526
▁지금이라도	-11.4526
▁지니어스	-11.4526
▁지루..	-11.4526
▁지루하고..	-11.4526
▁지루하긴	-11.4526
▁지루하네	-11.4526
▁지루하네요	-11.4526
▁지루했고	-11.4526
▁지루했다..	-11.4526
▁진수.	-11.4526
▁진작	-11.4526
▁진작에	-11.4526
▁진짜,	-11.4526
▁진짜;;	-11.4526
▁집중하면서	-11.4526
▁짜임새도	-11.4526
▁짜임새있는	-11.4526
▁짜증남.	-11.4526
▁짝이없는	-11.4526
▁찌질이	-11.4526
▁찍어라	-11.4526
▁찝찝하고	-11.4526
▁참다참다	-11.4526
▁찾아보는	-11.4526
▁찾아봐도	-11.4526
▁책의	-11.4526
▁천국의	-11.4526
▁초기	-11.4526
▁초딩용	-11.4526
▁초반부는	-11.4526
▁초심을	-11.4526
▁최고....	-11.4526
▁최고다!!	-11.4526
▁추천함	-11.4526
▁추천해	-11.4526
▁출연자	-11.4526
▁출연진이	-11.4526
▁충무로	-11.4526
▁충분하다	-11.4526
▁취향에	-11.4526
▁친구들과	-11.4526
▁캐릭터로	-11.4526
▁캐스팅과	-11.4526
▁케이블로	-11.4526
▁코스프레	-11.4526
▁퀄리티는	-11.4526
▁큐브	-11.4526
▁크다	-11.4526
▁클래식	-11.4526
▁킬링타임으로	-11.4526
▁킬링타임으로도	-11.4526
▁타	-11.4526
▁태어나	-11.4526
▁터짐	-11.4526
▁테러	-11.4526
▁통쾌하고	-11.4526
▁툭하면	-11.4526
▁튀는	-11.4526
▁특수효과가	-11.4526
▁팬심으로	-11.4526
▁편집을	-11.4526
▁평론가의	-11.4526
▁평범하고	-11.4526
▁평생을	-11.4526
▁폭력의	-11.4526
▁표절	-11.4526
▁표절을	-11.4526
▁프로젝트	-11.4526
▁플롯	-11.4526
▁피는	-11.4526
▁피터	-11.4526
▁피해를	-11.4526
▁필요없고	-11.4526
▁하기도	-11.4526
▁하나라도	-11.4526
▁하네.	-11.4526
▁하는데..	-11.4526
▁하더니	-11.4526
▁하비에르	-11.4526
▁하여	-11.4526
▁하지마라.	-11.4526
▁한것	-11.4526
▁한사람의	-11.4526
▁한순간에	-11.4526
▁한층	-11.4526
▁할듯	-11.4526
▁할만한	-11.4526
▁할말이없다	-11.4526
▁할수가	-11.4526
▁할아버지가	-11.4526
▁할아버지의	-11.4526
▁함께하는	-11.4526
▁해석	-11.4526
▁해주는거	-11.4526
▁해피엔딩이라	-11.4526
▁행복했던	-11.4526
▁헐리우드식	-11.4526
▁현대의	-11.4526
▁형편	-11.4526
▁홍보가	-11.4526
▁홍콩식	-11.4526
▁화면과	-11.4526
▁홧팅	-11.4526
▁후...	-11.4526
▁후로	-11.4526
▁후속작이	-11.4526
▁후의	-11.4526
▁훈훈하게	-11.4526
▁훌륭	-11.4526
▁흐름도	-11.4526
▁흔들리는	-11.4526
▁희한한	-11.4526
▁힘들듯	-11.4526
▁"영화	-11.5396
▁+1	-11.5396
▁+1점	-11.5396
▁-_	-11.5396
▁.........	-11.5396
▁100배	-11.5396
▁10점으로	-11.5396
▁10점이다.	-11.5396
▁1점이라도	-11.5396
▁2005년	-11.5396
▁2009년	-11.5396
▁2류	-11.5396
▁2를	-11.5396
▁2편에	-11.5396
▁30분은	-11.5396
▁3명	-11.5396
▁3점준다	-11.5396
▁6점대는	-11.5396
▁8점을	-11.5396
▁No	-11.5396
▁OO도	-11.5396
▁OO은	-11.5396
▁OO이	-11.5396
▁SF영화	-11.5396
▁This	-11.5396
▁b	-11.5396
▁boring	-11.5396
▁good!	-11.5396
▁ᅩ	-11.5396
▁가깝다.	-11.5396
▁가면서	-11.5396
▁가보고	-11.5396
▁가슴은	-11.5396
▁가자	-11.5396
▁가족,	-11.5396
▁가족이랑	-11.5396
▁가치관을	-11.5396
▁가치있는	-11.5396
▁각본.	-11.5396
▁간절히	-11.5396
▁갈피를	-11.5396
▁감각이	-11.5396
▁감독님은	-11.5396
▁감동도있고	-11.5396
▁감동이나	-11.5396
▁감동이에요	-11.5396
▁감동입니다	-11.5396
▁감동적이었고	-11.5396
▁감동적이지도	-11.5396
▁감명을	-11.5396
▁감사하고	-11.5396
▁감사한	-11.5396
▁감상하고	-11.5396
▁감상하는	-11.5396
▁감성으로	-11.5396
▁감안하더라도	-11.5396
▁감탄이	-11.5396
▁감흥을	-11.5396
▁갔다	-11.5396
▁갔다.	-11.5396
▁강추~	-11.5396
▁갖추고	-11.5396
▁같다고	-11.5396
▁같았다	-11.5396
▁개는	-11.5396
▁개쩐다	-11.5396
▁개판.	-11.5396
▁거리도	-11.5396
▁거장이	-11.5396
▁거창한	-11.5396
▁걸고	-11.5396
▁걸작이	-11.5396
▁것이라는	-11.5396
▁것인가?	-11.5396
▁것입니다.	-11.5396
▁겉도는	-11.5396
▁겨울왕국	-11.5396
▁결말에서	-11.5396
▁결정적인	-11.5396
▁결혼에	-11.5396
▁결혼을	-11.5396
▁고독과	-11.5396
▁고등학생	-11.5396
▁고마워요	-11.5396
▁고맙습니다.	-11.5396
▁고양이가	-11.5396
▁고질라	-11.5396
▁골라서	-11.5396
▁공감대가	-11.5396
▁공포감	-11.5396
▁과감한	-11.5396
▁과감히	-11.5396
▁과대평가	-11.5396
▁과대평가된	-11.5396
▁과정은	-11.5396
▁광기를	-11.5396
▁괜찮았지만	-11.5396
▁괜찮을	-11.5396
▁국가	-11.5396
▁그때가	-11.5396
▁그래야	-11.5396
▁그럴싸한	-11.5396
▁그렇고..	-11.5396
▁그렇고...	-11.5396
▁그로테스크한	-11.5396
▁그리도	-11.5396
▁그림체	-11.5396
▁그에게	-11.5396
▁그후	-11.5396
▁극단적으로	-11.5396
▁근데,	-11.5396
▁기대하고봤는데	-11.5396
▁기분..	-11.5396
▁기존에	-11.5396
▁긴박감이	-11.5396
▁긴장의	-11.5396
▁길은	-11.5396
▁김구라	-11.5396
▁김명민의	-11.5396
▁김혜수의	-11.5396
▁깊이를	-11.5396
▁깜찍한	-11.5396
▁꺼버린	-11.5396
▁꺼버림	-11.5396
▁꿈같은	-11.5396
▁끊임없는	-11.5396
▁끌어	-11.5396
▁끝나나	-11.5396
▁끝나네	-11.5396
▁나는데	-11.5396
▁나레이션이	-11.5396
▁나았을	-11.5396
▁나오겠지	-11.5396
▁나오다니	-11.5396
▁나왔습니다.	-11.5396
▁나왔을	-11.5396
▁나을듯.	-11.5396
▁나이거	-11.5396
▁나이는	-11.5396
▁나지만	-11.5396
▁나타나서	-11.5396
▁나혼자	-11.5396
▁나홀로	-11.5396
▁낚임	-11.5396
▁낡은	-11.5396
▁남다른	-11.5396
▁남아서	-11.5396
▁남아요	-11.5396
▁남에게	-11.5396
▁남이	-11.5396
▁남자주인공의	-11.5396
▁남편의	-11.5396
▁낮네..	-11.5396
▁낮은거	-11.5396
▁내서	-11.5396
▁내용...	-11.5396
▁냉혹한	-11.5396
▁너가	-11.5396
▁너무하다	-11.5396
▁넋을	-11.5396
▁넘나드는	-11.5396
▁넘쳐나는	-11.5396
▁노인의	-11.5396
▁노잼이다	-11.5396
▁놈의	-11.5396
▁높길래	-11.5396
▁높네요.	-11.5396
▁놓치고	-11.5396
▁누구보다	-11.5396
▁눈물만	-11.5396
▁눈물콧물	-11.5396
▁느껴진	-11.5396
▁늦은	-11.5396
▁다루고	-11.5396
▁다른게	-11.5396
▁다섯	-11.5396
▁다세포	-11.5396
▁다운받은	-11.5396
▁다음날	-11.5396
▁다짜고짜	-11.5396
▁닥터	-11.5396
▁단순하게	-11.5396
▁단연코	-11.5396
▁달콤하고	-11.5396
▁닮아서	-11.5396
▁담백하고	-11.5396
▁답답함과	-11.5396
▁당당하게	-11.5396
▁대단하다...	-11.5396
▁대박입니다	-11.5396
▁대비	-11.5396
▁대상이	-11.5396
▁대표	-11.5396
▁대한민국을	-11.5396
▁던지고	-11.5396
▁독립	-11.5396
▁돋는다	-11.5396
▁돋보임	-11.5396
▁돌아가신	-11.5396
▁돌아간	-11.5396
▁동물의	-11.5396
▁동양	-11.5396
▁되나	-11.5396
▁되다니	-11.5396
▁되어가는	-11.5396
▁되질	-11.5396
▁된거	-11.5396
▁두가지	-11.5396
▁두번다시	-11.5396
▁둘은	-11.5396
▁둘을	-11.5396
▁드래곤볼	-11.5396
▁드러내는	-11.5396
▁들은	-11.5396
▁들인	-11.5396
▁따뜻해	-11.5396
▁따뜻해지고	-11.5396
▁따라하기	-11.5396
▁따름.	-11.5396
▁따위는	-11.5396
▁때리는	-11.5396
▁때문	-11.5396
▁떠	-11.5396
▁또한번	-11.5396
▁똥같은	-11.5396
▁뜻	-11.5396
▁뜻을	-11.5396
▁러브라인이	-11.5396
▁런닝맨	-11.5396
▁로맨스와	-11.5396
▁로맨틱코미디	-11.5396
▁로멘틱	-11.5396
▁리메이크가	-11.5396
▁리얼리티를	-11.5396
▁리즈시절	-11.5396
▁마약	-11.5396
▁마이너스가	-11.5396
▁마크	-11.5396
▁만든게	-11.5396
▁만들겠다	-11.5396
▁만들겠다.	-11.5396
▁만들다가	-11.5396
▁만들었다는	-11.5396
▁만세	-11.5396
▁만족하고	-11.5396
▁많고,	-11.5396
▁많은데,	-11.5396
▁많은지	-11.5396
▁많이들	-11.5396
▁말과	-11.5396
▁말라	-11.5396
▁말라고	-11.5396
▁말씀	-11.5396
▁말아	-11.5396
▁말투가	-11.5396
▁망가진	-11.5396
▁망쳐놓은	-11.5396
▁망쳐버린	-11.5396
▁맞는지	-11.5396
▁맞지않는	-11.5396
▁매끄럽게	-11.5396
▁매니아	-11.5396
▁매력적이다	-11.5396
▁매튜	-11.5396
▁맥	-11.5396
▁머냐?	-11.5396
▁머여	-11.5396
▁먹으면서	-11.5396
▁먹칠한	-11.5396
▁멋있어	-11.5396
▁멋지네요	-11.5396
▁멍하니	-11.5396
▁명작도	-11.5396
▁명작이지	-11.5396
▁몇년간	-11.5396
▁모르면서	-11.5396
▁모를까	-11.5396
▁모조리	-11.5396
▁목소리를	-11.5396
▁몰입하고	-11.5396
▁못된다	-11.5396
▁못된다.	-11.5396
▁못봐서	-11.5396
▁못하는게	-11.5396
▁못하면서	-11.5396
▁무겁고	-11.5396
▁무능한	-11.5396
▁무색하게	-11.5396
▁무서웠다.	-11.5396
▁무시하는	-11.5396
▁무어	-11.5396
▁무쟈게	-11.5396
▁묻고	-11.5396
▁물고	-11.5396
▁물이	-11.5396
▁뭐하고	-11.5396
▁미모만	-11.5396
▁미스터	-11.5396
▁미안한	-11.5396
▁미안해	-11.5396
▁미이라	-11.5396
▁미쳤다	-11.5396
▁미화가	-11.5396
▁믿기지가	-11.5396
▁믿을수	-11.5396
▁바꾸는	-11.5396
▁바꿔라	-11.5396
▁바라며	-11.5396
▁바보같은	-11.5396
▁바쁜	-11.5396
▁박수	-11.5396
▁박중훈의	-11.5396
▁박한별	-11.5396
▁반개	-11.5396
▁반면	-11.5396
▁반복해서	-11.5396
▁반을	-11.5396
▁발상은	-11.5396
▁발상이	-11.5396
▁방	-11.5396
▁배급사가	-11.5396
▁배우다.	-11.5396
▁배우들에	-11.5396
▁배우들에게	-11.5396
▁백번	-11.5396
▁백프로	-11.5396
▁버무려진	-11.5396
▁벅찬	-11.5396
▁법정	-11.5396
▁벗어나	-11.5396
▁벗어난	-11.5396
▁베리	-11.5396
▁베일	-11.5396
▁베트남	-11.5396
▁별로다..	-11.5396
▁별로였다	-11.5396
▁별로였지만	-11.5396
▁별루다	-11.5396
▁별은	-11.5396
▁보고있어요	-11.5396
▁보는것도	-11.5396
▁보라는	-11.5396
▁보삼	-11.5396
▁보여주는게	-11.5396
▁보여주면	-11.5396
▁보여줘서	-11.5396
▁보여줬다.	-11.5396
▁본것중에	-11.5396
▁본연의	-11.5396
▁본영화중에	-11.5396
▁볼것도	-11.5396
▁볼만하던데	-11.5396
▁봐라..	-11.5396
▁봐야겠다.	-11.5396
▁봣지만	-11.5396
▁봤을까?	-11.5396
▁부끄럽지	-11.5396
▁부럽다.	-11.5396
▁부수고	-11.5396
▁부족하다..	-11.5396
▁부족함.	-11.5396
▁부족해	-11.5396
▁부족해서	-11.5396
▁분노	-11.5396
▁분들의	-11.5396
▁분이라면	-11.5396
▁불과	-11.5396
▁불륜에	-11.5396
▁불쾌하고	-11.5396
▁브로디	-11.5396
▁비극적	-11.5396
▁비주얼이	-11.5396
▁비추천	-11.5396
▁빌어먹을	-11.5396
▁빚어낸	-11.5396
▁빠지는게	-11.5396
▁빠지면	-11.5396
▁빨라서	-11.5396
▁빵점!	-11.5396
▁빵점은	-11.5396
▁뻔하게	-11.5396
▁뻔해도	-11.5396
▁사는데	-11.5396
▁사라지는	-11.5396
▁사람들과	-11.5396
▁사람사는	-11.5396
▁사랑이라고	-11.5396
▁사랑이야기.	-11.5396
▁사랑이야기가	-11.5396
▁사랑함	-11.5396
▁사무라이	-11.5396
▁사진을	-11.5396
▁사춘기	-11.5396
▁사투리가	-11.5396
▁살아가고	-11.5396
▁살아가면서	-11.5396
▁살아남은	-11.5396
▁살았던	-11.5396
▁삶.	-11.5396
▁상대가	-11.5396
▁상대로	-11.5396
▁상상력	-11.5396
▁상업적인	-11.5396
▁상영하는	-11.5396
▁상처받은	-11.5396
▁새로울	-11.5396
▁생각날	-11.5396
▁생각남	-11.5396
▁생각됩니다.	-11.5396
▁생각외로	-11.5396
▁생생하다	-11.5396
▁생의	-11.5396
▁생활	-11.5396
▁샤론	-11.5396
▁서로에게	-11.5396
▁선정적인	-11.5396
▁선택을	-11.5396
▁선택이	-11.5396
▁설경구의	-11.5396
▁설레게	-11.5396
▁설정만	-11.5396
▁설정의	-11.5396
▁성의	-11.5396
▁세계에	-11.5396
▁세계에서	-11.5396
▁세상엔	-11.5396
▁섹시하다	-11.5396
▁센스	-11.5396
▁센스가	-11.5396
▁소녀를	-11.5396
▁소수의	-11.5396
▁소장가치	-11.5396
▁소품	-11.5396
▁속을	-11.5396
▁속편의	-11.5396
▁손가락	-11.5396
▁손색없는	-11.5396
▁솔직하고	-11.5396
▁쇼	-11.5396
▁수없이	-11.5396
▁수준이하	-11.5396
▁순간에	-11.5396
▁숨막히게	-11.5396
▁스릴을	-11.5396
▁스크린	-11.5396
▁스토리고	-11.5396
▁스토리야	-11.5396
▁스트레스만	-11.5396
▁슬펐다	-11.5396
▁시나리오로	-11.5396
▁시대상을	-11.5396
▁시도가	-11.5396
▁시작.	-11.5396
▁시작과	-11.5396
▁시즌1부터	-11.5396
▁신선하다.	-11.5396
▁신세계	-11.5396
▁신을	-11.5396
▁실력	-11.5396
▁실화가	-11.5396
▁싫고	-11.5396
▁싫으면	-11.5396
