<unk>	0
<s>	0
</s>	0
▁이	-5.08437
▁밝혔다.	-5.18068
▁말했다.	-5.21708
▁있다.	-5.22045
▁수	-5.35701
▁있는	-5.37668
▁그는	-5.58222
▁대한	-5.67682
▁위해	-5.70531
▁전했다.	-5.77542
▁지난	-5.86722
▁이번	-5.86998
▁한	-5.87738
▁대해	-5.96021
▁것으로	-6.0323
▁전	-6.05976
▁것이라고	-6.0922
▁미국	-6.09758
▁있다고	-6.12138
▁것을	-6.14535
▁중	-6.23409
▁미	-6.27883
▁그러나	-6.29279
▁다른	-6.32131
▁더	-6.40735
▁이라크	-6.51021
▁한편	-6.51605
▁위한	-6.5921
▁많은	-6.59336
▁통해	-6.59336
▁대통령은	-6.61576
▁가장	-6.66961
▁같은	-6.67303
▁그	-6.68475
▁그의	-6.69032
▁또	-6.70507
▁이후	-6.70507
▁대변인은	-6.71004
▁후	-6.73671
▁동안	-6.76335
▁것은	-6.80627
▁될	-6.81177
▁주장했다.	-6.81177
▁할	-6.82844
▁부시	-6.84134
▁또한	-6.87515
▁것이다.	-6.88697
▁보도했다.	-6.89037
▁및	-6.90064
▁덧붙였다.	-6.90582
▁중국	-6.90842
▁영국	-6.91189
▁두	-6.93924
▁자신의	-6.96461
▁등	-6.97847
▁약	-6.98781
▁현재	-7.00009
▁모든	-7.05479
▁것이	-7.0558
▁함께	-7.0558
▁최근	-7.07816
▁그리고	-7.09057
▁했다.	-7.11054
▁당시	-7.11373
▁경우	-7.12121
▁예정이다.	-7.12659
▁설명했다.	-7.12983
▁새로운	-7.13962
▁때문에	-7.144
▁하는	-7.1484
▁경찰은	-7.15726
▁있다”고	-7.15837
▁세계	-7.1662
▁정부는	-7.17748
▁오바마	-7.20161
▁않았다.	-7.21095
▁몇	-7.21684
▁큰	-7.22276
▁것”이라고	-7.23832
▁때	-7.26027
▁수도	-7.27143
▁대통령이	-7.27268
▁대통령	-7.27393
▁않을	-7.29797
▁하고	-7.31475
▁열린	-7.31605
▁the	-7.31736
▁미국의	-7.32391
▁있습니다.	-7.3305
▁지난해	-7.34248
▁일부	-7.34382
▁총리는	-7.34382
▁이날	-7.35054
▁있다는	-7.35867
▁있으며	-7.3614
▁관련	-7.36413
▁발표했다.	-7.36687
▁모두	-7.37099
▁주	-7.37652
▁한국	-7.38207
▁발생한	-7.39187
▁일본	-7.39469
▁받고	-7.3961
▁내	-7.39893
▁있을	-7.4233
▁뒤	-7.43058
▁정부	-7.44087
▁정부가	-7.45126
▁of	-7.46328
▁to	-7.46479
▁의해	-7.47086
▁에	-7.47543
▁한다.	-7.48311
▁사람들이	-7.5002
▁인해	-7.5002
▁존	-7.50965
▁다시	-7.5256
▁그가	-7.52721
▁않은	-7.53692
▁가운데	-7.54181
▁이는	-7.54344
▁올해	-7.54508
▁혐의로	-7.55497
▁대통령의	-7.57673
▁이에	-7.57673
▁있었다.	-7.58011
▁첫	-7.58011
▁주요	-7.58352
▁이미	-7.58522
▁북한	-7.59035
▁위치한	-7.6007
▁파키스탄	-7.61642
▁프랑스	-7.62882
▁계속	-7.63777
▁명의	-7.64138
▁사실을	-7.65227
▁핵	-7.65227
▁유엔	-7.65409
▁한다고	-7.65592
▁민주당	-7.66143
▁없는	-7.66143
▁미군	-7.66697
▁에서	-7.67068
▁이를	-7.67068
▁바	-7.67627
▁관계자는	-7.69324
▁아직	-7.69324
▁영화	-7.69324
▁이들	-7.70279
▁지적했다.	-7.71243
▁매우	-7.71632
▁않고	-7.72217
▁이상	-7.73596
▁당국은	-7.73994
▁것	-7.74393
▁알	-7.75803
▁없다고	-7.76006
▁이스라엘	-7.77028
▁된	-7.77439
▁하지	-7.77852
▁받은	-7.78475
▁된다.	-7.78893
▁조지	-7.78893
▁러시아	-7.79733
▁지역	-7.79733
▁받았다.	-7.80794
▁어떤	-7.81007
▁경제	-7.81436
▁됐다.	-7.81866
▁것에	-7.83824
▁있던	-7.84265
▁아프간	-7.84929
▁북한의	-7.87404
▁데	-7.87861
▁북한이	-7.89012
▁잘	-7.89243
▁여러	-7.89708
▁원문기사보기	-7.89708
▁그들은	-7.89942
▁이러한	-7.90645
▁정부의	-7.91591
▁in	-7.91829
▁오는	-7.91829
▁있도록	-7.91829
▁인터뷰에서	-7.92067
▁경찰	-7.92306
▁갖고	-7.93267
▁이슬람	-7.93267
▁강조했다.	-7.94238
▁경찰이	-7.94727
▁떨어진	-7.94727
▁있다”며	-7.94727
▁클린턴	-7.94727
▁미국이	-7.95465
▁비난했다.	-7.95465
▁오늘	-7.95465
▁가진	-7.95713
▁팔레스타인	-7.95713
▁거의	-7.96708
▁대선	-7.97209
▁자신이	-7.9746
▁채	-7.9746
▁장관은	-7.97966
▁처음으로	-7.97966
▁있어	-7.98473
▁그녀는	-7.98728
▁버락	-7.99496
▁오후	-8.00012
▁소속	-8.0027
▁많이	-8.01837
▁국제	-8.02365
▁테러	-8.02365
▁관한	-8.0263
▁미국은	-8.03161
▁이상의	-8.03696
▁만에	-8.04234
▁2006년	-8.05046
▁북한은	-8.05318
▁지난달	-8.05318
▁이들은	-8.06139
▁문제를	-8.0669
▁탈레반	-8.07244
▁사람들은	-8.07522
▁오바마는	-8.07522
▁좋은	-8.07522
▁최소	-8.07801
▁그를	-8.08924
▁회담을	-8.09775
▁최고	-8.10061
▁뉴욕	-8.10634
▁박사는	-8.10922
▁지금	-8.10922
▁없이	-8.1121
▁결과	-8.1179
▁알려졌다.	-8.12081
▁중요한	-8.12081
▁공격을	-8.12666
▁올림픽	-8.12959
▁미국과	-8.1355
▁새	-8.1355
▁이런	-8.1474
▁있지만	-8.1474
▁성명을	-8.15642
▁사망한	-8.16858
▁말을	-8.17164
▁사망했다.	-8.17472
▁오전	-8.17472
▁2005.08	-8.18089
▁것이라는	-8.18089
▁이란	-8.18089
▁줄	-8.18089
▁사망했다고	-8.18399
▁조치를	-8.1871
▁모습을	-8.19022
▁이어	-8.19649
▁2005년	-8.19964
▁가능성이	-8.19964
▁&	-8.2028
▁12월	-8.2028
▁혐의를	-8.2028
▁공화당	-8.20597
▁국가	-8.20597
▁다음	-8.20597
▁여성	-8.20597
▁보다	-8.20915
▁남부	-8.21234
▁높은	-8.21234
▁대통령과	-8.21234
▁이와	-8.21554
▁인한	-8.21554
▁하지만	-8.21554
▁“	-8.21875
▁군	-8.21875
▁전에	-8.21875
▁폭탄	-8.21875
▁한다”고	-8.2252
▁우리는	-8.22844
▁코리아	-8.22844
▁1월	-8.23169
▁계획을	-8.23169
▁더욱	-8.23169
▁인터넷	-8.23169
▁문제가	-8.23823
▁성명에서	-8.23823
▁앞으로	-8.23823
▁총리가	-8.23823
▁독일	-8.24151
▁않았다고	-8.24151
▁입장을	-8.24151
▁지역에서	-8.24151
▁인근	-8.24481
▁마지막	-8.25143
▁보고	-8.25476
▁알고	-8.25476
▁앞서	-8.25476
▁보인다.	-8.26145
▁중국의	-8.26145
▁처음	-8.26145
▁자동차	-8.26481
▁for	-8.26818
▁되는	-8.26818
▁말했습니다.	-8.26818
▁불구하고	-8.27157
▁지역에	-8.27157
▁관련된	-8.27496
▁영향을	-8.27496
▁호주	-8.27837
▁선거	-8.28179
▁달	-8.28522
▁미얀마	-8.28866
▁않는	-8.28866
▁인쇄	-8.29558
▁필요한	-8.29558
▁발생했다.	-8.30255
▁있었다고	-8.30255
▁독해설명	-8.30605
▁원문	-8.30605
▁현지	-8.30605
▁유럽	-8.30957
▁한국의	-8.30957
▁경기	-8.31309
▁볼	-8.31309
▁초	-8.31309
▁기자회견에서	-8.31663
▁문제에	-8.31663
▁지난주	-8.31663
▁최대	-8.32019
▁받을	-8.32375
▁조사	-8.32375
▁a	-8.32733
▁“이	-8.33092
▁고위	-8.33092
▁또는	-8.33092
▁추가	-8.33092
▁인도	-8.33452
▁타고	-8.33452
▁사이	-8.33814
▁TV	-8.34177
▁없다”고	-8.34177
▁우리	-8.34177
▁역시	-8.34541
▁/	-8.34907
▁노무현	-8.34907
▁조사를	-8.35274
▁반면	-8.35642
▁힐러리	-8.35642
▁열리는	-8.36012
▁사건에	-8.36383
▁의하면	-8.36383
▁and	-8.36755
▁이유로	-8.36755
▁11월	-8.37129
▁우주	-8.37129
▁했다고	-8.37129
▁피해를	-8.37504
▁어떻게	-8.38259
▁정보를	-8.38639
▁결국	-8.40171
▁일을	-8.40558
▁1명이	-8.40946
▁못했다.	-8.40946
▁사고	-8.40946
▁것"이라고	-8.41336
▁명이	-8.41336
▁예정이라고	-8.41336
▁전문가들은	-8.41336
▁자신들의	-8.41728
▁공식	-8.42121
▁무샤라프	-8.42121
▁부상을	-8.42121
▁있게	-8.42121
▁어제	-8.42515
▁반	-8.42911
▁까지	-8.43309
▁번째	-8.43708
▁바그다드	-8.44109
▁북부	-8.44511
▁“이번	-8.44915
▁이탈리아	-8.44915
▁직접	-8.44915
▁2명이	-8.45728
▁라이스	-8.46548
▁포함한	-8.47374
▁사람이	-8.4779
▁“우리는	-8.48208
▁아시아	-8.48208
▁있었던	-8.48208
▁3월	-8.48627
▁“그러나	-8.48627
▁밤	-8.48627
▁너무	-8.49048
▁앞두고	-8.49048
▁9월	-8.49471
▁것이며	-8.49471
▁사망하고	-8.49471
▁노	-8.49895
▁지원을	-8.50322
▁없다.	-8.5075
▁입은	-8.5075
▁중인	-8.5075
▁2004년	-8.5118
▁역할을	-8.5118
▁4월	-8.51612
▁그들의	-8.51612
▁의원은	-8.51612
▁총	-8.51612
▁5월	-8.52046
▁6월	-8.52046
▁7월	-8.52046
▁교수는	-8.52046
▁이같은	-8.52046
▁이전	-8.52046
▁곧	-8.52482
▁대부분의	-8.52482
▁여전히	-8.52482
▁3일	-8.5292
▁이상이	-8.5292
▁정치적	-8.5292
▁가지고	-8.53359
▁연방	-8.53359
▁후보	-8.53359
▁관할	-8.53801
▁데이비드	-8.53801
▁스페인	-8.53801
▁지역의	-8.53801
▁포함,	-8.53801
▁당국이	-8.54244
▁나는	-8.5469
▁살고	-8.5469
▁특히	-8.5469
▁2003년	-8.55137
▁8월	-8.55137
▁심각한	-8.55137
▁아침	-8.55137
▁안에	-8.55137
▁왔다.	-8.55137
▁일본의	-8.55137
▁작은	-8.55586
▁해	-8.55586
▁관계자가	-8.56038
▁대학	-8.56038
▁대부분	-8.56491
▁런던	-8.56491
▁내년	-8.56947
▁터키	-8.56947
▁관련,	-8.57405
▁로버트	-8.57405
▁말	-8.57405
▁보였다.	-8.57405
▁촉구했다.	-8.57405
▁세	-8.58326
▁경기에서	-8.5879
▁군사	-8.5879
▁시작했다.	-8.5879
▁10월	-8.59257
▁말한다.	-8.59257
▁후보가	-8.59257
▁금융	-8.59725
▁나타났다.	-8.59725
▁수는	-8.59725
▁시위를	-8.59725
▁없을	-8.59725
▁있고	-8.59725
▁바로	-8.60195
▁불법	-8.60195
▁매케인	-8.60668
▁백악관	-8.60668
▁우리가	-8.60668
▁대규모	-8.61143
▁발표한	-8.61143
▁부토	-8.61143
▁수가	-8.61143
▁이름을	-8.61143
▁차량	-8.61143
▁마이클	-8.61621
▁사건	-8.61621
▁활동을	-8.61621
▁경고했다.	-8.621
▁관계를	-8.621
▁회담	-8.621
▁내용을	-8.62582
▁아닌	-8.62582
▁요구했다.	-8.62582
▁한다는	-8.62582
▁아니라	-8.63066
▁하루	-8.63066
▁것”이라며	-8.63553
▁경기를	-8.63553
▁올	-8.63553
▁결과를	-8.64042
▁달러의	-8.64042
▁밝혀졌다.	-8.64042
▁일이	-8.64042
▁컴퓨터	-8.64042
▁프로그램을	-8.64042
▁미사일	-8.64533
▁밝힌	-8.64533
▁2월	-8.65027
▁간	-8.65027
▁감독은	-8.65027
▁베이징	-8.65027
▁상황을	-8.65027
▁경찰에	-8.65524
▁비해	-8.65524
▁상원의원은	-8.65524
▁클린턴은	-8.65524
▁대통령을	-8.66022
▁사건을	-8.66022
▁(CNN)	-8.66524
▁있다"고	-8.66524
▁지지를	-8.66524
▁W	-8.67027
▁관심을	-8.67027
▁대변인이	-8.67027
▁이라크에서	-8.67027
▁있기	-8.67534
▁캘리포니아	-8.67534
▁공동	-8.68043
▁그들이	-8.68554
▁안	-8.68554
▁김	-8.69068
▁밖에	-8.69068
▁하기	-8.69068
▁과정에서	-8.69585
▁돈을	-8.69585
▁사는	-8.69585
▁중국은	-8.69585
▁것입니다.	-8.70105
▁사이에	-8.70105
▁주둔	-8.70105
▁on	-8.71152
▁각각	-8.71152
▁그녀의	-8.71152
▁뜻을	-8.71152
▁같이	-8.71679
▁미국에서	-8.71679
▁중에	-8.71679
▁사건이	-8.7221
▁온	-8.7221
▁대해서는	-8.72743
▁사람들을	-8.72743
▁이에앞서	-8.72743
▁총리의	-8.72743
▁6자	-8.73279
▁걸쳐	-8.73279
▁기간	-8.73279
▁시간	-8.73279
▁지	-8.73279
▁관계자들은	-8.73818
▁벌이고	-8.73818
▁상대로	-8.7436
▁승리를	-8.7436
▁있으며,	-8.7436
▁대상으로	-8.74905
▁정부에	-8.74905
▁이제	-8.75453
▁현	-8.75453
▁발견된	-8.76004
▁알려진	-8.76004
▁크게	-8.76004
▁티베트	-8.76004
▁한국인	-8.76004
▁핵무기	-8.76004
▁국무부	-8.76558
▁적이	-8.76558
▁후보는	-8.76558
▁4일	-8.77115
▁것과	-8.77115
▁기록했다.	-8.77115
▁사람은	-8.77115
▁19일	-8.77676
▁2002년	-8.77676
▁받는	-8.77676
▁변호사는	-8.77676
▁브라운	-8.77676
▁이명박	-8.77676
▁The	-8.78239
▁결정을	-8.78239
▁북한에	-8.78239
▁아직까지	-8.78239
▁해외	-8.78239
▁아니라고	-8.78806
▁Korea	-8.79375
▁검찰은	-8.79375
▁두고	-8.79375
▁대신	-8.79949
▁위해서는	-8.79949
▁다양한	-8.80525
▁달러를	-8.80525
▁상원의원이	-8.80525
▁서울	-8.80525
▁에너지	-8.80525
▁외	-8.80525
▁치료를	-8.80525
▁회장은	-8.80525
▁강한	-8.81105
▁나온	-8.81105
▁도움이	-8.81105
▁못하고	-8.81105
▁강력한	-8.81688
▁보고서는	-8.81688
▁달러	-8.82274
▁도움을	-8.82274
▁되고	-8.82274
▁등을	-8.82274
▁레바논	-8.82274
▁제	-8.82274
▁주변	-8.82274
▁지구	-8.82274
▁콜롬비아	-8.82274
▁공격으로	-8.82864
▁국영	-8.82864
▁등의	-8.82864
▁매년	-8.82864
▁문제	-8.82864
▁벌였다.	-8.82864
▁있다며	-8.82864
▁최종	-8.82864
▁받게	-8.83458
▁방법을	-8.83458
▁상원	-8.84055
▁수많은	-8.84055
▁온라인	-8.84055
▁자신을	-8.84055
▁북핵	-8.84655
▁따른	-8.8526
▁밝혔습니다.	-8.8526
▁빌	-8.8526
▁이끄는	-8.8526
▁이라크에	-8.8526
▁계획이다.	-8.85868
▁정부와	-8.85868
▁주지사는	-8.85868
▁받지	-8.86479
▁주재	-8.86479
▁협상을	-8.86479
▁5일	-8.87094
▁고	-8.87094
▁관해	-8.87094
▁때까지	-8.87094
▁받아	-8.87094
▁밝히지	-8.87094
▁있지	-8.87094
▁후보를	-8.87094
▁못한	-8.87714
▁받았다고	-8.87714
▁연구	-8.87714
▁영국의	-8.87714
▁오바마가	-8.87714
▁워싱턴	-8.87714
▁향해	-8.87714
▁2년	-8.88337
▁그런	-8.88337
▁달하는	-8.88337
▁막기	-8.88337
▁없었다.	-8.88337
▁한편,	-8.88337
▁힐	-8.88337
▁“나는	-8.88964
▁미군이	-8.88964
▁시아파	-8.88964
▁병력을	-8.89595
▁비난을	-8.89595
▁언급했다.	-8.89595
▁27일	-8.9023
▁사람들의	-8.9023
▁숨지고	-8.9023
▁작업을	-8.9023
▁폴	-8.9023
▁피해	-8.9023
▁하지만,	-8.9023
▁AP	-8.90868
▁되어	-8.90868
▁미국을	-8.90868
▁북한을	-8.90868
▁의회	-8.90868
▁아프가니스탄	-8.91512
▁여부를	-8.91512
▁이라크의	-8.91512
▁정도로	-8.91512
▁주말	-8.91512
▁했던	-8.91512
▁가지	-8.92159
▁날	-8.92159
▁라디오	-8.92159
▁사실이	-8.92159
▁주장하고	-8.92159
▁지역을	-8.92159
▁내가	-8.9281
▁서로	-8.9281
▁최고의	-8.9281
▁협상	-8.9281
▁되지	-8.93466
▁사진을	-8.93466
▁시간을	-8.93466
▁총리	-8.93466
▁6일	-8.94126
▁관계	-8.94126
▁도시	-8.94126
▁발생했다고	-8.94126
▁사망자	-8.94126
▁상황이	-8.94126
▁아니다.	-8.94126
▁어떠한	-8.94126
▁외국인	-8.94126
▁의	-8.94126
▁적어도	-8.94126
▁지도자	-8.94126
▁해야	-8.94126
▁목숨을	-8.94791
▁사르코지	-8.94791
▁유명한	-8.94791
▁민간인	-8.95459
▁유일한	-8.95459
▁이들의	-8.95459
▁입고	-8.95459
▁전쟁	-8.95459
▁정부를	-8.95459
▁가능한	-8.96133
▁개의	-8.96133
▁건물	-8.96133
▁마크	-8.96133
▁무장	-8.96133
▁방안을	-8.96133
▁병원에	-8.96133
▁이란의	-8.96133
▁18일	-8.96811
▁US	-8.96811
▁반대	-8.96811
▁발생해	-8.96811
▁알카에다	-8.96811
▁완전히	-8.96811
▁요청했다.	-8.96811
▁지도자인	-8.96811
▁2008년	-8.97493
▁사고가	-8.97493
▁사고로	-8.97493
▁시간이	-8.97493
▁않는다.	-8.97493
▁정도	-8.97493
▁최초의	-8.97493
▁11일	-8.98181
▁29일	-8.98181
▁7일	-8.98181
▁넘는	-8.98181
▁언론은	-8.98181
▁여성이	-8.98181
▁자살	-8.98181
▁출신	-8.98181
▁1일	-8.98873
▁끝에	-8.98873
▁다음달	-8.98873
▁대표는	-8.98873
▁사건은	-8.98873
▁오른	-8.98873
▁인용,	-8.98873
▁정책을	-8.98873
▁질문에	-8.98873
▁한국은	-8.98873
▁12일	-8.9957
▁간의	-8.9957
▁과학자들은	-8.9957
▁어느	-8.9957
▁이래	-8.9957
▁전체	-8.9957
▁주민들이	-8.9957
▁합니다.	-8.9957
▁관련해	-9.00271
▁사람들에게	-9.00271
▁올랐다.	-9.00271
▁중국이	-9.00271
▁태국	-9.00271
▁미군은	-9.00978
▁방문	-9.00978
▁않아	-9.00978
▁의견을	-9.00978
▁전세계	-9.00978
▁가질	-9.0169
▁내렸다.	-9.0169
▁반대하는	-9.0169
▁방문한	-9.0169
▁아주	-9.0169
▁연설을	-9.0169
▁예상된다.	-9.0169
▁우려를	-9.0169
▁평균	-9.0169
▁14일	-9.02407
▁22일	-9.02407
▁것이라	-9.02407
▁규모의	-9.02407
▁반군	-9.02407
▁아무런	-9.02407
▁여름	-9.02407
▁차베스	-9.02407
▁판결을	-9.02407
▁13일	-9.03129
▁26일	-9.03129
▁국내	-9.03129
▁되었다.	-9.03129
▁숨진	-9.03129
▁야당	-9.03129
▁점을	-9.03129
▁지원	-9.03129
▁최악의	-9.03129
▁필요가	-9.03129
▁16일	-9.03856
▁2일	-9.03856
▁그것은	-9.03856
▁놓고	-9.03856
▁법안을	-9.03856
▁인도네시아	-9.03856
▁프로그램	-9.03856
▁항상	-9.03856
▁25일	-9.04589
▁만큼	-9.04589
▁미국에	-9.04589
▁시장	-9.04589
▁LA	-9.05327
▁각	-9.05327
▁대해서	-9.05327
▁멕시코	-9.05327
▁병원	-9.05327
▁오바마의	-9.05327
▁이란이	-9.05327
▁차기	-9.05327
▁회사	-9.05327
▁15일	-9.0607
▁8일	-9.0607
▁것도	-9.0607
▁계속해서	-9.0607
▁사상	-9.0607
▁주는	-9.0607
▁2007년	-9.06819
▁3명이	-9.06819
▁나머지	-9.06819
▁들고	-9.06819
▁밝혀지지	-9.06819
▁산	-9.06819
▁성	-9.06819
▁있음을	-9.06819
▁전혀	-9.06819
▁판사는	-9.06819
▁9일	-9.07574
▁않았지만	-9.07574
▁이수지(JOINS)	-9.07574
▁평화	-9.07574
▁후보에	-9.07574
▁21일	-9.08334
▁“그는	-9.08334
▁발견했다.	-9.08334
▁보이는	-9.08334
▁숨졌다고	-9.08334
▁앤	-9.08334
▁인질	-9.08334
▁공격	-9.09101
▁기자	-9.09101
▁석유	-9.09101
▁씨는	-9.09101
▁아프리카	-9.09101
▁제임스	-9.09101
▁하며	-9.09101
▁곳에서	-9.09873
▁과거	-9.09873
▁자금을	-9.09873
▁정치	-9.09873
▁주민들은	-9.09873
▁찰스	-9.09873
▁가능성을	-9.10651
▁만든	-9.10651
▁매케인은	-9.10651
▁시장은	-9.10651
▁없다는	-9.10651
▁이달	-9.10651
▁이들을	-9.10651
▁책임을	-9.10651
▁푸틴	-9.10651
▁학교	-9.10651
▁물론	-9.11435
▁민주당의	-9.11435
▁병원으로	-9.11435
▁보안	-9.11435
▁선거에서	-9.11435
▁소식을	-9.11435
▁우리의	-9.11435
▁위기에	-9.11435
▁합의했다.	-9.11435
▁미군의	-9.12226
▁열릴	-9.12226
▁주장을	-9.12226
▁케냐	-9.12226
▁한나라당	-9.12226
▁공항	-9.13023
▁관리들은	-9.13023
▁낮은	-9.13023
▁대화를	-9.13023
▁등이	-9.13023
▁목표로	-9.13023
▁병원에서	-9.13023
▁부상했다고	-9.13023
▁부시는	-9.13023
▁사망	-9.13023
▁얼마나	-9.13023
▁젊은	-9.13023
▁짐바브웨	-9.13023
▁행동을	-9.13023
▁17일	-9.13826
▁가졌다.	-9.13826
▁개발	-9.13826
▁겪고	-9.13826
▁난	-9.13826
▁몇몇	-9.13826
▁새로	-9.13826
▁의한	-9.13826
▁자주	-9.13826
▁전망이다.	-9.13826
▁확인했다.	-9.13826
▁1년	-9.14636
▁30일	-9.14636
▁국경	-9.14636
▁노력을	-9.14636
▁시위	-9.14636
▁시작된	-9.14636
▁의원이	-9.14636
▁확실히	-9.14636
▁후에	-9.14636
▁2001년	-9.15452
▁곳에	-9.15452
▁만약	-9.15452
▁발생,	-9.15452
▁발생할	-9.15452
▁보이고	-9.15452
▁빠른	-9.15452
▁소식통은	-9.15452
▁없다”며	-9.15452
▁여론	-9.15452
▁주택	-9.15452
▁필리핀	-9.15452
▁호텔	-9.15452
▁20일	-9.16275
▁CNN	-9.16275
▁따라	-9.16275
▁라고	-9.16275
▁속에	-9.16275
▁아베	-9.16275
▁주로	-9.16275
▁출신의	-9.16275
▁그렇게	-9.17105
▁그에게	-9.17105
▁기록을	-9.17105
▁기회를	-9.17105
▁들어	-9.17105
▁말하고	-9.17105
▁메시지를	-9.17105
▁보낸	-9.17105
▁부인했다.	-9.17105
▁블로그에	-9.17105
▁오랫동안	-9.17105
▁지방	-9.17105
▁팀	-9.17105
▁17일(현지시간)	-9.17942
▁경찰과	-9.17942
▁나왔다.	-9.17942
▁동시	-9.17942
▁무기	-9.17942
▁비슷한	-9.17942
▁서비스	-9.17942
▁석방을	-9.17942
▁숨졌다.	-9.17942
▁위험한	-9.17942
▁작년	-9.17942
▁해리	-9.17942
▁후보로	-9.17942
▁3일(현지시간)	-9.18786
▁개인	-9.18786
▁구성된	-9.18786
▁말한	-9.18786
▁시	-9.18786
▁실시된	-9.18786
▁알게	-9.18786
▁위원장은	-9.18786
▁이밖에	-9.18786
▁이야기를	-9.18786
▁일본은	-9.18786
▁가까운	-9.19637
▁기자는	-9.19637
▁다	-9.19637
▁맞아	-9.19637
▁매일	-9.19637
▁먼저	-9.19637
▁못할	-9.19637
▁본	-9.19637
▁않다.	-9.19637
▁앞	-9.19637
▁얻은	-9.19637
▁영화를	-9.19637
▁중동	-9.19637
▁집에서	-9.19637
▁총을	-9.19637
▁테러로	-9.19637
▁회담에서	-9.19637
▁후보의	-9.19637
▁결과가	-9.20495
▁국방부	-9.20495
▁기자가	-9.20495
▁동부	-9.20495
▁문제로	-9.20495
▁손을	-9.20495
▁이용해	-9.20495
▁일부는	-9.20495
▁임무를	-9.20495
▁플로리다	-9.20495
▁2명의	-9.21361
▁고든	-9.21361
▁관리는	-9.21361
▁대의원	-9.21361
▁대통령에	-9.21361
▁대회	-9.21361
▁도중	-9.21361
▁둔	-9.21361
▁사용하는	-9.21361
▁연설에서	-9.21361
▁이들이	-9.21361
▁인권	-9.21361
▁자신들이	-9.21361
▁10일	-9.22234
▁가격이	-9.22234
▁것처럼	-9.22234
▁남성이	-9.22234
▁년	-9.22234
▁당	-9.22234
▁만들어	-9.22234
▁미국,	-9.22234
▁불만을	-9.22234
▁사무총장은	-9.22234
▁일어난	-9.22234
▁차지했다.	-9.22234
▁하게	-9.22234
▁23일	-9.23115
▁4명이	-9.23115
▁Korean	-9.23115
▁당한	-9.23115
▁대통령,	-9.23115
▁대통령에게	-9.23115
▁발언을	-9.23115
▁법원은	-9.23115
▁비디오	-9.23115
▁상황에	-9.23115
▁수석	-9.23115
▁스티브	-9.23115
▁않다고	-9.23115
▁월요일	-9.23115
▁정확한	-9.23115
▁추가로	-9.23115
▁결정했다.	-9.24004
▁공화당의	-9.24004
▁드	-9.24004
▁문제는	-9.24004
▁변화를	-9.24004
▁브라질	-9.24004
▁압력을	-9.24004
▁전쟁을	-9.24004
▁정말	-9.24004
▁크리스토퍼	-9.24004
▁10일(현지시간)	-9.24901
▁19일(현지시간)	-9.24901
▁27일(현지시간)	-9.24901
▁가는	-9.24901
▁거대한	-9.24901
▁블레어	-9.24901
▁비행기	-9.24901
▁빨리	-9.24901
▁살해한	-9.24901
▁실시한	-9.24901
▁아직도	-9.24901
▁알려져	-9.24901
▁이것은	-9.24901
▁중이다.	-9.24901
▁23일(현지시간)	-9.25806
▁6일(현지시간)	-9.25806
▁대형	-9.25806
▁보고서를	-9.25806
▁사용할	-9.25806
▁수술을	-9.25806
▁않았다”고	-9.25806
▁저장	-9.25806
▁주고	-9.25806
▁준비가	-9.25806
▁캐나다	-9.25806
▁콘돌리자	-9.25806
▁테러를	-9.25806
▁투표를	-9.25806
▁해군	-9.25806
▁행위를	-9.25806
▁11일(현지시간)	-9.26719
▁26일(현지시간)	-9.26719
▁검사를	-9.26719
▁나섰다.	-9.26719
▁남자	-9.26719
▁내에	-9.26719
▁사망했으며	-9.26719
▁쉽게	-9.26719
▁차례	-9.26719
▁참석한	-9.26719
▁흑인	-9.26719
▁15일(현지시간)	-9.27641
▁2008	-9.27641
▁강제	-9.27641
▁강하게	-9.27641
▁건강	-9.27641
▁경제적	-9.27641
▁담당	-9.27641
▁미국인	-9.27641
▁서비스를	-9.27641
▁신화통신은	-9.27641
▁않는다고	-9.27641
▁어린이	-9.27641
▁요구한	-9.27641
▁직후	-9.27641
▁하마스	-9.27641
▁하워드	-9.27641
▁현장에	-9.27641
▁25일(현지시간)	-9.28571
▁28일	-9.28571
▁2차	-9.28571
▁is	-9.28571
▁기술을	-9.28571
▁나타냈다.	-9.28571
▁단지	-9.28571
▁대학의	-9.28571
▁만나	-9.28571
▁요구하는	-9.28571
▁이번이	-9.28571
▁자금	-9.28571
▁전까지	-9.28571
▁즉시	-9.28571
▁차량을	-9.28571
▁총격을	-9.28571
▁최초	-9.28571
▁회담은	-9.28571
▁그녀가	-9.2951
▁발견됐다.	-9.2951
▁사건의	-9.2951
▁수천명의	-9.2951
▁여행을	-9.2951
▁열차	-9.2951
▁후세인	-9.2951
▁그와	-9.30458
▁도	-9.30458
▁비롯한	-9.30458
▁소재	-9.30458
▁요구를	-9.30458
▁위협을	-9.30458
▁의사를	-9.30458
▁이전에	-9.30458
▁일반	-9.30458
▁주민	-9.30458
▁포함	-9.30458
▁한국과	-9.30458
▁화요일	-9.30458
▁13일(현지시간)	-9.31415
▁2000년	-9.31415
▁5명이	-9.31415
▁경기에	-9.31415
▁발표할	-9.31415
▁베네수엘라	-9.31415
▁보냈다.	-9.31415
▁없었다고	-9.31415
▁오랜	-9.31415
▁올메르트	-9.31415
▁의장은	-9.31415
▁인터뷰를	-9.31415
▁입었다.	-9.31415
▁있습니다.”	-9.31415
▁조사하고	-9.31415
▁테러가	-9.31415
▁회담에	-9.31415
▁29일(현지시간)	-9.32381
▁그중	-9.32381
▁대부분은	-9.32381
▁대사관	-9.32381
▁대사는	-9.32381
▁독립을	-9.32381
▁됐다고	-9.32381
▁못했다고	-9.32381
▁보이지	-9.32381
▁빈	-9.32381
▁소송을	-9.32381
▁양국	-9.32381
▁웹사이트에	-9.32381
▁저는	-9.32381
▁텍사스	-9.32381
▁페르베즈	-9.32381
▁한다”며	-9.32381
▁20일(현지시간)	-9.33357
▁게이츠	-9.33357
▁마을	-9.33357
▁상황에서	-9.33357
▁서부	-9.33357
▁수요일	-9.33357
▁여자	-9.33357
▁이르는	-9.33357
▁정보	-9.33357
▁주에서	-9.33357
▁진행	-9.33357
▁집을	-9.33357
▁했다”고	-9.33357
▁회담이	-9.33357
▁구체적인	-9.34342
▁떨어져	-9.34342
▁법적	-9.34342
▁속에서	-9.34342
▁아이들을	-9.34342
▁알리	-9.34342
▁어린	-9.34342
▁은행	-9.34342
▁정상	-9.34342
▁중이라고	-9.34342
▁지지하는	-9.34342
▁포함되어	-9.34342
▁현장에서	-9.34342
▁21일(현지시간)	-9.35337
▁28일(현지시간)	-9.35337
▁계획에	-9.35337
▁돼	-9.35337
▁사우디	-9.35337
▁수천	-9.35337
▁체포된	-9.35337
▁최소한	-9.35337
▁허리케인	-9.35337
▁4일(현지시간)	-9.36342
▁be	-9.36342
▁긴	-9.36342
▁명	-9.36342
▁선거를	-9.36342
▁실제	-9.36342
▁아이를	-9.36342
▁이상을	-9.36342
▁이스라엘의	-9.36342
▁중에는	-9.36342
▁지수는	-9.36342
▁지진으로	-9.36342
▁총선에서	-9.36342
▁특별	-9.36342
▁1일(현지시간)	-9.37357
▁North	-9.37357
▁국가의	-9.37357
▁권리를	-9.37357
▁시즌	-9.37357
▁아바스	-9.37357
▁않도록	-9.37357
▁역사상	-9.37357
▁으로	-9.37357
▁이집트	-9.37357
▁일요일	-9.37357
▁있는지	-9.37357
▁중국,	-9.37357
▁집	-9.37357
▁타임즈는	-9.37357
▁24일	-9.38383
▁것입니다.”	-9.38383
▁경선	-9.38383
▁공식적으로	-9.38383
▁국회	-9.38383
▁내린	-9.38383
▁버지니아	-9.38383
▁사람의	-9.38383
▁소말리아	-9.38383
▁시작됐다.	-9.38383
▁실제로	-9.38383
▁영화는	-9.38383
▁윌리엄	-9.38383
▁이란은	-9.38383
▁포함해	-9.38383
▁피터	-9.38383
▁훨씬	-9.38383
▁10년	-9.39419
▁16일(현지시간)	-9.39419
▁EU	-9.39419
▁공격이	-9.39419
▁관리가	-9.39419
▁국무장관은	-9.39419
▁당선인은	-9.39419
▁목요일	-9.39419
▁발언은	-9.39419
▁북한과	-9.39419
▁약속했다.	-9.39419
▁영국에서	-9.39419
▁최근의	-9.39419
▁힘든	-9.39419
▁5년	-9.40466
▁계획이	-9.40466
▁단	-9.40466
▁단체는	-9.40466
▁대변인인	-9.40466
▁벌인	-9.40466
▁불리는	-9.40466
▁심한	-9.40466
▁안보	-9.40466
▁일본이	-9.40466
▁입었다고	-9.40466
▁장관이	-9.40466
▁홍콩	-9.40466
▁12일(현지시간)	-9.41525
▁18일(현지시간)	-9.41525
▁거주하는	-9.41525
▁끝난	-9.41525
▁내무부	-9.41525
▁반기문	-9.41525
▁반응을	-9.41525
▁세금	-9.41525
▁익명의	-9.41525
▁정치적인	-9.41525
▁주장하는	-9.41525
▁집에	-9.41525
▁학생들이	-9.41525
▁9일(현지시간)	-9.42594
▁나와	-9.42594
▁뉴스	-9.42594
▁대부분이	-9.42594
▁된다고	-9.42594
▁듯	-9.42594
▁문을	-9.42594
▁방문할	-9.42594
▁방법으로	-9.42594
▁사람을	-9.42594
▁사태가	-9.42594
▁어려움을	-9.42594
▁엘리자베스	-9.42594
▁외교	-9.42594
▁외국	-9.42594
▁용의자	-9.42594
▁정책	-9.42594
▁좋지	-9.42594
▁찾기	-9.42594
▁2일(현지시간)	-9.43675
▁5일(현지시간)	-9.43675
▁South	-9.43675
▁경선에서	-9.43675
▁국립	-9.43675
▁남자가	-9.43675
▁믿고	-9.43675
▁밖으로	-9.43675
▁발견했다고	-9.43675
▁벌어진	-9.43675
▁병사	-9.43675
▁비밀	-9.43675
▁생각하고	-9.43675
▁성폭행	-9.43675
▁수단	-9.43675
▁않으면	-9.43675
▁알려지지	-9.43675
▁연료	-9.43675
▁요구하고	-9.43675
▁의원들은	-9.43675
▁이것이	-9.43675
▁있었다”고	-9.43675
▁제안을	-9.43675
▁충분한	-9.43675
▁하락했다.	-9.43675
▁"이	-9.44768
▁1명은	-9.44768
▁22일(현지시간)	-9.44768
▁30일(현지시간)	-9.44768
▁가격	-9.44768
▁결정은	-9.44768
▁경찰의	-9.44768
▁곳으로	-9.44768
▁관계가	-9.44768
▁그들을	-9.44768
▁명은	-9.44768
▁사건으로	-9.44768
▁스스로	-9.44768
▁왜	-9.44768
▁자리를	-9.44768
▁특별한	-9.44768
▁필요하다고	-9.44768
▁24일(현지시간)	-9.45873
▁기타	-9.45873
▁나쁜	-9.45873
▁담긴	-9.45873
▁때문이다.	-9.45873
▁무역	-9.45873
▁반정부	-9.45873
▁배우	-9.45873
▁사건과	-9.45873
▁선고	-9.45873
▁스미스	-9.45873
▁시카고	-9.45873
▁시험	-9.45873
▁신문은	-9.45873
▁아부	-9.45873
▁여행	-9.45873
▁우려가	-9.45873
▁유명	-9.45873
▁의회가	-9.45873
▁임시	-9.45873
▁있었으며	-9.45873
▁조금	-9.45873
▁취할	-9.45873
▁해결하기	-9.45873
▁해안	-9.45873
▁했으며	-9.45873
▁협상이	-9.45873
▁7일(현지시간)	-9.4699
▁W.	-9.4699
▁관심이	-9.4699
▁모하메드	-9.4699
▁바라고	-9.4699
▁발표된	-9.4699
▁보여주는	-9.4699
▁생각을	-9.4699
▁우승을	-9.4699
▁적은	-9.4699
▁전화를	-9.4699
▁직원	-9.4699
▁카운티	-9.4699
▁쿠르드	-9.4699
▁토니	-9.4699
▁향후	-9.4699
▁회의를	-9.4699
▁가스	-9.4812
▁갈	-9.4812
▁강력히	-9.4812
▁공개했다.	-9.4812
▁국민	-9.4812
▁네	-9.4812
▁대선후보인	-9.4812
▁동영상을	-9.4812
▁되면	-9.4812
▁러시아의	-9.4812
▁모습이	-9.4812
▁수사를	-9.4812
▁스티븐	-9.4812
▁언급하지	-9.4812
▁의원	-9.4812
▁일은	-9.4812
▁장면을	-9.4812
▁중국과	-9.4812
▁찾는	-9.4812
▁초기	-9.4812
▁환경	-9.4812
▁회사인	-9.4812
▁14일(현지시간)	-9.49263
▁계획	-9.49263
▁기술	-9.49263
▁내용이	-9.49263
▁만한	-9.49263
▁발표	-9.49263
▁부동산	-9.49263
▁뿐	-9.49263
▁사망자가	-9.49263
▁원하는	-9.49263
▁인정했다.	-9.49263
▁작전을	-9.49263
▁전화	-9.49263
▁with	-9.50419
▁거래를	-9.50419
▁기업	-9.50419
▁만날	-9.50419
▁명령을	-9.50419
▁보기	-9.50419
▁아무	-9.50419
▁압둘라	-9.50419
▁여론조사	-9.50419
▁유사한	-9.50419
▁의회는	-9.50419
▁정부,	-9.50419
▁조사에	-9.50419
▁타격을	-9.50419
▁학생	-9.50419
▁회사의	-9.50419
▁-	-9.51589
▁것보다	-9.51589
▁공격에	-9.51589
▁긴급	-9.51589
▁모인	-9.51589
▁불을	-9.51589
▁여성은	-9.51589
▁연구를	-9.51589
▁예상했다.	-9.51589
▁예정이며	-9.51589
▁의료	-9.51589
▁이곳에서	-9.51589
▁인기	-9.51589
▁주식	-9.51589
▁중국에	-9.51589
▁최초로	-9.51589
▁추정되는	-9.51589
▁항공	-9.51589
▁"우리는	-9.52772
▁가족	-9.52772
▁걸릴	-9.52772
▁게임을	-9.52772
▁기자회견을	-9.52772
▁길을	-9.52772
▁노력하고	-9.52772
▁드러났다.	-9.52772
▁못하는	-9.52772
▁밖에서	-9.52772
▁생각한다”고	-9.52772
▁수니파	-9.52772
▁시신을	-9.52772
▁아이들이	-9.52772
▁않았으며	-9.52772
▁여성의	-9.52772
▁올렸다.	-9.52772
▁워싱턴에서	-9.52772
▁이스라엘과	-9.52772
▁일자리를	-9.52772
▁자체	-9.52772
▁적절한	-9.52772
▁점점	-9.52772
▁차	-9.52772
▁처음이다.	-9.52772
▁총리와	-9.52772
▁탄	-9.52772
▁한미	-9.52772
▁건설	-9.5397
▁걸친	-9.5397
▁계속되고	-9.5397
▁골을	-9.5397
▁관련이	-9.5397
▁남은	-9.5397
▁달러에	-9.5397
▁발생	-9.5397
▁보고했다.	-9.5397
▁비행	-9.5397
▁생활을	-9.5397
▁시위에	-9.5397
▁아이의	-9.5397
▁어려운	-9.5397
▁위기를	-9.5397
▁이번주	-9.5397
▁인구	-9.5397
▁중국에서	-9.5397
▁진행된	-9.5397
▁징역	-9.5397
▁찾고	-9.5397
▁통신은	-9.5397
▁하나의	-9.5397
▁핵심	-9.5397
▁화재가	-9.5397
▁1999년	-9.55182
▁3명의	-9.55182
▁8일(현지시간)	-9.55182
▁UN	-9.55182
▁갑자기	-9.55182
▁김정일	-9.55182
▁논의할	-9.55182
▁만드는	-9.55182
▁방문했다.	-9.55182
▁사태를	-9.55182
▁시설을	-9.55182
▁시위가	-9.55182
▁양	-9.55182
▁언론이	-9.55182
▁연구진은	-9.55182
▁의회에	-9.55182
▁이로	-9.55182
▁이용,	-9.55182
▁이유는	-9.55182
▁체포됐다.	-9.55182
▁쿠바	-9.55182
▁톰	-9.55182
▁투자	-9.55182
▁파키스탄의	-9.55182
▁폭발로	-9.55182
▁할리우드	-9.55182
▁2명을	-9.56409
▁6자회담	-9.56409
▁결정에	-9.56409
▁경제가	-9.56409
▁경제에	-9.56409
▁계획은	-9.56409
▁나를	-9.56409
▁마이크	-9.56409
▁무기를	-9.56409
▁바그다드에서	-9.56409
▁범죄	-9.56409
▁빠르게	-9.56409
▁수백	-9.56409
▁수십	-9.56409
▁신원을	-9.56409
▁없어	-9.56409
▁의회의	-9.56409
▁자리에서	-9.56409
▁주의	-9.56409
▁증가하고	-9.56409
▁한다"고	-9.56409
▁현재까지	-9.56409
▁“이는	-9.57651
▁가격을	-9.57651
▁것이라며	-9.57651
▁대북	-9.57651
▁도착했다.	-9.57651
▁랭킹	-9.57651
▁말하는	-9.57651
▁문제의	-9.57651
▁스포츠	-9.57651
▁시작한	-9.57651
▁운동	-9.57651
▁운영하는	-9.57651
▁월드컵	-9.57651
▁이유를	-9.57651
▁일환으로	-9.57651
▁체니	-9.57651
▁치러진	-9.57651
▁하면	-9.57651
▁해결을	-9.57651
▁will	-9.58909
▁계약을	-9.58909
▁과학자들이	-9.58909
▁그에	-9.58909
▁기다리고	-9.58909
▁내용의	-9.58909
▁더불어	-9.58909
▁됐다”고	-9.58909
▁말레이시아	-9.58909
▁반군이	-9.58909
▁밝히고	-9.58909
▁부근에서	-9.58909
▁빠진	-9.58909
▁사실상	-9.58909
▁사진	-9.58909
▁심장	-9.58909
▁아카데미	-9.58909
▁안전	-9.58909
▁약간	-9.58909
▁웹	-9.58909
▁이와같은	-9.58909
▁저녁	-9.58909
▁전직	-9.58909
▁조치가	-9.58909
▁지진이	-9.58909
▁최신	-9.58909
▁클린턴이	-9.58909
▁6명이	-9.60183
▁AP의	-9.60183
▁개	-9.60183
▁권력을	-9.60183
▁니콜라	-9.60183
▁방문을	-9.60183
▁살해	-9.60183
▁아들	-9.60183
▁야당인	-9.60183
▁영어	-9.60183
▁위험이	-9.60183
▁일간	-9.60183
▁제재를	-9.60183
▁준비를	-9.60183
▁증거를	-9.60183
▁지도자들은	-9.60183
▁크리스마스	-9.60183
▁폭탄이	-9.60183
▁피해가	-9.60183
▁하던	-9.60183
▁힘을	-9.60183
▁A	-9.61474
▁검찰	-9.61474
▁고통을	-9.61474
▁공개	-9.61474
▁관계자들이	-9.61474
▁관리	-9.61474
▁국경을	-9.61474
▁국방부는	-9.61474
▁그동안	-9.61474
▁깊은	-9.61474
▁나갈	-9.61474
▁남북	-9.61474
▁로켓	-9.61474
▁말합니다.	-9.61474
▁멋진	-9.61474
▁모두가	-9.61474
▁받기	-9.61474
▁보면	-9.61474
▁보인다고	-9.61474
▁부상했다.	-9.61474
▁선거에	-9.61474
▁세계대전	-9.61474
▁시스템을	-9.61474
▁시위대가	-9.61474
▁시위대는	-9.61474
▁시장에	-9.61474
▁우라늄	-9.61474
▁위원회는	-9.61474
▁이렇게	-9.61474
▁잉글랜드	-9.61474
▁제공하는	-9.61474
▁제안했다.	-9.61474
▁파리	-9.61474
▁폭탄테러가	-9.61474
▁한반도	-9.61474
▁했지만	-9.61474
▁훈련을	-9.61474
▁3년	-9.62781
▁가자지구	-9.62781
▁남성	-9.62781
▁내릴	-9.62781
▁능력을	-9.62781
▁대가로	-9.62781
▁대선에서	-9.62781
▁마약	-9.62781
▁마지막으로	-9.62781
▁마치고	-9.62781
▁맨체스터	-9.62781
▁민주주의	-9.62781
▁반드시	-9.62781
▁부통령	-9.62781
▁상태에	-9.62781
▁시장에서	-9.62781
▁않지만	-9.62781
▁연속	-9.62781
▁오브	-9.62781
▁외무장관은	-9.62781
▁운동을	-9.62781
▁이스라엘이	-9.62781
▁이틀	-9.62781
▁있고,	-9.62781
▁정확히	-9.62781
▁조사에서	-9.62781
▁주지사가	-9.62781
▁질문을	-9.62781
▁해당	-9.62781
▁핵무기를	-9.62781
▁후,	-9.62781
▁1998년	-9.64105
▁U.S.	-9.64105
▁美	-9.64105
▁감독이	-9.64105
▁공연을	-9.64105
▁금지	-9.64105
▁논의를	-9.64105
▁단체	-9.64105
▁동영상	-9.64105
▁말까지	-9.64105
▁며칠	-9.64105
▁목적으로	-9.64105
▁방송	-9.64105
▁변화가	-9.64105
▁사담	-9.64105
▁성공했다.	-9.64105
▁스타	-9.64105
▁승리한	-9.64105
▁얻었다.	-9.64105
▁에후드	-9.64105
▁우려하고	-9.64105
▁위기	-9.64105
▁의회에서	-9.64105
▁이라크를	-9.64105
▁이후,	-9.64105
▁일	-9.64105
▁장을	-9.64105
▁전쟁에	-9.64105
▁한국이	-9.64105
▁혐의가	-9.64105
▁회사는	-9.64105
▁내용은	-9.65448
▁당했다.	-9.65448
▁병력	-9.65448
▁사장은	-9.65448
▁서울에서	-9.65448
▁승인을	-9.65448
▁아무도	-9.65448
▁안전을	-9.65448
▁약속을	-9.65448
▁언론	-9.65448
▁올린	-9.65448
▁유로	-9.65448
▁이로써	-9.65448
▁있는데,	-9.65448
▁있으나	-9.65448
▁좀	-9.65448
▁탁신	-9.65448
▁통한	-9.65448
▁판매	-9.65448
▁폭발	-9.65448
▁프로그램에	-9.65448
▁한국에	-9.65448
▁현재의	-9.65448
▁2명은	-9.66808
▁가치가	-9.66808
▁결과는	-9.66808
▁경제를	-9.66808
▁공항에서	-9.66808
▁국방장관은	-9.66808
▁그리스	-9.66808
▁기대하고	-9.66808
▁나오는	-9.66808
▁다쳤다고	-9.66808
▁보고서에서	-9.66808
▁보는	-9.66808
▁분명히	-9.66808
▁비록	-9.66808
▁사람	-9.66808
▁선언했다.	-9.66808
▁소식이	-9.66808
▁수를	-9.66808
▁시장의	-9.66808
▁안전한	-9.66808
▁암살	-9.66808
▁없으며	-9.66808
▁여부는	-9.66808
▁잃은	-9.66808
▁정	-9.66808
▁주간	-9.66808
▁지역으로	-9.66808
▁폭탄테러로	-9.66808
▁하원	-9.66808
▁1997년	-9.68188
▁것이며,	-9.68188
▁기후	-9.68188
▁납치된	-9.68188
▁대	-9.68188
▁동물	-9.68188
▁만들었다.	-9.68188
▁미국과의	-9.68188
▁발생하지	-9.68188
▁보낼	-9.68188
▁살	-9.68188
▁선수	-9.68188
▁수익을	-9.68188
▁일하는	-9.68188
▁전했습니다.	-9.68188
▁진행되고	-9.68188
▁차를	-9.68188
▁청와대	-9.68188
▁총리를	-9.68188
▁충분히	-9.68188
▁폭력	-9.68188
▁10명이	-9.69586
▁31일	-9.69586
▁가격은	-9.69586
▁갖게	-9.69586
▁검사는	-9.69586
▁것이다”고	-9.69586
▁계획이라고	-9.69586
▁구조	-9.69586
▁그것이	-9.69586
▁남아	-9.69586
▁됩니다.	-9.69586
▁때문에,	-9.69586
▁레알	-9.69586
▁막을	-9.69586
▁말리키	-9.69586
▁못	-9.69586
▁받아야	-9.69586
▁발생했으며	-9.69586
▁법원에	-9.69586
▁법원이	-9.69586
▁베이징에서	-9.69586
▁보유하고	-9.69586
▁사용한	-9.69586
▁삶을	-9.69586
▁소비자	-9.69586
▁수상했다.	-9.69586
▁아니면	-9.69586
▁익명을	-9.69586
▁일정을	-9.69586
▁있다면	-9.69586
▁자료를	-9.69586
▁자세한	-9.69586
▁잠시	-9.69586
▁주가	-9.69586
▁주장에	-9.69586
▁지금은	-9.69586
▁책임이	-9.69586
▁총기	-9.69586
▁토요일	-9.69586
▁폭탄을	-9.69586
▁혐의에	-9.69586
▁호세	-9.69586
▁회의에서	-9.69586
▁후반	-9.69586
▁희생자	-9.69586
▁가능성은	-9.71005
▁것인지	-9.71005
▁고대	-9.71005
▁난민	-9.71005
▁낸	-9.71005
▁당신이	-9.71005
▁대회에서	-9.71005
▁로마	-9.71005
▁루이스	-9.71005
▁무가베	-9.71005
▁베나지르	-9.71005
▁비용이	-9.71005
▁사령관은	-9.71005
▁사회	-9.71005
▁에도	-9.71005
▁영화의	-9.71005
▁예정	-9.71005
▁유엔은	-9.71005
▁이후로	-9.71005
▁일반적으로	-9.71005
▁일본에서	-9.71005
▁제대로	-9.71005
▁주지	-9.71005
▁주한	-9.71005
▁준	-9.71005
▁중앙	-9.71005
▁지역은	-9.71005
▁투표	-9.71005
▁표했다.	-9.71005
▁합의	-9.71005
▁항공기	-9.71005
▁게임	-9.72443
▁나토	-9.72443
▁논란이	-9.72443
▁떨어졌다.	-9.72443
▁못하게	-9.72443
▁발견됐다고	-9.72443
▁보안관은	-9.72443
▁상	-9.72443
▁실종된	-9.72443
▁안에서	-9.72443
▁앓고	-9.72443
▁여성을	-9.72443
▁오래된	-9.72443
▁유럽의	-9.72443
▁이라크와	-9.72443
▁이라크전	-9.72443
▁자신은	-9.72443
▁조	-9.72443
▁찾을	-9.72443
▁총선을	-9.72443
▁2주	-9.73903
▁4명의	-9.73903
▁교육	-9.73903
▁국가를	-9.73903
▁국민들의	-9.73903
▁그러한	-9.73903
▁기자들에게	-9.73903
▁네덜란드	-9.73903
▁노벨	-9.73903
▁동료	-9.73903
▁러시아는	-9.73903
▁리처드	-9.73903
▁못해	-9.73903
▁민간	-9.73903
▁발생하는	-9.73903
▁발언에	-9.73903
▁상당한	-9.73903
▁생각하는	-9.73903
▁수사	-9.73903
▁역사적인	-9.73903
▁예정된	-9.73903
▁외무부	-9.73903
▁의사가	-9.73903
▁장기	-9.73903
▁재판을	-9.73903
▁저지른	-9.73903
▁주민들에게	-9.73903
▁즉	-9.73903
▁측은	-9.73903
▁토마스	-9.73903
▁회사가	-9.73903
▁20년	-9.75385
▁것이다”라고	-9.75385
▁결과에	-9.75385
▁국가가	-9.75385
▁뇌	-9.75385
▁뉴욕에서	-9.75385
▁만난	-9.75385
▁말했다고	-9.75385
▁바란다”고	-9.75385
▁백악관은	-9.75385
▁부족	-9.75385
▁비상	-9.75385
▁선두를	-9.75385
▁세금을	-9.75385
▁소장은	-9.75385
▁시리아	-9.75385
▁시작할	-9.75385
▁앞에	-9.75385
▁없었다”고	-9.75385
▁위해서	-9.75385
▁위험에	-9.75385
▁죽은	-9.75385
▁준비	-9.75385
▁중국을	-9.75385
▁지지	-9.75385
▁집으로	-9.75385
▁차관보는	-9.75385
▁찾아	-9.75385
▁치료	-9.75385
▁학생들은	-9.75385
▁호텔에서	-9.75385
▁10대	-9.76889
▁가까이	-9.76889
▁가능성에	-9.76889
▁같다고	-9.76889
▁거뒀다.	-9.76889
▁결혼	-9.76889
▁공격은	-9.76889
▁기지	-9.76889
▁내내	-9.76889
▁독일의	-9.76889
▁된다”고	-9.76889
▁모여	-9.76889
▁벌금을	-9.76889
▁비용을	-9.76889
▁승리했다.	-9.76889
▁시장이	-9.76889
▁신용	-9.76889
▁않는다”고	-9.76889
▁얻을	-9.76889
▁웹사이트를	-9.76889
▁이스라엘은	-9.76889
▁일리노이주	-9.76889
▁일부를	-9.76889
▁전면	-9.76889
▁제재	-9.76889
▁증거가	-9.76889
▁체포했다고	-9.76889
▁태어난	-9.76889
▁헌법	-9.76889
▁휴대폰	-9.76889
▁4년	-9.78415
▁것"이라며	-9.78415
▁공식적인	-9.78415
▁그래서	-9.78415
▁누가	-9.78415
▁답했다.	-9.78415
▁런던에서	-9.78415
▁만들어진	-9.78415
▁머리를	-9.78415
▁몸을	-9.78415
▁미사일을	-9.78415
▁보내는	-9.78415
▁보도를	-9.78415
▁비상사태를	-9.78415
▁비판했다.	-9.78415
▁사실	-9.78415
▁사용될	-9.78415
▁수백만	-9.78415
▁수백명의	-9.78415
▁시민들이	-9.78415
▁얻기	-9.78415
▁여객기	-9.78415
▁영변	-9.78415
▁원인을	-9.78415
▁위에	-9.78415
▁이란에	-9.78415
▁인간	-9.78415
▁일부가	-9.78415
▁있었지만	-9.78415
▁자유를	-9.78415
▁전자	-9.78415
▁지도자들이	-9.78415
▁집단	-9.78415
▁총장은	-9.78415
▁혹은	-9.78415
▁화재	-9.78415
▁9.11	-9.79966
▁“모든	-9.79966
▁결론을	-9.79966
▁결의안을	-9.79966
▁공군	-9.79966
▁국민들에게	-9.79966
▁국민들은	-9.79966
▁당선인의	-9.79966
▁대표팀	-9.79966
▁만들	-9.79966
▁머물고	-9.79966
▁명을	-9.79966
▁물을	-9.79966
▁방송은	-9.79966
▁배럴당	-9.79966
▁법안이	-9.79966
▁보호하기	-9.79966
▁붉은	-9.79966
▁블라디미르	-9.79966
▁빠져	-9.79966
▁숀	-9.79966
▁실시되는	-9.79966
▁심지어	-9.79966
▁외교적	-9.79966
▁유죄	-9.79966
▁육군	-9.79966
▁음악	-9.79966
▁증가했다.	-9.79966
▁챔피언스리그	-9.79966
▁태도를	-9.79966
▁한때	-9.79966
▁합의를	-9.79966
▁회담의	-9.79966
▁(JOINS)	-9.81541
▁7명이	-9.81541
▁FTA	-9.81541
▁강	-9.81541
▁걸어	-9.81541
▁것.	-9.81541
▁관계에	-9.81541
▁달리	-9.81541
▁대만	-9.81541
▁되기	-9.81541
▁맡은	-9.81541
▁보건	-9.81541
▁보호	-9.81541
▁사람들	-9.81541
▁산업	-9.81541
▁상승했다.	-9.81541
▁속	-9.81541
▁시속	-9.81541
▁약물	-9.81541
▁얼마	-9.81541
▁연구에	-9.81541
▁연루된	-9.81541
▁예정입니다.	-9.81541
▁오바마와	-9.81541
▁올해의	-9.81541
▁이중	-9.81541
▁인근에	-9.81541
▁인터넷을	-9.81541
▁일본,	-9.81541
▁있다"며	-9.81541
▁전반	-9.81541
▁제기했다.	-9.81541
▁즉각적인	-9.81541
▁지진	-9.81541
▁집회를	-9.81541
▁첫번째	-9.81541
▁측	-9.81541
▁특정	-9.81541
▁평화를	-9.81541
▁한국에서	-9.81541
▁했습니다.	-9.81541
▁현장을	-9.81541
▁2시간	-9.83141
▁것이고	-9.83141
▁결코	-9.83141
▁곳을	-9.83141
▁국제사회의	-9.83141
▁군은	-9.83141
▁규모가	-9.83141
▁그것을	-9.83141
▁김대중	-9.83141
▁남한	-9.83141
▁납치	-9.83141
▁내부	-9.83141
▁년간	-9.83141
▁눈에	-9.83141
▁당국의	-9.83141
▁대단한	-9.83141
▁대비	-9.83141
▁뒤를	-9.83141
▁따라서	-9.83141
▁마감했다.	-9.83141
▁마치	-9.83141
▁밑	-9.83141
▁방법이	-9.83141
▁부부는	-9.83141
▁사태에	-9.83141
▁생긴	-9.83141
▁식량	-9.83141
▁없지만	-9.83141
▁에는	-9.83141
▁여당인	-9.83141
▁연구는	-9.83141
▁옷을	-9.83141
▁용의자가	-9.83141
▁윌리엄스는	-9.83141
▁의혹을	-9.83141
▁자신에게	-9.83141
▁전부터	-9.83141
▁증가한	-9.83141
▁차량에	-9.83141
▁차량이	-9.83141
▁초점을	-9.83141
▁치안	-9.83141
▁평가했다.	-9.83141
▁포르투갈	-9.83141
▁프랑스의	-9.83141
▁해결할	-9.83141
▁확실한	-9.83141
▁훌륭한	-9.83141
▁가족과	-9.84767
▁갖춘	-9.84767
▁거부했다.	-9.84767
▁검사	-9.84767
▁경우,	-9.84767
▁공개적으로	-9.84767
▁공항에	-9.84767
▁과정을	-9.84767
▁관리들이	-9.84767
▁국민들이	-9.84767
▁군인	-9.84767
▁눈이	-9.84767
▁대선후보	-9.84767
▁도쿄	-9.84767
▁독립	-9.84767
▁뒤에	-9.84767
▁만들고	-9.84767
▁맞서	-9.84767
▁물이	-9.84767
▁민주화	-9.84767
▁박	-9.84767
▁받으며	-9.84767
▁법을	-9.84767
▁비난	-9.84767
▁뿐만아니라	-9.84767
▁상태가	-9.84767
▁생산	-9.84767
▁시민	-9.84767
▁신임	-9.84767
▁아마도	-9.84767
▁언론에	-9.84767
▁완전한	-9.84767
▁외교부	-9.84767
▁요구	-9.84767
▁인질로	-9.84767
▁임기	-9.84767
▁잡고	-9.84767
▁전국	-9.84767
▁전역에	-9.84767
▁점차	-9.84767
▁지지자들은	-9.84767
▁참여한	-9.84767
▁총선	-9.84767
▁친	-9.84767
▁카르자이	-9.84767
▁타임즈	-9.84767
▁펜실베이니아	-9.84767
▁합의했다고	-9.84767
▁항공사	-9.84767
▁1위를	-9.8642
▁2009.06	-9.8642
▁2세	-9.8642
▁5명의	-9.8642
▁AC	-9.8642
▁“그들은	-9.8642
▁가족들이	-9.8642
▁감시	-9.8642
▁같다”고	-9.8642
▁거리에	-9.8642
▁공개된	-9.8642
▁규모	-9.8642
▁당신은	-9.8642
▁등에	-9.8642
▁때,	-9.8642
▁미칠	-9.8642
▁법원	-9.8642
▁변호사가	-9.8642
▁비자	-9.8642
▁사라	-9.8642
▁사르코지는	-9.8642
▁세계의	-9.8642
▁수색	-9.8642
▁시기에	-9.8642
▁아프가니스탄에서	-9.8642
▁움직임을	-9.8642
▁이곳에	-9.8642
▁이에따라	-9.8642
▁인구가	-9.8642
▁인용	-9.8642
▁입을	-9.8642
▁장면이	-9.8642
▁전,	-9.8642
▁정책에	-9.8642
▁제품	-9.8642
▁종교	-9.8642
▁체포했다.	-9.8642
▁치열한	-9.8642
▁컴퓨터를	-9.8642
▁폭발이	-9.8642
▁했다는	-9.8642
▁혜택을	-9.8642
▁화재로	-9.8642
▁“그	-9.881
▁감염된	-9.881
▁거래	-9.881
▁기록한	-9.881
▁나라의	-9.881
▁나올	-9.881
▁나의	-9.881
▁낸시	-9.881
▁다르푸르	-9.881
▁단어장	-9.881
▁도시에서	-9.881
▁돈	-9.881
▁든	-9.881
▁또다시	-9.881
▁마무리	-9.881
▁마쳤다.	-9.881
▁물에	-9.881
▁미국으로	-9.881
▁받아들일	-9.881
▁받았으며	-9.881
▁방송을	-9.881
▁변호사	-9.881
▁보통	-9.881
▁부상으로	-9.881
▁비난하고	-9.881
▁세계적인	-9.881
▁세력이	-9.881
▁수출	-9.881
▁승리할	-9.881
▁시절	-9.881
▁아기	-9.881
▁압둘	-9.881
▁여객기가	-9.881
▁영향력을	-9.881
▁영화에	-9.881
▁원유	-9.881
▁위협이	-9.881
▁음식을	-9.881
▁이같이	-9.881
▁이미지를	-9.881
▁일본에	-9.881
▁장관의	-9.881
▁전력	-9.881
▁전세계적으로	-9.881
▁전투	-9.881
▁조치는	-9.881
▁주장한	-9.881
▁증시는	-9.881
▁집권	-9.881
▁칸	-9.881
▁케네디	-9.881
▁케빈	-9.881
▁태평양	-9.881
▁파병	-9.881
▁휴가를	-9.881
▁8명이	-9.8981
▁DNA	-9.8981
▁from	-9.8981
▁가운데,	-9.8981
▁개혁을	-9.8981
▁거쳐	-9.8981
▁경기가	-9.8981
▁국장은	-9.8981
▁논의하기	-9.8981
▁딸	-9.8981
▁로	-9.8981
▁마무드	-9.8981
▁말하며	-9.8981
▁목격자들은	-9.8981
▁목표를	-9.8981
▁무사히	-9.8981
▁물	-9.8981
▁미군을	-9.8981
▁발사	-9.8981
▁벌이는	-9.8981
▁베컴은	-9.8981
▁보지	-9.8981
▁부상자	-9.8981
▁부인	-9.8981
▁부패	-9.8981
▁비행기를	-9.8981
▁사고를	-9.8981
▁상을	-9.8981
▁상태를	-9.8981
▁실패했다.	-9.8981
▁쓴	-9.8981
▁안전하게	-9.8981
▁없다"고	-9.8981
▁여성과	-9.8981
▁오픈	-9.8981
▁오히려	-9.8981
▁의원의	-9.8981
▁정도의	-9.8981
▁제공할	-9.8981
▁중대한	-9.8981
▁증가했다고	-9.8981
▁진행되는	-9.8981
▁체포	-9.8981
▁축구	-9.8981
▁캘리포니아주	-9.8981
▁크리스	-9.8981
▁투표에서	-9.8981
▁헨리	-9.8981
▁회의	-9.8981
▁2009년	-9.91549
▁감독의	-9.91549
▁개발을	-9.91549
▁거리를	-9.91549
▁공급	-9.91549
▁과학	-9.91549
▁긍정적인	-9.91549
▁남북한	-9.91549
▁내무부는	-9.91549
▁낼	-9.91549
▁다우존스	-9.91549
▁단체가	-9.91549
▁당국에	-9.91549
▁대변인	-9.91549
▁된다는	-9.91549
▁둘러싼	-9.91549
▁모른다.	-9.91549
▁번째로	-9.91549
▁사기	-9.91549
▁사람들과	-9.91549
▁사실은	-9.91549
▁사업을	-9.91549
▁샤리프	-9.91549
▁수상한	-9.91549
▁시간)	-9.91549
▁아기를	-9.91549
▁안정을	-9.91549
▁않게	-9.91549
▁않겠다고	-9.91549
▁엄청난	-9.91549
▁연합	-9.91549
▁인기를	-9.91549
▁일으킨	-9.91549
▁있어서	-9.91549
▁있었다”며	-9.91549
▁자신과	-9.91549
▁잘못된	-9.91549
▁제작한	-9.91549
▁조사가	-9.91549
▁진술했다.	-9.91549
▁통신이	-9.91549
▁패배를	-9.91549
▁표를	-9.91549
▁행정부가	-9.91549
▁홍수로	-9.91549
▁훈련	-9.91549
▁2차례	-9.93319
▁CNN의	-9.93319
▁경찰서장은	-9.93319
▁경험이	-9.93319
▁교통	-9.93319
▁국제적	-9.93319
▁기회가	-9.93319
▁나오지	-9.93319
▁나은	-9.93319
▁단체의	-9.93319
▁대의원을	-9.93319
▁백악관에서	-9.93319
▁비난하는	-9.93319
▁사태	-9.93319
▁성적	-9.93319
▁시작	-9.93319
▁아랍	-9.93319
▁아이가	-9.93319
▁알카에다와	-9.93319
▁우선	-9.93319
▁월요일에	-9.93319
▁위성	-9.93319
▁이루어졌다.	-9.93319
▁인질을	-9.93319
▁전해	-9.93319
▁절차를	-9.93319
▁종종	-9.93319
▁주도한	-9.93319
▁차드	-9.93319
▁참석했다.	-9.93319
▁철수	-9.93319
▁충돌이	-9.93319
▁칠레	-9.93319
▁하나인	-9.93319
▁화성	-9.93319
▁휘발유	-9.93319
▁1차	-9.95121
▁31일(현지시간)	-9.95121
▁6개월	-9.95121
▁at	-9.95121
▁nuclear	-9.95121
▁가족이	-9.95121
▁갖추고	-9.95121
▁것임을	-9.95121
▁공을	-9.95121
▁교황	-9.95121
▁그린	-9.95121
▁근처에서	-9.95121
▁글을	-9.95121
▁꼭	-9.95121
▁넘어	-9.95121
▁달리고	-9.95121
▁도착한	-9.95121
▁리차드	-9.95121
▁마음을	-9.95121
▁마틴	-9.95121
▁맡고	-9.95121
▁못했다”고	-9.95121
▁미국인들이	-9.95121
▁반군의	-9.95121
▁발표를	-9.95121
▁부시의	-9.95121
▁북쪽으로	-9.95121
▁비교적	-9.95121
▁상태로	-9.95121
▁상황은	-9.95121
▁성공적으로	-9.95121
▁세르비아	-9.95121
▁손에	-9.95121
▁스위스	-9.95121
▁승리로	-9.95121
▁아이들의	-9.95121
▁여사는	-9.95121
▁예비	-9.95121
▁오바마를	-9.95121
▁오바마에	-9.95121
▁요청을	-9.95121
▁우리를	-9.95121
▁인용해	-9.95121
▁일에	-9.95121
▁정권을	-9.95121
▁즉각	-9.95121
▁지역에서는	-9.95121
▁질	-9.95121
▁짧은	-9.95121
▁차이가	-9.95121
▁참석할	-9.95121
▁최대의	-9.95121
▁충격을	-9.95121
▁치명적인	-9.95121
▁킹	-9.95121
▁태운	-9.95121
▁해도	-9.95121
▁활동	-9.95121
▁후보인	-9.95121
▁희망을	-9.95121
▁1시간	-9.96956
▁“그가	-9.96956
▁가수	-9.96956
▁강도	-9.96956
▁검은	-9.96956
▁검찰이	-9.96956
▁관광객	-9.96956
▁관영	-9.96956
▁교회	-9.96956
▁그대로	-9.96956
▁나에게	-9.96956
▁누리	-9.96956
▁다시한번	-9.96956
▁드라마	-9.96956
▁들었다.	-9.96956
▁말할	-9.96956
▁맞춰	-9.96956
▁모기지	-9.96956
▁무릎	-9.96956
▁발견한	-9.96956
▁발생하고	-9.96956
▁버스	-9.96956
▁변호사인	-9.96956
▁보여주고	-9.96956
▁사업	-9.96956
▁사원	-9.96956
▁상태다.	-9.96956
▁소식통이	-9.96956
▁소위	-9.96956
▁수준으로	-9.96956
▁시위는	-9.96956
▁알렉산더	-9.96956
▁알카에다의	-9.96956
▁에이즈	-9.96956
▁올라	-9.96956
▁운영하고	-9.96956
▁인간의	-9.96956
▁있었고	-9.96956
▁전문가들이	-9.96956
▁주둔하고	-9.96956
▁주에	-9.96956
▁지도	-9.96956
▁지도자가	-9.96956
▁지원할	-9.96956
▁차지하고	-9.96956
▁책을	-9.96956
▁체포됐다고	-9.96956
▁합의한	-9.96956
▁행사	-9.96956
▁협상에	-9.96956
▁혼란을	-9.96956
▁확인할	-9.96956
▁힐튼은	-9.96956
▁CIA	-9.98825
▁CNN과의	-9.98825
▁Iraq	-9.98825
▁President	-9.98825
▁his	-9.98825
▁가족들은	-9.98825
▁건	-9.98825
▁곳이다.	-9.98825
▁관련한	-9.98825
▁규정을	-9.98825
▁그렇지	-9.98825
▁근거로	-9.98825
▁남부에서	-9.98825
▁도로를	-9.98825
▁듣고	-9.98825
▁딕	-9.98825
▁러시아,	-9.98825
▁마친	-9.98825
▁미군과	-9.98825
▁밝혀	-9.98825
▁방법은	-9.98825
▁방식으로	-9.98825
▁법정	-9.98825
▁별다른	-9.98825
▁성인	-9.98825
▁속도로	-9.98825
▁시신	-9.98825
▁쓰고	-9.98825
▁아이오와	-9.98825
▁않기	-9.98825
▁언급을	-9.98825
▁오하이오	-9.98825
▁이동	-9.98825
▁자국	-9.98825
▁자기	-9.98825
▁전날	-9.98825
▁절대	-9.98825
▁조기	-9.98825
▁중단할	-9.98825
▁지하	-9.98825
▁총재는	-9.98825
▁투표에	-9.98825
▁파업을	-9.98825
▁표명했다.	-9.98825
▁하루에	-9.98825
▁한나라당은	-9.98825
▁행사를	-9.98825
▁헬기	-9.98825
▁헬기가	-9.98825
▁호주의	-9.98825
▁(CNN)/	-10.0073
▁1994년	-10.0073
▁24시간	-10.0073
▁2번째	-10.0073
▁5개	-10.0073
▁̋	-10.0073
▁가량	-10.0073
▁결혼을	-10.0073
▁계속되는	-10.0073
▁계속될	-10.0073
▁공습을	-10.0073
▁교도소에	-10.0073
▁교육을	-10.0073
▁기독교	-10.0073
▁네팔	-10.0073
▁노력이	-10.0073
▁눈을	-10.0073
▁뉴욕의	-10.0073
▁다니엘	-10.0073
▁등으로	-10.0073
▁리	-10.0073
▁문제와	-10.0073
▁발표하고	-10.0073
▁방문하는	-10.0073
▁부통령은	-10.0073
▁블라고예비치	-10.0073
▁사고는	-10.0073
▁생각이	-10.0073
▁생명을	-10.0073
▁성관계를	-10.0073
▁세계적으로	-10.0073
▁소프트웨어	-10.0073
▁스리랑카	-10.0073
▁스타디움에서	-10.0073
▁시설	-10.0073
▁실시할	-10.0073
▁아들을	-10.0073
▁아파트	-10.0073
▁않는다는	-10.0073
▁압박을	-10.0073
▁여성들이	-10.0073
▁예정인	-10.0073
▁위원회	-10.0073
▁은행의	-10.0073
▁음악을	-10.0073
▁이름이	-10.0073
▁이용하는	-10.0073
▁인근에서	-10.0073
▁자리에	-10.0073
▁전기	-10.0073
▁주장하며	-10.0073
▁주장한다.	-10.0073
▁진정한	-10.0073
▁짐	-10.0073
▁철수를	-10.0073
▁촬영한	-10.0073
▁최근에	-10.0073
▁출연한	-10.0073
▁태풍	-10.0073
▁테러에	-10.0073
▁팀이	-10.0073
▁패트릭	-10.0073
▁피해자	-10.0073
▁한나라당의	-10.0073
▁해안에서	-10.0073
▁30분	-10.0267
▁“내가	-10.0267
▁“현재	-10.0267
▁가자	-10.0267
▁가족은	-10.0267
▁가족을	-10.0267
▁가치를	-10.0267
▁같다.	-10.0267
▁걸린	-10.0267
▁결과로	-10.0267
▁결정할	-10.0267
▁경제의	-10.0267
▁곳은	-10.0267
▁교황은	-10.0267
▁국가들은	-10.0267
▁그들	-10.0267
▁그룹	-10.0267
▁남자는	-10.0267
▁남편	-10.0267
▁다리를	-10.0267
▁단체인	-10.0267
▁달린	-10.0267
▁대선후보로	-10.0267
▁대표가	-10.0267
▁무선	-10.0267
▁민감한	-10.0267
▁번	-10.0267
▁법안은	-10.0267
▁보도가	-10.0267
▁복잡한	-10.0267
▁부부가	-10.0267
▁부상	-10.0267
▁부정적인	-10.0267
▁비타민	-10.0267
▁사람에게	-10.0267
▁사용하지	-10.0267
▁사용해	-10.0267
▁사형	-10.0267
▁선수가	-10.0267
▁수입	-10.0267
▁시신이	-10.0267
▁아는	-10.0267
▁아이들은	-10.0267
▁앞둔	-10.0267
▁양국의	-10.0267
▁양의	-10.0267
▁역사	-10.0267
▁의사	-10.0267
▁의사들은	-10.0267
▁일본과	-10.0267
▁있었다는	-10.0267
▁있지만,	-10.0267
▁작업에	-10.0267
▁재판	-10.0267
▁정권이	-10.0267
▁조건으로	-10.0267
▁조사한	-10.0267
▁종류의	-10.0267
▁증시가	-10.0267
▁지점에서	-10.0267
▁처벌을	-10.0267
▁추락	-10.0267
▁충돌로	-10.0267
▁코미디	-10.0267
▁합동	-10.0267
▁후보와	-10.0267
▁후진타오	-10.0267
▁감독	-10.0465
▁거대	-10.0465
▁거주하고	-10.0465
▁건물이	-10.0465
▁고속도로	-10.0465
▁광고를	-10.0465
▁국가로	-10.0465
▁남성은	-10.0465
▁노동	-10.0465
▁늦게	-10.0465
▁다섯	-10.0465
▁담은	-10.0465
▁당신의	-10.0465
▁대상이	-10.0465
▁대표	-10.0465
▁만	-10.0465
▁만일	-10.0465
▁목표는	-10.0465
▁못하도록	-10.0465
▁밝혀진	-10.0465
▁밝혔지만	-10.0465
▁보게	-10.0465
▁브라운은	-10.0465
▁사실에	-10.0465
▁사회적	-10.0465
▁살인	-10.0465
▁상태이다.	-10.0465
▁수정	-10.0465
▁실수를	-10.0465
▁아프간에서	-10.0465
▁않기로	-10.0465
▁않았던	-10.0465
▁없게	-10.0465
▁여부에	-10.0465
▁원자로를	-10.0465
▁유권자	-10.0465
▁유권자들이	-10.0465
▁이곳	-10.0465
▁이용할	-10.0465
▁절반	-10.0465
▁주의를	-10.0465
▁지지자들이	-10.0465
▁직접적인	-10.0465
▁취임	-10.0465
▁케리	-10.0465
▁클린턴의	-10.0465
▁팬들은	-10.0465
▁펠로시	-10.0465
▁평화와	-10.0465
▁폭력사태가	-10.0465
▁하락한	-10.0465
▁하면서	-10.0465
▁학교에	-10.0465
▁했다”며	-10.0465
▁협력	-10.0465
▁화요일에	-10.0465
▁1명을	-10.0667
▁8명의	-10.0667
▁BBC	-10.0667
▁“우리	-10.0667
▁가득	-10.0667
▁감염	-10.0667
▁공개됐다.	-10.0667
▁구호를	-10.0667
▁국가들이	-10.0667
▁군이	-10.0667
▁끝날	-10.0667
▁논쟁이	-10.0667
▁뉴질랜드	-10.0667
▁도시의	-10.0667
▁돕기	-10.0667
▁동일한	-10.0667
▁되길	-10.0667
▁둘	-10.0667
▁드러냈다.	-10.0667
▁디지털	-10.0667
▁만들기	-10.0667
▁말해	-10.0667
▁맞는	-10.0667
▁무고한	-10.0667
▁바란다고	-10.0667
▁발표됐다.	-10.0667
▁밝혔다고	-10.0667
▁법원에서	-10.0667
▁보잉	-10.0667
▁부대	-10.0667
▁북동부	-10.0667
▁북부에	-10.0667
▁불에	-10.0667
▁상당히	-10.0667
▁상승한	-10.0667
▁상원의원의	-10.0667
▁생활	-10.0667
▁서	-10.0667
▁서방	-10.0667
▁성명은	-10.0667
▁성장을	-10.0667
▁소식에	-10.0667
▁소식은	-10.0667
▁소유하고	-10.0667
▁승객	-10.0667
▁시드의	-10.0667
▁신고를	-10.0667
▁심각하게	-10.0667
▁아난	-10.0667
▁알래스카	-10.0667
▁양측은	-10.0667
▁역사적	-10.0667
▁원하고	-10.0667
▁위대한	-10.0667
▁위치하고	-10.0667
▁유엔의	-10.0667
▁인질들을	-10.0667
▁일리노이	-10.0667
▁자택에서	-10.0667
▁장군은	-10.0667
▁전망했다.	-10.0667
▁줄일	-10.0667
▁차이로	-10.0667
▁찬	-10.0667
▁캠프	-10.0667
▁파타	-10.0667
▁푸틴은	-10.0667
▁하나는	-10.0667
▁하마스가	-10.0667
▁한국,	-10.0667
▁해당하는	-10.0667
▁했으나	-10.0667
▁환자	-10.0667
▁TV는	-10.0873
▁“내	-10.0873
▁갖는	-10.0873
▁개인적인	-10.0873
▁게	-10.0873
▁격렬한	-10.0873
▁결정했다고	-10.0873
▁경쟁을	-10.0873
▁국무부는	-10.0873
▁기업의	-10.0873
▁논쟁을	-10.0873
▁놀라운	-10.0873
▁니콜	-10.0873
▁데에	-10.0873
▁도로	-10.0873
▁딸을	-10.0873
▁때문이라고	-10.0873
▁로이터	-10.0873
▁모양의	-10.0873
▁받았던	-10.0873
▁밥	-10.0873
▁방향으로	-10.0873
▁분석가들은	-10.0873
▁불구하고,	-10.0873
▁붕괴	-10.0873
▁비용	-10.0873
▁사과를	-10.0873
▁사이클론	-10.0873
▁사항을	-10.0873
▁상원의원과	-10.0873
▁성향의	-10.0873
▁손실을	-10.0873
▁수도인	-10.0873
▁신	-10.0873
▁아버지가	-10.0873
▁아이	-10.0873
▁야후	-10.0873
▁언론의	-10.0873
▁원	-10.0873
▁의하면,	-10.0873
▁이스라엘에	-10.0873
▁인도의	-10.0873
▁일으킬	-10.0873
▁있었으나	-10.0873
▁장	-10.0873
▁지원하는	-10.0873
▁직원들이	-10.0873
▁참여할	-10.0873
▁캠페인을	-10.0873
▁통신	-10.0873
▁하에	-10.0873
▁행위에	-10.0873
▁행정부의	-10.0873
▁an	-10.1084
▁“오늘	-10.1084
▁감사의	-10.1084
▁건강한	-10.1084
▁공습으로	-10.1084
▁나설	-10.1084
▁남부에	-10.1084
▁남편인	-10.1084
▁느낄	-10.1084
▁당초	-10.1084
▁도시인	-10.1084
▁마을에서	-10.1084
▁바라는	-10.1084
▁방문,	-10.1084
▁번의	-10.1084
▁보도에	-10.1084
▁보여	-10.1084
▁보일	-10.1084
▁복제	-10.1084
▁부분을	-10.1084
▁비난하며	-10.1084
▁사용	-10.1084
▁사퇴	-10.1084
▁상당의	-10.1084
▁상대	-10.1084
▁상태에서	-10.1084
▁수술	-10.1084
▁신규	-10.1084
▁신조	-10.1084
▁아일랜드	-10.1084
▁앉아	-10.1084
▁에드워즈	-10.1084
▁영국은	-10.1084
▁영국인	-10.1084
▁오래	-10.1084
▁외무부는	-10.1084
▁용의자로	-10.1084
▁우리에게	-10.1084
▁원문기사	-10.1084
▁위험을	-10.1084
▁유지하고	-10.1084
▁은행에	-10.1084
▁인터넷에	-10.1084
▁일어날	-10.1084
▁작전	-10.1084
▁전통적인	-10.1084
▁제공한	-10.1084
▁조사할	-10.1084
▁조종사	-10.1084
▁주가는	-10.1084
▁죽음을	-10.1084
▁중이던	-10.1084
▁증가할	-10.1084
▁지도자는	-10.1084
▁지원하고	-10.1084
▁지지하고	-10.1084
▁처한	-10.1084
▁충돌	-10.1084
▁키바키	-10.1084
▁투자를	-10.1084
▁팀을	-10.1084
▁판	-10.1084
▁페더러는	-10.1084
▁하미드	-10.1084
▁행사에	-10.1084
▁활동에	-10.1084
▁효과가	-10.1084
▁힘입어	-10.1084
▁2005.10	-10.1299
▁3개	-10.1299
▁3개월	-10.1299
▁“우리가	-10.1299
▁가벼운	-10.1299
▁가족의	-10.1299
▁건강에	-10.1299
▁건강이	-10.1299
▁겨울	-10.1299
▁경선을	-10.1299
▁경쟁	-10.1299
▁국가에서	-10.1299
▁기록	-10.1299
▁기소된	-10.1299
▁나달은	-10.1299
▁나라	-10.1299
▁남서부	-10.1299
▁노래를	-10.1299
▁높다고	-10.1299
▁당했다고	-10.1299
▁대량	-10.1299
▁대중	-10.1299
▁대학에서	-10.1299
▁딸이	-10.1299
▁또다른	-10.1299
▁막대한	-10.1299
▁말에	-10.1299
▁몰고	-10.1299
▁몸에	-10.1299
▁미치는	-10.1299
▁민주당이	-10.1299
▁반대로	-10.1299
▁방글라데시	-10.1299
▁보이며	-10.1299
▁보호를	-10.1299
▁비행기가	-10.1299
▁사전	-10.1299
▁삼성	-10.1299
▁상원의원을	-10.1299
▁새벽	-10.1299
▁생산을	-10.1299
▁선포했다.	-10.1299
▁세계적	-10.1299
▁술을	-10.1299
▁승무원	-10.1299
▁시장을	-10.1299
▁신문	-10.1299
▁아니라는	-10.1299
▁아동	-10.1299
▁않는다”며	-10.1299
▁않았다”며	-10.1299
▁알지	-10.1299
▁암	-10.1299
▁앤드류	-10.1299
▁열고	-10.1299
▁영국과	-10.1299
▁올림픽을	-10.1299
▁완벽한	-10.1299
▁왕자가	-10.1299
▁우고	-10.1299
▁원인은	-10.1299
▁위험	-10.1299
▁이란과	-10.1299
▁이와같이	-10.1299
▁이익을	-10.1299
▁일련의	-10.1299
▁일이라고	-10.1299
▁일찍	-10.1299
▁있어야	-10.1299
▁자유롭게	-10.1299
▁자치정부	-10.1299
▁작가	-10.1299
▁정상회담을	-10.1299
▁제출한	-10.1299
▁조사는	-10.1299
▁지역인	-10.1299
▁천연가스	-10.1299
▁총상을	-10.1299
▁출연	-10.1299
▁코소보	-10.1299
▁클린턴에	-10.1299
▁테러는	-10.1299
▁포함돼	-10.1299
▁포함된	-10.1299
▁한국을	-10.1299
▁해서	-10.1299
▁회사를	-10.1299
▁회의에	-10.1299
▁"나는	-10.1519
▁10년간	-10.1519
▁1주일	-10.1519
▁3번째	-10.1519
▁6명의	-10.1519
▁9명이	-10.1519
▁not	-10.1519
▁“만약	-10.1519
▁공격한	-10.1519
▁공산당	-10.1519
▁국가에	-10.1519
▁권리가	-10.1519
▁그녀를	-10.1519
▁나이가	-10.1519
▁나타내는	-10.1519
▁내고	-10.1519
▁대다수	-10.1519
▁대회를	-10.1519
▁데이빗	-10.1519
▁됐으며	-10.1519
▁라이언	-10.1519
▁라파엘	-10.1519
▁리비아	-10.1519
▁만났다.	-10.1519
▁모르는	-10.1519
▁무엇보다	-10.1519
▁미스	-10.1519
▁방송에	-10.1519
▁법안에	-10.1519
▁북서부	-10.1519
▁불이	-10.1519
▁살해된	-10.1519
▁석방	-10.1519
▁성화	-10.1519
▁소규모	-10.1519
▁수입을	-10.1519
▁숨을	-10.1519
▁쉽지	-10.1519
▁시드니	-10.1519
▁실린	-10.1519
▁싱가포르	-10.1519
▁아내	-10.1519
▁아들이	-10.1519
▁앞서고	-10.1519
▁연간	-10.1519
▁외교통상부	-10.1519
▁요구하며	-10.1519
▁우크라이나	-10.1519
▁위로	-10.1519
▁위협하고	-10.1519
▁이끌고	-10.1519
▁이제는	-10.1519
▁전국적으로	-10.1519
▁전문	-10.1519
▁전하고	-10.1519
▁제리	-10.1519
▁제외한	-10.1519
▁즐길	-10.1519
▁최선을	-10.1519
▁친구	-10.1519
▁타임즈가	-10.1519
▁탈레반이	-10.1519
▁투르	-10.1519
▁투어	-10.1519
▁팀의	-10.1519
▁평화적	-10.1519
▁폭우로	-10.1519
▁프랭크	-10.1519
▁필요로	-10.1519
▁하나로	-10.1519
▁행동에	-10.1519
▁향하는	-10.1519
▁홍수	-10.1519
▁회장이	-10.1519
▁3명을	-10.1744
▁National	-10.1744
▁Obama	-10.1744
▁over	-10.1744
▁간에	-10.1744
▁강제로	-10.1744
▁개를	-10.1744
▁경매에	-10.1744
▁경험을	-10.1744
▁고려하고	-10.1744
▁국민의	-10.1744
▁남성의	-10.1744
▁남아공	-10.1744
▁내려	-10.1744
▁노조	-10.1744
▁농축	-10.1744
▁다이애나	-10.1744
▁당선인이	-10.1744
▁대책을	-10.1744
▁때는	-10.1744
▁또한,	-10.1744
▁러시아가	-10.1744
▁로저	-10.1744
▁마흐디	-10.1744
▁말했습니다.”	-10.1744
▁메르켈	-10.1744
▁목사는	-10.1744
▁발표했습니다.	-10.1744
▁벤	-10.1744
▁보고서에따르면	-10.1744
▁보내	-10.1744
▁보인	-10.1744
▁부토의	-10.1744
▁북한,	-10.1744
▁사망자는	-10.1744
▁사용하고	-10.1744
▁사진이	-10.1744
▁상처를	-10.1744
▁서장은	-10.1744
▁수감자	-10.1744
▁시위대	-10.1744
▁시작했다고	-10.1744
▁아프간에	-10.1744
▁야생	-10.1744
▁양국은	-10.1744
▁얻고	-10.1744
▁엄격한	-10.1744
▁연구소의	-10.1744
▁연기를	-10.1744
▁열대성	-10.1744
▁옆에	-10.1744
▁예정이었다.	-10.1744
▁우주선	-10.1744
▁유럽에서	-10.1744
▁일본인	-10.1744
▁일주일	-10.1744
▁전반적인	-10.1744
▁정신적	-10.1744
▁조직	-10.1744
▁좋아하는	-10.1744
▁준비하고	-10.1744
▁증언을	-10.1744
▁지고	-10.1744
▁지구에	-10.1744
▁지시했다.	-10.1744
▁참석하지	-10.1744
▁취한	-10.1744
▁탈레반은	-10.1744
▁트럭	-10.1744
▁프라이머리에서	-10.1744
▁하거나	-10.1744
▁했었다.	-10.1744
▁확산되고	-10.1744
▁(현지	-10.1973
▁20명이	-10.1973
▁3명은	-10.1973
▁6년	-10.1973
▁CBS	-10.1973
▁NBC	-10.1973
▁are	-10.1973
▁가능성도	-10.1973
▁가했다.	-10.1973
▁건물에	-10.1973
▁계속된	-10.1973
▁계획하고	-10.1973
▁광고	-10.1973
▁군부	-10.1973
▁군사적	-10.1973
▁군인들이	-10.1973
▁기소됐다.	-10.1973
▁길이	-10.1973
▁남편이	-10.1973
▁노동자	-10.1973
▁뉴	-10.1973
▁다우	-10.1973
▁다음날	-10.1973
▁대법원은	-10.1973
▁동영상이	-10.1973
▁두번째	-10.1973
▁들어간	-10.1973
▁들어갈	-10.1973
▁떠나	-10.1973
▁모델	-10.1973
▁무엇을	-10.1973
▁방문은	-10.1973
▁방문해	-10.1973
▁법	-10.1973
▁법정에서	-10.1973
▁보고서가	-10.1973
▁봄	-10.1973
▁비롯,	-10.1973
▁사임을	-10.1973
▁사진은	-10.1973
▁사형을	-10.1973
▁성공한	-10.1973
▁소속의	-10.1973
▁아버지	-10.1973
▁않다”고	-10.1973
▁야후의	-10.1973
▁여론조사에서	-10.1973
▁여섯	-10.1973
▁예상하고	-10.1973
▁왕자는	-10.1973
▁요구했다고	-10.1973
▁용의자는	-10.1973
▁유죄를	-10.1973
▁의견이	-10.1973
▁이곳은	-10.1973
▁이뤄진	-10.1973
▁이용한	-10.1973
▁일본을	-10.1973
▁있은	-10.1973
▁작업이	-10.1973
▁전역에서	-10.1973
▁중에서	-10.1973
▁찬성	-10.1973
▁추정하고	-10.1973
▁카메라를	-10.1973
▁칼	-10.1973
▁타이틀을	-10.1973
▁탑승한	-10.1973
▁터키의	-10.1973
▁통과시켰다.	-10.1973
▁판결이	-10.1973
▁팬들이	-10.1973
▁펼쳤다.	-10.1973
▁플레이를	-10.1973
▁호소했다.	-10.1973
▁확인	-10.1973
▁효과를	-10.1973
▁힘들	-10.1973
▁"이번	-10.2209
▁11명이	-10.2209
▁1990년대	-10.2209
▁4개	-10.2209
▁‘더	-10.2209
▁“미국	-10.2209
▁“이라크	-10.2209
▁“지난	-10.2209
▁가족들과	-10.2209
▁것이었다.	-10.2209
▁결정적인	-10.2209
▁공장	-10.2209
▁관광	-10.2209
▁광범위한	-10.2209
▁구제	-10.2209
▁기사를	-10.2209
▁내렸다고	-10.2209
▁넘게	-10.2209
▁높아지고	-10.2209
▁느끼고	-10.2209
▁다룬	-10.2209
▁달러가	-10.2209
▁덴마크	-10.2209
▁떠날	-10.2209
▁떠났다.	-10.2209
▁래리	-10.2209
▁마드리드	-10.2209
▁맞고	-10.2209
▁매케인의	-10.2209
▁모른다고	-10.2209
▁목소리를	-10.2209
▁무장세력이	-10.2209
▁민주당은	-10.2209
▁민주주의를	-10.2209
▁발표는	-10.2209
▁방문에	-10.2209
▁방법에	-10.2209
▁범인이	-10.2209
▁보고를	-10.2209
▁보고서	-10.2209
▁보내고	-10.2209
▁보냈다고	-10.2209
▁보여줬다.	-10.2209
▁사이트를	-10.2209
▁상원의원	-10.2209
▁섬	-10.2209
▁성공을	-10.2209
▁소형	-10.2209
▁수행할	-10.2209
▁시작으로	-10.2209
▁신속히	-10.2209
▁실험을	-10.2209
▁심하게	-10.2209
▁씨가	-10.2209
▁아름다운	-10.2209
▁아버지는	-10.2209
▁안으로	-10.2209
▁않았다는	-10.2209
▁않았으나	-10.2209
▁알리는	-10.2209
▁얻어	-10.2209
▁여지가	-10.2209
▁열렸다.	-10.2209
▁영국군	-10.2209
▁영화가	-10.2209
▁예전	-10.2209
▁오스트리아	-10.2209
▁움직임은	-10.2209
▁위원장이	-10.2209
▁이루어진	-10.2209
▁인구의	-10.2209
▁인사를	-10.2209
▁일하고	-10.2209
▁잃었다.	-10.2209
▁잇는	-10.2209
▁전인	-10.2209
▁조지아주	-10.2209
▁존스	-10.2209
▁좀더	-10.2209
▁주기	-10.2209
▁중의	-10.2209
▁직원이	-10.2209
▁최첨단	-10.2209
▁치러지는	-10.2209
▁커다란	-10.2209
▁폭력을	-10.2209
▁한국군	-10.2209
▁합의에	-10.2209
▁행정부는	-10.2209
▁허가를	-10.2209
▁활동이	-10.2209
▁1980년대	-10.245
▁2개	-10.245
▁3명	-10.245
▁China	-10.245
▁“많은	-10.245
▁가고	-10.245
▁가택연금	-10.245
▁감바리	-10.245
▁강진이	-10.245
▁견해를	-10.245
▁결정이	-10.245
▁경기는	-10.245
▁공개한	-10.245
▁공항을	-10.245
▁국가들의	-10.245
▁국제유가가	-10.245
▁국제적인	-10.245
▁금요일	-10.245
▁나가	-10.245
▁나라를	-10.245
▁남자를	-10.245
▁내려진	-10.245
▁널리	-10.245
▁달간	-10.245
▁당해	-10.245
▁도착할	-10.245
▁동안의	-10.245
▁리그	-10.245
▁마리아	-10.245
▁마카오	-10.245
▁매들린	-10.245
▁매케인이	-10.245
▁목적을	-10.245
▁무샤라프는	-10.245
▁미국측	-10.245
▁미리	-10.245
▁바이러스	-10.245
▁반면,	-10.245
▁받았다”고	-10.245
▁법안	-10.245
▁법원의	-10.245
▁베네딕토	-10.245
▁베트남	-10.245
▁변화에	-10.245
▁병력이	-10.245
▁보고서에	-10.245
▁부대를	-10.245
▁부족한	-10.245
▁브라이언	-10.245
▁비디오를	-10.245
▁비행을	-10.245
▁사용된	-10.245
▁사퇴를	-10.245
▁샌프란시스코	-10.245
▁생각한다”며	-10.245
▁서신을	-10.245
▁선수들이	-10.245
▁성과를	-10.245
▁수사에	-10.245
▁숨졌으며	-10.245
▁알카에다가	-10.245
▁앞으로도	-10.245
▁약간의	-10.245
▁언제	-10.245
▁얼굴을	-10.245
▁영국에	-10.245
▁예정”이라고	-10.245
▁왼쪽	-10.245
▁음반	-10.245
▁의사는	-10.245
▁의원들이	-10.245
▁의회를	-10.245
▁이내에	-10.245
▁이메일을	-10.245
▁일어나는	-10.245
▁자유	-10.245
▁전략을	-10.245
▁제시했다.	-10.245
▁제출했다.	-10.245
▁제치고	-10.245
▁존슨	-10.245
▁주민들을	-10.245
▁주민들의	-10.245
▁중단	-10.245
▁지역이	-10.245
▁직원들은	-10.245
▁집중	-10.245
▁차관은	-10.245
▁총격	-10.245
▁총에	-10.245
▁최저	-10.245
▁치러질	-10.245
▁카를로스	-10.245
▁페루	-10.245
▁포함하여	-10.245
▁핵실험을	-10.245
▁현재는	-10.245
▁화려한	-10.245
▁회원국	-10.245
▁"라고	-10.2697
▁2	-10.2697
▁5년간	-10.2697
▁7명의	-10.2697
▁NASA는	-10.2697
▁its	-10.2697
▁new	-10.2697
▁“매우	-10.2697
▁“부시	-10.2697
▁“오바마	-10.2697
▁가	-10.2697
▁가난한	-10.2697
▁감정을	-10.2697
▁거부권을	-10.2697
▁거절했다.	-10.2697
▁결승전에서	-10.2697
▁계속할	-10.2697
▁고위급	-10.2697
▁공개하지	-10.2697
▁관계자의	-10.2697
▁규모를	-10.2697
▁근처	-10.2697
▁금리를	-10.2697
▁기능을	-10.2697
▁기존	-10.2697
▁남아있는	-10.2697
▁납치한	-10.2697
▁내지	-10.2697
▁높게	-10.2697
▁다우지수는	-10.2697
▁담고	-10.2697
▁담배	-10.2697
▁당부했다.	-10.2697
▁대선에	-10.2697
▁되었다고	-10.2697
▁떠난	-10.2697
▁런던의	-10.2697
▁론	-10.2697
▁망명	-10.2697
▁맡았다.	-10.2697
▁무슨	-10.2697
▁무장세력의	-10.2697
▁미국인들은	-10.2697
▁미래에	-10.2697
▁바꿀	-10.2697
▁밝혔으며	-10.2697
▁백인	-10.2697
▁법률	-10.2697
▁분위기를	-10.2697
▁뿐이라고	-10.2697
▁상승했습니다.	-10.2697
▁생각하지	-10.2697
▁세력을	-10.2697
▁수반은	-10.2697
▁시신은	-10.2697
▁시위대를	-10.2697
▁시위자들은	-10.2697
▁아르헨티나	-10.2697
▁아마디네자드	-10.2697
▁아버지인	-10.2697
▁않았고	-10.2697
▁않으며	-10.2697
▁얻게	-10.2697
▁에릭	-10.2697
▁역사를	-10.2697
▁연구가	-10.2697
▁연구원은	-10.2697
▁열린우리당	-10.2697
▁오늘날	-10.2697
▁왔다고	-10.2697
▁왕자의	-10.2697
▁용의자들을	-10.2697
▁원인이	-10.2697
▁원자로	-10.2697
▁위원회의	-10.2697
▁이란을	-10.2697
▁이처럼	-10.2697
▁이후에	-10.2697
▁자녀를	-10.2697
▁잘못	-10.2697
▁재정	-10.2697
▁적극적으로	-10.2697
▁전체가	-10.2697
▁전해졌다.	-10.2697
▁정권	-10.2697
▁정기적으로	-10.2697
▁제조	-10.2697
▁중단을	-10.2697
▁지나	-10.2697
▁차지하는	-10.2697
▁찾지	-10.2697
▁초에	-10.2697
▁치를	-10.2697
▁케이트	-10.2697
▁콩고	-10.2697
▁통일부	-10.2697
▁통화	-10.2697
▁투표가	-10.2697
▁폐쇄	-10.2697
▁플라스틱	-10.2697
▁학교에서	-10.2697
▁향한	-10.2697
▁현대	-10.2697
▁1991년	-10.295
▁3분의	-10.295
▁4번째	-10.295
▁FBI는	-10.295
▁has	-10.295
▁건물을	-10.295
▁경계	-10.295
▁경고를	-10.295
▁고이즈미	-10.295
▁군과	-10.295
▁긴장이	-10.295
▁나무	-10.295
▁나이지리아	-10.295
▁남성을	-10.295
▁내려졌다.	-10.295
▁내용에	-10.295
▁누구도	-10.295
▁다니는	-10.295
▁담당자는	-10.295
▁대로	-10.295
▁대통령으로	-10.295
▁대표하는	-10.295
▁던진	-10.295
▁데리고	-10.295
▁동영상에서	-10.295
▁되며	-10.295
▁들어가	-10.295
▁들어갔다.	-10.295
▁로봇	-10.295
▁마찬가지	-10.295
▁맞은	-10.295
▁머리	-10.295
▁무료	-10.295
▁묻는	-10.295
▁미얀마의	-10.295
▁발견되었다.	-10.295
▁범죄를	-10.295
▁보좌관은	-10.295
▁비가	-10.295
▁선고했다.	-10.295
▁소년이	-10.295
▁소식	-10.295
▁스웨덴	-10.295
▁승인했다.	-10.295
▁아시아의	-10.295
▁않는다면	-10.295
▁알렉스	-10.295
▁앞섰다.	-10.295
▁연	-10.295
▁연구원들은	-10.295
▁연락을	-10.295
▁열심히	-10.295
▁영화에서	-10.295
▁위협에	-10.295
▁유럽과	-10.295
▁유력한	-10.295
▁유죄판결을	-10.295
▁의미한다.	-10.295
▁의심되는	-10.295
▁이뤄질	-10.295
▁이유가	-10.295
▁일으켰다.	-10.295
▁임신	-10.295
▁자살폭탄테러가	-10.295
▁장관과	-10.295
▁재판에서	-10.295
▁전에는	-10.295
▁제시한	-10.295
▁조직을	-10.295
▁주식을	-10.295
▁진전이	-10.295
▁총기를	-10.295
▁총리,	-10.295
▁출신인	-10.295
▁출연했다.	-10.295
▁출전	-10.295
▁카터	-10.295
▁크기의	-10.295
▁테이프를	-10.295
▁파리에서	-10.295
▁파업	-10.295
▁피하기	-10.295
▁하다	-10.295
▁하다.	-10.295
▁한번	-10.295
▁항의하는	-10.295
▁해결	-10.295
▁헤럴드는	-10.295
▁형태의	-10.295
▁호텔에	-10.295
▁화산	-10.295
▁확인되지	-10.295
▁회사에	-10.295
▁12명이	-10.321
▁2년간	-10.321
▁2배	-10.321
▁50%	-10.321
▁IAEA	-10.321
▁NASA	-10.321
▁government	-10.321
▁“미국은	-10.321
▁가상	-10.321
▁가을	-10.321
▁가져올	-10.321
▁가해	-10.321
▁간단한	-10.321
▁개발한	-10.321
▁결혼식을	-10.321
▁공정한	-10.321
▁교도소에서	-10.321
▁국방	-10.321
▁기본	-10.321
▁긴장을	-10.321
▁꺾고	-10.321
▁남자의	-10.321
▁냈다.	-10.321
▁논의	-10.321
▁누군가가	-10.321
▁다쳤다.	-10.321
▁달러로	-10.321
▁돌아갈	-10.321
▁론스타	-10.321
▁리콜	-10.321
▁리히터	-10.321
▁먹고	-10.321
▁먼	-10.321
▁못했지만	-10.321
▁무장단체	-10.321
▁미디어	-10.321
▁미래를	-10.321
▁반군은	-10.321
▁반대하고	-10.321
▁발견되지	-10.321
▁방향을	-10.321
▁보다는	-10.321
▁분노를	-10.321
▁분쟁을	-10.321
▁불러	-10.321
▁사고의	-10.321
▁서브프라임	-10.321
▁센터	-10.321
▁수십명이	-10.321
▁수치는	-10.321
▁실패한	-10.321
▁싶다”고	-10.321
▁싶지	-10.321
▁쓰나미	-10.321
▁안보를	-10.321
▁알코올	-10.321
▁언급하며	-10.321
▁업무를	-10.321
▁여러번	-10.321
▁연기	-10.321
▁옛	-10.321
▁원래	-10.321
▁웹사이트	-10.321
▁위반	-10.321
▁위치를	-10.321
▁위하여	-10.321
▁유럽연합(EU)	-10.321
▁유세를	-10.321
▁의문을	-10.321
▁의원을	-10.321
▁이른	-10.321
▁이름으로	-10.321
▁일제히	-10.321
▁자격이	-10.321
▁자세히	-10.321
▁작품을	-10.321
▁장관	-10.321
▁재개	-10.321
▁적합한	-10.321
▁전통	-10.321
▁전투를	-10.321
▁접촉을	-10.321
▁정부에서	-10.321
▁제품을	-10.321
▁조사에따르면	-10.321
▁조치로	-10.321
▁주요한	-10.321
▁줄이기	-10.321
▁지속적으로	-10.321
▁진행될	-10.321
▁참가한	-10.321
▁청소년	-10.321
▁출전하지	-10.321
▁출전할	-10.321
▁취하고	-10.321
▁클린턴과	-10.321
▁파업에	-10.321
▁편지를	-10.321
▁평화적인	-10.321
▁프랑스,	-10.321
▁프랑스에서	-10.321
▁피랍된	-10.321
▁하도록	-10.321
▁학생이	-10.321
▁해안에	-10.321
▁해양	-10.321
▁환자가	-10.321
▁10명의	-10.3476
▁1996년	-10.3476
▁2가지	-10.3476
▁2명과	-10.3476
▁Japan	-10.3476
▁as	-10.3476
▁by	-10.3476
▁“앞으로	-10.3476
▁각국	-10.3476
▁각종	-10.3476
▁감독을	-10.3476
▁개발에	-10.3476
▁거리에서	-10.3476
▁검토하고	-10.3476
▁결의안	-10.3476
▁경고	-10.3476
▁경찰관	-10.3476
▁계속하고	-10.3476
▁고양이	-10.3476
▁관련하여	-10.3476
▁관타나모	-10.3476
▁교전을	-10.3476
▁국회의원	-10.3476
▁군의	-10.3476
▁굴	-10.3476
▁그들에게	-10.3476
▁글로벌	-10.3476
▁기념	-10.3476
▁기상	-10.3476
▁기술이	-10.3476
▁기지를	-10.3476
▁남부의	-10.3476
▁내의	-10.3476
▁뉴욕주	-10.3476
▁다리	-10.3476
▁다소	-10.3476
▁레이건	-10.3476
▁레이스를	-10.3476
▁말이	-10.3476
▁말했다”고	-10.3476
▁무장한	-10.3476
▁문제들을	-10.3476
▁박근혜	-10.3476
▁받아왔다.	-10.3476
▁벌써	-10.3476
▁별	-10.3476
▁보수	-10.3476
▁보스턴	-10.3476
▁보유한	-10.3476
▁본부를	-10.3476
▁분량의	-10.3476
▁불법으로	-10.3476
▁비롯	-10.3476
▁사례가	-10.3476
▁사무실	-10.3476
▁사용되는	-10.3476
▁사용을	-10.3476
▁사회에	-10.3476
▁상황이다.	-10.3476
▁새롭게	-10.3476
▁샌디에이고	-10.3476
▁선거가	-10.3476
▁선수로	-10.3476
▁소리를	-10.3476
▁소유한	-10.3476
▁수감	-10.3476
▁수감된	-10.3476
▁수사가	-10.3476
▁수요일에	-10.3476
▁수의	-10.3476
▁수천명이	-10.3476
▁수퍼	-10.3476
▁시리즈	-10.3476
▁실시될	-10.3476
▁실시했다.	-10.3476
▁쓰촨성	-10.3476
▁안토니오	-10.3476
▁에드워드	-10.3476
▁에어버스	-10.3476
▁엘	-10.3476
▁영화배우	-10.3476
▁예상되고	-10.3476
▁오른쪽	-10.3476
▁용의자를	-10.3476
▁우승	-10.3476
▁워싱턴의	-10.3476
▁웨스트	-10.3476
▁유권자들은	-10.3476
▁유엔이	-10.3476
▁이곳을	-10.3476
▁이스라엘을	-10.3476
▁인상을	-10.3476
▁일이다.	-10.3476
▁있는데	-10.3476
▁자국의	-10.3476
▁전쟁이	-10.3476
▁정부군이	-10.3476
▁제작	-10.3476
▁조직의	-10.3476
▁죽음에	-10.3476
▁줄을	-10.3476
▁중단했다.	-10.3476
▁중이며	-10.3476
▁즐기는	-10.3476
▁증가하는	-10.3476
▁지도자들을	-10.3476
▁직전	-10.3476
▁집회에	-10.3476
▁찍은	-10.3476
▁최고치를	-10.3476
▁추정된다.	-10.3476
▁출신으로	-10.3476
▁측이	-10.3476
▁퍼거슨	-10.3476
▁평가를	-10.3476
▁포드	-10.3476
▁폭력사태로	-10.3476
▁하마스의	-10.3476
▁항의	-10.3476
▁행위는	-10.3476
▁행진을	-10.3476
▁현상이	-10.3476
▁협력을	-10.3476
▁협정을	-10.3476
▁활동하고	-10.3476
▁1993년	-10.375
▁1명의	-10.375
▁2개의	-10.375
▁“이런	-10.375
▁거래됐다.	-10.375
▁거부한	-10.375
▁검토	-10.375
▁경계를	-10.375
▁고등학교	-10.375
▁고어	-10.375
▁과정에	-10.375
▁권고했다.	-10.375
▁권력	-10.375
▁급격히	-10.375
▁기분이	-10.375
▁남쪽으로	-10.375
▁노대통령은	-10.375
▁노력할	-10.375
▁뉴욕에	-10.375
▁느끼는	-10.375
▁늘어날	-10.375
▁단순히	-10.375
▁당의	-10.375
▁대비해	-10.375
▁대표단은	-10.375
▁대피했다.	-10.375
▁대회에	-10.375
▁돌아올	-10.375
▁동맹	-10.375
▁드는	-10.375
▁마리	-10.375
▁멸종	-10.375
▁모두에게	-10.375
▁목요일에	-10.375
▁못했던	-10.375
▁무죄를	-10.375
▁방송에서	-10.375
▁벌어졌다.	-10.375
▁벌일	-10.375
▁부문	-10.375
▁부분이	-10.375
▁부상자가	-10.375
▁부인인	-10.375
▁북한과의	-10.375
▁분석했다.	-10.375
▁사회의	-10.375
▁상호	-10.375
▁서울에	-10.375
▁선거운동	-10.375
▁선박이	-10.375
▁선수들은	-10.375
▁선택할	-10.375
▁세계를	-10.375
▁수사관들은	-10.375
▁수상	-10.375
▁스페인의	-10.375
▁시인했다.	-10.375
▁신원이	-10.375
▁실종	-10.375
▁쓰는	-10.375
▁씨의	-10.375
▁아니며	-10.375
▁안전에	-10.375
▁애플	-10.375
▁언급한	-10.375
▁없고	-10.375
▁연구에서	-10.375
▁연례	-10.375
▁영국,	-10.375
▁영상을	-10.375
▁예측했다.	-10.375
▁운영	-10.375
▁움직임이	-10.375
▁원조	-10.375
▁의견	-10.375
▁의미가	-10.375
▁이들에게	-10.375
▁이브라힘	-10.375
▁인도네시아의	-10.375
▁인질들이	-10.375
▁일고	-10.375
▁임기를	-10.375
▁입수한	-10.375
▁있기를	-10.375
▁있었습니다.	-10.375
▁자금이	-10.375
▁자동차를	-10.375
▁재무장관은	-10.375
▁재판에	-10.375
▁재판이	-10.375
▁전시	-10.375
▁전쟁으로	-10.375
▁정부군과	-10.375
▁주었다.	-10.375
▁지지자들에게	-10.375
▁징역형을	-10.375
▁출연해	-10.375
▁카스트로	-10.375
▁토대로	-10.375
▁파키스탄에	-10.375
▁판결에	-10.375
▁페일린	-10.375
▁포함됐다.	-10.375
▁폭	-10.375
▁프로그램의	-10.375
▁프로그램이	-10.375
▁피할	-10.375
▁필라델피아	-10.375
▁하이브리드	-10.375
▁핵시설	-10.375
▁확인됐다.	-10.375
▁1970년대	-10.4032
▁1989년	-10.4032
▁2010년	-10.4032
▁30년	-10.4032
▁5명	-10.4032
▁:	-10.4032
▁Minister	-10.4032
▁가족들에게	-10.4032
▁가짜	-10.4032
▁갔다.	-10.4032
▁개최	-10.4032
▁거리	-10.4032
▁거짓말을	-10.4032
▁겨냥한	-10.4032
▁골프	-10.4032
▁교도소	-10.4032
▁교착	-10.4032
▁구속	-10.4032
▁국민을	-10.4032
▁국방부가	-10.4032
▁국회에	-10.4032
▁금리	-10.4032
▁긴장	-10.4032
▁나이트	-10.4032
▁남성과	-10.4032
▁눈	-10.4032
▁단체를	-10.4032
▁담배를	-10.4032
▁당선자는	-10.4032
▁도시를	-10.4032
▁도울	-10.4032
▁두바이	-10.4032
▁둘러싸고	-10.4032
▁먹는	-10.4032
▁명백한	-10.4032
▁명확히	-10.4032
▁모스크바	-10.4032
▁물건을	-10.4032
▁미군에	-10.4032
▁미첼	-10.4032
▁받아들이지	-10.4032
▁방식을	-10.4032
▁병사들이	-10.4032
▁보여준다.	-10.4032
▁본선에서	-10.4032
▁북한에서	-10.4032
▁분야에	-10.4032
▁사망자를	-10.4032
▁사상자가	-10.4032
▁사설	-10.4032
▁사용했다.	-10.4032
▁산불이	-10.4032
▁상원의원에	-10.4032
▁석방된	-10.4032
▁선두	-10.4032
▁선원	-10.4032
▁세계은행	-10.4032
▁소수	-10.4032
▁수백명이	-10.4032
▁쉬운	-10.4032
▁스미스의	-10.4032
▁시내	-10.4032
▁신호를	-10.4032
▁아니지만	-10.4032
▁아무것도	-10.4032
▁아이들	-10.4032
▁알렸다.	-10.4032
▁약속한	-10.4032
▁얻지	-10.4032
▁없다며	-10.4032
▁여성들은	-10.4032
▁연기가	-10.4032
▁연쇄	-10.4032
▁열었다.	-10.4032
▁요르단	-10.4032
▁위협	-10.4032
▁윔블던	-10.4032
▁유감을	-10.4032
▁유대인	-10.4032
▁이라크내	-10.4032
▁이라크로	-10.4032
▁이뤄졌다.	-10.4032
▁이웃	-10.4032
▁이탈리아의	-10.4032
▁인도분	-10.4032
▁인정하지	-10.4032
▁일어났다.	-10.4032
▁있다	-10.4032
▁자신에	-10.4032
▁장관,	-10.4032
▁적십자	-10.4032
▁전력을	-10.4032
▁전합니다.	-10.4032
▁정당	-10.4032
▁정상회담	-10.4032
▁제2차	-10.4032
▁주한미군	-10.4032
▁총리에게	-10.4032
▁취하지	-10.4032
▁캄보디아	-10.4032
▁코소보의	-10.4032
▁탐사	-10.4032
▁테러와의	-10.4032
▁텍사스주	-10.4032
▁특사는	-10.4032
▁폭탄테러	-10.4032
▁학생들에게	-10.4032
▁항공은	-10.4032
▁했고	-10.4032
▁회의가	-10.4032
▁힐러리가	-10.4032
▁1980년	-10.4322
▁1위	-10.4322
▁2012년	-10.4322
▁FBI	-10.4322
▁HIV	-10.4322
▁Roh	-10.4322
▁S.	-10.4322
▁TV를	-10.4322
▁“어떤	-10.4322
▁“저는	-10.4322
▁가자지구를	-10.4322
▁강타한	-10.4322
▁강화하고	-10.4322
▁강화할	-10.4322
▁개선을	-10.4322
▁거리로	-10.4322
▁경쟁자인	-10.4322
▁공공	-10.4322
▁공급을	-10.4322
▁공대	-10.4322
▁공산주의	-10.4322
▁교전이	-10.4322
▁국가인	-10.4322
▁그곳에서	-10.4322
▁기대를	-10.4322
▁기반을	-10.4322
▁기자들이	-10.4322
▁기자의	-10.4322
▁끝까지	-10.4322
▁나와즈	-10.4322
▁내로	-10.4322
▁내리는	-10.4322
▁넣었다.	-10.4322
▁노력의	-10.4322
▁뉴스의	-10.4322
▁다리가	-10.4322
▁다수의	-10.4322
▁달라고	-10.4322
▁답변을	-10.4322
▁대사관은	-10.4322
▁돈이	-10.4322
▁돌을	-10.4322
▁들어가는	-10.4322
▁라이벌인	-10.4322
▁라이트	-10.4322
▁러시아와	-10.4322
▁명에	-10.4322
▁문서를	-10.4322
▁미래	-10.4322
▁믿을	-10.4322
▁바닥에	-10.4322
▁박사가	-10.4322
▁밝혔었다.	-10.4322
▁벌였다고	-10.4322
▁법적으로	-10.4322
▁보도에따르면	-10.4322
▁보도에따르면,	-10.4322
▁보상을	-10.4322
▁보였다고	-10.4322
▁보인다”고	-10.4322
▁부모가	-10.4322
▁부분은	-10.4322
▁부인하고	-10.4322
▁분명	-10.4322
▁분쟁이	-10.4322
▁비상사태	-10.4322
▁사상자	-10.4322
▁상원의원인	-10.4322
▁생존자	-10.4322
▁샤리프는	-10.4322
▁센터의	-10.4322
▁소비자들이	-10.4322
▁속도를	-10.4322
▁손상을	-10.4322
▁수상자인	-10.4322
▁스코틀랜드	-10.4322
▁식료품	-10.4322
▁신뢰를	-10.4322
▁실험	-10.4322
▁아래	-10.4322
▁않았습니다.	-10.4322
▁야당은	-10.4322
▁없습니다.	-10.4322
▁에드	-10.4322
▁여사가	-10.4322
▁연료를	-10.4322
▁외무성	-10.4322
▁요구에	-10.4322
▁우주왕복선	-10.4322
▁원하지	-10.4322
▁유지할	-10.4322
▁의장이	-10.4322
▁이름의	-10.4322
▁인질들의	-10.4322
▁일어나고	-10.4322
▁일어나지	-10.4322
▁임기가	-10.4322
▁자격을	-10.4322
▁자연	-10.4322
▁장소에서	-10.4322
▁재개할	-10.4322
▁전쟁에서	-10.4322
▁전체에	-10.4322
▁존스는	-10.4322
▁중심에	-10.4322
▁지지선언을	-10.4322
▁집행	-10.4322
▁철저히	-10.4322
▁추락한	-10.4322
▁테러의	-10.4322
▁판매를	-10.4322
▁펼친	-10.4322
▁프로그램은	-10.4322
▁호주에서	-10.4322
▁확보할	-10.4322
▁환경에	-10.4322
▁회사들이	-10.4322
▁"그러나	-10.462
▁1	-10.462
▁2명	-10.462
▁2월에	-10.462
▁3년간	-10.462
▁AP는	-10.462
▁Bush	-10.462
▁against	-10.462
▁가량의	-10.462
▁가한	-10.462
▁개표가	-10.462
▁검찰의	-10.462
▁것”이라	-10.462
▁고용	-10.462
▁곳이	-10.462
▁공급이	-10.462
▁공중	-10.462
▁관광객들이	-10.462
▁구호	-10.462
▁국무장관이	-10.462
▁국민들을	-10.462
▁국회에서	-10.462
▁그곳에	-10.462
▁근처에	-10.462
▁나선	-10.462
▁남한의	-10.462
▁노력에	-10.462
▁노스캐롤라이나	-10.462
▁높이의	-10.462
▁다이아몬드	-10.462
▁대책	-10.462
▁대학교	-10.462
▁동물을	-10.462
▁딸의	-10.462
▁때마다	-10.462
▁뛰어	-10.462
▁라스베이거스	-10.462
▁머리에	-10.462
▁멀리	-10.462
▁명단에서	-10.462
▁목적은	-10.462
▁무승부를	-10.462
▁바람이	-10.462
▁반박했다.	-10.462
▁반체제	-10.462
▁배	-10.462
▁복귀할	-10.462
▁부르는	-10.462
▁부토는	-10.462
▁부통령이	-10.462
▁북	-10.462
▁북부에서	-10.462
▁분야에서	-10.462
▁브래드	-10.462
▁비난한	-10.462
▁사과했다.	-10.462
▁사라진	-10.462
▁사무총장이	-10.462
▁산하	-10.462
▁살아	-10.462
▁삶의	-10.462
▁상승세를	-10.462
▁새끼	-10.462
▁생산하는	-10.462
▁선거는	-10.462
▁선출된	-10.462
▁세운	-10.462
▁수업을	-10.462
▁수치	-10.462
▁스콧	-10.462
▁승인	-10.462
▁시민들은	-10.462
▁시상식	-10.462
▁시위로	-10.462
▁실질적인	-10.462
▁싶다고	-10.462
▁아이는	-10.462
▁않아도	-10.462
▁압바스	-10.462
▁야당이	-10.462
▁에르도간	-10.462
▁에베레스트	-10.462
▁여왕의	-10.462
▁연구의	-10.462
▁열	-10.462
▁열어	-10.462
▁영감을	-10.462
▁영국으로	-10.462
▁예를들어	-10.462
▁예방	-10.462
▁예정되어	-10.462
▁오바마,	-10.462
▁요청한	-10.462
▁요청할	-10.462
▁위치해	-10.462
▁유가	-10.462
▁인근서	-10.462
▁일으키는	-10.462
▁있었다"고	-10.462
▁자사	-10.462
▁자살을	-10.462
▁자살한	-10.462
▁작품	-10.462
▁잡은	-10.462
▁적	-10.462
▁전달했다.	-10.462
▁제일	-10.462
▁조건을	-10.462
▁조류	-10.462
▁조치에	-10.462
▁주장은	-10.462
▁주장이	-10.462
▁증시	-10.462
▁지는	-10.462
▁지도부는	-10.462
▁지방의	-10.462
▁지지한다고	-10.462
▁진압	-10.462
▁차지한	-10.462
▁책임자인	-10.462
▁천	-10.462
▁클린턴을	-10.462
▁태우고	-10.462
▁표시했다.	-10.462
▁플로리다주	-10.462
▁하고,	-10.462
▁하나가	-10.462
▁하락했습니다.	-10.462
▁한층	-10.462
▁해결책을	-10.462
▁해리포터	-10.462
▁행동이	-10.462
▁행사가	-10.462
▁행사할	-10.462
▁확인하기	-10.462
▁환경을	-10.462
▁회견을	-10.462
▁15명이	-10.4928
▁1990년	-10.4928
▁1995년	-10.4928
▁2005.09	-10.4928
▁2008.10	-10.4928
▁23명의	-10.4928
▁3시간	-10.4928
▁9명의	-10.4928
▁New	-10.4928
▁military	-10.4928
▁troops	-10.4928
▁“지금	-10.4928
▁가자지구에	-10.4928
▁가자지구에서	-10.4928
▁감사를	-10.4928
▁감소했다고	-10.4928
▁개봉	-10.4928
▁개혁	-10.4928
▁거친	-10.4928
▁것이다”며	-10.4928
▁겨우	-10.4928
▁계획의	-10.4928
▁골키퍼	-10.4928
▁곳	-10.4928
▁교전	-10.4928
▁교전으로	-10.4928
▁기록하며	-10.4928
▁끌고	-10.4928
▁끝나는	-10.4928
▁나가는	-10.4928
▁나오고	-10.4928
▁나타나	-10.4928
▁나타난	-10.4928
▁날이	-10.4928
▁남동부	-10.4928
▁내각	-10.4928
▁내리고	-10.4928
▁내일	-10.4928
▁내전	-10.4928
▁노동당	-10.4928
▁는	-10.4928
▁다음주	-10.4928
▁당일	-10.4928
▁대출	-10.4928
▁델	-10.4928
▁도로에서	-10.4928
▁독도	-10.4928
▁동의했다.	-10.4928
▁동티모르	-10.4928
▁된다”며	-10.4928
▁된다면	-10.4928
▁들어와	-10.4928
▁따를	-10.4928
▁떨어질	-10.4928
▁런던에	-10.4928
▁마감	-10.4928
▁매주	-10.4928
▁모두를	-10.4928
▁목격자는	-10.4928
▁미국산	-10.4928
▁바다로	-10.4928
▁반군을	-10.4928
▁밝힐	-10.4928
▁방문이	-10.4928
▁방지하기	-10.4928
▁백악관에	-10.4928
▁범인은	-10.4928
▁병원을	-10.4928
▁보도한	-10.4928
▁보입니다.	-10.4928
▁보호하는	-10.4928
▁분쟁	-10.4928
▁사무실을	-10.4928
▁사원을	-10.4928
▁사태의	-10.4928
▁상공에서	-10.4928
▁선거의	-10.4928
▁세웠다.	-10.4928
▁순간	-10.4928
▁승점	-10.4928
▁시스템	-10.4928
▁시스템이	-10.4928
▁시작될	-10.4928
▁시카고에서	-10.4928
▁양측이	-10.4928
▁언제나	-10.4928
▁여객기는	-10.4928
▁여당	-10.4928
▁역대	-10.4928
▁오를	-10.4928
▁오스카	-10.4928
▁오전(현지시간)	-10.4928
▁오후(현지시간)	-10.4928
▁외부	-10.4928
▁외쳤다.	-10.4928
▁요르단강	-10.4928
▁우리당	-10.4928
▁위기가	-10.4928
▁의미를	-10.4928
▁의석을	-10.4928
▁의지를	-10.4928
▁이야기	-10.4928
▁인기가	-10.4928
▁일간지	-10.4928
▁일자리	-10.4928
▁입어	-10.4928
▁있거나	-10.4928
▁자녀	-10.4928
▁작성한	-10.4928
▁장난감	-10.4928
▁장비를	-10.4928
▁정보가	-10.4928
▁제공하고	-10.4928
▁제작된	-10.4928
▁제출할	-10.4928
▁조만간	-10.4928
▁주가가	-10.4928
▁중부	-10.4928
▁중요하다고	-10.4928
▁증권	-10.4928
▁증언했다.	-10.4928
▁지속적인	-10.4928
▁지지율을	-10.4928
▁지지자	-10.4928
▁진전을	-10.4928
▁진출했다.	-10.4928
▁차례의	-10.4928
▁참여하는	-10.4928
▁추산했다.	-10.4928
▁추정했다.	-10.4928
▁코피	-10.4928
▁탄도	-10.4928
▁탈레반과	-10.4928
▁투표할	-10.4928
▁특수	-10.4928
▁파키스탄에서	-10.4928
▁파키스탄이	-10.4928
▁판결은	-10.4928
▁판매할	-10.4928
▁팔레스타인의	-10.4928
▁패리스	-10.4928
▁폭풍으로	-10.4928
▁필요성을	-10.4928
▁하더라도	-10.4928
▁하마스는	-10.4928
▁핵실험	-10.4928
▁했을	-10.4928
▁행사에서	-10.4928
▁헬기를	-10.4928
▁혐의	-10.4928
▁협력할	-10.4928
▁혼란에	-10.4928
▁확대	-10.4928
▁확인된	-10.4928
▁확인하고	-10.4928
▁1명과	-10.5246
▁2위를	-10.5246
▁2주간	-10.5246
▁40년	-10.5246
▁6자회담에	-10.5246
▁7년	-10.5246
▁have	-10.5246
▁talks	-10.5246
▁“그의	-10.5246
▁가끔	-10.5246
▁가능성	-10.5246
▁가즈니	-10.5246
▁개인적으로	-10.5246
▁거둔	-10.5246
▁것이기	-10.5246
▁경우가	-10.5246
▁고래	-10.5246
▁공연	-10.5246
▁관계는	-10.5246
▁관점에서	-10.5246
▁국가는	-10.5246
▁군대가	-10.5246
▁규제	-10.5246
▁그룹의	-10.5246
▁기간에	-10.5246
▁기간을	-10.5246
▁기록하고	-10.5246
▁기밀	-10.5246
▁깊이	-10.5246
▁내는	-10.5246
▁너무나	-10.5246
▁높이	-10.5246
▁단계에	-10.5246
▁단순한	-10.5246
▁당국과	-10.5246
▁대대적인	-10.5246
▁대통령과의	-10.5246
▁덕분에	-10.5246
▁동반한	-10.5246
▁되었습니다.	-10.5246
▁드립니다.	-10.5246
▁듣지	-10.5246
▁때문”이라고	-10.5246
▁로한은	-10.5246
▁말라고	-10.5246
▁말로	-10.5246
▁맺고	-10.5246
▁명단에	-10.5246
▁무력	-10.5246
▁무장세력	-10.5246
▁문화	-10.5246
▁미국에서는	-10.5246
▁미래의	-10.5246
▁미셸	-10.5246
▁민병대	-10.5246
▁박물관	-10.5246
▁발견	-10.5246
▁발사를	-10.5246
▁발전을	-10.5246
▁밝혀냈다.	-10.5246
▁방어	-10.5246
▁배가	-10.5246
▁버스를	-10.5246
▁범죄에	-10.5246
▁법무부	-10.5246
▁보여줄	-10.5246
▁본사를	-10.5246
▁북미	-10.5246
▁북부의	-10.5246
▁불능화	-10.5246
▁붕괴된	-10.5246
▁비	-10.5246
▁비판을	-10.5246
▁뿐이다.	-10.5246
▁사고에	-10.5246
▁사람과	-10.5246
▁사람들도	-10.5246
▁사항은	-10.5246
▁상하이	-10.5246
▁소설	-10.5246
▁손해를	-10.5246
▁수치다.	-10.5246
▁스피어스는	-10.5246
▁시간에	-10.5246
▁시달리고	-10.5246
▁시상식에서	-10.5246
▁시설에	-10.5246
▁신문에	-10.5246
▁신화	-10.5246
▁실은	-10.5246
▁아니다”며	-10.5246
▁아들인	-10.5246
▁아버지의	-10.5246
▁아시아에서	-10.5246
▁아프가니스탄에	-10.5246
▁안나	-10.5246
▁안보리	-10.5246
▁않겠다는	-10.5246
▁앞선	-10.5246
▁앨	-10.5246
▁야스쿠니	-10.5246
▁양국이	-10.5246
▁양쪽	-10.5246
▁어두운	-10.5246
▁어린이들이	-10.5246
▁어머니	-10.5246
▁어머니가	-10.5246
▁어머니와	-10.5246
▁업체	-10.5246
▁없었던	-10.5246
▁에콰도르	-10.5246
▁엘바라데이	-10.5246
▁여왕은	-10.5246
▁예상보다	-10.5246
▁올리고	-10.5246
▁왕실	-10.5246
▁외환은행	-10.5246
▁요원	-10.5246
▁원치	-10.5246
▁웨인	-10.5246
▁웹사이트는	-10.5246
▁위조	-10.5246
▁유일하게	-10.5246
▁이라크는	-10.5246
▁이래로	-10.5246
▁이어졌다.	-10.5246
▁이하	-10.5246
▁인도주의적	-10.5246
▁인터뷰	-10.5246
▁자산을	-10.5246
▁자세를	-10.5246
▁자크	-10.5246
▁작업	-10.5246
▁잠을	-10.5246
▁장거리	-10.5246
▁재난	-10.5246
▁잭	-10.5246
▁전격	-10.5246
▁전국적인	-10.5246
▁점이	-10.5246
▁접전을	-10.5246
▁정기	-10.5246
▁정도가	-10.5246
▁정책이	-10.5246
▁정치적으로	-10.5246
▁정해지지	-10.5246
▁제프리	-10.5246
▁조사하기	-10.5246
▁주장	-10.5246
▁주최측은	-10.5246
▁줄어들	-10.5246
▁중순	-10.5246
▁중요성을	-10.5246
▁지낸	-10.5246
▁지수가	-10.5246
▁짐바브웨의	-10.5246
▁차량은	-10.5246
▁차례로	-10.5246
▁차원에서	-10.5246
▁챔피언	-10.5246
▁철도	-10.5246
▁촉구하는	-10.5246
▁총격으로	-10.5246
▁총리로	-10.5246
▁친구가	-10.5246
▁케이시	-10.5246
▁특별히	-10.5246
▁티베트의	-10.5246
▁판단을	-10.5246
▁패한	-10.5246
▁폭력사태를	-10.5246
▁폭탄테러를	-10.5246
▁프랑스는	-10.5246
▁프랑스와	-10.5246
▁프로젝트를	-10.5246
▁프리미어리그	-10.5246
▁필요하다.	-10.5246
▁필요할	-10.5246
▁학생들의	-10.5246
▁한나라당이	-10.5246
▁해를	-10.5246
▁행사는	-10.5246
▁향하고	-10.5246
▁헤럴드가	-10.5246
▁형태로	-10.5246
▁호텔을	-10.5246
▁화학	-10.5246
▁환자의	-10.5246
▁회견에서	-10.5246
▁휴전	-10.5246
▁힐튼이	-10.5246
▁힘이	-10.5246
▁10명	-10.5573
▁1992년	-10.5573
▁2005.12	-10.5573
▁2008.12	-10.5573
▁3일간	-10.5573
▁4명을	-10.5573
▁8년	-10.5573
▁EU는	-10.5573
▁NEW	-10.5573
▁TV에	-10.5573
▁up	-10.5573
▁“미	-10.5573
▁가할	-10.5573
▁같다”며	-10.5573
▁개가	-10.5573
▁거래가	-10.5573
▁경제,	-10.5573
▁경제는	-10.5573
▁경제와	-10.5573
▁경찰서에	-10.5573
▁계획한	-10.5573
▁고급	-10.5573
▁고향인	-10.5573
▁곳의	-10.5573
▁공동으로	-10.5573
▁공원	-10.5573
▁광산	-10.5573
▁군대를	-10.5573
▁군인들은	-10.5573
▁규모는	-10.5573
▁근로자	-10.5573
▁금지하고	-10.5573
▁기도를	-10.5573
▁기상청은	-10.5573
▁끔찍한	-10.5573
▁나서	-10.5573
▁노르웨이	-10.5573
▁논의가	-10.5573
▁눈물을	-10.5573
▁뉴햄프셔	-10.5573
▁니콜라스	-10.5573
▁대기	-10.5573
▁대만의	-10.5573
▁대표인	-10.5573
▁도핑	-10.5573
▁동물원	-10.5573
▁러드	-10.5573
▁마라톤	-10.5573
▁마련할	-10.5573
▁말아야	-10.5573
▁맡았던	-10.5573
▁모건	-10.5573
▁모습으로	-10.5573
▁목적이	-10.5573
▁무장대원	-10.5573
▁바다	-10.5573
▁받는다.	-10.5573
▁발이	-10.5573
▁발표에	-10.5573
▁밝히며	-10.5573
▁배를	-10.5573
▁버냉키	-10.5573
▁버마의	-10.5573
▁보호하고	-10.5573
▁부근	-10.5573
▁부문에서	-10.5573
▁부속	-10.5573
▁비밀리에	-10.5573
▁비행기에	-10.5573
▁사이트	-10.5573
▁사임할	-10.5573
▁사태는	-10.5573
▁상승	-10.5573
▁상원에서	-10.5573
▁생각한다.	-10.5573
▁생산할	-10.5573
▁서울의	-10.5573
▁설치된	-10.5573
▁소녀가	-10.5573
▁소리가	-10.5573
▁소식입니다.	-10.5573
▁쇠고기	-10.5573
▁수용할	-10.5573
▁수준의	-10.5573
▁시라크	-10.5573
▁시작되는	-10.5573
▁시즌을	-10.5573
▁식품	-10.5573
▁신발을	-10.5573
▁신사	-10.5573
▁심문을	-10.5573
▁아내와	-10.5573
▁아메리카	-10.5573
▁아프가니스탄의	-10.5573
▁않았다"고	-10.5573
▁야후는	-10.5573
▁언급은	-10.5573
▁열차가	-10.5573
▁오늘밤	-10.5573
▁오하이오주	-10.5573
▁온실가스	-10.5573
▁운행을	-10.5573
▁워렌	-10.5573
▁위협하는	-10.5573
▁윈도우	-10.5573
▁유명하다.	-10.5573
▁유수프	-10.5573
▁의무를	-10.5573
▁의원들에게	-10.5573
▁의혹에	-10.5573
▁이어질	-10.5573
▁이용하고	-10.5573
▁이재민이	-10.5573
▁이해할	-10.5573
▁인사	-10.5573
▁인정한	-10.5573
▁인정할	-10.5573
▁일로	-10.5573
▁일으켜	-10.5573
▁일정으로	-10.5573
▁임무	-10.5573
▁임무는	-10.5573
▁있었기	-10.5573
▁있을지	-10.5573
▁자산	-10.5573
▁장난감을	-10.5573
▁장치를	-10.5573
▁적극	-10.5573
▁전망이	-10.5573
▁전세계에	-10.5573
▁정상들은	-10.5573
▁정상회담에서	-10.5573
▁제안한	-10.5573
▁주장했지만	-10.5573
▁줄이는	-10.5573
▁중남미	-10.5573
▁중단하고	-10.5573
▁중요하다”고	-10.5573
▁증시의	-10.5573
▁지구의	-10.5573
▁지나지	-10.5573
▁지속될	-10.5573
▁지지율이	-10.5573
▁지키고	-10.5573
▁진술을	-10.5573
▁차로	-10.5573
▁차이를	-10.5573
▁참석해	-10.5573
▁참여하지	-10.5573
▁처리	-10.5573
▁초반	-10.5573
▁추가적인	-10.5573
▁컴퓨터가	-10.5573
▁쿠데타로	-10.5573
▁탈레반의	-10.5573
▁토론을	-10.5573
▁투자자들이	-10.5573
▁포경	-10.5573
▁포인트	-10.5573
▁풍부한	-10.5573
▁프레스	-10.5573
▁프로젝트	-10.5573
▁필립	-10.5573
▁필요하다”고	-10.5573
▁하나를	-10.5573
▁합의가	-10.5573
▁합의는	-10.5573
▁혼자	-10.5573
▁홍보	-10.5573
▁화상을	-10.5573
▁확신했다.	-10.5573
▁활동하는	-10.5573
▁황우석	-10.5573
▁회동을	-10.5573
▁회사들은	-10.5573
▁후보들은	-10.5573
▁후보들이	-10.5573
▁13명이	-10.5912
▁3대	-10.5912
▁3위를	-10.5912
▁50만	-10.5912
▁Secretary	-10.5912
▁Seoul	-10.5912
▁out	-10.5912
▁says	-10.5912
▁“그들이	-10.5912
▁“이들	-10.5912
▁“이제	-10.5912
▁“최근	-10.5912
▁가격에	-10.5912
▁가던	-10.5912
▁가옥	-10.5912
▁강경	-10.5912
▁개최되는	-10.5912
▁개최된	-10.5912
▁걸	-10.5912
▁것입니다."	-10.5912
▁게리	-10.5912
▁겪었다.	-10.5912
▁결의안에	-10.5912
▁겸	-10.5912
▁경기의	-10.5912
▁경찰을	-10.5912
▁곤잘레스	-10.5912
▁공격의	-10.5912
▁구	-10.5912
▁구하기	-10.5912
▁구할	-10.5912
▁국제유가는	-10.5912
▁국회의	-10.5912
▁군부가	-10.5912
▁권한을	-10.5912
▁기반으로	-10.5912
▁기술의	-10.5912
▁길에	-10.5912
▁난사	-10.5912
▁남편은	-10.5912
▁놓은	-10.5912
▁누르고	-10.5912
▁뉴스는	-10.5912
▁단어를	-10.5912
▁단체들은	-10.5912
▁단체에	-10.5912
▁대략	-10.5912
▁대부분을	-10.5912
▁대사가	-10.5912
▁대중의	-10.5912
▁대통령도	-10.5912
▁데이터를	-10.5912
▁도시로	-10.5912
▁동쪽으로	-10.5912
▁들여	-10.5912
▁들을	-10.5912
▁듯한	-10.5912
▁때가	-10.5912
▁럼스펠드	-10.5912
▁롬니	-10.5912
▁리처드슨	-10.5912
▁마약을	-10.5912
▁마을에	-10.5912
▁맞게	-10.5912
▁모스크바에서	-10.5912
▁몰래	-10.5912
▁몸이	-10.5912
▁무너진	-10.5912
▁무렵	-10.5912
▁물가	-10.5912
▁미시시피	-10.5912
▁방송의	-10.5912
▁벌어지고	-10.5912
▁벌여	-10.5912
▁벗어나	-10.5912
▁벨기에	-10.5912
▁보도합니다.	-10.5912
▁보호할	-10.5912
▁부부의	-10.5912
▁부상자는	-10.5912
▁부족으로	-10.5912
▁빛을	-10.5912
▁사과	-10.5912
▁사망하는	-10.5912
▁사망했습니다.	-10.5912
▁사업에	-10.5912
▁사용되고	-10.5912
▁사이클	-10.5912
▁사이트에	-10.5912
▁사임	-10.5912
▁산불로	-10.5912
▁상관없이	-10.5912
▁생일을	-10.5912
▁선언한	-10.5912
▁선정됐다.	-10.5912
▁성장	-10.5912
▁성화봉송	-10.5912
▁소니	-10.5912
▁속한	-10.5912
▁수감자들을	-10.5912
▁수사관은	-10.5912
▁수위가	-10.5912
▁수치를	-10.5912
▁시대	-10.5912
▁시도를	-10.5912
▁시스템은	-10.5912
▁시위대와	-10.5912
▁시점에서	-10.5912
▁식량을	-10.5912
▁아기가	-10.5912
▁아기의	-10.5912
▁아니다”라고	-10.5912
▁아메리칸	-10.5912
▁아이들과	-10.5912
▁아이디어를	-10.5912
▁아테네	-10.5912
▁앨런	-10.5912
▁야당의	-10.5912
▁양국간	-10.5912
▁어린이를	-10.5912
▁여기	-10.5912
▁연구팀은	-10.5912
▁연기했다.	-10.5912
▁연합군	-10.5912
▁영국이	-10.5912
▁영장을	-10.5912
▁예산	-10.5912
▁요구할	-10.5912
▁원화	-10.5912
▁유세에서	-10.5912
▁유전자	-10.5912
▁이끌어	-10.5912
▁이름은	-10.5912
▁이민	-10.5912
▁이산화탄소	-10.5912
▁이용	-10.5912
▁인디애나	-10.5912
▁일반적인	-10.5912
▁일어나	-10.5912
▁일자리가	-10.5912
▁일정이	-10.5912
▁일축했다.	-10.5912
▁일할	-10.5912
▁잃고	-10.5912
▁입국을	-10.5912
▁입었으며	-10.5912
▁있었으며,	-10.5912
▁자신감을	-10.5912
▁잡지	-10.5912
▁전기가	-10.5912
▁전문가인	-10.5912
▁제니퍼	-10.5912
▁조지아	-10.5912
▁주말에	-10.5912
▁주인이	-10.5912
▁중상을	-10.5912
▁중심으로	-10.5912
▁중요	-10.5912
▁증가	-10.5912
▁지구에서	-10.5912
▁지나치게	-10.5912
▁지도자들과	-10.5912
▁지진은	-10.5912
▁지키기	-10.5912
▁진	-10.5912
▁차베스는	-10.5912
▁참가할	-10.5912
▁추진	-10.5912
▁추진하고	-10.5912
▁출마할	-10.5912
▁출전한	-10.5912
▁측에	-10.5912
▁카메라	-10.5912
▁커지고	-10.5912
▁케이블	-10.5912
▁크고	-10.5912
▁탑승객	-10.5912
▁태국의	-10.5912
▁투표는	-10.5912
▁판결했다.	-10.5912
▁필요	-10.5912
▁필요는	-10.5912
▁하산	-10.5912
▁한국인들이	-10.5912
▁한다면	-10.5912
▁합니다.”	-10.5912
▁해병대	-10.5912
▁핵프로그램	-10.5912
▁허가	-10.5912
▁화가	-10.5912
▁확실하지	-10.5912
▁확인하는	-10.5912
▁확인했다고	-10.5912
▁후세인의	-10.5912
▁히드로	-10.5912
▁힐러리는	-10.5912
▁14명이	-10.6263
▁1986년	-10.6263
▁1987년	-10.6263
▁1년에	-10.6263
▁2%	-10.6263
▁2009.01	-10.6263
▁25명이	-10.6263
▁3	-10.6263
▁6개	-10.6263
▁ABC	-10.6263
▁AS	-10.6263
▁CEO는	-10.6263
▁N.	-10.6263
▁plans	-10.6263
▁“아직	-10.6263
▁“일부	-10.6263
▁▶관련	-10.6263
▁가족에게	-10.6263
▁감축	-10.6263
▁거듭	-10.6263
▁거부하고	-10.6263
▁건물에서	-10.6263
▁경보를	-10.6263
▁경찰관은	-10.6263
▁경찰에따르면	-10.6263
▁경향이	-10.6263
▁계약	-10.6263
▁공격했다.	-10.6263
▁공원에서	-10.6263
▁공항은	-10.6263
▁과거의	-10.6263
▁관계자들과	-10.6263
▁교수가	-10.6263
▁구글	-10.6263
▁구체적	-10.6263
▁국민이	-10.6263
▁국왕은	-10.6263
▁그랜드	-10.6263
▁그런가	-10.6263
▁금메달을	-10.6263
▁금지하는	-10.6263
▁기본적인	-10.6263
▁기소했다.	-10.6263
▁기준을	-10.6263
▁나란히	-10.6263
▁남아프리카	-10.6263
▁뇌물을	-10.6263
▁담당하고	-10.6263
▁당국자는	-10.6263
▁당선	-10.6263
▁대선을	-10.6263
▁도널드	-10.6263
▁도시에	-10.6263
▁동영상은	-10.6263
▁디	-10.6263
▁딸인	-10.6263
▁땅을	-10.6263
▁라모스	-10.6263
▁라이스는	-10.6263
▁로라	-10.6263
▁록	-10.6263
▁리조트	-10.6263
▁많다.	-10.6263
▁맥케인	-10.6263
▁맥코맥	-10.6263
▁명령했다.	-10.6263
▁모았다.	-10.6263
▁목격한	-10.6263
▁목표	-10.6263
▁몸	-10.6263
▁무너져	-10.6263
▁무샤라프의	-10.6263
▁미얀마를	-10.6263
▁민주당과	-10.6263
▁받았으나	-10.6263
▁받았지만	-10.6263
▁밝혔으나	-10.6263
▁밤새	-10.6263
▁법정에	-10.6263
▁병에	-10.6263
▁보안을	-10.6263
▁부사장은	-10.6263
▁북측	-10.6263
▁불과	-10.6263
▁불안한	-10.6263
▁브라질의	-10.6263
▁브리트니	-10.6263
▁사랑하는	-10.6263
▁사이버	-10.6263
▁사임했다.	-10.6263
▁사적인	-10.6263
▁살해할	-10.6263
▁살해했다고	-10.6263
▁상승으로	-10.6263
▁상위	-10.6263
▁상태라고	-10.6263
▁샘플을	-10.6263
▁석방할	-10.6263
▁성폭행을	-10.6263
▁세계에	-10.6263
▁소수의	-10.6263
▁스미스는	-10.6263
▁스톤	-10.6263
▁승객들이	-10.6263
▁시도한	-10.6263
▁시위자들이	-10.6263
▁시장과	-10.6263
▁신경	-10.6263
▁싶어	-10.6263
▁알-말리키	-10.6263
▁앞으로의	-10.6263
▁양측의	-10.6263
▁얼마전	-10.6263
▁얼음이	-10.6263
▁업계	-10.6263
▁오딩가	-10.6263
▁오픈에서	-10.6263
▁용의자의	-10.6263
▁우려	-10.6263
▁움직이고	-10.6263
▁움직임에	-10.6263
▁월드	-10.6263
▁위기로	-10.6263
▁위에서	-10.6263
▁유권자의	-10.6263
▁유리한	-10.6263
▁음모를	-10.6263
▁의학	-10.6263
▁이것을	-10.6263
▁이라크전에	-10.6263
▁이의를	-10.6263
▁이틀간	-10.6263
▁인	-10.6263
▁일”이라고	-10.6263
▁일정은	-10.6263
▁잃지	-10.6263
▁입력	-10.6263
▁있었을	-10.6263
▁있으나,	-10.6263
▁장관을	-10.6263
▁장기간	-10.6263
▁장악한	-10.6263
▁재	-10.6263
▁재개될	-10.6263
▁재산	-10.6263
▁재임	-10.6263
▁잭슨은	-10.6263
▁전망을	-10.6263
▁전쟁의	-10.6263
▁정신과	-10.6263
▁정한	-10.6263
▁제한	-10.6263
▁주도하는	-10.6263
▁주목을	-10.6263
▁주지사의	-10.6263
▁중간	-10.6263
▁중이었다.	-10.6263
▁지도자로	-10.6263
▁지원에	-10.6263
▁지킬	-10.6263
▁질환을	-10.6263
▁착용하고	-10.6263
▁참가했다.	-10.6263
▁찾은	-10.6263
▁처해	-10.6263
▁촉구	-10.6263
▁총선에	-10.6263
▁최선의	-10.6263
▁충격으로	-10.6263
▁취했다.	-10.6263
▁치른	-10.6263
▁카리	-10.6263
▁크리스티나	-10.6263
▁탄핵	-10.6263
▁테러지원국	-10.6263
▁투자자들은	-10.6263
▁특이한	-10.6263
▁파병을	-10.6263
▁패스를	-10.6263
▁폐쇄를	-10.6263
▁포로	-10.6263
▁폴란드	-10.6263
▁하겠다고	-10.6263
▁하락세를	-10.6263
▁하락하며	-10.6263
▁하여금	-10.6263
▁학대를	-10.6263
▁학생들과	-10.6263
▁해외에서	-10.6263
▁행동은	-10.6263
▁행정부	-10.6263
▁헌법을	-10.6263
▁현금	-10.6263
▁협의를	-10.6263
▁협조를	-10.6263
▁회장	-10.6263
▁후보에게	-10.6263
▁후에도	-10.6263
▁휴대용	-10.6263
▁*	-10.6627
▁1%	-10.6627
▁10%	-10.6627
▁15년	-10.6627
▁15명의	-10.6627
▁18명이	-10.6627
▁1월에	-10.6627
▁2-1로	-10.6627
▁2번째로	-10.6627
▁4%	-10.6627
▁4명	-10.6627
▁4번	-10.6627
▁50명이	-10.6627
▁CNN에	-10.6627
▁CNN이	-10.6627
▁IOC	-10.6627
▁MS가	-10.6627
▁“이것은	-10.6627
▁가기	-10.6627
▁가능하게	-10.6627
▁가서	-10.6627
▁가정에	-10.6627
▁가하고	-10.6627
▁각국의	-10.6627
▁각자	-10.6627
▁감옥에	-10.6627
▁갤런당	-10.6627
▁건강을	-10.6627
▁걷는	-10.6627
▁걸려	-10.6627
▁검찰에	-10.6627
▁것이다.”	-10.6627
▁결정	-10.6627
▁경찰,	-10.6627
▁고립된	-10.6627
▁고문	-10.6627
▁고문을	-10.6627
▁곧바로	-10.6627
▁공격하는	-10.6627
▁공격할	-10.6627
▁과반수	-10.6627
▁관계자	-10.6627
▁관광객들은	-10.6627
▁교통사고로	-10.6627
▁국민에게	-10.6627
▁국왕이	-10.6627
▁규제를	-10.6627
▁그럼	-10.6627
▁그쳤다.	-10.6627
▁기록,	-10.6627
▁기록했다고	-10.6627
▁기술은	-10.6627
▁기자들의	-10.6627
▁꿈을	-10.6627
▁끊임없이	-10.6627
▁남편과	-10.6627
▁남편을	-10.6627
▁내무장관은	-10.6627
▁넓은	-10.6627
▁다르다.	-10.6627
▁다음으로	-10.6627
▁달한다.	-10.6627
▁대답했다.	-10.6627
▁대법원	-10.6627
▁대의	-10.6627
▁대체	-10.6627
▁대화	-10.6627
▁도난	-10.6627
▁도디	-10.6627
▁독일,	-10.6627
▁독일인	-10.6627
▁동성애자	-10.6627
▁들어있는	-10.6627
▁들은	-10.6627
▁뛰어난	-10.6627
▁로딕은	-10.6627
▁마	-10.6627
▁마이애미	-10.6627
▁만남을	-10.6627
▁많지	-10.6627
▁맞았다.	-10.6627
▁매케인에	-10.6627
▁매케인을	-10.6627
▁명백히	-10.6627
▁모델을	-10.6627
▁물질을	-10.6627
▁미국인들에게	-10.6627
▁바이러스에	-10.6627
▁반군에	-10.6627
▁발발	-10.6627
▁발생했던	-10.6627
▁베네수엘라의	-10.6627
▁변화	-10.6627
▁복귀	-10.6627
▁봤다고	-10.6627
▁부근에	-10.6627
▁부총리는	-10.6627
▁브루스	-10.6627
▁비자를	-10.6627
▁사랑에	-10.6627
▁사망자수가	-10.6627
▁사원에서	-10.6627
▁사이클론으로	-10.6627
▁사전에	-10.6627
▁사태로	-10.6627
▁산사태로	-10.6627
▁생각했다.	-10.6627
▁생방송으로	-10.6627
▁샤라포바는	-10.6627
▁선거운동을	-10.6627
▁선을	-10.6627
▁선정	-10.6627
▁설문	-10.6627
▁성직자	-10.6627
▁수년	-10.6627
▁수색작업을	-10.6627
▁스피어스가	-10.6627
▁시일	-10.6627
▁신속한	-10.6627
▁쓸	-10.6627
▁아마디	-10.6627
▁아버지와	-10.6627
▁악영향을	-10.6627
▁않다는	-10.6627
▁않았을	-10.6627
▁알베르토	-10.6627
▁알카에다를	-10.6627
▁애리조나	-10.6627
▁야생동물	-10.6627
▁어려울	-10.6627
▁없다"며	-10.6627
▁여사와	-10.6627
▁여성들을	-10.6627
▁여파로	-10.6627
▁연관된	-10.6627
▁열렸던	-10.6627
▁예루살렘	-10.6627
▁예멘	-10.6627
▁예상되는	-10.6627
▁오고	-10.6627
▁올려	-10.6627
▁올리는	-10.6627
▁외곽	-10.6627
▁우승한	-10.6627
▁우주비행사	-10.6627
▁운전을	-10.6627
▁워싱턴에	-10.6627
▁위안부	-10.6627
▁유럽을	-10.6627
▁음주	-10.6627
▁의식을	-10.6627
▁이르기까지	-10.6627
▁이상으로	-10.6627
▁이씨는	-10.6627
▁인식을	-10.6627
▁일명	-10.6627
▁일정	-10.6627
▁임금	-10.6627
▁임명된	-10.6627
▁자리잡고	-10.6627
▁장소로	-10.6627
▁재산을	-10.6627
▁재판은	-10.6627
▁저렴한	-10.6627
▁전문가	-10.6627
▁전적으로	-10.6627
▁전하며	-10.6627
▁전화로	-10.6627
▁접근	-10.6627
▁정당이	-10.6627
▁정상적인	-10.6627
▁정책은	-10.6627
▁정치에	-10.6627
▁제품에	-10.6627
▁조작	-10.6627
▁종교적	-10.6627
▁주민이	-10.6627
▁주석은	-10.6627
▁지명	-10.6627
▁지방에서	-10.6627
▁지역이다.	-10.6627
▁지원하기	-10.6627
▁진단을	-10.6627
▁진행중인	-10.6627
▁진행할	-10.6627
▁차에	-10.6627
▁참여했다.	-10.6627
▁체포되었다.	-10.6627
▁총리에	-10.6627
▁최우선	-10.6627
▁출구조사	-10.6627
▁출동한	-10.6627
▁취소했다.	-10.6627
▁취임한	-10.6627
▁측의	-10.6627
▁치고	-10.6627
▁카드	-10.6627
▁태양	-10.6627
▁택시	-10.6627
▁터키는	-10.6627
▁파월	-10.6627
▁패션	-10.6627
▁팬들에게	-10.6627
▁퍼트레이어스	-10.6627
▁페리노	-10.6627
▁펼칠	-10.6627
▁평양에서	-10.6627
▁평화적으로	-10.6627
▁포함하고	-10.6627
▁폭발물을	-10.6627
▁폴슨	-10.6627
▁하나	-10.6627
▁학교를	-10.6627
▁한다며	-10.6627
▁행위가	-10.6627
▁헤즈볼라	-10.6627
▁현장	-10.6627
▁호킹	-10.6627
▁확인한	-10.6627
▁환영했다.	-10.6627
▁회장의	-10.6627
▁희망하고	-10.6627
▁흰	-10.6627
▁흰색	-10.6627
▁1-0으로	-10.7004
▁10개	-10.7004
▁3개의	-10.7004
▁4개월	-10.7004
▁House	-10.7004
▁Korea’s	-10.7004
▁LA에서	-10.7004
▁NBA	-10.7004
▁YORK	-10.7004
▁“더	-10.7004
▁가져다	-10.7004
▁감소	-10.7004
▁감소를	-10.7004
▁강경한	-10.7004
▁강조하고	-10.7004
▁건설을	-10.7004
▁경관은	-10.7004
▁경매	-10.7004
▁고려할	-10.7004
▁공개되지	-10.7004
▁공개할	-10.7004
▁공장을	-10.7004
▁공항의	-10.7004
▁과도한	-10.7004
▁관계당국은	-10.7004
▁구조대원들이	-10.7004
▁규정하고	-10.7004
▁근소한	-10.7004
▁기대한다”고	-10.7004
▁기온이	-10.7004
▁끌어	-10.7004
▁나타내고	-10.7004
▁날씨가	-10.7004
▁넣은	-10.7004
▁네바다	-10.7004
▁네바다주	-10.7004
▁논의하고	-10.7004
▁놀랄	-10.7004
▁높다.	-10.7004
▁다큐멘터리	-10.7004
▁다행히	-10.7004
▁달에	-10.7004
▁대체할	-10.7004
▁대폭	-10.7004
▁대표단이	-10.7004
▁도로에	-10.7004
▁도착,	-10.7004
▁독일에서	-10.7004
▁돌아온	-10.7004
▁돌아와	-10.7004
▁돌아왔다.	-10.7004
▁동안,	-10.7004
▁뒤로	-10.7004
▁뒤에서	-10.7004
▁떨어지는	-10.7004
▁라울	-10.7004
▁마리가	-10.7004
▁마을을	-10.7004
▁마침내	-10.7004
▁마흐무드	-10.7004
▁말했지만	-10.7004
▁매코맥	-10.7004
▁맨유는	-10.7004
▁맺은	-10.7004
▁며	-10.7004
▁명성을	-10.7004
▁명으로	-10.7004
▁모르고	-10.7004
▁목소리로	-10.7004
▁무슬림	-10.7004
▁무시하고	-10.7004
▁뭄바이	-10.7004
▁미치지	-10.7004
▁미트	-10.7004
▁바그다드에	-10.7004
▁바이러스가	-10.7004
▁발을	-10.7004
▁배제하지	-10.7004
▁백악관의	-10.7004
▁베를린	-10.7004
▁베컴이	-10.7004
▁변화의	-10.7004
▁보여주기	-10.7004
▁본격적인	-10.7004
▁부상한	-10.7004
▁부인과	-10.7004
▁북쪽	-10.7004
▁북한으로	-10.7004
▁비롯해	-10.7004
▁비싼	-10.7004
▁빠르면	-10.7004
▁사살했다고	-10.7004
▁사우스캐롤라이나	-10.7004
▁살해하겠다고	-10.7004
▁새겨진	-10.7004
▁서서	-10.7004
▁선수들의	-10.7004
▁세상을	-10.7004
▁소비	-10.7004
▁수만명의	-10.7004
▁수십억	-10.7004
▁수요가	-10.7004
▁수준을	-10.7004
▁스파이	-10.7004
▁승려들이	-10.7004
▁시기를	-10.7004
▁시작하는	-10.7004
▁시작해	-10.7004
▁신청을	-10.7004
▁쌀	-10.7004
▁쌍둥이	-10.7004
▁아끼지	-10.7004
▁아들의	-10.7004
▁않자	-10.7004
▁암살된	-10.7004
▁어린이들을	-10.7004
▁얻는	-10.7004
▁에넹은	-10.7004
▁여기에는	-10.7004
▁여진이	-10.7004
▁연구소	-10.7004
▁연이어	-10.7004
▁열렬한	-10.7004
▁예로	-10.7004
▁예정대로	-10.7004
▁올랐으며	-10.7004
▁올릴	-10.7004
▁요구가	-10.7004
▁요즘	-10.7004
▁원자바오	-10.7004
▁원주민	-10.7004
▁월요일,	-10.7004
▁웹사이트에서	-10.7004
▁위반한	-10.7004
▁위치에	-10.7004
▁유권자들에게	-10.7004
▁유엔과	-10.7004
▁유지하는	-10.7004
▁응답자의	-10.7004
▁의료진은	-10.7004
▁의원들의	-10.7004
▁이란,	-10.7004
▁이른바	-10.7004
▁이사는	-10.7004
▁이상한	-10.7004
▁인도,	-10.7004
▁있다’’고	-10.7004
▁자신들을	-10.7004
▁작업은	-10.7004
▁작품은	-10.7004
▁장소를	-10.7004
▁장착된	-10.7004
▁재판관은	-10.7004
▁전원이	-10.7004
▁제가	-10.7004
▁제공했다.	-10.7004
▁제기한	-10.7004
▁제도를	-10.7004
▁제안에	-10.7004
▁존스턴	-10.7004
▁주당	-10.7004
▁주도의	-10.7004
▁주식은	-10.7004
▁줄기	-10.7004
▁중단됐다.	-10.7004
▁지닌	-10.7004
▁지명을	-10.7004
▁지원한	-10.7004
▁진행하는	-10.7004
▁차가	-10.7004
▁착수했다.	-10.7004
▁참가	-10.7004
▁참석	-10.7004
▁참석하기	-10.7004
▁철군	-10.7004
▁체코	-10.7004
▁출전을	-10.7004
▁쿠데타를	-10.7004
▁쿠퍼	-10.7004
▁타입	-10.7004
▁테니스	-10.7004
▁파견된	-10.7004
▁판결	-10.7004
▁판사가	-10.7004
▁판정을	-10.7004
▁팔	-10.7004
▁포기하지	-10.7004
▁표현했다.	-10.7004
▁하기로	-10.7004
▁하는데	-10.7004
▁하얀	-10.7004
▁하자	-10.7004
▁학생들을	-10.7004
▁할지	-10.7004
▁해가	-10.7004
▁해주는	-10.7004
▁핵개발	-10.7004
▁허블	-10.7004
▁호랑이	-10.7004
▁홍수가	-10.7004
▁홍콩의	-10.7004
▁화요일’	-10.7004
▁확률이	-10.7004
▁환영	-10.7004
▁휴가	-10.7004
▁휴대폰을	-10.7004
▁100명	-10.7397
▁11명의	-10.7397
▁1960년대	-10.7397
▁1명인	-10.7397
▁2007.11	-10.7397
▁30명이	-10.7397
▁4개의	-10.7397
▁8강전에서	-10.7397
▁9개	-10.7397
▁Foreign	-10.7397
▁Kim	-10.7397
▁MBC	-10.7397
▁NK	-10.7397
▁WHO는	-10.7397
▁said	-10.7397
▁‘미니	-10.7397
▁‘이슬람	-10.7397
▁“오바마는	-10.7397
▁前	-10.7397
▁가능하다.	-10.7397
▁갖는다.	-10.7397
▁개장	-10.7397
▁걸었다.	-10.7397
▁것인지에	-10.7397
▁격차로	-10.7397
▁결승에서	-10.7397
▁결의안은	-10.7397
▁결정했다”고	-10.7397
▁경기도	-10.7397
▁경제적인	-10.7397
▁고려해	-10.7397
▁공군은	-10.7397
▁공습이	-10.7397
▁교내	-10.7397
▁교회에서	-10.7397
▁구멍을	-10.7397
▁구체적으로	-10.7397
▁극적인	-10.7397
▁글래스고	-10.7397
▁급속히	-10.7397
▁기업들이	-10.7397
▁기울이고	-10.7397
▁나머지는	-10.7397
▁남편의	-10.7397
▁내무부가	-10.7397
▁네트워크	-10.7397
▁논란을	-10.7397
▁뉴스를	-10.7397
▁닥터	-10.7397
▁달러화	-10.7397
▁당수는	-10.7397
▁대가	-10.7397
▁대결을	-10.7397
▁대답을	-10.7397
▁대사를	-10.7397
▁대표들은	-10.7397
▁대학은	-10.7397
▁도움으로	-10.7397
▁동물의	-10.7397
▁동성	-10.7397
▁동원,	-10.7397
▁되면서	-10.7397
▁둘째	-10.7397
▁들어온	-10.7397
▁릭	-10.7397
▁막는	-10.7397
▁만장일치로	-10.7397
▁많아	-10.7397
▁맡게	-10.7397
▁면담을	-10.7397
▁모하마드	-10.7397
▁무샤라프가	-10.7397
▁무장단체가	-10.7397
▁미국발	-10.7397
▁밀란은	-10.7397
▁바가	-10.7397
▁바그다드의	-10.7397
▁밖의	-10.7397
▁발견은	-10.7397
▁발표가	-10.7397
▁밝은	-10.7397
▁방송이	-10.7397
▁배럭	-10.7397
▁버마	-10.7397
▁버지니아주	-10.7397
▁범행을	-10.7397
▁별로	-10.7397
▁보고는	-10.7397
▁부대가	-10.7397
▁부정	-10.7397
▁부토가	-10.7397
▁불가리아	-10.7397
▁비교해	-10.7397
▁비율이	-10.7397
▁사람도	-10.7397
▁사람들에	-10.7397
▁상승을	-10.7397
▁상승할	-10.7397
▁상품을	-10.7397
▁새끼를	-10.7397
▁생각한다고	-10.7397
▁선수들을	-10.7397
▁세력의	-10.7397
▁세부	-10.7397
▁소개했다.	-10.7397
▁소년	-10.7397
▁소년의	-10.7397
▁소유의	-10.7397
▁수단을	-10.7397
▁수지	-10.7397
▁슈워제네거	-10.7397
▁승리하며	-10.7397
▁승부를	-10.7397
▁시한을	-10.7397
▁식으로	-10.7397
▁신원	-10.7397
▁신체	-10.7397
▁싶은	-10.7397
▁아들은	-10.7397
▁악화될	-10.7397
▁안고	-10.7397
▁알리기	-10.7397
▁알제리	-10.7397
▁앙겔라	-10.7397
▁앤디	-10.7397
▁얘기를	-10.7397
▁어렵게	-10.7397
▁업무	-10.7397
▁업체인	-10.7397
▁없기	-10.7397
▁역을	-10.7397
▁연합군은	-10.7397
▁연합은	-10.7397
▁예산을	-10.7397
▁오르며	-10.7397
▁오직	-10.7397
▁외교부는	-10.7397
▁외치며	-10.7397
▁요청	-10.7397
▁우려로	-10.7397
▁우주선이	-10.7397
▁우즈는	-10.7397
▁워너	-10.7397
▁위해,	-10.7397
▁유권자들의	-10.7397
▁유지하기	-10.7397
▁을	-10.7397
▁음성	-10.7397
▁응답자	-10.7397
▁이라크가	-10.7397
▁이라크인	-10.7397
▁이란에서	-10.7397
▁이뤄지지	-10.7397
▁이름	-10.7397
▁이용하여	-10.7397
▁이자율을	-10.7397
▁이정인(JOINS)	-10.7397
▁이하의	-10.7397
▁인권을	-10.7397
▁인도에서	-10.7397
▁인상	-10.7397
▁인접한	-10.7397
▁일단	-10.7397
▁일부에서는	-10.7397
▁임신한	-10.7397
▁입원	-10.7397
▁입원한	-10.7397
▁입지	-10.7397
▁있었고,	-10.7397
▁잔해	-10.7397
▁장악하고	-10.7397
▁전달한	-10.7397
▁전반적으로	-10.7397
▁전역의	-10.7397
▁전체를	-10.7397
▁전투기	-10.7397
▁전형적인	-10.7397
▁점에서	-10.7397
▁접근을	-10.7397
▁정동영	-10.7397
▁정보는	-10.7397
▁정상에	-10.7397
▁정상적으로	-10.7397
▁제이미	-10.7397
▁조셉	-10.7397
▁존드로	-10.7397
▁좋게	-10.7397
▁주를	-10.7397
▁죽을	-10.7397
▁준장은	-10.7397
▁줄이고	-10.7397
▁중국인	-10.7397
▁중점을	-10.7397
▁지니고	-10.7397
▁직면한	-10.7397
▁질병을	-10.7397
▁참가자들은	-10.7397
▁창문을	-10.7397
▁천주교	-10.7397
▁철저한	-10.7397
▁초래할	-10.7397
▁총격전이	-10.7397
▁촬영	-10.7397
▁추구하는	-10.7397
▁출시	-10.7397
▁취해야	-10.7397
▁친구들과	-10.7397
▁친환경	-10.7397
▁콘서트를	-10.7397
▁탈	-10.7397
▁탈라바니	-10.7397
▁터키군	-10.7397
▁통제	-10.7397
▁파나마	-10.7397
▁파키스탄을	-10.7397
▁펼치고	-10.7397
▁평범한	-10.7397
▁평화상	-10.7397
▁폭발은	-10.7397
▁폭풍	-10.7397
▁피해는	-10.7397
▁하나이다.	-10.7397
▁하원은	-10.7397
▁학교의	-10.7397
▁항공사는	-10.7397
▁항소할	-10.7397
▁해결에	-10.7397
▁해군은	-10.7397
▁해안을	-10.7397
▁핵시설을	-10.7397
▁행한	-10.7397
▁향하던	-10.7397
▁현행	-10.7397
▁협상은	-10.7397
▁협회는	-10.7397
▁회원	-10.7397
▁희생자들을	-10.7397
▁(CNN)/권성근(JOINS)	-10.7805
▁10시	-10.7805
▁12개	-10.7805
▁1981년	-10.7805
▁2006.01	-10.7805
