<unk>	0
<s>	0
</s>	0
.	-3.42569
▁	-3.43061
을	-3.86369
의	-3.93716
에	-4.21494
이	-4.2962
를	-4.31672
는	-4.39289
가	-4.45285
은	-4.57649
,	-4.62561
고	-4.66588
에서	-4.9796
로	-5.08185
한	-5.08467
▁“	-5.2538
인	-5.27527
”	-5.2962
일	-5.3418
(	-5.41353
)	-5.42237
과	-5.44605
▁이	-5.4995
으로	-5.60462
와	-5.60779
▁있다	-5.6648
지	-5.67132
도	-5.73911
▁수	-5.74841
할	-5.77014
했다	-5.8612
▁밝혔다	-5.88678
▁말했다	-5.90997
하고	-5.9447
년	-5.95099
다	-5.99733
하는	-6.06071
▁있는	-6.08277
기	-6.12686
리	-6.14829
▁그	-6.15302
▁전	-6.15716
자	-6.15963
스	-6.16908
며	-6.18258
해	-6.21288
▁2	-6.29481
▁1	-6.3028
▁그는	-6.3051
만	-6.33357
▁대한	-6.38499
된	-6.38889
▁위해	-6.40928
월	-6.42633
▁전했다	-6.48684
▁미국	-6.49744
▁한	-6.50914
▁미	-6.51367
▁3	-6.51544
▁이번	-6.55074
▁중	-6.5563
▁지난	-6.57142
시	-6.57654
현지시간	-6.59024
라	-6.60169
에게	-6.6433
나	-6.64493
어	-6.66242
▁대해	-6.66523
주	-6.67606
"	-6.67899
사	-6.68486
s	-6.69935
▁‘	-6.71499
▁것으로	-6.74316
트	-6.75604
게	-6.76769
드	-6.77884
▁것	-6.78897
▁것이라고	-6.7959
명이	-6.79884
이라고	-6.8045
들이	-6.80879
▁"	-6.81239
대	-6.83151
▁4	-6.83409
아	-6.85939
하기	-6.86123
▁있다고	-6.86239
수	-6.87099
르	-6.87739
서	-6.87979
▁주	-6.88212
▁것을	-6.88346
▁이라크	-6.9135
적인	-6.91585
’	-6.93003
▁6	-6.93288
히	-6.94199
세	-6.9454
하지	-6.95109
▁5	-6.95374
상	-6.97041
▁더	-6.98705
들은	-7.002
▁그러나	-7.00652
부	-7.01105
▁대통령	-7.03233
하게	-7.0347
운	-7.03677
▁다른	-7.03687
적	-7.03814
▁중국	-7.0605
치	-7.06434
비	-7.08848
e	-7.12319
전	-7.12402
▁내	-7.12405
명	-7.125
▁10	-7.13033
라고	-7.13066
▁한편	-7.13399
던	-7.13623
성	-7.1487
정	-7.15307
프	-7.15464
▁북한	-7.16458
-	-7.16608
소	-7.17392
▁후	-7.17566
명의	-7.19398
됐다	-7.19904
▁바	-7.20588
미	-7.20692
원	-7.21287
▁아	-7.22545
크	-7.23209
▁이후	-7.24187
했다고	-7.24431
▁정부	-7.25174
▁영국	-7.25556
보	-7.25725
▁7	-7.26463
▁통해	-7.27681
니	-7.28173
선	-7.28347
▁한국	-7.28617
▁제	-7.29055
▁알	-7.29162
▁일	-7.30188
마	-7.30581
▁위한	-7.30843
▁많은	-7.31301
▁두	-7.31397
이다	-7.31787
▁또	-7.32631
될	-7.32721
▁8	-7.33033
▁대통령은	-7.33178
진	-7.34446
화	-7.34494
▁부시	-7.34805
야	-7.34818
분	-7.3496
▁등	-7.35481
▁비	-7.35777
하	-7.36496
▁가장	-7.36993
▁동안	-7.38007
까지	-7.38321
위	-7.38399
당	-7.38579
장	-7.38689
▁같은	-7.38693
오	-7.38705
▁부	-7.393
▁것이다	-7.39874
▁나	-7.40044
에는	-7.41296
▁대변인은	-7.41519
바	-7.4173
▁대	-7.41797
조	-7.42213
▁유	-7.43436
들을	-7.43616
개	-7.44
▁시	-7.44208
▁지	-7.44299
면	-7.44542
디	-7.45262
▁약	-7.45761
했으며	-7.4724
파	-7.47399
제	-7.47809
▁세계	-7.48243
하며	-7.489
우	-7.49977
▁말	-7.50123
국	-7.5013
▁오바마	-7.50377
▁주장했다	-7.50783
▁조사	-7.50942
▁사	-7.50954
▁문제	-7.51211
적으로	-7.51432
▁때	-7.51928
▁될	-7.52328
▁영화	-7.52515
내	-7.53062
▁것은	-7.53121
타	-7.54031
간	-7.542
▁19	-7.54318
▁할	-7.54565
즈	-7.54995
▁한다	-7.55286
▁오	-7.5545
▁마	-7.56089
여	-7.56116
▁또한	-7.56322
▁9	-7.56472
▁뒤	-7.56815
▁것이	-7.57199
차	-7.57311
▁관련	-7.57828
▁12	-7.5792
그	-7.58453
▁현재	-7.58644
▁경제	-7.58656
o	-7.5889
▁일본	-7.59167
▁정	-7.59266
▁최근	-7.59525
▁보도했다	-7.60638
▁경우	-7.6071
유	-7.61336
▁보	-7.61379
▁공격	-7.61597
및	-7.61877
구	-7.61934
려	-7.6201
▁덧붙였다	-7.62137
한다	-7.62169
▁이상	-7.62243
들	-7.62316
▁반	-7.62317
식	-7.62513
▁불	-7.629
레	-7.63013
▁않았다	-7.63085
러	-7.63093
▁있었다	-7.63427
▁국가	-7.63469
에서는	-7.63863
었다	-7.64156
했던	-7.64835
용	-7.64886
▁20	-7.64964
'	-7.65321
단	-7.66328
▁무	-7.66598
권	-7.66669
i	-7.67174
문	-7.67359
▁11	-7.6747
▁기	-7.6768
하다	-7.67808
약	-7.67863
▁일부	-7.68648
티	-7.68871
▁자신의	-7.68959
▁안	-7.69716
▁조	-7.69928
관	-7.70405
▁거	-7.70419
▁해	-7.7043
노	-7.70648
안	-7.71641
▁함께	-7.72486
1	-7.72545
브	-7.72632
d	-7.72886
신	-7.73002
계	-7.73119
▁'	-7.73415
모	-7.73525
▁공	-7.73577
2	-7.73781
▁하	-7.75019
▁당시	-7.75509
▁했다	-7.75618
카	-7.75649
3	-7.75684
▁계속	-7.7626
▁다	-7.76274
▁모든	-7.76595
▁파	-7.76602
▁새로	-7.76852
▁재	-7.77002
S	-7.77202
▁상	-7.77798
방	-7.77828
▁그리고	-7.77925
▁후보	-7.78553
▁지원	-7.78748
▁때문에	-7.7903
해야	-7.79284
실	-7.79339
▁신	-7.79749
직	-7.80142
코	-7.80158
▁자	-7.80508
보다	-7.80579
회	-7.80662
▁미군	-7.81588
린	-7.81894
A	-7.82274
▁예정이다	-7.82373
▁파키스탄	-7.82386
▁수도	-7.82699
▁모두	-7.83201
억	-7.83582
▁설명했다	-7.8388
호	-7.84039
t	-7.84144
▁프랑스	-7.84196
▁있습니다	-7.84468
▁결과	-7.84694
▁몇	-7.84971
▁계획	-7.85467
▁있으며	-7.85468
산	-7.8551
▁구	-7.85592
체	-7.86025
▁러시아	-7.8614
▁이스라엘	-7.8642
질	-7.86677
▁경찰	-7.86987
▁모	-7.8701
동	-7.87176
물	-7.87492
토	-7.87812
▁경찰은	-7.88121
점	-7.88318
▁클린턴	-7.88336
무	-7.88367
▁세	-7.88423
▁지역	-7.88472
a	-7.88681
▁유엔	-7.89145
u	-7.89301
▁카	-7.90386
▁민주당	-7.90667
▁없다	-7.91168
▁정부는	-7.91223
들의	-7.9137
▁우리	-7.91568
C	-7.92033
경	-7.9208
▁테러	-7.92552
▁큰	-7.92873
▁피	-7.93119
▁결정	-7.93164
y	-7.93292
법	-7.93338
▁연구	-7.93886
되는	-7.9422
▁사고	-7.94247
▁선거	-7.94459
피	-7.95047
p	-7.95134
▁데	-7.95252
▁여성	-7.95305
▁성	-7.95374
▁30	-7.95594
m	-7.95729
▁군	-7.95882
력	-7.96033
더	-7.96259
감	-7.96545
▁핵	-7.96802
명을	-7.97369
▁도	-7.97427
▁시작	-7.97852
▁the	-7.98214
▁않을	-7.98368
▁지난해	-7.9852
에따르면	-7.98598
에도	-7.98682
▁강	-7.98701
▁이들	-7.98894
연	-7.9893
▁줄	-7.99158
▁열린	-7.99766
▁A	-7.99968
학	-8.00215
공	-8.00665
▁방문	-8.00719
▁경기	-8.00748
했습니다	-8.00963
▁달	-8.01002
▁발표	-8.01036
▁대통령이	-8.01225
▁달러	-8.01335
교	-8.01447
군	-8.01634
버	-8.01655
지만	-8.01784
▁당	-8.0181
터	-8.01891
r	-8.01926
▁하는	-8.02042
라는	-8.02047
▁이란	-8.02096
g	-8.02205
▁올해	-8.02747
▁양	-8.03127
루	-8.03283
▁있을	-8.03736
▁스	-8.04169
▁원	-8.04211
란	-8.04469
중	-8.0457
▁발생한	-8.04876
▁소	-8.04896
▁물	-8.04932
데	-8.05091
▁이날	-8.05119
▁(	-8.05354
▁총리는	-8.05616
▁노	-8.06786
시간	-8.07036
▁발표했다	-8.07067
심	-8.07431
▁15	-8.07712
▁존	-8.07809
▁발	-8.08004
▁초	-8.08279
▁리	-8.08396
▁받고	-8.08651
키	-8.08682
재	-8.08805
l	-8.09237
P	-8.09623
▁실	-8.09856
난	-8.09982
▁to	-8.10244
하면서	-8.103
▁국제	-8.10484
이나	-8.1083
되고	-8.10868
6	-8.10989
▁회담	-8.11037
▁채	-8.11465
c	-8.11532
)’	-8.1154
▁of	-8.11821
▁서	-8.11875
하여	-8.12024
▁유럽	-8.12331
▁총리	-8.12383
▁라	-8.12705
포	-8.12823
역	-8.12933
▁관계	-8.13082
▁총	-8.13197
▁미국의	-8.13293
▁배	-8.13786
행	-8.13815
▁가운데	-8.13969
▁조치	-8.14101
았다	-8.14145
n	-8.14246
f	-8.14799
들에게	-8.15044
길	-8.15325
민	-8.15513
ed	-8.15556
▁간	-8.15848
으며	-8.15892
▁아프간	-8.15936
종	-8.1605
▁타	-8.16345
▁개	-8.16461
▁첫	-8.16497
▁주장	-8.16733
부터	-8.1678
▁16	-8.16857
▁기록	-8.17088
▁포	-8.17305
살	-8.17312
▁아이	-8.17503
▁의해	-8.17614
▁S	-8.17791
▁열	-8.18262
▁매	-8.18472
▁프로그램	-8.18541
▁여	-8.18632
▁입	-8.18692
▁된다	-8.18909
▁사람들이	-8.18979
면서	-8.19018
▁주요	-8.19122
▁인도	-8.19359
▁18	-8.1944
▁사건	-8.1974
▁차	-8.19781
임	-8.20024
형	-8.20045
▁정부가	-8.2007
되어	-8.20344
건	-8.20435
▁감독	-8.2056
.”	-8.20744
요	-8.21025
▁인해	-8.2115
▁다시	-8.21359
▁시위	-8.21618
▁코	-8.21654
들과	-8.21665
번	-8.21671
▁보고	-8.2212
였다	-8.22306
거	-8.22478
배	-8.22495
▁승리	-8.22569
5	-8.22611
▁있다는	-8.22621
▁회사	-8.23129
▁차량	-8.23137
▁않은	-8.23166
%	-8.23178
M	-8.23362
입니다	-8.23585
▁동	-8.23769
품	-8.24096
▁호	-8.24219
발	-8.24448
설	-8.24459
▁하고	-8.2452
스트	-8.25117
▁투표	-8.25337
▁13	-8.25372
석	-8.25498
▁예정	-8.25572
▁어	-8.25862
▁메	-8.26275
▁경	-8.26302
▁피해	-8.26338
7	-8.26392
네	-8.26797
두	-8.26834
돼	-8.26894
▁우	-8.26896
▁활동	-8.26989
▁여러	-8.2716
▁혐의로	-8.27224
▁지지	-8.27274
▁명	-8.27309
▁생각	-8.27379
▁맞	-8.27429
▁외	-8.27432
금	-8.27697
▁시간	-8.27967
▁혐의	-8.28148
▁협상	-8.28187
저	-8.2821
병	-8.28288
▁중단	-8.28697
▁전쟁	-8.28729
되지	-8.28853
▁반대	-8.28878
▁됐다	-8.28884
▁상원의원	-8.28901
▁선	-8.29046
▁합의	-8.29108
▁in	-8.29191
▁산	-8.29255
D	-8.29267
장은	-8.29299
▁독일	-8.29467
반	-8.29482
래	-8.29767
▁대학	-8.29905
▁위	-8.29931
워	-8.3019
범	-8.30713
▁시장	-8.30863
▁이미	-8.31115
▁호주	-8.31267
▁14	-8.31449
▁관리	-8.31598
km	-8.3176
▁위치한	-8.31894
▁연	-8.32169
▁대선	-8.32202
청	-8.32364
/	-8.32463
▁뉴욕	-8.32522
▁탈레반	-8.32782
an	-8.32835
▁팔레스타인	-8.32945
▁받았다	-8.33149
I	-8.33266
▁페	-8.33638
▁우려	-8.33649
▁없는	-8.33763
료	-8.33805
년간	-8.33946
▁W	-8.34494
▁TV	-8.34597
ing	-8.34802
달러	-8.34817
됐다고	-8.3506
론	-8.3528
▁석방	-8.35373
▁장	-8.35467
달	-8.35723
▁내용	-8.35735
이라며	-8.35794
습니다	-8.36027
에따라	-8.36055
▁최고	-8.36243
▁조지	-8.36263
E	-8.36329
ar	-8.3639
너	-8.36576
▁남	-8.36579
슨	-8.36583
▁소속	-8.36661
▁아직	-8.36739
▁부상	-8.37165
▁새	-8.37201
생	-8.37336
▁잘	-8.37389
▁우주	-8.37689
0	-8.37884
er	-8.3807
▁사실을	-8.38264
급	-8.38474
▁않고	-8.3856
▁점	-8.38586
▁추가	-8.38681
▁25	-8.38848
로부터	-8.38902
4	-8.39094
▁레	-8.39177
▁단	-8.39196
▁사용	-8.39206
▁방송	-8.39212
이며	-8.39298
▁''	-8.39299
al	-8.39439
▁매케인	-8.39577
▁위협	-8.39952
▁노력	-8.39981
통	-8.40038
속	-8.40246
N	-8.40355
▁관계자는	-8.40564
▁많	-8.40799
지는	-8.40827
▁버	-8.40925
in	-8.40995
류	-8.41075
▁포함	-8.41139
▁인터넷	-8.41415
▁확인	-8.41518
▁한다고	-8.41527
릴	-8.41558
▁17	-8.41718
판	-8.4181
re	-8.42062
▁지금	-8.4219
▁지적했다	-8.42289
▁적	-8.42524
작	-8.426
▁저	-8.42973
▁이용	-8.43087
▁도시	-8.43131
or	-8.43273
▁정치	-8.43461
▁이슬람	-8.4347
색	-8.43514
스는	-8.43733
?	-8.4378
▁매우	-8.43851
en	-8.43912
▁남부	-8.43968
▁판매	-8.44043
다고	-8.44129
▁비난	-8.44173
했었다	-8.44453
▁사람	-8.44594
▁사이	-8.44651
▁개발	-8.44681
T	-8.44771
▁기술	-8.44784
출	-8.4493
▁당국	-8.45082
▁인근	-8.4516
▁볼	-8.45279
▁연방	-8.45333
천	-8.4535
▁M	-8.45591
▁하나	-8.45635
▁보도	-8.45711
▁심	-8.45785
▁올림픽	-8.46006
▁폭발	-8.46107
▁대부분	-8.46181
온	-8.46282
했고	-8.46479
▁C	-8.46488
▁입장	-8.46524
▁김	-8.46853
▁발견	-8.46854
▁증가	-8.47001
▁정책	-8.47253
▁당국은	-8.47395
량	-8.47411
▁명의	-8.47419
K	-8.47475
▁B	-8.47524
▁살	-8.47614
▁사망	-8.47792
양	-8.47796
메	-8.47827
처럼	-8.48065
▁치	-8.48081
개월	-8.48178
했지만	-8.48181
▁P	-8.4854
▁올	-8.48579
든	-8.4861
▁없다고	-8.48618
▁이어	-8.48644
▁감	-8.49096
처	-8.4915
츠	-8.49181
된다	-8.49418
▁자동차	-8.49594
F	-8.49596
▁받은	-8.49689
▁2006	-8.49815
▁않는다	-8.49911
▁평화	-8.50042
퍼	-8.50166
▁손	-8.50185
▁준비	-8.50257
▁다음	-8.50645
되었다	-8.50695
▁이는	-8.50712
▁100	-8.50736
8	-8.50842
클	-8.51107
▁금융	-8.51168
▁못했다	-8.51308
▁어떤	-8.51367
▁교	-8.51518
▁24	-8.5161
▁날	-8.51664
▁성명	-8.51922
▁가족	-8.51995
위원회	-8.5205
▁루	-8.52151
G	-8.52172
강	-8.5233
▁기자	-8.52516
▁생산	-8.52663
▁남자	-8.5299
베	-8.53179
편	-8.53201
▁건물	-8.53257
날	-8.53408
결	-8.53514
▁이름	-8.53627
친	-8.53671
▁오늘	-8.53806
했으나	-8.53859
▁발생	-8.53868
▁집	-8.53898
B	-8.53957
▁본	-8.53996
▁하지만	-8.5414
h	-8.54261
:	-8.54262
울	-8.54305
하기로	-8.54349
▁21	-8.54358
▁베	-8.54533
▁폭탄	-8.54704
▁언론	-8.54938
▁오후	-8.54957
▁해결	-8.55097
▁있던	-8.55179
개의	-8.55247
O	-8.55262
▁지도자	-8.55383
이었다	-8.55894
▁방법	-8.55899
명은	-8.55948
b	-8.56009
▁의사	-8.56082
▁검찰	-8.56548
▁50	-8.56933
▁변화	-8.57487
열	-8.57521
▁법원	-8.57863
▁대표	-8.58043
▁27	-8.58142
▁23	-8.58152
▁상태	-8.58163
▁필요	-8.58314
영	-8.58398
하는데	-8.58455
▁인터뷰에서	-8.58534
▁공개	-8.58574
▁하지	-8.58752
와의	-8.58994
▁미얀마	-8.5913
▁행사	-8.59247
복	-8.59265
▁이에	-8.5935
▁안전	-8.59368
▁T	-8.59452
▁앞서	-8.59481
▁법	-8.59531
층	-8.59603
▁방	-8.59668
▁분	-8.59964
▁종	-8.59975
겨	-8.59997
▁추	-8.60044
▁보호	-8.60058
▁있어	-8.6012
증	-8.60264
it	-8.6041
▁22	-8.60505
▁건강	-8.60536
격	-8.606
절	-8.60607
▁북부	-8.60805
▁단체	-8.60937
예	-8.61002
▁갖고	-8.6133
테	-8.61339
▁컴퓨터	-8.61448
▁제공	-8.61484
▁만	-8.61538
▁병원	-8.61544
하도록	-8.61581
▁공화당	-8.61609
▁원문기사보기	-8.61681
▁치료	-8.61713
▁a	-8.61841
▁아시아	-8.61861
는데	-8.61981
▁있도록	-8.62156
투	-8.62209
▁현	-8.62368
▁강조했다	-8.62504
▁것에	-8.62584
언	-8.6265
▁처음	-8.62659
▁상승	-8.63118
▁납치	-8.63161
▁힐러리	-8.63242
먼	-8.63328
▁살해	-8.63336
지역	-8.63369
▁이러	-8.63381
▁그들은	-8.63503
▁취	-8.63546
▁요구	-8.63546
기를	-8.63664
립	-8.63717
렌	-8.63777
▁금지	-8.63875
▁들어	-8.63885
▁학교	-8.63892
▁떨어진	-8.64043
▁사태	-8.64235
▁오전	-8.64338
▁2005	-8.64584
and	-8.64629
▁가진	-8.64971
▁반군	-8.64987
▁조직	-8.651
▁거래	-8.65134
탄	-8.65191
▁마지막	-8.65245
▁정보	-8.65452
L	-8.6548
▁여행	-8.65657
팀	-8.65703
▁논의	-8.65892
합	-8.66119
▁비난했다	-8.66166
져	-8.66171
머	-8.66206
▁진행	-8.66214
업	-8.66305
▁상황	-8.6632
▁팀	-8.66432
▁터키	-8.66601
▁북한이	-8.66636
▁발언	-8.66739
▁지구	-8.66959
▁은행	-8.67266
측	-8.673
▁진	-8.67538
▁요청	-8.6761
이라는	-8.67661
w	-8.67661
▁연기	-8.67691
하자	-8.67737
집	-8.68153
각	-8.68191
▁오는	-8.68274
거나	-8.68282
▁최대	-8.68534
▁경찰이	-8.68729
▁출신	-8.68971
▁미국과	-8.6931
▁처음으로	-8.69334
at	-8.69495
R	-8.69521
▁장관은	-8.69604
▁이를	-8.69641
▁각	-8.69672
▁규모	-8.6972
▁자신이	-8.69798
입	-8.69983
▁그녀	-8.70096
▁사회	-8.70155
k	-8.70216
▁행동	-8.70484
▁앞	-8.70509
▁담	-8.70636
▁판결	-8.70725
림	-8.70725
▁친	-8.70726
un	-8.70738
▁불법	-8.70817
▁온	-8.7089
▁충돌	-8.70972
▁N	-8.70988
▁버락	-8.70989
▁생	-8.71028
▁막	-8.71097
▁그녀는	-8.71199
으로부터	-8.713
▁없었다	-8.71606
▁지난달	-8.7168
▁26	-8.71734
▁난	-8.71886
번째	-8.72011
▁번	-8.72025
됐으며	-8.72092
▁CNN	-8.72129
매	-8.72236
▁토	-8.72261
▁40	-8.72416
▁보내	-8.72423
▁국민	-8.72435
v	-8.72476
졌다	-8.7248
▁자금	-8.72487
▁있지만	-8.72623
▁결	-8.72713
▁용의자	-8.72747
▁유지	-8.7277
▁이탈리아	-8.72815
▁밤	-8.72817
▁자신	-8.72945
▁L	-8.72992
▁최소	-8.73252
▁서울	-8.73256
▁없이	-8.73299
le	-8.73324
▁앞으로	-8.73331
하던	-8.73585
▁들	-8.73627
▁영향	-8.73741
▁성공	-8.73839
준	-8.73857
▁관한	-8.73942
▁투자	-8.74035
박	-8.74046
▁야당	-8.7415
▁예	-8.74208
▁지역에서	-8.7423
▁H	-8.74254
함	-8.7427
▁못	-8.74362
추	-8.74607
등	-8.74635
▁보인다	-8.74735
▁밀	-8.74793
▁공항	-8.7483
▁공급	-8.74949
▁환경	-8.74985
▁된	-8.75047
▁통	-8.75064
▁발사	-8.75079
상을	-8.75088
▁주둔	-8.75193
령	-8.753
해서	-8.75353
▁스페인	-8.75693
▁사망했다	-8.75705
▁군사	-8.75845
▁̋	-8.75955
리는	-8.76109
자가	-8.76351
▁사람들	-8.76393
른	-8.76398
▁의회	-8.76405
위를	-8.76591
▁않다	-8.76735
▁걸	-8.76843
▁돈	-8.7694
▁G	-8.7694
케	-8.7695
▁무기	-8.7703
~	-8.77045
▁공식	-8.77123
▁좋은	-8.7731
락	-8.77431
승	-8.77472
▁지방	-8.77497
ic	-8.77565
_	-8.77584
▁회장	-8.77662
▁사망자	-8.77713
▁무샤라프	-8.77766
▁만에	-8.7786
후	-8.77904
▁폴	-8.78
우리는	-8.7808
▁미사일	-8.78138
▁사진	-8.78181
▁공동	-8.78241
초	-8.78251
▁29	-8.78296
▁영	-8.78343
▁F	-8.78355
외	-8.78416
▁관	-8.78441
▁가격	-8.7854
▁현지	-8.78627
▁관심	-8.78718
5%	-8.78766
록	-8.78863
▁가능성	-8.78968
포인트	-8.78969
▁돌	-8.78982
▁하루	-8.79056
한다고	-8.79149
▁미국이	-8.79224
미국	-8.79276
▁잡	-8.79302
▁문	-8.79341
자들은	-8.79391
▁선수	-8.79416
▁비행기	-8.79434
▁런던	-8.79879
▁사람들은	-8.7988
▁수사	-8.80015
▁변	-8.80581
article	-8.80641
독	-8.80661
음	-8.80664
▁제작	-8.80671
▁행위	-8.80714
▁팔	-8.8076
런	-8.80802
주의	-8.8083
있는	-8.80921
▁동영상	-8.80922
▁코리아	-8.80948
▁28	-8.8111
▁곳	-8.81311
▁AP	-8.81327
▁백악관	-8.81642
▁이들은	-8.81808
▁범죄	-8.81845
▁인질	-8.81991
▁알려졌다	-8.82065
회의	-8.82093
▁박사는	-8.82208
▁나라	-8.82324
▁우승	-8.82375
긴	-8.82377
하면	-8.82469
혀	-8.82628
▁표	-8.8292
▁하락	-8.83045
▁중요한	-8.83098
커	-8.83461
▁불구하고	-8.83539
▁평	-8.83547
▁위험	-8.83549
▁벌이	-8.83575
▁패	-8.83578
골	-8.83618
본	-8.83839
▁오바마는	-8.83855
간의	-8.83879
▁게임	-8.8411
▁대통령과	-8.84384
▁운동	-8.84444
받	-8.84462
▁D	-8.84463
H	-8.84485
▁정상	-8.84499
▁의원	-8.845
▁장관	-8.84501
▁빌	-8.84517
as	-8.84546
▁말했습니다	-8.84798
’’	-8.84807
▁미국은	-8.84931
▁병력	-8.85021
▁발생했다	-8.85063
▁드	-8.85069
▁정치적	-8.85157
▁이전	-8.85214
▁체포	-8.85297
▁이야기	-8.85569
▁남성	-8.85586
▁바그다드	-8.85613
▁애	-8.85632
▁고위	-8.85651
자인	-8.85701
▁사실	-8.85759
▁것입니다	-8.85765
▁속	-8.85851
▁독립	-8.85863
▁역할	-8.86067
▁시도	-8.86089
▁for	-8.86187
CNN	-8.86294
2005.08	-8.86296
▁자살	-8.86542
▁사망한	-8.86557
▁이런	-8.86629
하겠다고	-8.86774
▁잠	-8.8695
▁헤	-8.87082
표	-8.87116
▁정도	-8.87162
▁보안	-8.87169
곳	-8.87234
▁강화	-8.87239
▁통과	-8.87243
▁인용	-8.87402
▁여부	-8.87438
50	-8.87479
▁반면	-8.87559
▁2008	-8.87619
▁직접	-8.87653
▁워싱턴	-8.87687
▁역사	-8.87893
렸다	-8.87947
▁예상	-8.8799
시켰다	-8.88242
▁천	-8.88244
▁폐쇄	-8.88257
▁c	-8.8828
▁부족	-8.8834
남	-8.88369
▁자유	-8.88422
▁개인	-8.88581
▁눈	-8.88654
▁회의	-8.89037
▁서비스	-8.89044
말	-8.89231
es	-8.89264
플	-8.89471
있다	-8.89507
▁부토	-8.8966
▁기업	-8.89684
▁알카에다	-8.89688
목	-8.89842
백	-8.89857
▁부인	-8.90308
▁것이라는	-8.9048
▁누	-8.90572
▁출연	-8.90667
▁사망했다고	-8.90688
으나	-8.90761
▁보다	-8.90929
▁투	-8.90981
▁자신들	-8.91003
’(	-8.91134
마리	-8.91135
랜드	-8.91182
했을	-8.9122
▁기간	-8.91386
▁모습을	-8.9151
망	-8.91688
▁의하면	-8.9173
▁딸	-8.91742
시킬	-8.91752
▁야	-8.9196
▁높은	-8.91978
▁상원	-8.92043
▁&	-8.92142
▁인정	-8.92154
▁재판	-8.92216
▁골	-8.92265
▁뉴스	-8.92385
만명	-8.92406
▁감소	-8.92506
▁확보	-8.92612
리아	-8.92669
▁가능성이	-8.92726
억원	-8.92853
ri	-8.92871
평	-8.92893
▁더욱	-8.92936
▁사업	-8.92974
▁길	-8.93022
▁청	-8.93033
됐	-8.93132
▁통신	-8.93332
▁성명에서	-8.93334
▁국경	-8.9341
▁2005.08	-8.93411
▁해안	-8.93458
쳐	-8.93508
▁아이들	-8.93517
▁의견	-8.93605
▁뜻	-8.93607
▁인쇄	-8.93892
▁참가	-8.94064
▁참여	-8.94137
▁K	-8.9432
▁별	-8.94339
▁비행	-8.94405
▁지나	-8.94442
▁것이며	-8.94599
▁지난주	-8.94633
▁보고서	-8.94635
▁건	-8.94681
▁전체	-8.94841
▁지역에	-8.94895
▁호텔	-8.95025
▁위기	-8.95049
▁언급	-8.95168
▁아버지	-8.95231
장을	-8.9546
만달러	-8.95488
▁출전	-8.95598
▁왔다	-8.95656
이번	-8.95773
졌	-8.9582
▁하마스	-8.95845
차례	-8.96035
▁신문	-8.96164
ch	-8.96191
▁아들	-8.9621
▁맥	-8.96286
사는	-8.96357
▁죽	-8.9649
on	-8.96549
▁알고	-8.96569
▁않는	-8.96646
였던	-8.96687
▁베이징	-8.9672
▁전화	-8.96732
▁농	-8.96749
▁승인	-8.96824
▁구조	-8.96977
▁거리	-8.97056
▁한나라당	-8.97067
하려	-8.97133
▁마련	-8.97182
▁2004	-8.97193
▁아침	-8.97231
▁검사	-8.97242
자들이	-8.97284
▁제안	-8.97288
▁아니다	-8.97352
성을	-8.9745
맨	-8.97497
▁총리가	-8.97582
▁말을	-8.97783
▁석유	-8.97853
설명	-8.97888
자는	-8.98041
JO	-8.98181
▁디	-8.98203
▁주택	-8.98213
▁이와	-8.98318
합니다	-8.98381
나는	-8.98574
태	-8.98609
▁요	-8.98986
▁마을	-8.98999
▁번째	-8.99014
INS	-8.99186
▁철수	-8.99229
▁사람이	-8.99236
▁되는	-8.99246
▁키	-8.99295
▁않았다고	-8.99492
▁캘리포니아	-8.99624
씨	-8.99666
현	-8.99684
▁어제	-8.99708
▁나이	-8.99727
▁핵무기	-8.99864
ation	-9.00082
“	-9.00149
W	-9.00162
▁네	-9.0018
세의	-9.00192
돌	-9.00197
▁폭탄테러	-9.00213
▁시작했다	-9.00215
▁관련된	-9.00217
▁건설	-9.00236
▁국회	-9.00354
▁필요한	-9.00454
▁기자회견에서	-9.00492
튼	-9.00541
▁아니라	-9.00722
글	-9.00858
▁있고	-9.01073
▁시신	-9.01122
st	-9.01259
▁증거	-9.01288
▁테	-9.01343
▁결혼	-9.01546
▁원문	-9.01719
▁라이스	-9.01874
그러나	-9.01935
▁너무	-9.01939
▁선택	-9.01948
년대	-9.02001
▁보였다	-9.02021
▁우리는	-9.02025
폭	-9.02253
단체	-9.02279
et	-9.02306
▁해외	-9.02351
▁생활	-9.02371
▁독해	-9.02453
블	-9.02583
▁국방부	-9.02688
▁올라	-9.02925
▁이동	-9.03019
▁수행	-9.03069
에서도	-9.03193
▁받을	-9.03296
▁브라운	-9.03344
▁사르코지	-9.03509
▁박	-9.0354
하라	-9.03547
▁교육	-9.03614
▁전에	-9.03669
▁협력	-9.03697
왔다	-9.03901
▁쓰	-9.0398
▁s	-9.04028
▁재개	-9.0404
▁남편	-9.04092
▁개최	-9.0424
is	-9.0425
▁변호사	-9.0429
년까지	-9.04474
▁아프가니스탄	-9.04572
▁넘	-9.04599
▁도착	-9.04625
▁시설	-9.04627
▁타고	-9.04686
자들	-9.04911
▁인권	-9.05181
▁연합	-9.05189
▁참	-9.05197
레이	-9.05222
였	-9.05321
도록	-9.05485
▁노무현	-9.05489
▁크	-9.05496
▁작전	-9.05518
▁거부	-9.05556
인한	-9.05586
▁콜롬비아	-9.05683
족	-9.05765
들에	-9.05803
불	-9.05815
▁에너지	-9.05852
갈	-9.0588
▁역시	-9.05969
▁티베트	-9.06106
▁연설	-9.06256
▁체	-9.06261
▁주변	-9.06297
▁결국	-9.06301
▁R	-9.06392
▁도로	-9.06399
▁허	-9.06421
▁시위대	-9.06514
▁2003	-9.0662
스타	-9.06854
링	-9.06946
정부	-9.07023
환	-9.07106
&	-9.07117
▁직원	-9.07297
항	-9.07334
극	-9.07452
▁삼	-9.07473
애	-9.07493
▁경쟁	-9.07496
▁몰	-9.07524
▁친구	-9.0756
▁암	-9.07589
▁운영	-9.0768
년에	-9.07785
▁이유로	-9.07801
▁열리는	-9.07864
기로	-9.07878
탈	-9.07889
▁목표	-9.08032
액	-9.08042
▁수준	-9.08131
엔	-9.08172
별	-9.08244
▁Korea	-9.0826
▁참석	-9.0833
▁내년	-9.08379
비아	-9.08455
▁격	-9.08648
기도	-9.08749
▁국무부	-9.08835
▁곧	-9.08914
▁산업	-9.08917
습	-9.09069
밀	-9.09159
▁어떻게	-9.09173
렸	-9.0918
▁몸	-9.0918
▁숨졌다	-9.09188
▁왕	-9.09249
ro	-9.09261
축	-9.09305
▁사건에	-9.09354
▁출	-9.09383
쿠	-9.09419
▁60	-9.09422
리스	-9.09427
센터	-9.09451
슈	-9.09474
혈	-9.09548
▁타임즈	-9.09552
▁문제에	-9.09578
▁편	-9.09613
회사	-9.09782
▁re	-9.09888
▁인도네시아	-9.09926
com	-9.10119
▁전망	-9.102
▁탄	-9.10225
▁최초	-9.10454
▁행	-9.10548
▁훈련	-9.10685
하려는	-9.10836
▁있	-9.10882
▁E	-9.10975
▁화요일	-9.11067
▁동물	-9.11184
▁판사	-9.11228
▁광	-9.11253
▁이제	-9.11476
▁예정이라고	-9.11715
▁소유	-9.11727
▁시스템	-9.11771
▁/	-9.11787
▁회복	-9.11851
▁있게	-9.11953
▁또는	-9.11992
ur	-9.12092
30	-9.12102
▁경고	-9.12143
▁커	-9.12196
▁데이비드	-9.12221
▁학생	-9.12396
▁정보를	-9.12438
▁방안	-9.12484
되기	-9.12584
장이	-9.12729
▁알리	-9.1276
▁근	-9.12864
침	-9.12878
▁같다	-9.12961
▁경선	-9.13042
▁대회	-9.13088
▁전문가들은	-9.13094
▁있기	-9.13145
▁레바논	-9.13242
▁대선후보	-9.13394
▁b	-9.13438
▁인구	-9.13461
씨는	-9.13466
▁만나	-9.13483
▁음악	-9.13579
▁한국인	-9.136
▁원인	-9.13741
▁사임	-9.13932
▁지명	-9.1397
율	-9.14045
익	-9.14093
▁멕시코	-9.14174
▁태	-9.14212
▁국영	-9.14301
▁f	-9.14301
만원	-9.14306
로서	-9.14318
▁성장	-9.14482
▁요구했다	-9.14533
흐	-9.14569
▁일정	-9.14838
일간	-9.14911
▁포기	-9.14913
▁임무	-9.14999
▁태국	-9.15066
사를	-9.15086
▁아프리카	-9.15216
▁대신	-9.15227
▁31	-9.15308
잡	-9.15364
ra	-9.15392
하거나	-9.15448
명과	-9.15517
▁국민들	-9.15561
▁게	-9.15732
)'	-9.15749
ac	-9.1578
▁이같	-9.15807
▁배우	-9.15922
▁2000	-9.15952
▁제재	-9.15968
▁받아	-9.16033
▁중심	-9.16072
▁과학자들	-9.16145
▁구성	-9.16266
▁주말	-9.16305
▁200	-9.16384
▁여객기	-9.16569
누	-9.16591
▁어린이	-9.16631
us	-9.16743
▁정권	-9.16807
▁무장	-9.16811
▁스타	-9.16812
▁생각한다	-9.16833
▁파괴	-9.16993
▁제품	-9.17142
▁질	-9.17331
▁면	-9.17356
▁비디오	-9.17381
▁칼	-9.17394
▁발견했다	-9.17463
▁까지	-9.17563
▁용	-9.17574
▁수술	-9.17608
▁양국	-9.17718
우리	-9.1775
▁부분	-9.17775
▁앞두고	-9.17789
▁비롯	-9.17795
▁대변인	-9.17796
시키는	-9.17846
▁포함한	-9.17865
▁바로	-9.1789
▁약속	-9.17959
랑	-9.18089
▁폭력	-9.181
억달러	-9.18155
▁추락	-9.18227
▁아기	-9.18282
▁대사관	-9.18283
▁사망하고	-9.18316
▁금	-9.18337
▁극	-9.18448
se	-9.18463
▁일이	-9.18482
▁민간인	-9.18503
▁벌	-9.18513
▁작업	-9.18592
▁샤	-9.18596
▁북	-9.18596
▁기대	-9.18617
▁사과	-9.18633
▁나타났다	-9.18686
채	-9.18701
▁콜	-9.18994
ter	-9.191
▁항공	-9.19104
▁US	-9.19266
▁동부	-9.193
▁갈	-9.19415
▁있었던	-9.19486
▁전세계	-9.19487
▁쿠	-9.19491
▁관할	-9.19537
빌	-9.19646
▁도움	-9.1968
▁전투	-9.19745
안을	-9.19804
▁감시	-9.19807
▁자리	-9.19815
페	-9.19932
▁행정부	-9.20075
▁만들어	-9.20115
능	-9.20179
▁처	-9.20235
▁촬영	-9.20273
▁아닌	-9.20306
▁p	-9.20339
업체	-9.20457
▁정당	-9.20525
ad	-9.20576
▁화재	-9.20618
▁로버트	-9.20698
▁대규모	-9.20711
▁여자	-9.20807
▁책임	-9.20816
▁교수는	-9.20855
▁국내	-9.21197
패	-9.21207
▁특별	-9.21356
월에	-9.21364
▁주도	-9.21372
▁선고	-9.21387
북	-9.21398
▁소식	-9.21453
el	-9.21532
9	-9.21616
▁숨	-9.21617
▁고려	-9.21686
한다는	-9.21762
ent	-9.21779
▁U	-9.21865
사건	-9.21889
▁빈	-9.219
▁복	-9.21946
냈다	-9.2201
▁앤	-9.22088
▁보여주	-9.22176
▁여전	-9.22196
▁가지	-9.22435
센	-9.22611
▁의원은	-9.22658
▁주민	-9.22663
▁총격	-9.2275
▁국	-9.22752
▁촉구했다	-9.22771
▁살고	-9.22773
펠	-9.22821
▁장면	-9.22978
엘	-9.23141
름	-9.23157
▁온라인	-9.23254
▁밝혀졌다	-9.23264
퍼센트	-9.2328
▁수입	-9.23365
▁가지고	-9.23389
▁맡	-9.2355
il	-9.23558
▁I	-9.23611
▁작품	-9.23703
200	-9.2382
▁내려	-9.23928
올	-9.23956
▁실시	-9.24013
다는	-9.24043
▁세력	-9.2405
▁찾아	-9.24066
▁부통령	-9.2412
▁무장세력	-9.24124
시켜	-9.24165
20	-9.24172
▁악	-9.24185
▁순	-9.24224
▁인수	-9.244
규	-9.24441
담	-9.24488
▁담당	-9.24495
레스	-9.24497
▁되	-9.2451
톤	-9.24583
▁계약	-9.24605
▁2002	-9.24606
▁항의	-9.24629
▁수치	-9.24648
▁최	-9.24747
▁부대	-9.24756
▁선정	-9.24779
관계	-9.24903
▁웹사이트	-9.24919
▁월요일	-9.24995
▁규정	-9.24998
▁수단	-9.25023
▁특히	-9.25074
▁캐	-9.25093
▁그들의	-9.25152
▁입은	-9.25334
▁총선	-9.2537
▁인간	-9.25375
▁0	-9.25376
▁안보	-9.25427
술	-9.25489
▁받았	-9.25529
랜	-9.25587
▁수감	-9.25599
▁경기에서	-9.2571
▁얼마	-9.25783
▁인기	-9.25792
창	-9.25806
▁붕괴	-9.25878
▁홍콩	-9.25878
▁가자지구	-9.2588
▁설치	-9.25955
자회담	-9.25964
녀	-9.26
▁독	-9.26126
기구	-9.26157
▁놓	-9.26228
▁심각한	-9.26265
▁외교	-9.26294
총	-9.26349
▁연료	-9.26387
▁노동	-9.26393
▁LA	-9.26412
ir	-9.26535
▁퍼	-9.26611
해왔다	-9.26626
▁입었다	-9.26741
하다고	-9.26787
▁개선	-9.26987
▁창	-9.27022
▁작은	-9.27028
▁가족들	-9.27032
엄	-9.27213
샤	-9.27232
하겠다	-9.27243
▁안에	-9.27389
▁이상이	-9.27442
경기	-9.27492
▁책	-9.27562
▁말한다	-9.27644
허	-9.27668
이어	-9.2767
빈	-9.27695
▁기소	-9.27702
▁부부	-9.27781
힌	-9.28116
셔	-9.2812
▁메시지	-9.28123
▁최종	-9.2815
▁세금	-9.28201
▁차지	-9.28222
▁열차	-9.28277
▁광고	-9.28325
스터	-9.28474
▁없을	-9.28575
▁푸틴	-9.28579
▁밝힌	-9.28579
▁w	-9.28589
▁시험	-9.28627
▁가치	-9.28631
▁관계자가	-9.28641
▁파업	-9.28658
▁증시	-9.28701
▁h	-9.28938
▁기념	-9.29016
▁라디오	-9.29032
▁힘	-9.29325
▁일을	-9.29449
▁마이클	-9.29492
▁필요하다	-9.29495
▁병	-9.29529
▁환자	-9.29564
▁주식	-9.29581
▁경고했다	-9.29605
시장	-9.29681
책	-9.29688
▁엘	-9.29927
▁캐나다	-9.29952
션	-9.29963
▁대의원	-9.29988
줄	-9.3013
▁브	-9.3018
▁아무	-9.30249
때	-9.30278
▁미국인	-9.30305
릭	-9.30367
▁짐바브웨	-9.30414
▁반응	-9.3043
▁암살	-9.3045
▁과거	-9.30454
▁문화	-9.30613
▁플로리다	-9.30631
례	-9.30641
▁움직임	-9.30886
▁회	-9.30888
▁슈	-9.30972
▁중인	-9.3106
되	-9.31105
▁외국인	-9.31137
▁학생들	-9.31142
▁발표한	-9.31175
시키	-9.3123
▁다양	-9.31463
▁보수	-9.31517
▁임명	-9.31634
향	-9.31649
대로	-9.31674
▁브라질	-9.31817
▁유명	-9.3183
▁폭	-9.31905
▁통제	-9.31909
▁구속	-9.31916
변	-9.32078
ate	-9.32113
▁벌였다	-9.32145
x	-9.32232
▁필	-9.32282
슬	-9.32464
▁그런	-9.32647
광	-9.32666
▁힐	-9.32676
▁비해	-9.32707
▁프로	-9.32714
▁섬	-9.32721
년부터	-9.32735
▁국가들	-9.32845
▁씨	-9.3289
▁중동	-9.32921
▁강제	-9.32981
폐	-9.32999
▁서부	-9.33111
염	-9.33149
▁지역의	-9.33158
▁이라크에서	-9.33195
률	-9.33205
▁수출	-9.33539
로운	-9.33555
▁외국	-9.33621
▁대만	-9.3371
▁스미스	-9.33718
▁식량	-9.33757
▁돌아	-9.33808
▁법안	-9.33839
쉬	-9.33885
시키기	-9.34008
th	-9.34034
▁어머니	-9.34209
▁실험	-9.34225
▁국무장관	-9.34266
▁지불	-9.3429
여명	-9.34329
▁취소	-9.3436
▁역	-9.34468
▁가스	-9.34549
럼	-9.34624
▁지지자들	-9.34656
▁서로	-9.34731
▁위반	-9.34759
▁기록했다	-9.34759
▁같이	-9.34855
거리	-9.34866
▁울	-9.34875
▁내렸다	-9.34968
▁계	-9.35027
▁했다고	-9.3507
▁선언	-9.35106
▁제출	-9.35125
▁헬기	-9.35126
칭	-9.35165
앙	-9.35182
이었던	-9.35186
▁후보가	-9.35287
▁이유	-9.35328
▁머리	-9.3535
▁전달	-9.35353
▁파리	-9.35405
▁휴	-9.35424
▁진압	-9.35459
▁기관	-9.35467
▁감염	-9.35585
▁케냐	-9.35659
▁소송	-9.35685
▁여름	-9.35686
▁명령	-9.35704
▁목적	-9.35727
▁일반	-9.35728
▁추진	-9.35794
드는	-9.35876
▁뉴	-9.35946
이자	-9.35951
▁장소	-9.35972
겼다	-9.36017
틀	-9.36047
500	-9.36085
수가	-9.36116
국가	-9.36169
▁선출	-9.36212
▁위치	-9.36275
▁미국에서	-9.36315
▁비용	-9.3643
▁관리들	-9.36539
검	-9.36589
▁프리	-9.36619
▁시아파	-9.36638
▁접근	-9.36642
▁경험	-9.3666
▁각각	-9.3667
▁관광	-9.36753
▁제기	-9.36881
▁차례	-9.36926
협회	-9.36969
▁권리	-9.36987
▁밖에	-9.37009
▁해군	-9.37012
▁제한	-9.37161
▁공연	-9.37308
▁축구	-9.37315
은행	-9.37333
▁de	-9.3736
=2	-9.37461
▁대변인이	-9.37479
▁평균	-9.37641
▁향	-9.37669
▁시즌	-9.37727
▁일본의	-9.37754
▁급	-9.37843
▁수십	-9.38036
▁인상	-9.38071
▁위성	-9.38232
▁임	-9.38335
▁쇼	-9.38388
▁배치	-9.38453
▁하원	-9.38492
▁여론조사	-9.38559
▁차이	-9.38593
ut	-9.38687
▁않아	-9.38844
▁처리	-9.3892
▁나는	-9.38943
동안	-9.38975
했다는	-9.39008
▁식	-9.39078
텔	-9.39109
개국	-9.3912
la	-9.39181
▁과정에서	-9.39231
▁탈	-9.39246
착	-9.39462
▁사건이	-9.39514
ion	-9.39545
▁걸쳐	-9.39669
▁위원회	-9.39691
▁사랑	-9.39717
벨	-9.39723
하지만	-9.39761
▁나온	-9.39809
가지	-9.39861
턴	-9.39914
것	-9.39927
▁텍사스	-9.39929
▁음식	-9.40182
시키고	-9.40257
▁파병	-9.40288
▁무역	-9.40324
▁귀	-9.40389
▁사이에	-9.4043
▁사원	-9.40564
일까지	-9.40639
▁설명	-9.40646
었	-9.40804
▁자료	-9.40809
▁발견됐다	-9.40882
▁주지사	-9.40935
im	-9.41029
▁내무부	-9.41183
▁결의안	-9.41193
▁설립	-9.412
▁2007	-9.41214
▁버스	-9.41237
▁의미	-9.41313
▁사형	-9.4138
▁신고	-9.41401
니다	-9.41418
▁제시	-9.41468
▁것과	-9.4148
▁제조	-9.41643
이란	-9.41695
▁항공사	-9.41717
▁파견	-9.4174
▁수상	-9.41764
▁당신	-9.41789
▁사실이	-9.42007
었습니다	-9.42038
ol	-9.42151
▁상황이	-9.42187
▁헌법	-9.42245
사가	-9.4238
▁센터	-9.42396
▁경찰에	-9.42427
▁평가	-9.42436
▁긴장	-9.42472
스가	-9.42518
▁그들이	-9.42614
▁교수	-9.42621
▁주재	-9.42626
퇴	-9.42641
▁안정	-9.42704
▁논쟁	-9.42745
▁개혁	-9.42761
▁허용	-9.42815
▁집중	-9.42825
▁500	-9.42834
▁대비	-9.42873
▁다리	-9.42885
측은	-9.42908
5000	-9.42976
▁The	-9.43039
리고	-9.43128
하였다	-9.43204
▁부모	-9.43208
▁살인	-9.43218
새	-9.43258
▁발전	-9.43354
▁on	-9.43372
지도	-9.43448
▁대상으로	-9.43492
세기	-9.43564
▁벤	-9.43589
▁J	-9.43682
대가	-9.4373
▁거주	-9.43758
조사	-9.4377
냐	-9.43787
▁수요일	-9.43827
▁전국	-9.43832
▁대해서는	-9.43832
▁사퇴	-9.4386
▁그룹	-9.43961
라며	-9.44032
▁희망	-9.4415
▁명이	-9.44195
▁80	-9.44227
10	-9.44231
중인	-9.44268
▁넘어	-9.44272
▁이에앞서	-9.44332
▁바이러스	-9.44336
킨	-9.44433
ID	-9.44491
장에서	-9.44495
▁불안	-9.44528
▁인물	-9.44533
▁대피	-9.44772
▁대응	-9.44891
▁알려진	-9.44906
▁공습	-9.44931
▁익명	-9.44989
▁목	-9.45019
킹	-9.45035
송	-9.45046
▁결정했다	-9.45052
▁부상했다	-9.45063
있	-9.45076
▁따	-9.4508
ist	-9.45148
십	-9.45232
▁황	-9.45273
트는	-9.45284
▁주민들	-9.45302
▁아내	-9.45382
▁관계자들은	-9.45386
▁성폭행	-9.45405
▁교황	-9.45422
▁압력	-9.45449
▁관해	-9.45462
▁상대로	-9.4547
알	-9.45471
▁집회	-9.45552
▁받는	-9.45562
기가	-9.45693
▁마약	-9.45727
▁발견된	-9.45894
째	-9.45898
▁단계	-9.45899
▁완전	-9.45943
▁차베스	-9.45946
▁북핵	-9.45949
▁환영	-9.45961
▁혼란	-9.45973
▁후세인	-9.45982
▁한다는	-9.45988
▁업체	-9.46267
▁유일	-9.46343
▁터	-9.46356
낼	-9.46437
▁후보는	-9.46481
▁바란다	-9.46492
▁되어	-9.46638
었다고	-9.46676
했	-9.46691
이라크	-9.46692
▁교통	-9.46712
▁질문	-9.46859
칠	-9.46874
▁당선	-9.46893
명으로	-9.46922
움	-9.46981
▁EU	-9.47048
▁구매	-9.4712
▁죽음	-9.47207
쳤다	-9.47269
▁변호사는	-9.4727
문제	-9.4737
▁기사	-9.47388
까	-9.47487
▁증	-9.47533
▁절	-9.47584
자와	-9.47612
▁야후	-9.47616
벌	-9.47778
▁뇌	-9.47779
▁크게	-9.47795
▁부정	-9.478
▁요청했다	-9.47812
▁교전	-9.47895
험	-9.47932
▁불만	-9.47943
▁교회	-9.47946
▁이래	-9.47964
하기도	-9.48
▁저장	-9.48078
▁신원	-9.48094
▁기지	-9.48099
▁있지	-9.48147
▁나가	-9.4822
▁특	-9.48225
▁시리아	-9.4825
찰	-9.48326
▁예상된다	-9.48331
폰	-9.48661
▁이명박	-9.48693
▁밝혔습니다	-9.48699
▁표현	-9.48717
되면서	-9.48727
▁끝	-9.48737
▁집단	-9.48882
▁임시	-9.48882
▁받지	-9.49056
되었다고	-9.49113
▁미래	-9.49191
▁심장	-9.49212
▁왕자	-9.49215
햄	-9.49251
▁이집트	-9.49253
▁일어나	-9.49257
▁복귀	-9.4926
▁사람들을	-9.49329
▁여론	-9.49333
악	-9.49342
▁측	-9.49354
▁베네수엘라	-9.49406
▁때까지	-9.49426
볼	-9.49461
방송	-9.49529
▁정신	-9.49589
▁접	-9.49599
▁인터뷰	-9.49644
수를	-9.49696
▁사이트	-9.49816
▁시카고	-9.49817
기관	-9.49987
▁로마	-9.49988
▁고용	-9.50002
▁아직까지	-9.50006
▁설	-9.50098
성이	-9.50146
▁화	-9.50221
2%	-9.50268
▁남북	-9.50281
▁홀	-9.50312
일부터	-9.50318
▁탑승	-9.50357
▁이해	-9.50379
▁모델	-9.50417
om	-9.50436
▁be	-9.5048
서는	-9.50494
되었습니다	-9.50503
▁허가	-9.50525
▁사람은	-9.50556
▁이곳	-9.5057
▁자체	-9.50627
▁시민	-9.50874
▁중앙	-9.50876
▁폭력사태	-9.50953
▁민주주의	-9.50959
▁효과	-9.5096
3%	-9.51091
▁남한	-9.51176
델	-9.51197
▁가정	-9.51288
으로서	-9.51289
▁중국은	-9.51425
▁아니라고	-9.51446
▁목요일	-9.51518
▁따른	-9.51535
▁정부와	-9.51766
충	-9.51839
대의	-9.51898
▁위해서는	-9.5194
었던	-9.51968
▁m	-9.51976
롭	-9.52055
op	-9.5206
▁확산	-9.52062
효	-9.52073
컨	-9.52092
▁분쟁	-9.52106
▁따라	-9.5212
▁연결	-9.52161
▁내리	-9.5219
▁비밀	-9.5221
존	-9.52221
▁실패	-9.52222
견	-9.5227
▁적이	-9.52271
손	-9.52352
이지만	-9.52385
▁장기	-9.524
몬	-9.52426
▁관계자	-9.52472
▁판	-9.52589
▁보건	-9.52592
▁못하고	-9.52661
▁검토	-9.52672
▁최악	-9.52681
▁권력	-9.52735
▁쿠바	-9.52757
▁받게	-9.52761
▁여기	-9.52768
▁슬	-9.52835
▁마크	-9.53215
▁높이	-9.53252
▁교도소	-9.53253
▁아랍	-9.53277
▁과정	-9.53301
인들이	-9.53341
자로	-9.53374
▁합니다	-9.53399
ow	-9.53437
▁임기	-9.53501
인들은	-9.53528
시아	-9.53607
‘	-9.53619
▁강력한	-9.53761
욕	-9.53783
▁일요일	-9.53839
▁무장단체	-9.53854
▁의료	-9.53977
▁상원의원이	-9.5398
▁2001	-9.53983
▁분야	-9.54024
▁사라	-9.5403
▁팬들	-9.541
▁라이	-9.54134
리자	-9.54181
▁여사	-9.54211
인지	-9.54213
▁완	-9.54238
숙	-9.54277
lo	-9.54307
▁사무실	-9.5445
북한	-9.54452
▁국립	-9.54453
▁학	-9.5447
만이	-9.54485
▁병사	-9.54503
▁분석	-9.54519
▁거대	-9.54524
▁시행	-9.54683
▁도움이	-9.5472
▁깊	-9.54727
▁해리	-9.5473
▁만들	-9.54741
▁가졌다	-9.54743
▁비판	-9.54748
▁사는	-9.54757
▁수색	-9.54802
헌	-9.54821
낸	-9.54838
▁내부	-9.54899
▁보고서는	-9.54943
논	-9.54952
느	-9.54978
다면	-9.54978
얼	-9.55013
▁프라이머리	-9.55017
▁강한	-9.55025
▁철	-9.55073
▁진출	-9.55075
▁지도자들	-9.55178
▁소방	-9.55205
▁동료	-9.5522
그는	-9.55413
▁전시	-9.55422
통신	-9.55446
▁매년	-9.55465
찬	-9.55485
거래	-9.55541
▁계획이다	-9.55543
베이	-9.5556
▁필리핀	-9.55612
▁한반도	-9.55614
▁선박	-9.55674
▁두고	-9.55709
▁수많은	-9.55721
▁예측	-9.55753
▁유권자들	-9.55801
순	-9.55868
▁공격으로	-9.55912
▁입원	-9.55917
▁바다	-9.55959
▁들어가	-9.56037
▁밝혀	-9.56039
학자	-9.56112
▁g	-9.56182
좌	-9.56197
▁못한	-9.56207
▁버지니아	-9.56211
▁오른	-9.56312
▁과학	-9.56335
▁가져	-9.56369
▁뿐	-9.56393
U	-9.56405
▁떠나	-9.56423
▁넣	-9.56469
▁언급했다	-9.56492
▁나왔다	-9.56494
▁밝히지	-9.56516
람	-9.56536
▁보냈다	-9.56545
봉	-9.56611
기간	-9.56651
치는	-9.56655
▁확인했다	-9.56766
▁사항	-9.56788
ve	-9.56796
▁이끄는	-9.56816
▁보여	-9.56887
▁주가	-9.56955
객	-9.57143
철	-9.57277
800	-9.5729
▁웨	-9.57316
▁레이	-9.57346
▁흑인	-9.57432
▁선두	-9.5752
▁폐	-9.57567
▁전략	-9.57614
▁추정	-9.57619
▁항공기	-9.57736
겠다	-9.57774
4%	-9.57806
▁의장	-9.57807
▁달리	-9.57833
▁수익	-9.57918
▁힘들	-9.5796
▁않았	-9.57962
▁민	-9.58017
▁O	-9.58148
▁관계자들	-9.58171
법원	-9.58251
▁향해	-9.58272
▁주지사는	-9.5829
▁정부에	-9.58317
▁상대	-9.58324
▁이루	-9.58339
▁않	-9.58375
▁군대	-9.58412
금을	-9.58497
▁형	-9.5855
스크	-9.58608
▁되고	-9.58629
▁올랐다	-9.58642
▁제임스	-9.58643
▁빠져	-9.58644
▁약물	-9.58802
-1	-9.58909
▁작년	-9.58948
▁UN	-9.58991
이라	-9.59075
▁소년	-9.59124
다른	-9.59138
▁전력	-9.59203
▁싶다	-9.5926
▁나머지	-9.59261
▁제거	-9.59267
▁긴급	-9.59277
▁맺	-9.5929
웨	-9.59292
ive	-9.59302
▁누구	-9.5936
▁칸	-9.59383
▁종교	-9.59416
▁관광객	-9.59444
ot	-9.59494
▁st	-9.59645
▁심리	-9.59698
▁지진	-9.597
ment	-9.59718
징	-9.5982
▁비슷	-9.59881
딘	-9.59881
▁사우디	-9.59902
▁소비자	-9.59976
▁육	-9.60023
▁소재	-9.60037
▁고통	-9.60151
▁진행되	-9.60296
▁가능한	-9.60378
▁막기	-9.60385
),	-9.60411
▁대중	-9.60422
▁대사	-9.60433
▁만든	-9.60578
▁저지	-9.60628
▁오르	-9.60647
▁전자	-9.60648
te	-9.60659
▁녹	-9.6076
주의자	-9.60773
▁시기	-9.60804
▁갖	-9.60877
▁사람들에게	-9.60908
되며	-9.60921
▁감사	-9.60994
▁선수들	-9.61059
▁글	-9.61091
▁백	-9.611
자금	-9.61115
균	-9.61118
싱	-9.61135
▁목숨	-9.61135
▁숨지고	-9.61139
▁정상회담	-9.61143
경찰	-9.61151
▁일자리	-9.61191
음을	-9.61205
지에	-9.61252
▁범인	-9.61265
▁소리	-9.61421
id	-9.61467
▁유권자	-9.61573
▁희생자	-9.61607
여명이	-9.61695
▁다음달	-9.61838
▁국방장관	-9.61877
▁부상자	-9.61896
▁오래	-9.61973
▁주장하고	-9.62246
▁악화	-9.62249
관리	-9.62322
랄	-9.62399
▁도쿄	-9.62405
섬	-9.62459
안에	-9.62559
한다면	-9.62583
르는	-9.62648
all	-9.62686
▁소식통	-9.62696
▁받았다고	-9.62712
▁북한에	-9.62764
▁1000	-9.62818
▁노조	-9.62819
위에	-9.62985
▁혼	-9.6305
▁충격	-9.63064
▁어느	-9.63079
▁집행	-9.63105
▁근무	-9.63109
▁분리	-9.63113
▁정도로	-9.6312
▁제외	-9.63209
▁인질들	-9.63294
▁질문에	-9.63335
만한	-9.63336
▁없었	-9.63376
▁작가	-9.6355
취	-9.6358
▁아니	-9.63597
ly	-9.63633
▁준	-9.63694
▁만큼	-9.63799
마다	-9.63857
▁법정	-9.63928
▁이라크전	-9.64005
▁권	-9.6403
▁끝에	-9.64137
▁풍	-9.64164
사회	-9.64217
▁후에	-9.64223
▁현대	-9.64301
▁출발	-9.64388
▁뛰어	-9.6439
▁총기	-9.64393
▁보낸	-9.64396
▁있다며	-9.64411
들도	-9.64421
▁착륙	-9.64441
▁충	-9.64529
당한	-9.64585
였습니다	-9.64624
▁넘는	-9.64645
▁올리	-9.64683
▁전문가	-9.64807
▁것이라	-9.64865
▁붙	-9.64905
▁항	-9.64906
▁확대	-9.64994
▁외무부	-9.64994
▁동의	-9.64999
▁경찰관	-9.65005
행위	-9.65046
▁보장	-9.65068
분기	-9.65092
J	-9.65115
척	-9.65119
▁곳에서	-9.65222
▁즐	-9.65269
리가	-9.65354
▁인사	-9.65366
40	-9.65386
황	-9.65531
럽	-9.65598
Y	-9.65601
▁어떠한	-9.65652
▁허리케인	-9.65652
▁적어도	-9.65653
▁작업을	-9.65686
▁수천	-9.65716
▁떠	-9.65737
▁군부	-9.65826
▁하기	-9.65891
▁직원들	-9.65914
▁가까	-9.65998
▁되었다	-9.6631
▁접촉	-9.66317
▁증언	-9.66338
▁패배	-9.66376
▁유명한	-9.66524
▁되지	-9.66536
▁여당	-9.66595
▁공장	-9.66671
선거	-9.66673
▁중에	-9.66688
▁나와	-9.66859
스톤	-9.6694
▁무엇	-9.66956
▁의혹	-9.67031
▁환	-9.67063
▁동결	-9.67094
둔	-9.67124
▁수천명	-9.67208
▁자국	-9.67212
▁공공	-9.6722
어질	-9.6726
▁지배	-9.67275
70	-9.67324
▁발생해	-9.67414
▁마음	-9.67427
▁승객	-9.6755
씩	-9.67652
▁출마	-9.67779
▁300	-9.67854
▁당선인	-9.67919
▁여성이	-9.67931
▁전기	-9.6796
▁발생했다고	-9.68031
니스	-9.68032
▁대표는	-9.6806
▁양측	-9.68081
▁쉬	-9.68089
▁푸	-9.68136
▁프	-9.68236
겠다고	-9.683
▁대화	-9.683
j	-9.68327
▁모른다	-9.68328
▁어려움	-9.68332
▁능력	-9.68332
▁폭풍	-9.68335
▁이수지	-9.68353
▁주의	-9.68369
▁직	-9.68391
▁삶	-9.68427
▁작성	-9.6845
▁여성들	-9.68474
▁합	-9.68521
▁찰스	-9.68522
대통령	-9.6854
▁고문	-9.68548
▁지속	-9.68551
▁묻	-9.68559
귀	-9.68572
었으며	-9.68645
스와	-9.68701
▁티	-9.68726
▁다이애나	-9.6874
컵	-9.69005
▁없어	-9.69008
▁목소리	-9.69008
장관	-9.69021
▁압박	-9.69021
▁유죄	-9.69043
▁등의	-9.69053
▁경매	-9.69079
▁완화	-9.69123
▁오바마가	-9.69136
▁미군이	-9.69186
▁합의했다	-9.6925
▁이달	-9.69352
▁관련해	-9.69369
▁유로	-9.69474
▁십	-9.69503
▁사상	-9.69619
기에	-9.6967
켓	-9.69673
홍	-9.69677
▁휴대폰	-9.69695
ce	-9.69698
▁방문한	-9.6974
▁확신	-9.69752
▁전반	-9.69782
▁입고	-9.69819
스러운	-9.69848
▁지도자인	-9.69926
▁마리	-9.69939
▁자연	-9.69959
The	-9.69996
▁35	-9.70021
▁동원	-9.70025
7%	-9.70158
널	-9.70286
빙	-9.70322
▁연장	-9.70335
ers	-9.70368
▁시상식	-9.70383
▁외무장관	-9.70383
▁홍보	-9.70388
▁않았지만	-9.7042
▁수백	-9.70437
sp	-9.7045
압	-9.70555
▁피해자	-9.70586
▁구호	-9.70604
센트	-9.70624
▁모르	-9.70666
▁영어	-9.7071
쇼	-9.70711
▁대해서	-9.70713
▁유세	-9.70715
▁존스	-9.70765
▁사진을	-9.70823
▁끝나	-9.70831
ck	-9.70875
▁최고의	-9.7096
이것은	-9.71002
ne	-9.71023
스키	-9.71044
▁시간이	-9.7106
▁프로젝트	-9.71077
▁듯	-9.7108
▁주민들이	-9.71121
▁아주	-9.71259
▁것인지	-9.71277
▁가질	-9.71309
▁망명	-9.71321
였다고	-9.71354
▁신용	-9.71407
테러	-9.71474
해졌다	-9.71506
▁현장	-9.71614
▁군인	-9.71633
▁로켓	-9.71766
백만	-9.71772
▁소말리아	-9.71776
▁신뢰	-9.71792
▁소녀	-9.71831
▁바람	-9.71866
▁연구소	-9.71874
근	-9.71904
▁총재	-9.71928
▁적용	-9.71974
▁바라	-9.72034
▁병원에	-9.72081
제를	-9.72201
▁전문	-9.72222
▁카메라	-9.72269
마일	-9.7233
▁승	-9.72443
닝	-9.7248
▁게이츠	-9.72482
▁머물	-9.72519
제도	-9.72527
조치	-9.72561
▁카운티	-9.72618
▁의원들	-9.72632
▁심각	-9.72635
▁존재	-9.72641
▁등록	-9.72645
운동	-9.72656
▁체포됐다	-9.72658
▁목표로	-9.72674
타임	-9.72753
▁강력	-9.72773
▁그리스	-9.72782
▁기억	-9.72836
주는	-9.72907
었고	-9.72912
▁크리스	-9.72917
부는	-9.72991
▁언론은	-9.73003
슨은	-9.73005
▁공군	-9.73034
표를	-9.73115
▁걱정	-9.73189
▁해야	-9.73222
▁취임	-9.73222
▁평양	-9.73242
월부터	-9.73255
▁절차	-9.7326
▁숨진	-9.733
▁나오	-9.73363
왔	-9.73399
▁해제	-9.73471
했는데	-9.7348
▁법적	-9.73482
▁등을	-9.73496
est	-9.73512
곡	-9.73597
연합	-9.73673
스카	-9.73686
▁대법원	-9.73688
영화	-9.737
정책	-9.73751
▁사건은	-9.7379
틴	-9.7379
▁젊은	-9.73811
▁상당	-9.73825
옥	-9.73845
▁블	-9.73884
싼	-9.73904
▁느끼	-9.73904
ight	-9.73906
▁아무런	-9.73927
▁투입	-9.73944
▁물론	-9.74036
▁서명	-9.74144
▁반대하는	-9.74188
막	-9.74272
▁소비	-9.74381
▁바이	-9.74458
득	-9.74521
▁수석	-9.74603
▁말레이시아	-9.74623
▁청와대	-9.74625
▁트럭	-9.74629
▁여왕	-9.74651
▁술	-9.74663
▁항상	-9.74733
▁경제적	-9.7478
▁잔	-9.74831
으려	-9.74875
▁아베	-9.74879
▁그것은	-9.74887
학교	-9.75035
셀	-9.75186
중국	-9.7519
75	-9.75206
60	-9.75217
도시	-9.75223
갑	-9.75253
스코	-9.75282
▁보이는	-9.75316
▁힐튼	-9.75367
▁순간	-9.75437
▁좀	-9.75526
해진	-9.75549
▁옷	-9.75597
▁촉구	-9.75696
▁사기	-9.75798
#	-9.75844
활동	-9.75877
▁운전	-9.75935
장에	-9.76029
젤	-9.76078
▁신화통신	-9.76078
웰	-9.76078
▁나타나	-9.76079
▁법률	-9.76108
드로	-9.76122
▁상징	-9.7613
▁정말	-9.76204
스턴	-9.76322
세트	-9.76368
11	-9.76398
▁수용	-9.76413
)/	-9.76471
▁이라크에	-9.76496
념	-9.76729
19	-9.7681
▁마드리드	-9.76813
▁지하	-9.76828
▁국제사회	-9.7685
물을	-9.76895
▁놓고	-9.76933
▁신청	-9.76992
▁지역을	-9.77002
▁도중	-9.7706
트로	-9.77068
▁진정	-9.77076
▁워	-9.77113
▁자주	-9.77144
왕	-9.77324
▁부문	-9.7733
▁구제	-9.77452
▁90	-9.77493
ia	-9.7752
▁밝혀지지	-9.77555
▁들고	-9.77557
▁운행	-9.77568
▁토론	-9.77569
▁오픈	-9.77592
대표	-9.7764
▁마무리	-9.77647
▁판단	-9.77648
▁피터	-9.77768
▁선거에서	-9.77785
6%	-9.77804
▁그린	-9.77878
▁차기	-9.77928
▁작	-9.77951
▁박물관	-9.78027
▁시작된	-9.78072
시설	-9.78104
궁	-9.78139
완	-9.78147
▁본부	-9.78181
▁땅	-9.78201
공격	-9.78243
으면	-9.7825
럴	-9.78269
X	-9.783
▁스포츠	-9.783
▁챔피언	-9.783
젠	-9.783
팅	-9.783
▁수니파	-9.78302
▁베컴	-9.78313
관은	-9.78315
▁애플	-9.78336
▁최신	-9.78376
▁부패	-9.78414
▁고래	-9.78432
전에	-9.78498
▁법안을	-9.78521
▁비상	-9.78658
▁굴	-9.78783
▁좋아	-9.78817
▁있음을	-9.78889
접	-9.78943
▁만약	-9.78962
트리	-9.78989
▁기회	-9.78997
▁강조	-9.79034
롤	-9.79042
뤄	-9.79047
▁얼굴	-9.79052
▁억류	-9.79057
▁연속	-9.79154
▁집권	-9.79159
▁도전	-9.79208
ver	-9.79233
▁헌	-9.79264
▁대처	-9.79284
▁가수	-9.79338
국장은	-9.79365
었지만	-9.79434
▁조건	-9.79571
▁비자	-9.79588
▁난민	-9.79602
▁미군은	-9.79713
▁타이	-9.79756
로써	-9.79797
닐	-9.79809
▁잉글랜드	-9.79809
▁연설에서	-9.79845
회사인	-9.79846
▁영상	-9.7988
보호	-9.79887
80	-9.799
▁전까지	-9.79931
▁전통	-9.79963
▁집계	-9.79969
으	-9.79982
▁이전에	-9.8006
쪽	-9.80095
장관은	-9.80138
▁벌금	-9.80159
▁윌리엄	-9.80173
ies	-9.80278
▁회담에서	-9.80498
▁동시	-9.80508
▁수반	-9.80509
▁민주	-9.80558
cat	-9.8056
▁올메르트	-9.80573
▁크리스마스	-9.80573
▁아파트	-9.80574
시킨	-9.80621
▁확실	-9.8063
▁물질	-9.80678
▁구입	-9.80695
▁찬성	-9.80704
산업	-9.80708
▁분노	-9.80744
들로	-9.80773
▁연합군	-9.80841
▁대형	-9.80886
▁영국의	-9.81112
ak	-9.81125
만명이	-9.8126
위로	-9.81277
▁겪고	-9.81342
▁고양이	-9.81344
▁몇몇	-9.81349
▁스스로	-9.81351
▁직후	-9.81364
▁자녀	-9.81393
▁Korean	-9.81403
브라	-9.81436
자들의	-9.81508
▁핵심	-9.8154
달러를	-9.81619
▁나토	-9.81637
▁밝히	-9.81642
▁외교부	-9.81653
▁가능	-9.81694
▁축하	-9.81715
▁사상자	-9.81874
▁문서	-9.81884
▁정부군	-9.81886
킬	-9.81897
▁개의	-9.81902
▁한미	-9.81941
놓	-9.81979
▁수정	-9.82041
V	-9.82061
윈	-9.82077
▁블레어	-9.82117
▁휴전	-9.82286
▁시대	-9.82293
▁깨	-9.82333
▁무사	-9.82432
▁모여	-9.825
필	-9.82583
▁체포했다	-9.82629
▁곳에	-9.82642
▁마감	-9.82666
▁한국은	-9.82734
▁낮	-9.82739
상의	-9.82787
▁늘	-9.82803
뉴스	-9.82841
▁머	-9.8287
co	-9.829
joins	-9.829
▁비상사태	-9.82904
특	-9.82919
▁찬	-9.82931
▁임신	-9.82975
▁주민들은	-9.83021
▁있는지	-9.83039
▁단지	-9.83062
니아	-9.83117
▁경계	-9.8312
700	-9.83199
▁동맹	-9.83271
했는지	-9.83341
드리	-9.83358
▁의원이	-9.83382
▁아마	-9.83449
▁돌아가	-9.83539
▁선포	-9.83543
▁대기	-9.83647
▁협정	-9.83686
▁클럽	-9.83687
▁언제	-9.83692
▁감축	-9.83731
▁놀	-9.83739
▁산불	-9.83743
▁성인	-9.83855
▁때문	-9.83875
▁당했다	-9.83898
▁그러	-9.83918
▁사살	-9.83999
▁소장	-9.84053
ma	-9.84193
tion	-9.84229
▁병원에서	-9.8425
▁씨는	-9.84267
▁유사	-9.84284
▁약간	-9.84345
▁알게	-9.84369
▁아카데미	-9.84479
▁협의	-9.84479
몰	-9.84481
라운드	-9.84485
겠지만	-9.84493
▁BBC	-9.84493
▁맞아	-9.84509
▁개봉	-9.8452
▁원자로	-9.84536
끼	-9.84577
뉴	-9.84611
▁노출	-9.84613
▁조작	-9.84674
▁엔	-9.84721
▁나무	-9.84861
▁실수	-9.84936
▁보좌관	-9.84962
▁장군	-9.84992
▁이란이	-9.84997
▁70	-9.85028
▁후보에	-9.85057
▁요원	-9.85074
▁케	-9.85128
군이	-9.8515
이었다고	-9.85189
▁실시된	-9.85204
▁이밖에	-9.85279
겐	-9.85279
▁할리우드	-9.8528
▁코소보	-9.8528
▁빠른	-9.8528
▁탁신	-9.85281
▁빠르	-9.85282
▁업무	-9.85283
▁처벌	-9.85295
▁보이고	-9.85297
어진	-9.85301
함으로써	-9.85306
▁절반	-9.85319
▁태양	-9.85324
암	-9.85328
▁나타냈다	-9.85355
▁결론	-9.85355
▁담배	-9.85365
국인	-9.85378
▁확실히	-9.85381
▁소지	-9.85402
▁팬	-9.85444
▁낮은	-9.85541
▁현상	-9.85662
▁원조	-9.85675
월까지	-9.85781
▁실제	-9.85802
▁대책	-9.85824
니는	-9.8584
▁풀	-9.85851
사의	-9.85995
▁헬	-9.8602
▁북한과	-9.86044
▁트레	-9.86048
▁보안관	-9.86077
텐	-9.86079
cnn	-9.86086
▁높다	-9.86086
▁떨어져	-9.86086
▁스피어스	-9.86086
▁크리스토퍼	-9.86086
▁샤리프	-9.86086
▁일어난	-9.86086
▁고속도로	-9.861
▁이와같	-9.86101
혹	-9.86118
▁대화를	-9.8615
하길	-9.86169
▁개입	-9.86182
▁노래	-9.86244
▁부인했다	-9.86306
▁조금	-9.86314
▁개정	-9.86337
▁내각	-9.86355
▁중이다	-9.86395
선수	-9.86396
▁보이지	-9.86397
▁받기	-9.86404
▁받	-9.86408
▁알려지	-9.86415
mo	-9.86421
▁강타	-9.86438
▁발생할	-9.8645
▁목사	-9.86452
▁이틀	-9.8649
▁차지했다	-9.86556
물이	-9.86562
택	-9.86621
▁놀라	-9.8667
▁그에게	-9.86677
▁소식을	-9.86747
였으며	-9.86828
헤	-9.8687
렉	-9.86899
▁지지율	-9.86953
▁오랜	-9.87
지역에서	-9.87005
화를	-9.87013
힐	-9.87024
▁즉	-9.87049
원은	-9.87057
▁위기에	-9.87071
▁매일	-9.87077
▁그들	-9.87103
▁압	-9.8712
ht	-9.87139
▁벨	-9.87211
▁의심	-9.87234
▁가량	-9.87285
▁지키	-9.87314
▁않겠다	-9.87315
TA	-9.87358
▁소식통은	-9.87387
▁치안	-9.87443
▁말하고	-9.87509
▁지도	-9.87567
▁쥐	-9.87639
▁공원	-9.87654
▁오랫동안	-9.87719
▁찾기	-9.87719
꺼	-9.87719
▁민병대	-9.8772
▁초기	-9.87724
▁니	-9.87731
up	-9.87741
▁통합	-9.87775
웨이	-9.87778
▁이미지	-9.87823
▁예산	-9.87844
▁사망했으며	-9.87961
▁기반	-9.87981
▁블로그에	-9.87998
25	-9.88005
tp	-9.88055
▁상황에서	-9.88072
▁이송	-9.88096
▁납	-9.8813
▁둔	-9.88138
▁지켜	-9.88141
▁윌리엄스	-9.8815
▁마르	-9.88222
▁케이	-9.88313
▁죄	-9.88352
▁월드컵	-9.88381
▁약속했다	-9.8846
▁경찰과	-9.88472
즈는	-9.88541
덕	-9.88542
▁그렇게	-9.88545
▁집에서	-9.88591
▁속에	-9.88594
▁고든	-9.88666
▁데이	-9.88669
▁화성	-9.88737
지르	-9.88843
▁왔	-9.88875
ho	-9.88989
▁희생	-9.88995
▁있었	-9.89059
력이	-9.89064
ill	-9.89107
해주	-9.89172
▁증가했다	-9.89201
▁구성된	-9.89257
▁보기	-9.8926
▁조정	-9.89268
▁방해	-9.89341
://	-9.89379
풍	-9.89431
▁대표팀	-9.89444
▁사례	-9.89485
ity	-9.89515
▁탐사	-9.89528
▁추방	-9.89534
▁연루	-9.89543
한국	-9.8957
▁보유	-9.89614
▁수는	-9.89647
▁원유	-9.89719
▁손상	-9.89762
▁후반	-9.89762
▁이용해	-9.89888
▁요구한	-9.8992
▁증명	-9.89921
▁수백명	-9.89945
me	-9.89948
▁모습	-9.89972
▁박사	-9.89986
▁수백만	-9.89996
▁기회를	-9.90043
▁해당	-9.90159
상태	-9.90159
딩	-9.90203
Total	-9.90218
▁나섰다	-9.90219
▁네덜란드	-9.90219
▁펜실베이니아	-9.90219
몽	-9.90219
code	-9.90224
▁있었으며	-9.90262
▁보험	-9.90297
▁다쳤다	-9.90298
하려고	-9.90298
▁사용하는	-9.90321
▁위험한	-9.90323
▁그래	-9.9034
데이	-9.90349
▁기자회견	-9.9036
▁견	-9.90376
▁성적	-9.90382
▁민간	-9.90398
오바마	-9.90452
▁지급	-9.90537
▁부르	-9.90567
버그	-9.90605
▁보상	-9.90643
▁이혼	-9.90654
▁실종	-9.90689
▁시점	-9.90695
우스	-9.90797
▁150	-9.90852
▁후보로	-9.90867
자들에게	-9.9087
▁대표단	-9.909
탕	-9.90954
▁대통령에게	-9.90961
▁재정	-9.91035
▁외교관	-9.91038
▁쿠르드	-9.91055
▁우크라이나	-9.91066
▁찾는	-9.91066
▁확정	-9.91066
▁세르비아	-9.91066
▁무가베	-9.91068
▁In	-9.91069
▁먼저	-9.91069
▁규제	-9.91076
▁하워드	-9.91088
▁배럴	-9.91101
▁철회	-9.91127
▁참석한	-9.91139
됐지만	-9.91155
▁이행	-9.9119
▁교체	-9.9123
▁위원장은	-9.91248
주년	-9.91252
▁알아	-9.91283
▁분명	-9.9131
항공	-9.91349
TV	-9.9136
▁대북	-9.91522
▁크기	-9.91524
▁대체	-9.91552
▁없다는	-9.91606
▁날씨	-9.91629
같은	-9.91675
▁함	-9.91701
▁그것	-9.91796
▁2009	-9.91818
DA	-9.91838
▁캠프	-9.91921
▁침체	-9.91924
달하는	-9.9193
▁알려져	-9.91938
▁못할	-9.92069
▁인식	-9.92081
▁궁	-9.92105
▁삼성	-9.92138
▁#	-9.9218
휴	-9.92205
줬다	-9.92214
▁45	-9.92225
라스	-9.9223
ant	-9.92241
▁진전	-9.92273
▁위원장	-9.92293
▁다수	-9.92295
▁명단	-9.92327
▁표시	-9.9235
▁연구진	-9.9239
▁것처럼	-9.92402
▁휴가	-9.92423
사태	-9.92503
▁베이	-9.92561
▁금리	-9.92567
▁있는데	-9.92585
▁남성이	-9.92609
▁의한	-9.9261
▁태도	-9.92655
▁중국이	-9.92718
▁곤	-9.92724
촌	-9.92777
어야	-9.92791
▁마이크	-9.92794
▁태풍	-9.92795
▁피랍	-9.92801
파운드	-9.92808
▁1999	-9.92818
▁대답	-9.92825
▁장애	-9.92843
▁진입	-9.92849
경제	-9.92865
위원회는	-9.92886
▁진술	-9.92892
▁기후	-9.92949
▁휘	-9.93009
▁어린	-9.93072
▁재산	-9.93127
▁폐기	-9.93344
▁니콜라	-9.93354
명에	-9.93355
▁NASA	-9.9337
라도	-9.93465
▁Ch	-9.93544
사인	-9.93566
▁시작됐다	-9.93592
▁실시한	-9.93636
닉	-9.93651
▁모하메드	-9.93653
▁스티븐	-9.93653
클레	-9.93653
▁조종사	-9.93654
▁스티브	-9.93654
▁부동산	-9.93654
▁흔들	-9.9366
세계	-9.93741
▁해변	-9.93746
▁웹사이트에	-9.93806
▁손실	-9.93828
필드	-9.93907
▁지도부	-9.93915
▁벌인	-9.93945
▁영향력	-9.93961
▁충분	-9.93999
▁홍수	-9.94053
▁현장에	-9.941
▁전역	-9.94152
▁왜	-9.94174
▁그중	-9.94193
▁인정했다	-9.94222
▁들었다	-9.94284
▁말한	-9.94368
tor	-9.94422
▁사무총장은	-9.94502
▁저녁	-9.94529
▁빨리	-9.9453
▁정확한	-9.9453
렛	-9.9453
쯤	-9.9453
▁엄마	-9.94534
2009.06	-9.94545
▁분위기	-9.94548
▁400	-9.94554
더라도	-9.94568
▁질병	-9.94592
▁경찰서	-9.9461
▁이웃	-9.94672
▁예방	-9.94674
참	-9.94713
▁특사	-9.94737
▁알려	-9.94777
으로써	-9.94871
폴	-9.94896
▁con	-9.95049
대학	-9.95098
▁당선자	-9.95308
멘	-9.95398
;	-9.95415
▁얻었다	-9.95415
▁국왕	-9.95429
▁형태	-9.95436
▁기자는	-9.95473
▁응	-9.95517
짜리	-9.95549
▁군인들	-9.95579
▁테러로	-9.95584
▁32	-9.95611
mp	-9.95665
▁긴	-9.95691
▁하락했다	-9.95715
▁통치	-9.95729
잔	-9.95789
▁무시	-9.95923
▁위해서	-9.95971
▁기타	-9.96015
▁승무원	-9.96091
혼	-9.96144
▁North	-9.96308
▁장난감	-9.96308
▁줄어들	-9.96309
▁자살폭탄테러	-9.96312
▁콘돌	-9.9632
▁하며	-9.96401
▁기울	-9.9653
쟁	-9.96551
▁중요하다	-9.96601
푸	-9.96612
15	-9.96663
▁무력	-9.9673
▁방어	-9.96852
ee	-9.96855
▁아부	-9.96861
▁자신들이	-9.97002
사람	-9.97023
▁시청	-9.97023
▁대상	-9.97089
▁문제로	-9.97122
잉	-9.97157
대에	-9.97206
州	-9.97208
▁나타내	-9.97209
▁시리즈	-9.97211
▁테이프	-9.97211
▁아바스	-9.97211
▁블랙	-9.97212
▁며칠	-9.97219
▁점령	-9.97291
▁콘	-9.97303
▁직면	-9.97308
▁가격이	-9.97322
ess	-9.97374
▁근처	-9.97404
카르	-9.97444
▁최소한	-9.97531
혔다	-9.97556
▁도착했다	-9.97684
계획	-9.97692
▁떨어졌다	-9.97712
▁아직도	-9.97915
되면	-9.97916
▁상황에	-9.97923
▁공정	-9.97957
업자	-9.98002
▁지휘	-9.98031
졌으며	-9.98112
컬	-9.98118
▁토요일	-9.98119
▁쉽게	-9.9812
▁네팔	-9.98127
▁침해	-9.98132
▁노대통령	-9.98162
▁스테	-9.98172
개월간	-9.98203
▁타격	-9.98238
▁Re	-9.9824
2008.0	-9.98244
▁FBI	-9.9829
▁MS	-9.9832
▁만들었다	-9.98358
▁살해한	-9.9844
▁않으면	-9.9844
▁돼	-9.98555
원이	-9.98584
▁입국	-9.98584
걸	-9.98598
▁통화	-9.98631
개발	-9.98641
▁강도	-9.98693
▁사용할	-9.98707
▁낙	-9.98718
▁싸	-9.98725
▁수사관	-9.98764
▁송	-9.98807
▁실제로	-9.98829
▁징역	-9.99009
▁순찰	-9.99051
▁장악	-9.99078
▁선거운동	-9.99082
▁파타	-9.99087
▁노벨	-9.99094
▁실망	-9.99128
▁신속	-9.99242
▁연관	-9.99285
▁사령관	-9.99289
▁반발	-9.9932
▁토니	-9.99354
▁지출	-9.9936
▁일본은	-9.99428
▁등이	-9.99435
▁색	-9.99511
▁내린	-9.99544
age	-9.9958
▁시민들	-9.99643
▁의문	-9.99656
ry	-9.99785
▁생명	-9.99786
대회	-9.99827
▁꾸	-9.99843
구역	-9.99918
Z	-9.99961
셰	-9.99961
▁활용	-9.99962
▁예술	-9.99996
▁가자	-9.99996
▁감행	-10.001
▁즉시	-10.0012
▁형성	-10.0013
▁기준	-10.0015
▁트	-10.0018
▁끌어	-10.0019
리오	-10.0024
▁추측	-10.0025
▁살아	-10.0029
▁우주선	-10.0031
▁주에서	-10.0035
▁자산	-10.0038
▁지지자	-10.0041
65	-10.0046
44	-10.0048
▁결승	-10.0053
때문에	-10.0056
▁요구하는	-10.006
▁킹	-10.006
ard	-10.0062
▁오하이오	-10.0064
▁전문가들	-10.0065
▁차관	-10.0065
주간	-10.0065
▁끼	-10.0075
소를	-10.0081
덴	-10.0086
단은	-10.0087
▁협조	-10.009
▁한국과	-10.009
qu	-10.009
▁근거	-10.0091
▁탈출	-10.0094
▁연락	-10.0098
▁당한	-10.0099
▁복제	-10.0105
▁늘어	-10.0111
▁남북한	-10.0115
▁몰아	-10.0117
쳤	-10.0118
▁주로	-10.0119
▁웹	-10.0125
▁짐	-10.0146
시티	-10.015
400	-10.0152
▁결과가	-10.0152
그룹	-10.0155
된다고	-10.0156
▁is	-10.0161
진다	-10.0163
der	-10.0167
프라	-10.0179
헨	-10.0183
옆	-10.0184
▁스위스	-10.0184
▁김정일	-10.0184
▁갖추	-10.0186
▁유럽연합	-10.0188
▁끝난	-10.0189
▁만족	-10.019
▁육군	-10.019
비치	-10.0193
▁한번	-10.0194
▁구글	-10.0195
▁속에서	-10.021
▁대출	-10.0214
▁말라	-10.0216
▁""	-10.0218
▁공화당의	-10.0225
64	-10.0228
▁지연	-10.0234
트라	-10.0238
들어	-10.0253
▁방식	-10.0264
▁장치	-10.0265
77	-10.0267
▁전망이	-10.0274
▁매장	-10.0276
▁소프트웨어	-10.0279
▁엘리자베스	-10.0279
램	-10.0279
픽	-10.0279
▁페르베	-10.0279
▁잭슨	-10.0279
46	-10.0283
▁폭격	-10.0283
▁의장은	-10.0287
준다	-10.0287
▁봉	-10.0289
▁복용	-10.029
어스	-10.0291
▁대사는	-10.0305
▁상품	-10.0306
린다	-10.0308
12	-10.031
49	-10.0314
육	-10.0334
▁걸어	-10.0345
▁대단	-10.0346
지수	-10.0346
장인	-10.0346
달러에	-10.0353
▁솔	-10.036
괴	-10.0363
▁모습이	-10.0364
▁총선에서	-10.0364
53	-10.037
▁밝	-10.037
▁이르는	-10.0371
기업	-10.0371
▁지적	-10.0372
▁론스타	-10.0375
▁V	-10.0377
▁1997	-10.0378
52	-10.0381
▁화산	-10.0384
▁내놓	-10.0386
▁자격	-10.0396
▁받아들이	-10.0403
▁현장에서	-10.0411
번째로	-10.0413
▁회담은	-10.0413
드라	-10.042
대사	-10.042
려고	-10.0423
▁홈	-10.044
▁영국군	-10.0442
▁일부는	-10.0446
캐	-10.0449
생활	-10.0452
주에서	-10.0454
▁포함되어	-10.0455
▁잘못	-10.0458
베리	-10.046
혁	-10.0466
▁Iraq	-10.0472
▁캠페인	-10.0472
▁핵실험	-10.0472
▁헤럴드	-10.0472
▁드라마	-10.0473
▁루이스	-10.0475
▁축제	-10.0484
▁가는	-10.0484
▁귀국	-10.0486
함에따라	-10.0488
원들이	-10.0494
▁아르헨티나	-10.0499
▁구체적인	-10.05
▁주는	-10.0504
▁신경	-10.0508
▁유리	-10.051
▁동물원	-10.0511
▁우선	-10.0516
▁아래	-10.0516
▁기구	-10.0525
▁조사하고	-10.0529
▁마치	-10.0534
사고	-10.0545
칸	-10.0551
▁시위자들	-10.0555
닌	-10.0563
▁길이	-10.0568
▁CBS	-10.057
▁일으키	-10.057
▁기독교	-10.057
▁사이클론	-10.0571
▁있으나	-10.0574
▁되면	-10.0581
▁해고	-10.0584
▁결혼식	-10.0584
▁공식적으로	-10.059
▁인하	-10.059
▁관여	-10.0591
▁실행	-10.0592
▁파손	-10.0593
um	-10.06
▁해결하기	-10.0617
▁사무	-10.0621
▁상점	-10.0626
▁의도	-10.0637
▁관광객들	-10.0642
▁총리와	-10.0643
려는	-10.0648
만큼	-10.0653
핑	-10.0664
600	-10.0669
▁뉴질랜드	-10.0669
▁드러났다	-10.0669
▁싱가포르	-10.0669
▁외곽	-10.0669
▁이끌어	-10.0669
켄	-10.0669
▁매들린	-10.0669
BA	-10.0671
▁않도록	-10.0671
▁1998	-10.0672
▁같	-10.0674
정보	-10.0674
po	-10.0681
▁벗어나	-10.0681
▁변경	-10.0682
de	-10.0685
▁수용소	-10.0686
▁체포된	-10.0687
▁비교	-10.0692
▁강경	-10.0699
▁나달	-10.0705
▁이곳에서	-10.0706
▁지지하는	-10.0712
▁당선인은	-10.0724
▁빛	-10.0727
▁요구를	-10.0735
ay	-10.0746
▁어린이들	-10.075
39	-10.0756
탁	-10.0759
포트	-10.0764
훈	-10.0769
`	-10.0769
!	-10.0769
▁우라늄	-10.0769
▁케네디	-10.0769
PPP	-10.077
7000	-10.0772
▁달성	-10.0774
▁행정	-10.0774
▁에이즈	-10.0775
▁올렸다	-10.0776
▁1980	-10.0777
▁의료진	-10.0781
▁가입	-10.0784
▁압둘라	-10.0785
▁상업	-10.0788
▁행진	-10.0788
▁보석	-10.0801
▁기자들	-10.0806
▁주고	-10.0807
▁성공했다	-10.0809
▁학대	-10.0812
▁해산	-10.0816
▁소개	-10.0818
국의	-10.0819
바르	-10.0819
▁국제적	-10.0843
▁권고	-10.085
▁중이라고	-10.0852
콘	-10.0858
둘	-10.0863
ke	-10.0866
▁South	-10.087
▁믿고	-10.087
▁좋지	-10.087
꾼	-10.087
쾌	-10.087
▁얘기	-10.087
▁페일린	-10.0871
▁답변	-10.0871
▁주인공	-10.0874
▁가르	-10.0874
▁지시	-10.0878
▁지진으로	-10.0879
▁이민	-10.088
▁만드는	-10.0881
▁웃	-10.0883
kg	-10.0884
▁민주화	-10.0886
▁대부분은	-10.0889
▁성화	-10.0898
되었	-10.0901
▁투자자들	-10.0903
▁포함해	-10.0904
▁즐기	-10.0906
▁감정	-10.0916
▁등장	-10.0916
▁중요	-10.0921
▁주석	-10.0937
▁곳으로	-10.0947
▁중국과	-10.095
조직	-10.0951
▁혹	-10.0955
렬	-10.0971
▁리버풀	-10.0972
▁훨씬	-10.0972
해리포터	-10.0972
▁벌어진	-10.0974
▁음반	-10.0975
장치	-10.0978
▁불참	-10.0978
▁폭행	-10.0979
슬리	-10.0982
분간	-10.0984
▁예정이며	-10.0989
객들	-10.099
▁전해	-10.099
▁조각	-10.0992
▁목격	-10.0995
▁다이	-10.0998
-3	-10.0999
▁잔해	-10.1002
▁경선에서	-10.1006
▁회담에	-10.1007
▁영국에서	-10.1016
68	-10.102
▁노동자	-10.1021
▁장비	-10.1025
▁중에는	-10.1031
결과	-10.1032
▁저는	-10.1041
▁맞서	-10.1047
▁음	-10.1048
▁크리스티	-10.106
▁문제는	-10.1065
▁거절	-10.1066
▁의무	-10.1067
이션	-10.107
됐고	-10.1072
뜨	-10.1073
▁DNA	-10.1076
▁with	-10.1076
▁맨체스터	-10.1076
▁베트남	-10.1076
▁열린우리당	-10.1076
폭탄	-10.1079
▁pro	-10.1079
▁석	-10.1079
▁힘든	-10.108
▁1990	-10.108
▁음모	-10.1081
▁가득	-10.1081
▁방침	-10.1081
▁때문이다	-10.1085
▁반정부	-10.109
스티	-10.1091
▁안보리	-10.1093
▁기본	-10.1094
▁소요	-10.1099
겼	-10.1102
▁장식	-10.1107
부시	-10.1114
4000	-10.1118
▁곡	-10.1119
▁결승전	-10.1122
47	-10.1122
▁터키군	-10.1127
▁포드	-10.1134
AN	-10.1135
▁폐지	-10.1139
▁회원국	-10.1141
▁수영	-10.1145
▁250	-10.115
▁지수는	-10.1156
▁덮	-10.1159
▁그와	-10.1176
흑	-10.1177
▁존슨	-10.1178
듯	-10.1179
▁n	-10.1179
▁포르투갈	-10.118
▁휘발유	-10.118
룰	-10.118
죠	-10.118
▁반기문	-10.118
▁첼시	-10.118
▁전면	-10.1183
▁질환	-10.1183
EU	-10.1183
들로부터	-10.1187
▁소환	-10.119
▁에이	-10.119
▁요구하고	-10.1191
▁영토	-10.1195
▁화학	-10.1195
기술	-10.1202
▁불리는	-10.1202
위원	-10.1204
검사	-10.1206
▁내용이	-10.1221
▁추적	-10.1221
▁언급하지	-10.1224
▁무대	-10.1232
▁자세	-10.1232
▁선물	-10.1245
▁주인	-10.125
국이	-10.1251
67	-10.1252
▁입수	-10.1257
▁한국군	-10.126
▁프레	-10.1261
▁회담이	-10.1269
▁계획이	-10.1276
z	-10.1276
▁경기에	-10.1276
네스	-10.1278
픈	-10.128
▁테러가	-10.1284
▁샌프란시스코	-10.1285
튜	-10.1285
핀	-10.1285
▁검색	-10.1285
▁국제유가	-10.1285
▁묘사	-10.1285
▁운항	-10.1286
▁앨범	-10.1287
▁향후	-10.1288
▁중재	-10.129
▁빚	-10.129
오늘	-10.1291
▁성향	-10.1294
▁공개했다	-10.1294
56	-10.1295
▁것보다	-10.1295
▁리비아	-10.1296
▁파악	-10.1304
▁유치	-10.1306
▁테러범	-10.1308
당국	-10.1309
▁지목	-10.1309
▁기상	-10.1312
▁시절	-10.1314
▁주장하는	-10.1324
▁Co	-10.1326
포드	-10.1329
▁거주하는	-10.1332
▁외부	-10.1347
▁꿈	-10.1349
▁병사들	-10.1353
""	-10.1358
▁속도	-10.1359
▁희생자들	-10.1363
었으나	-10.1367
라드	-10.1368
▁생존자	-10.137
당국은	-10.1373
되자	-10.1374
바이	-10.1377
ain	-10.138
▁초대	-10.1384
▁하이	-10.1385
▁장관이	-10.139
켈	-10.139
▁모스크바	-10.1391
▁획득	-10.1391
▁랭킹	-10.1391
▁페더러	-10.1391
▁로봇	-10.1392
▁회견	-10.1393
▁나쁜	-10.1394
콜	-10.1394
▁사무총장	-10.1395
▁중부	-10.1396
▁접속	-10.1396
▁작동	-10.1398
▁고객	-10.1401
▁밀란	-10.1405
▁탐	-10.1406
▁잡지	-10.1406
▁이익	-10.1408
ab	-10.1413
▁빅	-10.1419
▁수집	-10.1422
▁협회	-10.1426
▁워싱턴에서	-10.1429
▁체니	-10.1429
▁방문할	-10.1439
▁광장	-10.1444
▁사법	-10.1445
14	-10.1453
▁소니	-10.146
58	-10.1463
▁방법으로	-10.1464
주일	-10.1466
▁방지	-10.1467
res	-10.1473
국은	-10.1483
측이	-10.1485
▁이들이	-10.1486
회담	-10.1496
롬	-10.1498
▁주간	-10.1499
▁밖으로	-10.1499
아메리카	-10.1499
▁콘서트	-10.1499
▁얼음	-10.1499
▁9.11	-10.1499
▁맨유	-10.1499
▁측근	-10.15
▁집에	-10.1501
곤	-10.1502
▁둘러	-10.1503
ational	-10.1506
맥	-10.1506
▁토론회	-10.1507
펜	-10.1508
▁야생	-10.1508
▁폭우	-10.1512
▁기능	-10.1513
▁입양	-10.1514
▁밑	-10.1515
▁이것이	-10.1515
▁예비	-10.1524
▁샌	-10.1525
▁대결	-10.1531
모든	-10.1532
▁치르	-10.1535
▁단체는	-10.1536
▁잃었다	-10.1542
▁편지	-10.1545
▁생각하고	-10.1562
적이고	-10.1563
▁행성	-10.1564
▁학생들이	-10.157
▁이사	-10.157
작전	-10.1572
ear	-10.1575
▁충분한	-10.1576
▁도달	-10.1588
▁심슨	-10.1589
▁성과	-10.1595
▁목격자	-10.1599
▁CIA	-10.1603
▁레이스	-10.1605
▁전개	-10.1607
둥	-10.1608
아메리칸	-10.1608
▁온난화	-10.1608
▁특파원	-10.1608
▁세계대전	-10.1608
▁금요일	-10.1608
▁이메일	-10.1609
▁편집	-10.1613
▁학살	-10.1614
▁흉	-10.1617
홀	-10.162
100	-10.1625
▁목격자들	-10.1626
▁지정	-10.1638
▁진행된	-10.164
우드	-10.1641
▁신체	-10.165
▁출시	-10.1651
▁남쪽	-10.1665
▁바그다드에서	-10.1695
년에는	-10.1696
▁의원들은	-10.1697
▁경기장	-10.1707
▁원하는	-10.1709
▁발표된	-10.1713
▁남아	-10.1714
탑	-10.1717
얀	-10.1717
▁다이아몬드	-10.1717
현지시각	-10.1717
▁주식시장	-10.172
▁영변	-10.1721
▁허락	-10.1722
▁않았으며	-10.1723
▁합동	-10.1724
▁저항	-10.1725
했기	-10.1731
▁주문	-10.1735
▁말합니다	-10.1736
▁모양	-10.1739
그들은	-10.1741
ial	-10.1741
ong	-10.1744
▁조사에서	-10.1744
▁밖에서	-10.1745
▁계획에	-10.1749
▁취할	-10.175
▁생존	-10.1753
▁공중	-10.1755
▁부근	-10.1756
▁니콜	-10.1756
▁시작한	-10.1766
▁특별한	-10.1768
▁방문했다	-10.1772
▁후임	-10.1773
▁논란	-10.1775
▁에어	-10.1776
라이브	-10.1781
▁톰	-10.1781
▁마시	-10.1804
▁38	-10.1815
군의	-10.1817
원들은	-10.1819
컴	-10.1826
59	-10.1827
지구	-10.1827
럭	-10.1828
▁헤즈볼라	-10.1829
밍	-10.1829
▁리콜	-10.1833
▁이란은	-10.1833
▁사건으로	-10.1836
작업	-10.1836
▁카페	-10.1839
16	-10.1845
▁용의자들	-10.185
▁보면	-10.1853
▁자기	-10.1855
미군	-10.1858
▁주목	-10.1867
82	-10.1868
▁예상했다	-10.1869
man	-10.1878
▁내전	-10.188
련	-10.1884
▁철도	-10.1891
▁다니	-10.1893
300	-10.1893
▁윤	-10.1894
사항	-10.19
▁tr	-10.1902
▁대부분이	-10.1902
▁바라고	-10.1916
▁사건과	-10.1926
어져	-10.1929
넬	-10.194
▁멸종	-10.1941
▁CEO	-10.1941
▁옮겨	-10.1941
▁유나이티드	-10.1941
▁찾고	-10.1941
롱	-10.1941
짝	-10.1941
▁코미디	-10.1941
▁대다수	-10.1942
▁바꾸	-10.1943
▁미국에	-10.1951
▁교사	-10.1953
연맹	-10.1956
▁특정	-10.1957
자리	-10.1961
쓰	-10.1963
놀	-10.1964
tr	-10.1967
out	-10.1979
▁린	-10.1982
▁어디	-10.1989
장의	-10.1989
▁경보	-10.1992
▁이번주	-10.1996
량이	-10.2017
전에서	-10.2021
▁에드	-10.2034
빠	-10.2037
▁영화제	-10.2038
▁보이	-10.2041
져야	-10.2043
리그	-10.2044
러스	-10.2049
ress	-10.2051
딜	-10.2054
▁붉은	-10.2055
셉	-10.2055
[	-10.2055
▁쿠데타	-10.2055
▁다르푸르	-10.2055
▁아이오와	-10.2055
▁NBC	-10.2056
▁봄	-10.2057
▁수요	-10.2058
▁웨스트	-10.206
▁핵시설	-10.206
▁멜	-10.2062
▁마틴	-10.2063
▁체결	-10.2065
41	-10.2065
죄	-10.2068
▁격차	-10.2071
▁다우	-10.2075
▁차드	-10.2078
▁물건	-10.2079
▁심문	-10.2083
싸	-10.2085
민주당	-10.2085
▁폭발물	-10.2086
▁처음이다	-10.2089
▁서방	-10.2092
▁산타	-10.2093
▁나서	-10.2098
▁파티	-10.2109
▁의회의	-10.2112
▁보고했다	-10.2124
▁아일랜드	-10.2125
▁이스라엘과	-10.2163
ca	-10.2167
▁알래스카	-10.217
▁장례식	-10.217
첸	-10.217
▁여자친구	-10.217
▁일환으로	-10.217
▁겨울	-10.217
▁경찰서장	-10.2171
▁북극	-10.2173
원제	-10.2173
▁가까이	-10.2176
▁우주비행사	-10.2177
▁걸릴	-10.2179
▁만날	-10.2182
▁복구	-10.2183
▁치러진	-10.2184
▁나누	-10.2188
▁동반	-10.2189
▁전투기	-10.219
▁물러	-10.219
▁37	-10.2198
오는	-10.2206
cm	-10.2208
▁신호	-10.2215
▁파산	-10.2216
▁클라	-10.2227
▁절대	-10.2231
▁업계	-10.2231
▁그리	-10.2231
지수는	-10.2231
▁생물	-10.2232
조차	-10.2243
85	-10.2244
13	-10.2249
PA	-10.225
76	-10.2256
▁현재까지	-10.2257
위기	-10.2265
닥	-10.2278
▁36	-10.2279
춘	-10.2282
원인	-10.2282
냉	-10.2285
▁떨어지	-10.2286
▁적십자	-10.2286
▁설득	-10.2287
▁FTA	-10.2288
츠는	-10.2292
▁답	-10.2292
▁추정되는	-10.2293
▁어려운	-10.2294
▁증권	-10.2297
▁일주일	-10.2299
▁중국에서	-10.2303
▁식당	-10.2303
ice	-10.2304
시키려	-10.2305
▁수감자	-10.2313
되어야	-10.2318
농	-10.2318
▁제안했다	-10.2324
▁기도	-10.2324
▁적절한	-10.2325
▁사실상	-10.233
▁희	-10.2332
타르	-10.2333
▁잠시	-10.234
▁협상이	-10.2343
one	-10.2345
▁중독	-10.2345
▁최초로	-10.2361
▁친구들	-10.2371
▁소비자들	-10.2387
학생	-10.2389
▁그레	-10.2392
▁달라	-10.2393
섭	-10.2401
54	-10.2402
멸	-10.2403
퀴	-10.2403
]	-10.2403
▁다우존스	-10.2403
▁달라이라마	-10.2403
▁얻어	-10.2403
▁발굴	-10.2405
▁폭락	-10.2408
▁않지만	-10.241
▁행복	-10.241
▁교환	-10.241
▁자치	-10.2414
▁오염	-10.2417
ta	-10.2426
▁이스라엘군	-10.2427
▁대통령에	-10.2429
▁세워	-10.2432
ang	-10.2434
▁보통	-10.2436
삼	-10.2441
▁내에	-10.2443
av	-10.2444
뿐	-10.2445
라면	-10.2448
▁노력하고	-10.2451
▁열리	-10.2452
▁투어	-10.2454
ure	-10.2458
▁불과	-10.2468
▁회원	-10.2473
▁요인	-10.2474
▁평화적	-10.2481
45	-10.2481
▁지점	-10.2482
▁호세	-10.2483
▁국회의원	-10.2483
▁사용한	-10.2488
▁사전	-10.2493
18	-10.2494
▁된다고	-10.2498
▁있어서	-10.2499
▁못하는	-10.2508
▁아이들이	-10.2509
국민	-10.2513
룬	-10.2517
묘	-10.252
▁sh	-10.2521
▁앉아	-10.2523
▁에드워즈	-10.2523
▁더불어	-10.2523
▁재무장관	-10.2523
▁쇼핑	-10.2523
▁둘	-10.2525
빠진	-10.2529
▁출석	-10.2531
▁방영	-10.2533
▁기존	-10.2534
▁커피	-10.2534
▁매각	-10.2536
▁50%	-10.2537
▁적은	-10.2539
▁배출	-10.2541
▁조합	-10.2546
부대	-10.2547
▁밝히고	-10.2547
▁강요	-10.2549
▁통신은	-10.2552
최	-10.2553
만약	-10.2555
▁신임	-10.2556
▁재건	-10.2556
▁계속되고	-10.2559
짐	-10.2565
벤	-10.257
▁윌	-10.2575
▁선보	-10.2578
▁시장에서	-10.2585
년이	-10.2588
▁광산	-10.2592
▁프라	-10.2596
▁오브	-10.2599
▁제도	-10.26
▁결정은	-10.2604
정부는	-10.2604
▁사인	-10.2607
▁의식	-10.2608
요원	-10.261
▁본사	-10.2611
페이지	-10.2613
▁청소년	-10.2615
▁담당자	-10.2615
63	-10.2626
▁목적으로	-10.2627
▁벽	-10.263
▁소수	-10.2631
▁FARC	-10.2638
▁윈	-10.2641
▁노스캐롤라이나	-10.2643
▁됩니다	-10.2643
▁스리랑카	-10.2643
▁흡연	-10.2643
렐	-10.2643
콤	-10.2643
New	-10.2643
▁갑자	-10.2644
▁하늘	-10.2646
▁사냥	-10.2646
▁복잡	-10.2646
▁농축	-10.2647
▁합류	-10.2647
▁단순	-10.2648
▁데이터	-10.2649
▁인류	-10.2653
▁의존	-10.2656
▁움직이	-10.2659
▁통계	-10.2664
▁도입	-10.2664
▁항소	-10.2668
▁해양	-10.2673
했음	-10.2674
▁거두	-10.2677
▁어려	-10.2677
▁수상자	-10.2677
후드	-10.2678
▁북측	-10.268
▁기업들	-10.268
90	-10.2688
납	-10.269
차전	-10.2694
이슬람	-10.2694
조원	-10.2707
▁잇	-10.2716
▁의회는	-10.2719
79	-10.272
▁각국	-10.2723
▁지상	-10.2725
▁메이	-10.2725
▁아동	-10.2726
▁넓	-10.273
▁테러리스트	-10.2734
ha	-10.2735
▁연주	-10.2736
▁고소	-10.2739
▁고대	-10.2741
▁기분	-10.2741
▁회사들	-10.2744
▁외교적	-10.2752
님	-10.2763
랭	-10.2765
룩	-10.2765
쇠	-10.2765
떼	-10.2765
▁고등학교	-10.2765
▁방글라데시	-10.2765
▁없으며	-10.2765
▁훌륭	-10.2765
▁오스트리아	-10.2765
닷컴	-10.2765
▁칠레	-10.2765
▁48	-10.2765
▁공산당	-10.2766
▁원한다	-10.2768
▁(=	-10.2768
▁건축	-10.277
▁것이라며	-10.2772
▁폭동	-10.2775
▁성관계	-10.2776
▁순방	-10.2777
수사	-10.2778
▁명예	-10.278
▁취재	-10.2781
▁부담	-10.2783
▁화물	-10.2785
▁자본	-10.2786
▁공격이	-10.2787
▁현실	-10.2787
▁서울에서	-10.2794
▁사용되	-10.2798
▁美	-10.2803
▁태평양	-10.2804
아야	-10.2808
▁측정	-10.2808
장으로	-10.281
▁버마	-10.281
▁로비	-10.2813
▁실시되	-10.2813
칼	-10.2816
▁골드	-10.2818
▁내릴	-10.2818
냈	-10.282
파키스탄	-10.282
▁이하	-10.2824
머니	-10.2826
▁노동자들	-10.283
▁세우	-10.2831
900	-10.2832
▁해병대	-10.2833
▁되기	-10.2835
됐을	-10.284
생물학	-10.285
세력	-10.2853
▁부근에서	-10.2857
▁모인	-10.2862
78	-10.2863
▁부여	-10.2863
위원장	-10.2865
▁야기	-10.2865
▁그림	-10.2869
69	-10.287
▁아르	-10.2872
▁왕세자	-10.288
께	-10.2881
넷	-10.2888
▁훼손	-10.2888
큐	-10.2888
▁봉쇄	-10.2888
▁나이지리아	-10.2888
▁카르자이	-10.2888
▁혜택	-10.2888
▁검거	-10.2889
▁이뤄지	-10.2889
▁will	-10.289
▁관람	-10.2892
▁혁명	-10.2892
▁극복	-10.2894
▁식품	-10.2896
▁시드니	-10.2897
▁일리노이주	-10.2906
▁최선	-10.2908
▁대항	-10.291
▁나갈	-10.2911
▁시드	-10.2911
▁소설	-10.2915
▁상처	-10.2915
▁묵	-10.2919
▁피난	-10.2922
▁증가하고	-10.2925
▁세상	-10.2927
ti	-10.2928
▁보관	-10.2934
왔으며	-10.2936
▁후원	-10.2939
▁조성	-10.2948
됐었다	-10.2948
▁말해	-10.295
BC	-10.2957
▁기다리고	-10.2958
-2	-10.2962
된다면	-10.2963
▁수송	-10.2963
▁일간	-10.2966
상황	-10.2968
▁구조대	-10.2968
▁상승했다	-10.2969
▁예상되	-10.2969
▁이유는	-10.2969
브레	-10.2973
▁스키	-10.2977
▁북쪽	-10.2978
▁소식이	-10.2981
▁의지	-10.2987
▁자리에서	-10.2987
레나	-10.2988
▁시위에	-10.2989
관련	-10.2991
▁말까지	-10.2991
▁로한	-10.2994
▁지수	-10.2995
84	-10.2998
전쟁	-10.3001
St	-10.3002
▁펜	-10.3003
▁전날	-10.3013
흘	-10.3013
▁네트워크	-10.3013
▁펼치	-10.3013
릿	-10.3013
▁마카오	-10.3013
▁카스트로	-10.3014
▁목록	-10.3017
▁패션	-10.3017
▁무장대원	-10.302
▁가옥	-10.302
▁출판	-10.3021
▁말하는	-10.3025
▁2010	-10.3025
▁낸	-10.3025
▁책임자	-10.3029
▁일본이	-10.3035
▁돌려	-10.3037
▁진실	-10.3037
다시	-10.3037
▁발병	-10.3037
▁모색	-10.3039
▁승리했다	-10.3041
▁개방	-10.3051
our	-10.3072
▁베르	-10.3073
▁많다	-10.308
▁국경지역	-10.3089
▁공항에서	-10.3093
ell	-10.3096
▁일본에서	-10.3096
▁트리	-10.3099
아나	-10.3106
하고자	-10.3106
장과	-10.3107
▁만화	-10.3113
해줄	-10.3115
▁유대인	-10.3115
▁하다	-10.3124
▁의회에	-10.3127
기지	-10.3131
▁의학	-10.3138
끄	-10.3139
▁예루살렘	-10.314
뱀	-10.314
틸	-10.314
▁파예드	-10.314
▁습격	-10.314
2008.12	-10.3141
▁51	-10.3151
▁든	-10.3157
▁봉사	-10.3161
▁비율	-10.3162
▁페루	-10.3164
▁구출	-10.3166
▁보복	-10.3169
▁초점	-10.3176
IS	-10.3187
ts	-10.3189
▁망	-10.3198
▁미국인들	-10.3199
▁부과	-10.32
▁10%	-10.3204
▁올린	-10.3205
▁경영	-10.3205
▁카드	-10.3208
▁체제	-10.3211
안전	-10.3219
▁유가	-10.3221
러시아	-10.3222
정도	-10.3232
▁방화	-10.3236
▁있다면	-10.3237
▁사드르	-10.3238
ie	-10.3246
▁분석가	-10.3255
지난	-10.3258
에선	-10.3262
콩	-10.3265
흥	-10.3268
혜	-10.3268
덜	-10.3268
▁스웨덴	-10.3268
▁얻기	-10.3268
▁외교통상부	-10.3268
▁이렇게	-10.3268
▁정확히	-10.3268
▁거뒀다	-10.3268
▁북동부	-10.3268
IOC	-10.3268
▁숫자	-10.3268
▁이재민	-10.3268
▁콩고	-10.3271
▁남아공	-10.3272
▁고향	-10.3276
▁환자들	-10.3282
▁인종	-10.3282
▁인공	-10.3285
▁사담	-10.3286
▁있었고	-10.3287
▁대가로	-10.3287
▁주제	-10.3287
▁풀어	-10.3289
▁지도자들은	-10.3296
▁th	-10.3297
▁선언했다	-10.3299
▁지진이	-10.3302
▁AC	-10.3307
명에게	-10.3322
▁그동안	-10.3323
▁유감	-10.3333
▁조기	-10.3333
답	-10.3339
희	-10.334
▁불러	-10.3341
팔	-10.3341
값	-10.3341
▁남아있	-10.3342
플레	-10.3348
연구소	-10.3349
26	-10.3352
행사	-10.3354
현재	-10.3355
▁앨	-10.3359
▁주최	-10.3361
▁털	-10.3373
62	-10.3389
▁플레이	-10.339
흔	-10.3395
웅	-10.3396
첨	-10.3398
▁되찾	-10.3398
▁마찬가지	-10.3398
NATO	-10.3398
UEFA	-10.3398
▁덴마크	-10.3398
나갔다	-10.3398
FRB	-10.3398
▁다니엘	-10.3399
가격	-10.3401
섹스	-10.3402
ood	-10.3403
▁제공하는	-10.3406
▁영업	-10.3407
스틴	-10.3408
▁출동	-10.3412
▁입증	-10.3414
▁의회에서	-10.3414
▁체계	-10.3416
▁고발	-10.3422
▁취하	-10.3426
▁셀	-10.3427
▁틀	-10.3432
▁경쟁자	-10.3435
▁세포	-10.3436
▁베이징에서	-10.3444
▁달려	-10.345
21	-10.3451
▁현금	-10.3456
FA	-10.3465
▁경호원	-10.3465
시위	-10.3481
▁거부했다	-10.3491
▁본선	-10.3499
▁시내	-10.3503
▁반군이	-10.3506
▁실패했다	-10.351
▁마치고	-10.3527
▁챔피언스리그	-10.353
웬	-10.353
▁청문회	-10.353
▁운송	-10.353
▁새끼	-10.3533
IC	-10.3534
▁커플	-10.3535
▁레알	-10.3536
▁장착	-10.3536
▁분열	-10.3542
▁분명히	-10.3545
▁자극	-10.3547
ance	-10.3548
▁기부	-10.3549
▁만난	-10.3552
▁말리키	-10.3555
▁선발	-10.3556
▁숙	-10.3561
▁배경	-10.3564
▁드러	-10.3565
▁발생했으며	-10.3566
▁주지사가	-10.3567
세인	-10.3572
▁서신	-10.3575
버스	-10.3578
▁진화	-10.3581
▁시위대는	-10.3587
▁유력	-10.3596
▁보인다고	-10.3607
지금	-10.3611
▁보고서에서	-10.3618
▁노리	-10.3621
안보	-10.3625
▁방향	-10.3631
▁권한	-10.3638
ide	-10.3639
▁대선에서	-10.3647
평화	-10.3654
▁갖는	-10.3657
쉽	-10.3658
▁인디애나	-10.3663
갤	-10.3663
렘	-10.3663
▁Japan	-10.3663
▁성화봉송	-10.3663
▁폴란드	-10.3663
▁남동부	-10.3663
▁plan	-10.3663
▁엄청	-10.3663
▁완벽	-10.3664
▁싸움	-10.3664
▁코커스	-10.3665
▁가했다	-10.3666
▁과격	-10.3671
▁압수	-10.3681
▁노예	-10.3682
▁연행	-10.3687
▁임금	-10.3689
▁향하	-10.3694
▁이양	-10.3695
본부	-10.37
▁제조업체	-10.3702
24	-10.3702
▁그것이	-10.3711
99	-10.3714
▁따르	-10.3716
▁공화국	-10.3719
▁보안군	-10.372
▁델	-10.3723
▁공유	-10.3733
▁캘리포니아주	-10.3735
드시	-10.3735
디아	-10.3743
▁IAEA	-10.3746
▁이주	-10.3746
▁발생하지	-10.3753
74	-10.3759
디스	-10.3762
▁노인	-10.3768
▁전통적	-10.3771
▁납치된	-10.3773
리스트	-10.3779
▁로드	-10.3781
되었고	-10.3785
캔	-10.3797
▁라스베이거스	-10.3798
▁활주로	-10.3798
▁디즈니	-10.3798
▁크루즈	-10.3798
▁쓰나미	-10.3798
▁네바다	-10.3798
▁아이디어	-10.3798
▁토마스	-10.3798
▁빈곤	-10.3799
▁타이틀	-10.38
▁민족	-10.3801
▁관찰	-10.3802
▁인사들	-10.3805
▁있었지만	-10.3806
▁멀	-10.3806
▁보잉	-10.3806
▁생긴	-10.3806
▁600	-10.3809
▁철군	-10.381
▁사장은	-10.381
▁빙하	-10.381
▁명백	-10.381
▁출산	-10.3813
▁계획이라고	-10.3814
▁고립	-10.3815
▁지역으로	-10.3816
▁소매	-10.3816
금지	-10.3819
▁청구	-10.3821
▁받아야	-10.3821
6000	-10.3822
▁중순	-10.3831
▁견해	-10.3832
▁방송국	-10.3833
▁무료	-10.3835
▁대회에서	-10.3837
▁수업	-10.3843
▁발간	-10.3852
▁축	-10.3855
ba	-10.3859
▁영장	-10.3866
ail	-10.3874
▁유전자	-10.3875
▁기대하고	-10.3886
피트	-10.3888
앤	-10.3895
▁런던에서	-10.3896
▁열대	-10.3897
▁수상했다	-10.3899
미니	-10.39
시대	-10.3908
으면서	-10.3912
축구	-10.3915
▁고어	-10.3921
▁과학자	-10.3933
댄	-10.3935
▁주한미군	-10.3935
▁논평	-10.3935
▁리조트	-10.3935
▁삭제	-10.3935
▁했지만	-10.3935
▁심지어	-10.3935
수록	-10.3935
▁에어버스	-10.3936
▁보여줬다	-10.3936
느냐	-10.3937
37	-10.3937
▁중간	-10.3939
▁모기지	-10.394
▁합병	-10.3941
▁무죄	-10.3941
▁관영	-10.3945
▁회동	-10.3947
▁복무	-10.3948
▁아니면	-10.3948
▁보낼	-10.3948
▁뉴욕에서	-10.3949
▁일반적으로	-10.3951
▁군정	-10.3953
▁피해가	-10.3953
▁갖게	-10.396
▁PC	-10.3961
▁하면	-10.3962
▁생각하는	-10.3969
▁실적	-10.397
▁신발	-10.3972
▁이중	-10.3978
▁높아지	-10.3978
▁대량	-10.3978
▁돌아오	-10.3979
일본	-10.3981
per	-10.3981
▁구금	-10.3985
천만	-10.3987
▁위조	-10.3989
▁착용	-10.399
▁배제	-10.3991
▁재단	-10.3999
▁주지	-10.4005
▁크레	-10.4007
▁중지	-10.4008
▁돼지	-10.4011
29	-10.4015
▁난사	-10.4025
▁기차	-10.4025
현지	-10.4032
▁안전한	-10.4037
▁무선	-10.4042
범죄	-10.4043
짜	-10.4047
▁나오는	-10.405
▁치러	-10.4056
마르	-10.4057
영국	-10.4058
▁뼈	-10.4064
▁부서	-10.4071
▁폭탄이	-10.4072
곰	-10.4074
▁바르셀로나	-10.4074
▁봤다	-10.4074
▁사우디아라비아	-10.4074
▁크라이슬러	-10.4074
▁협박	-10.4074
엠	-10.4074
▁태어난	-10.4074
▁파트너	-10.4074
WHO	-10.4074
▁엄격	-10.4074
▁이루어지	-10.4074
▁하원의원	-10.4077
▁응급	-10.4078
▁채택	-10.4079
▁하와이	-10.4081
▁은퇴	-10.4083
▁독재	-10.4084
▁표했다	-10.4087
▁단속	-10.4092
▁CD	-10.4093
▁거쳐	-10.4094
▁승객들	-10.4097
▁지시했다	-10.4103
▁위원회는	-10.4109
▁골프	-10.411
▁대학교	-10.4114
▁승리한	-10.4114
▁총격전	-10.4115
▁보유하고	-10.4118
▁명은	-10.4125
▁기금	-10.4133
22	-10.4139
oll	-10.4147
▁책임이	-10.415
▁자세한	-10.4158
응	-10.4168
▁회의에서	-10.4173
더스	-10.4175
짓	-10.4177
김	-10.4182
▁척	-10.4184
타운	-10.4187
▁의미한다	-10.4189
▁동성애자	-10.4194
▁처해	-10.4195
담당	-10.4205
▁쏟아	-10.4215
▁누군가	-10.4215
▁베를린	-10.4215
▁케이블	-10.4217
▁1994	-10.4218
▁매춘	-10.4218
▁면담	-10.4219
▁42	-10.422
스케	-10.422
▁철저	-10.4221
▁2012	-10.4222
▁디자인	-10.4223
▁작용	-10.4225
▁수감자들	-10.4225
▁항구	-10.4226
▁마쳤다	-10.4229
▁누리	-10.4229
▁카불	-10.423
▁상태에	-10.4234
▁싶어	-10.4235
▁형제	-10.4236
▁실종된	-10.4243
▁시각	-10.4251
▁재난	-10.4259
미터	-10.4262
▁한때	-10.4268
▁유발	-10.4268
▁로스	-10.4269
▁만들어진	-10.4273
▁값	-10.4275
▁공약	-10.4284
▁듀	-10.4287
▁지켜보	-10.429
되었으며	-10.4292
▁호텔에서	-10.4294
정부가	-10.4302
▁시장에	-10.4322
▁su	-10.4327
명도	-10.4329
카운티	-10.433
▁이사회	-10.4334
▁발생하는	-10.4341
▁안에서	-10.4353
▁펼쳐	-10.4358
▁휴대전화	-10.4358
끈	-10.4358
춤	-10.4358
▁흥분	-10.4358
▁바스라	-10.4359
▁적극적	-10.4359
▁해결책	-10.4364
▁두바이	-10.4369
▁*	-10.437
▁사령관은	-10.4378
스타인	-10.4384
▁초래	-10.4385
▁3000	-10.4385
▁대학생	-10.4385
▁북미	-10.4386
▁첫번째	-10.4391
▁추정된다	-10.4396
▁중심부	-10.4399
▁점차	-10.44
▁사장	-10.4401
▁신중	-10.4404
▁못하게	-10.4406
▁간단	-10.4407
▁상공	-10.4408
17	-10.441
▁리그	-10.4419
되었던	-10.4421
ian	-10.4427
병원	-10.4428
▁우리당	-10.4436
▁기계	-10.4438
lu	-10.445
▁말하며	-10.4465
점으로	-10.4466
▁유전	-10.4468
▁이것	-10.4478
밤	-10.4478
▁공간	-10.4482
아버지	-10.4485
있었다	-10.4503
▁그렇지	-10.4503
▁동티모르	-10.4503
▁펼쳤다	-10.4503
틱	-10.4503
▁외환은행	-10.4503
▁송환	-10.4505
▁저지른	-10.4506
▁ABC	-10.4507
▁급등	-10.4508
▁요리	-10.4509
▁서울시	-10.4514
▁참석했다	-10.4524
▁벗	-10.4533
기록	-10.4533
▁맛	-10.4534
받았다	-10.4535
▁피트	-10.4536
▁존중	-10.4537
해왔	-10.4539
▁않기	-10.4545
▁여권	-10.455
▁기자들에게	-10.4552
▁라고	-10.4554
▁의석	-10.4558
▁요소	-10.4572
▁앞에	-10.4573
▁논란이	-10.4574
▁사회적	-10.458
▁자문	-10.458
▁케리	-10.4582
국제	-10.4584
차량	-10.4586
▁선전	-10.459
▁운전자	-10.4601
▁국방	-10.4605
위안	-10.4616
▁예수	-10.4616
활	-10.4618
▁검사는	-10.462
▁이곳에	-10.4621
▁시사	-10.4621
95	-10.4627
▁일리노이	-10.4629
이스라엘	-10.463
▁리처드	-10.4635
따	-10.4637
▁밴	-10.4638
▁요르단	-10.4648
Q	-10.465
▁이루어졌다	-10.465
▁일으킨	-10.465
킬로미터	-10.465
▁불능화	-10.465
▁김대중	-10.465
▁차관보는	-10.465
▁벌어지	-10.465
▁우리나라	-10.465
▁헨리	-10.4651
▁비용이	-10.4656
▁당신이	-10.4656
▁못한다	-10.4657
▁경영진	-10.4657
▁받았으며	-10.4659
▁바닥	-10.4659
▁검은	-10.4659
▁1970	-10.4662
▁인생	-10.4663
▁종류	-10.4665
▁한국에서	-10.4666
▁기밀	-10.4671
▁쓴	-10.4672
▁나올	-10.4672
▁보도에따르면	-10.4675
▁백인	-10.4678
▁못해	-10.4682
슬러	-10.4687
▁표명	-10.4688
▁전사	-10.469
▁130	-10.4693
▁유출	-10.4695
▁공포	-10.4696
▁보트	-10.4698
▁답했다	-10.47
돼있다	-10.4716
▁그곳에	-10.4719
▁응답자	-10.4721
▁제기했다	-10.4726
▁마비	-10.4737
▁도시에서	-10.4742
▁높아	-10.4751
▁불가능	-10.4751
달라고	-10.4753
▁마감했다	-10.4761
▁가졌	-10.4765
ther	-10.4778
▁전역에	-10.479
규모	-10.479
제대로	-10.4794
촉	-10.4798
랙	-10.4798
▁휩싸	-10.4799
▁레스토랑	-10.4799
▁만났다	-10.4799
▁선거캠프	-10.4799
▁없지만	-10.4799
꽃	-10.4799
퀸	-10.4799
▁콜로라도	-10.4799
▁북서부	-10.4799
▁천주교	-10.4799
▁스파이	-10.48
▁숀	-10.4802
이었으며	-10.4802
▁고위관리	-10.4802
▁여학생	-10.4803
8000	-10.4804
▁미국측	-10.4807
▁위로	-10.4808
▁테스트	-10.4811
28	-10.4813
교회	-10.4814
▁산림	-10.4815
▁세계은행	-10.4817
▁그래서	-10.4817
▁노동당	-10.482
▁도망	-10.482
▁개표	-10.4821
▁주기	-10.4822
▁것이었다	-10.4825
▁정전	-10.4829
▁특수	-10.4832
스럽게	-10.4833
▁신부	-10.4835
▁발전소	-10.4839
▁다루	-10.4858
▁가구	-10.4868
▁아니었다	-10.4868
35	-10.4872
ens	-10.4872
▁칼리	-10.4882
▁보호하기	-10.4887
▁총장은	-10.4892
▁지질	-10.4895
▁백악관은	-10.4897
총리	-10.4903
▁사용자	-10.4915
▁집으로	-10.4917
▁당수	-10.4918
48	-10.4919
▁비판했다	-10.492
▁압둘	-10.4927
스탄	-10.4932
▁부정적	-10.4933
베나	-10.4935
헤드	-10.4937
멜	-10.494
▁시티	-10.4941
▁생일	-10.4943
▁측은	-10.4944
▁시기에	-10.4945
▁고객들	-10.4948
버렸다	-10.495
첩	-10.495
▁곤잘레스	-10.495
▁들어갔다	-10.495
▁블라디미	-10.495
0,000	-10.495
룸	-10.495
▁리차드	-10.4951
▁구제금융	-10.4951
▁방콕	-10.4951
▁탄핵	-10.4952
▁핵프로그램	-10.4952
변화	-10.4956
▁필립	-10.4956
▁과도	-10.4957
▁강풍	-10.4957
▁출입	-10.4958
▁사막	-10.4963
▁진영	-10.4964
연대	-10.4964
▁맞추	-10.4965
▁구축	-10.4967
▁죽은	-10.4969
▁개장	-10.4975
▁성격	-10.4976
▁이슬람교	-10.4977
▁라이트	-10.4981
▁따라서	-10.4982
▁돌파	-10.4983
▁뇌물	-10.4995
▁엘리	-10.4996
▁예전	-10.4998
위성	-10.4999
▁해임	-10.5001
▁불길	-10.5002
▁상어	-10.5002
▁미술	-10.5003
▁사용될	-10.5004
▁차단	-10.5007
해질	-10.5011
▁자원	-10.5016
페이스	-10.5024
▁세대	-10.5033
▁해적	-10.5034
▁신분	-10.5049
▁사망자수	-10.5052
▁근로자	-10.5058
▁시민들이	-10.5072
ast	-10.5075
▁두번째	-10.5089
▁경비	-10.5091
즉각적인	-10.5093
핵	-10.5097
뿐만아니라	-10.5099
▁개시	-10.5103
▁애리조나	-10.5104
▁President	-10.5104
▁패트릭	-10.5104
▁나스닥	-10.5104
▁촉발	-10.5104
▁와인하우스	-10.5104
▁촉진	-10.5104
▁침입	-10.5104
▁성직자	-10.5106
▁즉각	-10.5106
▁붙잡	-10.5107
▁언어	-10.5107
▁화장실	-10.5107
▁자유롭	-10.5108
▁직업	-10.5109
▁뿐만아니라	-10.511
▁글로	-10.5112
iz	-10.5118
▁40%	-10.512
▁연예	-10.5121
▁왕실	-10.5122
▁리드	-10.5122
▁낸시	-10.5123
▁화면	-10.5125
▁법안이	-10.5134
▁자랑	-10.5138
▁올려	-10.5142
▁꼭	-10.5142
▁직전	-10.5151
▁주장하며	-10.5163
후보	-10.5169
▁상호	-10.5169
▁논의하기	-10.5172
베르	-10.5173
▁국민들에게	-10.5173
▁가능하다	-10.5175
▁일어났	-10.5182
mb	-10.519
▁33	-10.5214
▁코트	-10.5245
▁진술했다	-10.5248
▁벌였	-10.525
▁생각했다	-10.5258
옹	-10.526
템	-10.526
▁궤도	-10.5261
▁떠났다	-10.5261
▁오사마빈라덴	-10.5261
넨	-10.5261
▁스코틀랜드	-10.5261
▁법무부	-10.5261
▁받아들일	-10.5261
▁활약	-10.5261
▁둘러싸	-10.5261
▁거듭	-10.5261
▁봉송	-10.5262
▁라이벌	-10.5263
▁대륙	-10.5264
▁자치정부	-10.5265
▁급증	-10.5267
▁환호	-10.527
▁축소	-10.5273
▁아프가니스탄에서	-10.5274
▁체중	-10.5276
▁게재	-10.5277
여성	-10.528
▁벌여	-10.5281
▁약화	-10.5283
▁승부	-10.5284
▁다우지수	-10.5287
▁열어	-10.5291
매우	-10.5294
▁들여	-10.5296
▁불편	-10.5297
▁짓	-10.5297
▁프레스	-10.5303
▁Mo	-10.5308
연방	-10.5312
▁걸리	-10.5314
▁맡은	-10.5317
▁연금	-10.5331
제품	-10.5331
▁공모	-10.5334
▁자신에게	-10.5341
min	-10.5341
▁날아	-10.5342
▁맥주	-10.5348
▁전환	-10.5353
▁만들고	-10.5355
우주	-10.5365
▁연안	-10.537
사진	-10.5371
▁감지	-10.5376
▁평가했다	-10.5379
▁120	-10.538
▁독도	-10.5382
mer	-10.5386
▁확실한	-10.5387
▁백악관에서	-10.539
가족	-10.5399
▁지내	-10.54
▁농장	-10.5401
▁성공적	-10.5404
겁	-10.5419
▁가택연금	-10.5419
▁블라고예비치	-10.5419
▁샤라포바	-10.5419
▁캄보디아	-10.5419
▁알코올	-10.5419
▁겨냥	-10.5419
▁남서부	-10.5419
▁중앙일보	-10.5419
▁월스트리트	-10.542
▁로이터	-10.542
▁역사적	-10.542
▁수석대표	-10.5421
▁주었다	-10.5425
▁타임스	-10.5426
▁소득	-10.5427
port	-10.543
▁취임식	-10.543
▁끝내	-10.5435
▁정착	-10.5436
▁폭파	-10.544
▁몰려	-10.5441
▁공개된	-10.5441
▁가해	-10.5442
감독	-10.5444
▁월드	-10.5445
▁리치	-10.5445
▁감염된	-10.5449
▁초반	-10.5449
▁나토군	-10.5452
▁스타일	-10.5457
▁공개적으로	-10.5458
▁보지	-10.5464
▁향상	-10.5473
됐으나	-10.5478
레이크	-10.5486
▁자제	-10.5494
▁대치	-10.5498
투표	-10.5499
▁조약	-10.5502
▁여행객	-10.5506
▁형사	-10.5508
▁De	-10.5515
▁사람에게	-10.553
▁단어	-10.5532
▁인원	-10.5537
▁입법	-10.5537
▁다르	-10.554
▁포함된	-10.5542
▁상태로	-10.5544
83	-10.5549
▁주연	-10.5556
▁대상이	-10.5557
▁폭스	-10.5568
▁자사	-10.557
▁도착한	-10.5575
▁걸린	-10.5577
삭	-10.558
빼	-10.5581
▁디지털	-10.5581
▁마이애미	-10.5581
▁미시시피	-10.5581
▁뿌리	-10.5581
▁쌍둥이	-10.5581
▁유튜브	-10.5581
슐	-10.5581
턱	-10.5581
▁over	-10.5581
▁갖춘	-10.5581
▁다섯	-10.5582
▁상하이	-10.5582
▁근육	-10.5582
▁영웅	-10.5583
▁케빈	-10.5583
▁동쪽	-10.5585
▁받으며	-10.5587
ence	-10.5587
풀	-10.5591
동맹	-10.5592
자동차	-10.5592
▁종합	-10.5593
▁일제	-10.5599
▁결심	-10.5601
▁애도	-10.5601
▁감금	-10.5601
▁전세계적으로	-10.5602
▁완전한	-10.5604
▁연구팀	-10.5605
▁부채	-10.5606
▁것인가	-10.5607
▁추모	-10.5612
▁가상	-10.5615
▁쌀	-10.5615
▁미칠	-10.5626
▁카터	-10.563
부르크	-10.5631
▁비난하고	-10.5637
▁전원	-10.5644
▁하락세	-10.5646
▁상승세	-10.5647
▁레드	-10.5651
▁떨어졌	-10.5653
▁전부터	-10.5654
엑	-10.566
▁던지	-10.5664
돼야	-10.5678
장소	-10.5696
▁들어오	-10.57
▁딕	-10.5701
ust	-10.5708
티아	-10.5714
쪽으로	-10.5732
컷	-10.5743
쁘	-10.5744
왓	-10.5744
▁쓰촨성	-10.5744
▁알렉산더	-10.5744
▁은신처	-10.5744
▁천연가스	-10.5744
▁사찰단	-10.5745
▁뉴저지	-10.5745
▁비타민	-10.5745
▁가즈니	-10.5745
▁침몰	-10.5745
▁치열한	-10.5745
▁오딩가	-10.5745
▁졸업	-10.5745
▁화이트	-10.5745
▁지하철	-10.5746
▁새벽	-10.5747
▁날짜	-10.5747
▁산사태	-10.575
▁소련	-10.575
▁급격	-10.5751
▁his	-10.5751
▁채널	-10.5752
벽	-10.5754
▁빈민	-10.5756
▁가족과	-10.5757
▁후보들	-10.5759
▁엔진	-10.5759
쥐	-10.5761
▁55	-10.5762
▁분류	-10.5763
▁뛰	-10.5767
▁밴드	-10.5772
해야만	-10.5773
버리	-10.5775
나무	-10.5782
▁조류	-10.5786
▁와인	-10.5812
▁그대로	-10.5827
재판소	-10.5831
▁경력	-10.5833
▁가리	-10.5837
▁이론	-10.5837
▁호수	-10.5841
써	-10.5843
▁증상	-10.5847
▁무리	-10.5847
▁원화	-10.585
스테	-10.5852
▁이라크군	-10.586
▁경호	-10.5868
라이트	-10.587
▁합의했다고	-10.5882
첼	-10.5895
▁서쪽	-10.5899
▁정신적	-10.5903
즘	-10.591
낭	-10.5911
▁결선투표	-10.5911
▁인플레이션	-10.5911
놈	-10.5911
쌍	-10.5911
▁마이크로소프트	-10.5911
▁비핵화	-10.5911
▁이뤄졌다	-10.5911
▁리히터	-10.5911
▁아름다	-10.5911
▁재무부	-10.5911
▁호랑이	-10.5911
▁흥미	-10.5911
▁합법적	-10.5912
▁탄압	-10.5914
▁정치인들	-10.5914
▁중대한	-10.5915
비용	-10.5917
▁국가안보	-10.5917
▁부총리	-10.5919
▁블루	-10.5919
▁벗어	-10.5919
▁무엇보다	-10.5921
▁돌입	-10.5922
카드	-10.5922
▁다윈	-10.5922
▁보스턴	-10.5923
▁만남	-10.5924
▁오늘날	-10.5927
정치	-10.5927
솔	-10.5933
▁젊은이들	-10.5933
▁소집	-10.5934
2009.0	-10.5937
년만에	-10.5939
▁초청	-10.5942
▁들어있	-10.5942
▁구조대원들	-10.5945
▁물품	-10.5946
▁포경	-10.5946
리언	-10.5948
▁기각	-10.5948
▁대립	-10.5956
▁좁	-10.5958
업체들	-10.5958
▁2-1	-10.5962
▁호소	-10.5963
▁밥	-10.5964
▁공사	-10.5964
▁가동	-10.5967
▁겸	-10.5969
▁마무	-10.5972
▁소문	-10.5975
▁참여한	-10.5976
▁방식으로	-10.5977
▁일간지	-10.5986
▁기다리	-10.5989
▁매력	-10.5992
▁변호인	-10.6022
▁것임	-10.6037
당신	-10.6042
략	-10.6045
맹	-10.6051
▁만들기	-10.6059
▁간부	-10.6059
▁나오지	-10.6069
▁전복	-10.6075
잭	-10.608
▁from	-10.6081
▁늦게	-10.6081
▁이슬라마바드	-10.6081
▁토네이도	-10.6081
줘	-10.6081
▁골키퍼	-10.6081
▁브라이언	-10.6081
▁에베레스트	-10.6081
▁키바키	-10.6081
▁필라델피아	-10.6081
▁원숭이	-10.6081
▁법무장관	-10.6081
▁스캔들	-10.6081
▁오히려	-10.6081
▁2-0	-10.6081
▁최저	-10.6081
.8%	-10.6081
▁투쟁	-10.6083
▁원칙	-10.6083
▁1996	-10.6085
▁단어장	-10.6087
▁소탕	-10.6087
▁사생활	-10.6091
▁다음날	-10.6097
▁클리	-10.6101
시스템	-10.6109
▁키스	-10.611
▁신문사	-10.6111
▁Sp	-10.6113
▁물러나	-10.6115
▁반영	-10.6119
▁들어간	-10.6119
물질	-10.612
▁화재로	-10.6123
언론	-10.6124
▁근로자들	-10.6135
▁투르	-10.614
▁쓸	-10.6145
ber	-10.6146
▁dis	-10.6147
수술	-10.6149
▁표명했다	-10.6154
▁화해	-10.6159
▁노선	-10.6172
여행	-10.6182
사업	-10.6192
통제	-10.6196
▁사람들과	-10.621
자이자	-10.6214
▁소위	-10.6224
▁상상	-10.6252
속도로	-10.6252
숲	-10.6253
▁남자친구	-10.6253
톱	-10.6253
▁통일부	-10.6253
▁보여준다	-10.6254
▁순례	-10.6257
ous	-10.6257
▁있었으나	-10.6258
▁징역형	-10.6258
▁라이언	-10.6259
▁라덴	-10.6259
▁수상한	-10.626
▁할머니	-10.6262
▁황금	-10.6263
▁포럼	-10.6264
▁결함	-10.6264
▁출생	-10.6264
ary	-10.6266
▁종결	-10.6269
▁로저	-10.6274
▁브랜드	-10.6274
▁지휘관	-10.6274
▁체코	-10.6275
털	-10.6287
▁기소됐다	-10.629
▁진단	-10.629
▁소형	-10.6292
▁반복	-10.6292
▁플라	-10.6296
▁재임	-10.6302
▁동기	-10.6305
CC	-10.6305
▁비행사	-10.6306
▁제공할	-10.6312
▁알카에다와	-10.6315
▁주최측	-10.6318
▁살아있	-10.6327
시킨다	-10.6328
▁조사에따르면	-10.6331
▁게시	-10.6334
▁공대	-10.6338
▁홍수로	-10.635
▁시체	-10.6353
mm	-10.6356
▁부산	-10.6356
▁정식	-10.636
▁해병	-10.6369
▁자신과	-10.6369
▁일치	-10.6369
day	-10.637
▁극장	-10.637
ph	-10.6379
▁양국간	-10.6395
▁국무	-10.6404
▁받는다	-10.6406
ting	-10.6409
랍	-10.6417
▁직장	-10.6422
븐	-10.6428
▁무슬림	-10.6428
▁후진타오	-10.6428
▁nuclear	-10.6428
▁국제공항	-10.6428
▁섭취	-10.6429
▁선관위	-10.6429
▁펀드	-10.6429
▁가게	-10.6429
▁불가피	-10.6429
▁택시	-10.6429
▁구멍	-10.6431
겠습니다	-10.6431
ish	-10.6431
▁성장률	-10.6433
09	-10.6434
▁벨기에	-10.6437
많은	-10.6437
▁아이폰	-10.6438
▁사육	-10.6439
▁남극	-10.644
▁영양	-10.6442
▁가담	-10.6444
우디	-10.6444
▁보고서에따르면	-10.6447
▁배후	-10.6448
▁관중	-10.6451
▁음주	-10.6458
▁브리	-10.6463
▁피고인	-10.6467
▁일으켰다	-10.647
▁기온	-10.6476
▁기대한다	-10.6482
▁악어	-10.6482
되거나	-10.6495
▁기원	-10.65
▁제작한	-10.6502
않게	-10.6503
Al	-10.6508
▁날개	-10.6508
▁노스	-10.651
▁불어	-10.6512
▁카라	-10.6515
▁일어났다	-10.6517
▁생기	-10.6518
▁총상	-10.6521
▁수퍼	-10.6523
▁자택	-10.6541
렸으며	-10.6559
동물	-10.6566
▁피부	-10.657
▁확인됐다	-10.6572
▁근처에서	-10.6578
▁국장	-10.6578
Ma	-10.6582
역사적인	-10.659
▁사용해	-10.66
▁다큐멘터리	-10.6607
▁뭄바이	-10.6607
▁이산화탄소	-10.6607
▁탱크	-10.6607
얄	-10.6607
▁줄리아니	-10.6607
▁옹호	-10.6607
▁쓰레기	-10.6607
▁감바리	-10.6607
▁교통사고	-10.6609
▁캐롤	-10.6609
▁지붕	-10.6611
▁소규모	-10.6611
▁1993	-10.6612
▁감옥	-10.6612
▁인권단체	-10.6613
▁비난하는	-10.6615
▁폭설	-10.6618
▁초안	-10.6618
▁화상	-10.6622
▁보존	-10.6623
▁에릭	-10.6625
▁GM	-10.6626
▁인민	-10.6627
▁관측	-10.663
▁지속적	-10.6634
▁여론조사에서	-10.6636
잘못된	-10.6636
▁발생하고	-10.6647
▁종식	-10.6647
▁곳이다	-10.6654
ound	-10.6655
▁방송사	-10.6659
교육	-10.6659
▁비교적	-10.6661
▁북쪽으로	-10.6662
▁자행	-10.6668
▁가방	-10.6673
▁선포했다	-10.6675
긍정적인	-10.6678
▁급속	-10.6693
커스	-10.6694
생산	-10.6696
97	-10.6696
▁많아	-10.6708
▁문제들	-10.6712
▁착수	-10.672
▁미국인들이	-10.6721
▁총회	-10.6723
▁토지	-10.6738
▁사용하지	-10.674
▁구체적	-10.6742
▁순위	-10.675
▁참석할	-10.6759
워드	-10.6761
켜	-10.6763
▁산악	-10.6777
▁생각하지	-10.6779
▁재판관	-10.678
▁China	-10.6789
▁사우스캐롤라이나	-10.6789
▁식료품	-10.6789
▁협약	-10.6789
팝	-10.6789
▁광범위	-10.6789
▁받아들여	-10.6789
▁재검토	-10.6789
▁횡령	-10.6789
▁기쁘다	-10.6789
▁전당대회	-10.6789
▁일어날	-10.6789
▁테일러	-10.6789
▁다시한번	-10.6789
▁플래	-10.6789
▁침공	-10.6789
▁가벼	-10.679
조건	-10.6791
민감한	-10.6791
▁예멘	-10.6792
▁괴한	-10.6793
▁억제	-10.6794
▁1991	-10.6794
▁농업	-10.6799
▁표준	-10.6799
폴리스	-10.68
▁이용하는	-10.6802
ical	-10.6806
▁신규	-10.6807
▁갑작스	-10.6811
▁치명적인	-10.6813
▁판정	-10.6816
▁1%	-10.6817
▁적발	-10.6818
▁케이트	-10.682
▁이륙	-10.6821
▁반박	-10.6824
무장	-10.6824
▁제목	-10.683
▁개정안	-10.6834
380	-10.6835
▁마친	-10.6836
▁제정	-10.6841
▁군사적	-10.6843
었는지	-10.6845
▁무게	-10.6846
=	-10.6846
▁고장	-10.685
▁늘어나	-10.685
▁선원	-10.6851
만개	-10.6851
▁마리아	-10.6852
▁수립	-10.6855
▁정상화	-10.6865
▁신사	-10.6865
▁나왔	-10.6876
▁국적	-10.6878
91	-10.6889
▁차지하고	-10.6897
구조	-10.6899
▁보냈	-10.69
▁부실	-10.6905
▁근거로	-10.6912
▁대피했다	-10.6919
▁모아	-10.6921
▁세계적으로	-10.6924
▁지점에서	-10.6929
신문	-10.6931
▁적절	-10.6933
▁실업	-10.6955
▁공기	-10.696
뢰	-10.6964
▁DVD	-10.6974
▁검문소	-10.6974
▁메르켈	-10.6974
▁안전보장이사회	-10.6974
▁캐릭터	-10.6974
▁쿠웨이트	-10.6974
슛	-10.6974
툼	-10.6974
헐	-10.6974
▁펠로시	-10.6974
▁파나마	-10.6974
▁스트레스	-10.6974
▁미디어	-10.6975
▁승려들	-10.6975
▁거짓말	-10.6975
▁세인트	-10.6976
▁특징	-10.6976
▁발휘	-10.6976
▁1995	-10.6981
▁사용했다	-10.6983
▁레이건	-10.6983
▁싸우	-10.6986
▁일련	-10.6988
▁1960	-10.6988
▁차별	-10.6989
▁금연	-10.6991
▁정찰	-10.6992
▁화려	-10.6995
▁중이었다	-10.6999
▁신조	-10.7006
▁상영	-10.7011
▁조언	-10.7012
▁운영하고	-10.7015
연구원	-10.7015
▁모임	-10.7023
▁출연한	-10.7025
▁관계당국	-10.7025
▁미치는	-10.7028
▁있어야	-10.7029
▁단체들	-10.703
킨스	-10.7033
NASA	-10.7035
▁생산량	-10.7037
뇌	-10.7041
▁원주민	-10.7042
▁요금	-10.7044
등급	-10.7046
ark	-10.705
▁월가	-10.7052
▁제출했다	-10.7056
▁최고치	-10.7063
폭력	-10.7064
▁주장한다	-10.7069
▁혼자	-10.7072
▁조용	-10.7074
▁성당	-10.7079
공사	-10.7091
▁계속될	-10.7099
▁달린	-10.7117
▁수십명	-10.7121
▁피해자들	-10.7125
단계	-10.7127
▁연구원들	-10.7131
▁AT	-10.7133
▁유대	-10.7148
▁61	-10.7152
버린	-10.716
왈	-10.7163
▁국제원자력기구	-10.7163
▁불러일으	-10.7163
▁스타디움에서	-10.7163
▁어렵다	-10.7163
▁없게	-10.7163
▁에콰도르	-10.7163
▁왼쪽	-10.7163
▁매니저	-10.7163
▁마라톤	-10.7163
▁과반수	-10.7163
▁데이비스	-10.7163
▁조지아주	-10.7163
▁균형	-10.7163
▁공산주의	-10.7163
▁위안부	-10.7163
▁롬니	-10.7164
▁난민촌	-10.7164
▁계좌	-10.7166
▁낮추	-10.7167
▁귀환	-10.7167
▁친척	-10.7168
▁탑승객	-10.717
▁완료	-10.7171
▁녹음	-10.7171
▁지분	-10.7172
con	-10.7176
▁출두	-10.7177
▁추구하	-10.7177
▁건너	-10.7178
분만에	-10.7178
▁당초	-10.7187
▁않았던	-10.7188
▁진행자	-10.7191
▁동생	-10.7192
▁밝혀진	-10.7194
▁서안	-10.7198
아시아	-10.7199
▁포함돼	-10.7202
▁모래	-10.7208
▁매체	-10.7212
않	-10.7224
굴	-10.7225
해지고	-10.7225
팬	-10.7229
▁계속되는	-10.7231
아프리카	-10.7231
돈	-10.7231
▁추세	-10.7245
코프	-10.7256
▁아난	-10.7267
므로	-10.728
직원	-10.7282
겠	-10.7286
▁부상당	-10.7298
ag	-10.73
▁실시할	-10.7302
▁달러화	-10.7307
▁하미	-10.7313
▁세부	-10.7332
▁확신한다	-10.7338
▁경관	-10.7345
닷	-10.7355
▁샌디에이고	-10.7355
▁매사추세츠	-10.7355
▁앤드류	-10.7355
▁항공우주국	-10.7355
▁확장	-10.7355
쿨	-10.7355
▁코끼리	-10.7355
▁샘플	-10.7355
▁영화배우	-10.7355
▁나타난	-10.7355
▁퇴임	-10.7355
▁어깨	-10.7356
▁득표율	-10.7356
▁홈페이지	-10.7356
▁not	-10.7357
▁용납	-10.7357
▁범행	-10.7358
▁축출	-10.7359
▁침대	-10.7359
▁급락	-10.7362
▁쉽지	-10.7362
▁끝날	-10.7362
▁용기	-10.7363
▁부활	-10.7364
▁떠난	-10.7364
▁창출	-10.7365
▁당황	-10.7365
▁탄생	-10.7367
니까	-10.7368
▁복역	-10.7369
중앙	-10.7369
예비선거	-10.7374
발전	-10.7374
▁방출	-10.7375
▁음성	-10.738
▁선호	-10.7405
▁인력	-10.7407
▁오하이오주	-10.7408
▁보조	-10.7413
▁진보	-10.7418
▁조건으로	-10.742
▁예정이었다	-10.743
IAEA	-10.743
▁뉴욕시	-10.7431
아일랜드	-10.7431
윤	-10.7433
▁텍사스주	-10.7441
앞으로	-10.7447
▁창문	-10.745
▁다르다	-10.7451
▁투명	-10.7452
▁운전사	-10.7469
FC	-10.7472
▁중단했다	-10.7487
▁공개됐다	-10.7488
▁모리	-10.749
▁정원	-10.7498
▁운영하	-10.7512
▁동맹국	-10.7522
▁발견되었다	-10.7529
▁동의했다	-10.7539
봐	-10.7545
엇	-10.7546
콰	-10.7551
▁일으킬	-10.7551
▁줄기세포	-10.7551
▁노르웨이	-10.7551
▁예를들어	-10.7551
▁침략	-10.7551
▁외무성	-10.7551
▁탈북자	-10.7551
▁좌절	-10.7551
▁이뤄진	-10.7551
▁여겨지	-10.7551
▁탐험	-10.7553
▁드러냈다	-10.7553
▁밝혔으며	-10.7554
▁밝혔지만	-10.7554
▁상륙	-10.7554
▁빌딩	-10.7555
▁테니스	-10.7555
▁생방송	-10.7557
▁늘리	-10.756
▁최저치	-10.7562
▁분석가들은	-10.7566
▁분량	-10.7572
▁거부권	-10.7577
▁해상	-10.7577
▁상당히	-10.7579
▁매달	-10.7582
▁선임	-10.7587
89	-10.7587
에이커	-10.7588
▁증세	-10.7594
▁주위	-10.7594
▁운명	-10.7595
▁발포	-10.7596
▁알렸다	-10.7596
▁모건	-10.7602
▁발행	-10.7604
▁치러지	-10.7608
▁비난하며	-10.7608
▁거절했다	-10.761
▁상태이다	-10.7614
▁2500	-10.7626
프레드	-10.7633
빛	-10.7635
힘	-10.7636
▁자택에서	-10.7637
서비스	-10.7637
▁않기로	-10.7641
넣	-10.7641
▁88	-10.7644
▁보이며	-10.765
▁회원국들	-10.7653
진압	-10.7654
▁전달했다	-10.766
▁부위	-10.7662
▁촉구하	-10.7678
▁조명	-10.7681
▁위대	-10.769
86	-10.7693
하우스	-10.77
덩	-10.7751
▁HIV	-10.7751
▁느낄	-10.7751
▁멤버	-10.7751
▁애완견	-10.7751
▁유혈사태	-10.7751
▁프랭크	-10.7751
▁프리미어리그	-10.7751
▁휩쓸	-10.7751
넌	-10.7751
쏘	-10.7751
▁자카르타	-10.7751
▁롤링	-10.7751
▁배터리	-10.7751
▁new	-10.7751
▁돌고래	-10.7751
▁검증	-10.7751
.9%	-10.7752
▁정거장	-10.7752
▁로딕	-10.7752
▁실업률	-10.7752
▁중동평화	-10.7752
▁졸리	-10.7753
▁MBC	-10.7755
Tr	-10.7755
▁동일한	-10.7755
▁빠지	-10.7756
▁음료	-10.7757
▁다국적군	-10.7758
▁오마르	-10.776
▁쿠퍼	-10.7761
▁포착	-10.7763
▁외환	-10.7765
▁표결	-10.7765
널리	-10.7768
▁리처드슨	-10.7772
▁회계	-10.7772
▁처방	-10.7772
▁측면	-10.7775
▁발표됐다	-10.7781
▁서양	-10.7784
▁키우	-10.7787
▁본토	-10.7788
▁원래	-10.7793
방위	-10.7799
OS	-10.7808
▁해당하는	-10.7808
▁1500	-10.7822
▁사설	-10.7827
▁식사	-10.7827
ese	-10.7836
▁불구	-10.784
프랑스	-10.7844
1000	-10.7848
유럽	-10.7854
▁잡아	-10.7856
En	-10.7856
▁모금	-10.7857
▁사용된	-10.7867
▁긍정적	-10.7875
줬	-10.7883
연구	-10.789
▁소유하고	-10.789
대책	-10.7891
na	-10.7895
▁밝혔	-10.7896
son	-10.7898
▁뉴욕주	-10.7918
▁움직	-10.7926
▁실종자	-10.7931
졸	-10.7952
로이드	-10.7955
▁뮤지컬	-10.7955
2006.01	-10.7955
▁government	-10.7955
▁없습니다	-10.7955
▁윔블던	-10.7955
툴	-10.7955
팩	-10.7955
▁퍼거슨	-10.7955
▁힘입어	-10.7955
▁격렬한	-10.7955
▁마흐디	-10.7955
▁앤더슨	-10.7955
▁득점	-10.7956
▁서식지	-10.7956
▁객실	-10.7956
▁잇따	-10.7956
▁브리핑	-10.7956
▁경제성장	-10.7956
▁여섯	-10.7956
2007.11	-10.7956
▁암컷	-10.7957
내용	-10.7957
▁떠올	-10.7958
▁손님	-10.7959
▁1992	-10.7959
▁않았으나	-10.796
▁내려졌다	-10.7963
▁화합	-10.7963
▁포장	-10.7964
▁않는다면	-10.7964
▁외치	-10.7964
▁막아	-10.7965
분께	-10.7966
▁산책	-10.7967
▁통증	-10.797
▁사우스	-10.797
▁백신	-10.7971
American	-10.7971
▁오스카	-10.7971
▁열렸다	-10.7975
▁종료	-10.7978
▁통행	-10.7979
▁인터	-10.798
98	-10.7984
▁개편	-10.7984
93	-10.7988
▁접전	-10.7994
▁보급	-10.8013
▁방향으로	-10.8013
way	-10.8021
업계	-10.8024
▁청사	-10.8025
▁지지한다	-10.8042
▁재직	-10.8042
탈레반	-10.8057
금융	-10.8058
▁실시했다	-10.806
▁판다	-10.8073
때까지	-10.8085
해달라	-10.81
96	-10.8103
04	-10.8104
▁화장	-10.8106
버트	-10.8111
▁한국인들	-10.8115
NS	-10.8118
인들에게	-10.8152
훔	-10.8164
▁자유무역협정	-10.8164
킴	-10.8164
▁Obama	-10.8164
▁세웠다	-10.8164
▁피라미드	-10.8164
붐	-10.8164
펄	-10.8164
▁라파엘	-10.8164
▁비틀즈	-10.8164
▁아테네	-10.8164
▁자선단체	-10.8164
▁게릴라	-10.8164
▁마돈나	-10.8164
드립니다	-10.8164
▁알렉스	-10.8164
▁데이빗	-10.8164
bu	-10.8165
2005.09	-10.8165
▁낙태	-10.8166
▁저희	-10.8167
▁국기	-10.8169
▁금액	-10.817
▁탈락	-10.817
▁테러조직	-10.8171
▁점검	-10.8174
▁아마디	-10.8179
▁히트	-10.8185
▁전국적으로	-10.8186
▁인형	-10.8186
old	-10.8192
▁매출	-10.8194
▁포함하여	-10.8197
▁고급	-10.8198
▁외국인들	-10.8201
▁30%	-10.821
▁접수	-10.8212
▁강행	-10.8214
07	-10.8214
▁피살	-10.8216
▁남용	-10.822
▁존경	-10.822
▁의사들	-10.8224
▁실린	-10.8228
▁도심	-10.8233
▁고무	-10.824
포르	-10.8245
▁자동	-10.8251
▁이틀간	-10.8254
늘	-10.8257
▁밀어	-10.8267
▁중요성	-10.8269
▁플로리다주	-10.8276
음악	-10.828
▁유산	-10.8281
US	-10.8287
▁잃었	-10.8291
혔	-10.8293
▁로브	-10.8293
▁제시했다	-10.8321
▁부모들	-10.833
▁배심원	-10.8348
BO	-10.8354
내내	-10.8359
사무소	-10.8371
덤	-10.8371
▁강세	-10.8373
펀	-10.8376
▁경기부양책	-10.8376
▁관타나모	-10.8376
▁루이지애나	-10.8376
▁오토바이	-10.8376
▁우주왕복선	-10.8376
▁울포위츠	-10.8376
▁준결승	-10.8376
▁파바로티	-10.8376
▁펜실베니아	-10.8376
▁플라스틱	-10.8376
社	-10.8376
딴	-10.8376
랩	-10.8376
톨	-10.8376
펴	-10.8376
OPEC	-10.8376
World	-10.8376
▁경기침체	-10.8376
▁원문기사	-10.8376
▁징후	-10.8376
▁징계	-10.8377
▁헌법재판소	-10.8377
▁벌써	-10.8378
▁공룡	-10.8378
▁데일리	-10.838
▁의뢰	-10.8383
▁오른쪽	-10.8384
▁드러내	-10.8385
▁통과시켰다	-10.8386
▁않으며	-10.8386
▁있었습니다	-10.8387
▁넘겨	-10.8388
▁풀려	-10.839
▁범위	-10.839
▁상대방	-10.8391
▁잡스	-10.8393
▁집권당	-10.8394
▁NK	-10.8395
▁놓여	-10.8402
▁군함	-10.8406
▁멀리	-10.841
▁고속	-10.841
▁군복	-10.8412
▁준수	-10.8414
▁표면	-10.8423
▁요구하며	-10.8428
▁승무원들	-10.8429
▁호소했다	-10.8432
▁운동가들	-10.8433
▁연계	-10.8434
▁연간	-10.8445
▁포함됐다	-10.8453
▁정기적	-10.8465
몬드	-10.8467
▁140	-10.847
▁못했	-10.8471
▁내려진	-10.8482
42	-10.8484
아프간	-10.8496
어떤	-10.8496
검찰	-10.8503
▁갈라	-10.8525
▁계기	-10.8544
▁160	-10.8549
ger	-10.8556
▁기소된	-10.8564
칙	-10.859
▁사망했	-10.8591
뒀	-10.8594
▁디자이너	-10.8594
▁루아얄	-10.8594
▁테네시	-10.8594
▁카트리나	-10.8594
▁허커비	-10.8594
▁옐친	-10.8594
▁포르노	-10.8594
▁흘러	-10.8594
▁2005.10	-10.8594
▁시라크	-10.8594
▁불가리아	-10.8594
▁막대한	-10.8594
▁농민들	-10.8595
▁벽돌	-10.8596
▁본격적	-10.8597
▁살아남	-10.8597
▁교섭	-10.8598
▁탄광	-10.8599
▁거짓	-10.86
▁떠날	-10.86
▁다룬	-10.8603
베르토	-10.8604
▁경향	-10.8607
▁함유	-10.8608
▁형식	-10.8614
▁국방성	-10.8615
▁조항	-10.8622
▁자신감	-10.8623
▁점거	-10.8628
▁벌어졌다	-10.8631
▁서류	-10.8632
▁한국은행	-10.8634
▁조절	-10.8639
▁얼마전	-10.8642
▁내렸	-10.8644
▁공판	-10.8645
▁도청	-10.865
▁발표했습니다	-10.8652
▁통보	-10.8655
▁테러리스트들	-10.8656
▁실무	-10.8656
▁소동	-10.8662
▁좋아하는	-10.8663
▁탄소	-10.8671
▁희망한다	-10.8672
▁동성	-10.8707
Pro	-10.8709
▁사체	-10.8712
▁정계	-10.8716
공화국	-10.8722
사령관	-10.8729
2000	-10.8734
업자들	-10.8737
▁정보부	-10.874
▁di	-10.8754
▁ex	-10.878
▁감소했다	-10.8784
▁부족하다	-10.8794
푸르	-10.8801
▁덧붙	-10.8813
2006.08	-10.8816
▁고이즈미	-10.8816
▁금메달	-10.8816
▁베네딕	-10.8816
▁아닙니다	-10.8816
▁에티오피아	-10.8816
셨	-10.8816
▁우울증	-10.8816
▁지지선언	-10.8816
▁멈추	-10.8816
▁압바스	-10.8816
▁중남미	-10.8816
▁보이콧	-10.8816
▁이자율	-10.8817
▁저항세력	-10.8817
▁퇴원	-10.8817
▁잠재적	-10.8818
▁흔적	-10.882
▁개막	-10.882
강전에서	-10.8821
▁기상청	-10.8821
▁술집	-10.8822
▁디스크	-10.8822
▁1989	-10.8822
쳤으며	-10.8823
▁양곤	-10.8823
▁부사장	-10.8823
▁핵개발	-10.8825
▁새롭	-10.8825
▁래리	-10.8826
▁확산되고	-10.8828
▁연례	-10.8828
▁For	-10.8835
▁미첼	-10.8836
▁계산	-10.8837
▁구름	-10.8837
▁사이클	-10.8838
▁러드	-10.8838
▁플레이어	-10.8838
▁상담	-10.8839
▁암호	-10.884
▁풍부	-10.8848
▁전반적인	-10.8849
▁발급	-10.8855
▁아담	-10.8855
▁야구	-10.8858
▁발발	-10.8861
▁장교	-10.8862
기위해	-10.8864
▁참석하지	-10.8874
▁때문이라	-10.8898
▁레바논군	-10.89
▁대법원장	-10.8907
▁주립	-10.8917
ning	-10.8922
▁선고받	-10.8925
55	-10.8927
죽	-10.8949
▁살해했다	-10.8964
▁우즈	-10.8985
▁당국자들	-10.9016
Con	-10.9025
▁뉴올리언스	-10.9043
▁로드리게스	-10.9043
▁비서실장	-10.9043
▁빼앗	-10.9043
▁아마디네자드	-10.9043
▁오클라호마	-10.9043
▁이브라힘	-10.9043
▁최첨단	-10.9043
▁평화유지군	-10.9043
▁히틀러	-10.9043
뚫	-10.9043
▁불확실	-10.9043
▁위스콘신	-10.9043
▁두려움	-10.9043
▁쇠고기	-10.9043
▁심장마비	-10.9043
▁의약품	-10.9043
▁따뜻	-10.9043
PGA	-10.9043
▁허드슨	-10.9043
▁소행성	-10.9043
▁빠졌다	-10.9043
▁2008.10	-10.9043
▁무너지	-10.9044
▁교착상태	-10.9044
▁스크린	-10.9044
▁인터폴	-10.9044
▁품목	-10.9044
2007.12	-10.9044
▁이루어진	-10.9045
time	-10.9045
▁터널	-10.9046
▁NBA	-10.9047
▁구호단체	-10.9047
▁무덤	-10.9048
▁가짜	-10.9049
▁세탁	-10.9053
▁채취	-10.9054
▁들어갈	-10.9055
▁아니지만	-10.9055
▁부탁	-10.9058
▁Un	-10.906
▁붙여	-10.9062
▁시인했다	-10.9066
▁테러단체	-10.9068
▁매매	-10.9069
▁뿐이다	-10.9071
▁완성	-10.908
▁단행	-10.9082
▁언급하며	-10.9083
▁예약	-10.9085
▁문구	-10.9089
▁열심	-10.9092
▁휴대	-10.9094
▁신도들	-10.9096
▁기증	-10.9097
▁변호	-10.91
▁대대적	-10.9106
▁선거법	-10.9114
▁모터	-10.9115
▁임대	-10.9122
▁회수	-10.9122
▁스토	-10.9125
▁경비원	-10.9143
▁해체	-10.915
▁보건부	-10.9151
▁전해지	-10.9157
못	-10.9188
팔레스타인	-10.9194
▁끌어들	-10.9217
스럽다	-10.9226
tions	-10.9242
융	-10.9272
똑	-10.9275
뷰	-10.9276
▁펼친	-10.9276
2,000	-10.9276
5,000	-10.9276
·	-10.9276
▁talks	-10.9276
▁나눴다	-10.9276
▁느낌	-10.9276
▁망원경	-10.9276
▁빅토리아	-10.9276
▁저질렀다	-10.9276
▁조승희	-10.9276
▁토크쇼	-10.9276
▁플루토늄	-10.9276
▁확률	-10.9276
샬	-10.9276
옳	-10.9276
찌	-10.9276
칩	-10.9276
▁성추행	-10.9276
▁알바니아	-10.9276
▁again	-10.9276
▁노트북	-10.9276
▁시나리오	-10.9276
▁무승부	-10.9276
▁기숙사	-10.9276
▁수류탄	-10.9276
▁대서양	-10.9276
▁활발	-10.9276
▁삭감	-10.9276
▁야생동물	-10.9276
▁당부했다	-10.9277
▁맥캔	-10.9278
▁재미있	-10.9278
▁남아프리카	-10.9278
able	-10.928
▁남학생	-10.928
▁인접	-10.9281
▁사라졌다	-10.9282
▁받아왔다	-10.9283
▁박탈	-10.9284
▁갈등	-10.9285
▁물고기	-10.9287
▁머무	-10.9289
▁송금	-10.9289
▁하원의장	-10.9289
▁맡았다	-10.9292
▁체류	-10.9292
▁교외	-10.9294
▁고위급	-10.9294
▁타밀	-10.9295
▁모술	-10.9297
▁바탕	-10.9297
ame	-10.9301
연패	-10.9304
▁경비대	-10.9306
▁낮아	-10.9308
천명	-10.9309
같	-10.9311
▁동성애	-10.9311
▁밀려	-10.932
▁위하여	-10.9322
▁구류	-10.9326
▁경쟁력	-10.9336
air	-10.9338
▁차질	-10.9339
▁가중	-10.9342
ER	-10.9343
▁도살	-10.9346
▁물체	-10.9347
회전	-10.9348
▁유통	-10.9351
▁착수했다	-10.9366
▁두려워	-10.9368
AM	-10.9368
▁관객	-10.9374
▁유행	-10.9374
▁여행객들	-10.9395
학자들	-10.9406
▁총장	-10.9409
▁실종됐다	-10.9412
▁부검	-10.9435
태평양	-10.9437
탐	-10.9437
최근	-10.944
UN	-10.9448
▁나타났	-10.9469
▁동료들	-10.947
▁인정하지	-10.9482
빗	-10.9513
갱	-10.9514
깃	-10.9514
샘	-10.9514
▁메드베데프	-10.9514
▁메릴랜드	-10.9514
▁온실가스	-10.9514
▁유죄판결	-10.9514
▁잃어버	-10.9514
▁자르다리	-10.9514
▁출구조사	-10.9514
▁활성화	-10.9514
박근혜	-10.9514
벡	-10.9514
텍	-10.9514
▁Roh	-10.9514
▁국립공원	-10.9514
▁뉴델리	-10.9514
믹	-10.9514
▁1987	-10.9514
▁도요타	-10.9514
▁윈도우	-10.9514
▁우간다	-10.9514
▁에드워드	-10.9514
▁염려	-10.9515
카를로스	-10.9515
▁데뷔	-10.9516
▁숨졌으며	-10.9516
▁남자아이	-10.9517
▁긴밀	-10.9517
▁중앙은행	-10.9518
▁강진이	-10.952
▁Ex	-10.952
▁대리인	-10.9521
▁제작사	-10.9522
됐는지	-10.9523
▁증강	-10.9523
▁델타	-10.9524
▁플로	-10.9526
▁금속	-10.9528
▁압도적	-10.9529
▁왕세자비	-10.953
▁모욕	-10.953
▁60%	-10.9531
▁추격	-10.9534
▁이내에	-10.9535
호프	-10.9535
▁밝혀내	-10.9536
▁실현	-10.9537
▁취급	-10.9537
▁톰슨	-10.9537
▁예배	-10.9539
▁달한다	-10.9541
블리	-10.9541
성근	-10.9541
▁연출	-10.9545
▁정밀	-10.9548
▁후송	-10.9549
▁업적	-10.9551
▁총통	-10.9552
▁양쪽	-10.9552
▁포스트	-10.9558
▁서장	-10.956
▁군사력	-10.9561
번호	-10.9565
▁복원	-10.9568
▁포터	-10.9569
▁무슨	-10.9578
▁해저	-10.9588
▁고안	-10.959
▁악화되	-10.9612
has	-10.9625
▁상당수	-10.9627
▁경영자	-10.9649
▁남아있다	-10.9651
mon	-10.9652
▁남측	-10.9671
▁상금	-10.9673
ah	-10.9673
▁참가자들	-10.9676
▁동물들	-10.9677
눈	-10.9685
올림픽	-10.9688
▁목격했다	-10.9691
▁위험성	-10.9699
DR	-10.9706
환경	-10.9709
유엔	-10.9721
▁체포되었다	-10.9727
숭	-10.9758
▁IMF	-10.9758
▁Seoul	-10.9758
▁visit	-10.9758
▁디스커버리	-10.9758
▁앞섰다	-10.9758
▁자원봉사	-10.9758
▁최루탄	-10.9758
▁하이브리드	-10.9758
눌	-10.9758
FIFA	-10.9758
▁최우선	-10.9758
▁미성년자	-10.9758
▁이뤄질	-10.9758
▁윈프리	-10.9758
▁재배치	-10.9758
▁국정원	-10.9758
▁적합한	-10.9758
▁해수면	-10.9758
▁오렌지	-10.9758
MDC	-10.9758
head	-10.9758
▁개체수	-10.9758
▁첩보	-10.9758
▁똑같	-10.9759
▁유명인사	-10.9759
▁바꿀	-10.9759
▁글로벌	-10.9759
됨에따라	-10.9759
▁수색작업	-10.9759
▁아마존	-10.976
▁환율	-10.9762
▁권총	-10.9762
▁its	-10.9762
▁금융위기	-10.9763
▁고조되	-10.9763
▁급습	-10.9764
▁워너	-10.9767
▁않았습니다	-10.9767
▁줄이기	-10.9767
▁호송	-10.977
▁지역사회	-10.9773
▁연구원은	-10.9775
▁설계	-10.9779
▁서식하	-10.9779
▁단독	-10.9779
▁데리고	-10.978
▁던진	-10.978
▁둔화	-10.9787
▁발견되지	-10.9789
▁증진	-10.979
▁공무원	-10.9797
▁보증	-10.9813
▁인정받	-10.9813
ick	-10.9841
벨리	-10.9845
▁응답	-10.9888
▁해적들	-10.9889
▁남부지역	-10.9892
▁고고학	-10.9906
▁판매량	-10.9929
휘	-10.9932
▁출장	-10.9932
▁pre	-10.9937
보좌관	-10.9943
빅	-10.9944
클린턴	-10.9944
딸	-10.9944
lay	-10.9948
▁종교적	-10.9982
되도록	-10.9982
▁IBM	-11.0008
▁Minister	-11.0008
▁국가비상사태	-11.0008
▁국제우주정거장	-11.0008
▁서브프라임	-11.0008
▁정확하	-11.0008
굿	-11.0008
▁AIG	-11.0008
▁바티칸	-11.0008
▁파파라치	-11.0008
닭	-11.0008
둑	-11.0008
랫	-11.0008
캄	-11.0008
퀘	-11.0008
팜	-11.0008
▁브래드	-11.0008
▁무장괴한	-11.0008
▁깨끗	-11.0008
APEC	-11.0008
▁주유소	-11.0008
▁좌석	-11.0008
으므로	-11.0008
▁자전거	-11.0009
▁치솟	-11.0009
▁퇴진	-11.0009
▁켈리	-11.001
▁국민투표	-11.001
▁앨런	-11.0011
▁행렬	-11.0011
▁동참	-11.0016
▁교착	-11.0018
▁가택	-11.0019
▁창설	-11.0023
▁유괴	-11.0024
▁역임	-11.0024
▁약혼	-11.0025
▁대변	-11.0027
▁절약	-11.0031
▁by	-11.0033
▁보조금	-11.0033
▁발매	-11.0039
▁위생	-11.0046
▁모집	-11.0048
▁연임	-11.005
투데이	-11.0079
▁사용자들	-11.0133
연승	-11.0143
▁관객들	-11.0169
▁발생했	-11.0179
뉴욕	-11.0209
보고서	-11.0211
있으며	-11.0223
관광	-11.0231
ney	-11.0252
멈	-11.0264
깁	-11.0264
닛	-11.0264
▁Bush	-11.0264
▁믿는다	-11.0264
▁아웅산수치	-11.0264
▁없애	-11.0264
▁인명피해	-11.0264
▁창기라이	-11.0264
렁	-11.0264
쉐	-11.0264
▁버몬트	-11.0264
▁선거관리위원회	-11.0264
▁국세청	-11.0264
▁세속주의	-11.0264
▁모니터	-11.0264
▁아스날	-11.0264
▁언덕	-11.0264
▁국무총리	-11.0265
▁시티그룹	-11.0265
▁내무장관	-11.0265
▁왜곡	-11.0266
▁던졌다	-11.0267
▁포셋	-11.0267
▁주차장	-11.0267
▁구조작업	-11.0267
▁가끔	-11.0267
▁숙박	-11.0268
▁재활용	-11.0268
▁가져올	-11.0268
▁머레이	-11.0269
▁개막식	-11.027
▁메이저	-11.027
▁돌아갈	-11.0271
▁산맥	-11.0271
▁돌아왔다	-11.0271
▁1986	-11.0271
▁자발적	-11.0273
▁연구결과	-11.0274
▁않습니다	-11.0274
▁의심되는	-11.0276
바라데이	-11.0277
▁걸렸다	-11.0278
▁존스턴	-11.0278
▁투표율	-11.0282
▁연극	-11.0282
▁시민권	-11.0286
▁연말	-11.0286
▁못했지만	-11.0289
▁매입	-11.0294
▁심판	-11.0295
▁발령	-11.0296
▁찾아내	-11.0296
▁코너	-11.0305
▁윌슨	-11.0321
▁불가능하다	-11.0348
▁토대	-11.0359
▁파커	-11.0365
▁불과하다	-11.0371
▁war	-11.038
물리학	-11.0381
▁재정적	-11.0383
▁정상들	-11.0419
사이트	-11.0451
륙	-11.0469
2005.1	-11.0475
말리키	-11.0477
FBI	-11.0477
잘	-11.0478
시즌	-11.0484
전략	-11.0488
냥	-11.0521
꼬	-11.0527
▁Show	-11.0527
▁러닝메이트	-11.0527
▁맨해튼	-11.0527
▁박격포	-11.0527
▁스타벅스	-11.0527
▁안토니오	-11.0527
▁음주운전	-11.0527
▁켄터키	-11.0527
▁피츠버그	-11.0527
▁호나우두	-11.0527
▁후지모리	-11.0527
껏	-11.0527
뻐	-11.0527
섞	-11.0527
왁	-11.0527
퓨	-11.0527
▁부양책	-11.0527
▁개헌안	-11.0527
WTO	-11.0527
▁남아프리카공화국	-11.0528
▁알제리	-11.0528
▁고유가	-11.0528
▁포획	-11.0529
▁터뜨	-11.053
▁미주리	-11.053
▁자동차업계	-11.053
▁기획	-11.0531
▁안드레	-11.0532
▁FDA	-11.0532
되었는데	-11.0532
▁돌아올	-11.0533
▁군중들	-11.0534
▁워렌	-11.0535
▁진행중	-11.0536
▁포경선	-11.0538
▁로켓포	-11.0539
▁드레스	-11.0539
▁카라치	-11.054
놨다	-11.0542
▁클라크	-11.0544
▁처형	-11.0546
▁결합	-11.0546
▁참배	-11.0547
▁독감	-11.055
▁대테러	-11.0552
▁치매	-11.0552
▁던져	-11.0552
▁마찰	-11.0554
까요	-11.0556
▁진료	-11.0557
▁넣었다	-11.0558
▁만료	-11.0563
▁설정	-11.0568
▁맞았다	-11.0575
▁영구	-11.0577
▁전형적	-11.0588
▁do	-11.0617
▁사라진	-11.0621
▁일시적	-11.0635
잠	-11.0755
그것은	-11.0755
착륙	-11.0756
3000	-11.076
▁지속되	-11.0775
▁눈물	-11.0795
겔	-11.0798
3,000	-11.0798
▁개발도상국	-11.0798
▁느낀다	-11.0798
▁디트로이트	-11.0798
▁슈퍼볼	-11.0798
▁애완동물	-11.0798
궐	-11.0798
끔찍한	-11.0798
킥	-11.0798
풋	-11.0798
▁느껴	-11.0798
▁뒷받침	-11.0798
▁유람선	-11.0798
▁비공식	-11.0798
▁라호르	-11.0798
▁take	-11.0798
▁섹시	-11.0798
▁하버드	-11.0798
▁라모스	-11.0798
▁기다려	-11.0798
▁낭비	-11.0798
2007.09	-11.0798
▁티벳	-11.0798
▁돌아다니	-11.0798
▁넬슨	-11.0799
▁브레이크	-11.0799
▁침수	-11.08
▁장벽	-11.0802
▁밝혀냈다	-11.0802
▁시민단체	-11.0804
▁통근	-11.0804
▁미셸	-11.0805
▁다가오	-11.0805
▁복합	-11.0809
▁생명체	-11.0809
▁외쳤다	-11.0811
92	-11.0812
▁승점	-11.0814
▁아빠	-11.0816
▁절감	-11.0816
▁위축	-11.0818
▁생겨	-11.0818
▁응원	-11.0821
▁이어졌다	-11.0821
▁탈레반측	-11.0823
▁연령	-11.0824
▁기념식	-11.0827
▁전시회	-11.0846
▁철수시키	-11.0862
▁지냈	-11.087
▁있음	-11.0873
AU	-11.0886
▁과제	-11.09
아웃	-11.0911
▁시청자들	-11.0955
대원들	-11.0966
▁이민자들	-11.1062
94	-11.1069
뮤	-11.1075
International	-11.1075
▁가즈프롬	-11.1075
▁고등법원	-11.1075
▁괜찮	-11.1075
▁끝났다	-11.1075
▁럼스펠드	-11.1075
▁버냉키	-11.1075
▁스튜디오	-11.1075
▁억만장자	-11.1075
▁최고경영자	-11.1075
▁텔레비전	-11.1075
▁헬리콥터	-11.1075
前	-11.1075
잎	-11.1075
펙	-11.1075
헴	-11.1075
▁스탈린	-11.1075
뚜	-11.1075
down	-11.1075
▁근본주의	-11.1075
▁브루니	-11.1075
▁반체제	-11.1075
▁유수프	-11.1076
▁덴버	-11.1076
▁딜러	-11.1076
▁미시건	-11.1076
▁코카인	-11.1076
▁나눠	-11.1076
▁국방위원장	-11.1076
▁북극곰	-11.1076
▁스콧	-11.1077
▁친환경	-11.1077
▁텐트	-11.1078
▁놀랄	-11.1078
▁휴스턴	-11.1079
▁요르단강	-11.1079
▁동굴	-11.108
▁이른다	-11.108
▁대선주자	-11.1082
▁70%	-11.1085
▁구호품	-11.1086
ncy	-11.1086
▁숨겨	-11.1088
▁불황	-11.1097
▁소총	-11.1097
▁추천	-11.1102
▁휴식	-11.1104
하였으며	-11.1123
웃	-11.1162
ash	-11.1166
▁연방정부	-11.1175
▁comm	-11.1217
▁김씨	-11.1279
밴	-11.1334
▁브랜	-11.1343
▁남성들	-11.1348
비행기	-11.1356
셋	-11.1358
▁마이스페이스	-11.1361
▁시애틀	-11.1361
▁애틀랜타	-11.1361
빵	-11.1361
▁원자바오	-11.1361
▁침묵	-11.1361
▁규칙	-11.1361
▁얼룩	-11.1361
▁무소속	-11.1361
▁받아들였다	-11.1361
▁식민지	-11.1361
▁바하마	-11.1361
▁예선전	-11.1361
▁태우고	-11.1361
▁논문	-11.1362
▁좌파	-11.1362
▁신용카드	-11.1362
▁바바라	-11.1362
▁밝혔으나	-11.1363
▁요즘	-11.1363
illion	-11.1364
line	-11.1364
ami	-11.1365
▁Day	-11.1366
▁가죽	-11.1366
▁적응	-11.1366
▁화염	-11.1367
▁집필	-11.1369
봐야	-11.1371
▁때문입니다	-11.1371
▁90%	-11.1372
▁돌아온	-11.1374
▁가혹	-11.1374
▁레이저	-11.1375
▁장거리	-11.1377
▁화석	-11.1378
▁새겨	-11.1391
제작	-11.1425
▁제조업	-11.1487
라이스	-11.1578
타이거	-11.159
ease	-11.1591
▁공무원들	-11.1608
▁복장	-11.1634
또	-11.1639
긋	-11.1655
늄	-11.1655
▁military	-11.1655
▁끊임없	-11.1655
▁마케팅	-11.1655
▁맥도날드	-11.1655
▁머리카락	-11.1655
▁에르도간	-11.1655
▁엔지니어	-11.1655
▁풀려났다	-11.1655
뚱	-11.1655
맘	-11.1655
셈	-11.1655
셜	-11.1655
▁내셔널	-11.1655
▁브리트니	-11.1655
▁호날두	-11.1655
홉	-11.1655
▁기준금리	-11.1655
▁비즈니스	-11.1655
▁아칸소	-11.1655
▁맥케인	-11.1655
덩어리	-11.1655
▁코스피	-11.1655
스프링스	-11.1655
▁1-0	-11.1655
▁관점에서	-11.1656
▁크레이그	-11.1656
▁퇴역	-11.1656
▁소탕작전	-11.1656
▁인도주의적	-11.1656
▁멸종위기	-11.1656
▁차원에서	-11.1656
▁재활	-11.1659
▁면접	-11.166
9000	-11.166
▁소방대원	-11.1662
▁미치지	-11.1662
▁경제학자들	-11.1665
▁영광	-11.1665
▁방문객들	-11.1667
▁조짐	-11.1667
▁월터	-11.1667
▁자녀들	-11.1668
▁도핑	-11.1669
▁남녀	-11.1671
되었지만	-11.168
▁로렌	-11.168
▁배심원단	-11.1695
ook	-11.1698
▁민간인들	-11.1703
▁입었	-11.1709
▁주주들	-11.1754
▁싶어한다	-11.1768
▁스카이	-11.177
▁난민들	-11.1771
▁선원들	-11.1865
탈리아	-11.1948
몸	-11.195
알카에다	-11.1951
스페인	-11.1952
끔	-11.1955
옐	-11.1958
▁troops	-11.1958
▁골든글로브	-11.1958
▁느꼈다	-11.1958
▁다운로드	-11.1958
▁베탕쿠르	-11.1958
▁애니메이션	-11.1958
▁엘리베이터	-11.1958
▁오케스트라	-11.1958
▁일으켜	-11.1958
▁칸다하르	-11.1958
▁캔자스	-11.1958
▁테러지원국	-11.1958
륜	-11.1958
쉴	-11.1958
쩌	-11.1958
캘	-11.1958
톡	-11.1958
▁되돌아	-11.1958
▁미끄러	-11.1958
▁1988	-11.1958
▁착취	-11.1958
▁추산했다	-11.1958
▁득표	-11.1958
ough	-11.1959
▁고릴라	-11.1959
▁혈액	-11.1959
▁간호사	-11.1959
▁대한민국	-11.1959
▁브루스	-11.1959
▁양키스	-11.1959
▁트로피	-11.1959
▁유적지	-11.196
▁몸값	-11.1961
▁오늘밤	-11.1962
▁군사작전	-11.1963
▁say	-11.1963
▁운반	-11.1963
▁comp	-11.1966
▁현지경찰	-11.1966
▁요새	-11.1966
▁저택	-11.1967
▁폭등	-11.1969
▁대략	-11.197
▁개념	-11.1971
▁패리스	-11.1971
▁입었으며	-11.1974
▁You	-11.1982
▁모르겠다	-11.1997
dge	-11.2001
ext	-11.2037
▁은행들	-11.2041
있거나	-11.2073
oint	-11.2081
▁보좌관들	-11.2162
▁벌어졌	-11.2218
form	-11.2249
쁜	-11.2264
▁슈퍼대의원	-11.2271
2006.05	-11.2271
2007.08	-11.2271
▁구호물품	-11.2271
▁국회의사당	-11.2271
▁베어스턴스	-11.2271
▁상관없이	-11.2271
▁야스쿠니	-11.2271
▁에스토니아	-11.2271
▁이르기까지	-11.2271
▁트라볼타	-11.2271
▁티셔츠	-11.2271
▁펭귄	-11.2271
▁평화협상	-11.2271
댐	-11.2271
썩	-11.2271
2006.02	-11.2271
▁덕분에	-11.2271
▁베이루트	-11.2271
▁정해지지	-11.2271
▁항생제	-11.2271
▁되풀이	-11.2271
▁어두운	-11.2271
▁1/4	-11.2271
▁State	-11.2271
NFL	-11.2271
▁니케이	-11.2271
▁have	-11.2271
▁그린피스	-11.2271
▁칭찬	-11.2271
▁3-0	-11.2271
▁유조선	-11.2271
▁2008.11	-11.2271
WFP	-11.2271
▁실업수당	-11.2271
▁상반기	-11.2271
2007.07	-11.2271
▁바꿔	-11.2272
▁기본적	-11.2272
▁진흙	-11.2272
사령부	-11.2273
▁잔혹	-11.2273
▁마사지	-11.2273
폭탄테러	-11.2274
▁묘지	-11.2275
▁효율	-11.2275
▁도와주	-11.2275
▁동유럽	-11.2275
2006.10	-11.2277
▁같습니다	-11.2278
▁취득	-11.2279
론자들	-11.2355
Inter	-11.2361
▁vi	-11.2382
▁동맹국들	-11.2477
붕	-11.2586
▁효율적	-11.2589
▁House	-11.2593
▁Secretary	-11.2593
▁leader	-11.2593
▁로스앤젤레스	-11.2593
▁모가디슈	-11.2593
▁유니세프	-11.2593
▁이르렀다	-11.2593
▁천문학자들	-11.2593
▁크로아티아	-11.2593
돋	-11.2593
쯔	-11.2593
핏	-11.2593
▁브리티시	-11.2593
▁황우석	-11.2593
옵	-11.2593
▁AFP	-11.2593
▁무너져	-11.2593
▁집무실	-11.2593
▁가속화	-11.2593
▁매머드	-11.2593
▁1981	-11.2593
▁계열사	-11.2593
▁중산층	-11.2593
▁크로커	-11.2593
마누엘	-11.2593
▁다행히	-11.2593
NEW	-11.2593
▁국가주석	-11.2593
▁무너진	-11.2593
▁세비야	-11.2593
▁대주교	-11.2594
▁흐름	-11.2594
▁몬테	-11.2594
스트리트	-11.2594
▁카지노	-11.2594
▁침범	-11.2594
(25)	-11.2594
▁쇼핑몰	-11.2595
▁히드로	-11.2595
▁공군기지	-11.2595
▁둘째	-11.2596
▁맞붙	-11.2596
▁벌어들	-11.2596
▁효력	-11.2597
▁피닉스호	-11.2597
▁높아졌다	-11.2597
▁있었는지	-11.2599
스러워	-11.2599
▁프린스	-11.26
붙	-11.2603
FARC	-11.2606
CIA	-11.2606
▁전설적	-11.266
▁국회의원들	-11.2709
회사들	-11.2774
주민들	-11.2872
▁세계보건기구	-11.2927
▁Foreign	-11.2927
▁attack	-11.2927
▁글래스고	-11.2927
▁상파울루	-11.2927
▁스튜어트	-11.2927
▁인종차별	-11.2927
▁카자흐스탄	-11.2927
▁커뮤니티	-11.2927
▁포괄적	-11.2927
▁힌두교	-11.2927
돔	-11.2927
엽	-11.2927
▁광우병	-11.2927
▁왕복선	-11.2927
▁우주정거장	-11.2927
▁클루니	-11.2927
윗	-11.2927
▁수퍼대의원	-11.2927
▁양육권	-11.2927
▁당나귀	-11.2927
▁몸무게	-11.2927
▁앵커	-11.2927
▁빠뜨	-11.2927
▁부작용	-11.2927
▁제니퍼	-11.2927
PML	-11.2927
▁마라도나	-11.2927
인디아나	-11.2927
▁예언자	-11.2927
▁election	-11.2927
▁린제이	-11.2927
▁일축했다	-11.2927
▁물리치	-11.2927
▁침투	-11.2927
▁닉슨	-11.2927
▁영부인	-11.2927
▁모로코	-11.2927
▁퇴직	-11.2927
▁교과서	-11.2928
▁여자아이	-11.2928
▁동북아	-11.2928
▁수비수	-11.2929
▁퇴장	-11.293
▁쿠르드족	-11.2931
▁활기	-11.2934
▁극단주의자들	-11.2948
넘	-11.2949
뼈	-11.295
미얀마	-11.2952
▁이례적	-11.2973
▁뿐이라	-11.3003
▁일상적	-11.3023
▁회원들	-11.3073
▁파손되	-11.3219
멍	-11.3267
&#8226;	-11.3271
(32)	-11.3271
▁Party	-11.3271
▁protest	-11.3271
▁뉴캐슬	-11.3271
▁동계올림픽	-11.3271
▁매코맥	-11.3271
▁맥코맥	-11.3271
▁미드필더	-11.3271
넥	-11.3271
둬	-11.3271
쿼	-11.3271
팟	-11.3271
팽	-11.3271
흙	-11.3627
•	-11.3629
꽤	-11.3629
뻔	-11.3629
삽	-11.3629
팍	-11.3629
놔	-11.3629
▶	-11.3629
꾸	-11.3667
땅	-11.3677
깜	-11.3999
띠	-11.3999
볍	-11.3999
퉁	-11.3999
푼	-11.3999
갓	-11.3999
헬	-11.4061
큰	-11.4064
덮	-11.4073
겹	-11.4384
낫	-11.4384
탬	-11.4384
뇨	-11.4384
듬	-11.4384
롯	-11.4777
콕	-11.4782
딱	-11.4784
멕	-11.4784
멧	-11.4784
솜	-11.4784
찔	-11.4784
룽	-11.4784
즐	-11.4877
획	-11.5186
앗	-11.52
뭇	-11.52
뭉	-11.52
츨	-11.52
캣	-11.52
콥	-11.52
쿤	-11.52
펫	-11.52
켐	-11.52
튠	-11.52
딕	-11.5311
몇	-11.5312
앨	-11.5314
넓	-11.5324
됨	-11.5633
긍	-11.5635
옌	-11.5635
쥬	-11.5635
짙	-11.5635
쳇	-11.5635
촨	-11.5635
츄	-11.5635
벳	-11.6089
뉘	-11.6089
툰	-11.609
앵	-11.609
봅	-11.609
덱	-11.609
둠	-11.609
밭	-11.609
훌	-11.609
앞	-11.6207
낙	-11.6242
홈	-11.6242
톰	-11.6245
윌	-11.6251
므	-11.627
욱	-11.6556
룡	-11.6561
뷔	-11.6562
봇	-11.6564
꼈	-11.6566
덟	-11.6566
윙	-11.6566
뒤	-11.6745
륭	-11.7066
맙	-11.7066
샴	-11.7066
굽	-11.7066
낀	-11.7066
쩔	-11.7066
콴	-11.7066
잇	-11.7271
꿈	-11.7271
왜	-11.7272
끝	-11.7272
늬	-11.7592
뜯	-11.7592
럿	-11.7592
빔	-11.7592
폼	-11.7592
벵	-11.7592
떠	-11.7825
즌	-11.8128
햇	-11.8148
헝	-11.8148
캇	-11.8148
흠	-11.8148
셸	-11.8721
섯	-11.8728
콧	-11.8731
뚝	-11.8736
英	-11.8736
늑	-11.8736
띤	-11.8736
팻	-11.8736
퐁	-11.8736
反	-11.8736
깅	-11.8736
샨	-11.8736
쉘	-11.8736
텀	-11.8736
깊	-11.9037
듀	-11.9037
랏	-11.9361
市	-11.9361
뎌	-11.9361
룻	-11.9361
쑤	-11.9361
엉	-11.9361
윅	-11.9361
팡	-11.9361
펑	-11.9361
첫	-11.9708
솟	-12.0025
댈	-12.0028
눕	-12.0028
둡	-12.0028
샵	-12.0028
옴	-12.0028
쟈	-12.0028
줌	-12.0028
헥	-12.0028
녹	-12.0415
숨	-12.042
뜰	-12.0742
껴	-12.0742
셍	-12.0742
랴	-12.0742
륨	-12.0742
뭘	-12.0742
샹	-12.0742
챈	-12.0742
쿡	-12.0742
듭	-12.1506
性	-12.1511
故	-12.1511
뎀	-12.1511
샷	-12.1511
싹	-12.1511
쏠	-12.1511
씬	-12.1511
엿	-12.1511
쥔	-12.1511
쪼	-12.1511
퍽	-12.1511
쓸	-12.2023
벗	-12.2023
웹	-12.2024
즉	-12.2024
횡	-12.2344
家	-12.2344
벙	-12.2344
삐	-12.2344
엣	-12.2344
핼	-12.2344
新	-12.2344
넛	-12.2344
랠	-12.2344
싯	-12.2344
젼	-12.2344
줍	-12.2344
칫	-12.2344
쿵	-12.2344
옷	-12.2932
겸	-12.2932
묻	-12.2933
q	-12.325
갠	-12.3253
궂	-12.3254
밥	-12.3932
美	-12.3932
곧	-12.3934
벼	-12.425
훼	-12.4253
냄	-12.4253
펭	-12.4254
깨	-12.5041
좁	-12.5043
낮	-12.5044
섹	-12.5328
찮	-12.5365
갖	-12.6287
꼭	-12.6293
묵	-12.6294
샌	-12.6294
좀	-12.6294
놨	-12.6542
휠	-12.6615
뛰	-12.7722
쌀	-12.7722
맛	-12.7722
멀	-12.7722
탤	-12.8043
촛	-12.971
낄	-12.971
귄	-12.971
볕	-12.971
셴	-12.971
쓴	-13.1389
밑	-13.1389
삶	-13.139
꿀	-13.1702
덧	-13.171
맡	-13.3885
뜻	-13.389
큼	-13.419
꿔	-13.4202
눠	-13.4203
숫	-13.4208
*	-13.7224
흉	-13.7224
밝	-13.7225
룹	-13.7517
끗	-13.7543
걱	-13.7543
빚	-14.2227
맺	-14.2228
힉	-14.254
많	-15.2151
숀	-15.2246
봄	-15.2246
▲	-15.2326
팎	-15.2327
쾰	-15.2328
찼	-15.2329
찢	-15.233
잰	-15.2331
웸	-15.2332
샐	-15.2333
꿰	-15.2334
깥	-15.2335
겉	-15.2336
갚	-15.2337
몹	-15.2338
꼴	-15.2339
팸	-15.234
씌	-15.2341
맷	-15.2342
깎	-15.2343
쏴	-15.2344
썹	-15.2345
슭	-15.2346
뀐	-15.2347
킷	-15.2348
챌	-15.2349
얇	-15.235
씀	-15.2351
뀔	-15.2352
꽉	-15.2353
꽂	-15.2354
±	-15.2355
콸	-15.2356
뭐	-15.2357
댕	-15.2358
꿨	-15.2359
꾀	-15.236
얹	-15.2361
쐈	-15.2362
깐	-15.2363
긱	-15.2364
뻗	-15.2365
뱃	-15.2366
낚	-15.2367
꼼	-15.2368
잦	-15.2369
씻	-15.237
숍	-15.2371
맑	-15.2372
렷	-15.2373
핫	-15.2374
핍	-15.2375
엎	-15.2376
뭔	-15.2377
몫	-15.2378
$	-15.2379
짖	-15.238
샀	-15.2381
곁	-15.2382
쏜	-15.2383
낡	-15.2384
컸	-15.2385
캡	-15.2386
젭	-15.2387
싣	-15.2388
닮	-15.2389
젖	-15.239
맵	-15.2391
릅	-15.2392
탓	-15.2393
쁨	-15.2394
궈	-15.2395
캥	-15.2396
웍	-15.2397
릇	-15.2398
굶	-15.2399
횟	-15.24
팰	-15.2401
췌	-15.2402
뮬	-15.2403
틈	-15.2404
댓	-15.2405
́	-15.2406
챙	-15.2407
앰	-15.2408
붓	-15.2409
펌	-15.241
닿	-15.2411
뮌	-15.2412
뤼	-15.2413
흩	-15.2414
뿔	-15.2415
튀	-15.2416
괜	-15.2417
뤘	-15.2418
꼽	-15.2419
굳	-15.242
녔	-15.2421
굉	-15.2422
랬	-15.2423
곱	-15.2424
픔	-15.2425
밸	-15.2426
닙	-15.2427
띄	-15.2428
넹	-15.2429
낌	-15.243
밟	-15.2431
윔	-15.2432
눴	-15.2433
싫	-15.2434
괄	-15.2435
옛	-15.2436
썼	-15.2437
탔	-15.2438
핸	-15.2439
딪	-15.244
잊	-15.2441
벅	-15.2442
멤	-15.2443
깝	-15.2444
흰	-15.2445
갇	-15.2446
묶	-15.2447
췄	-15.2448
뱅	-15.2449
왼	-15.245
닫	-15.2451
렴	-15.2452
뀌	-15.2453
깔	-15.2454
궤	-15.2455
탱	-15.2456
읽	-15.2457
탠	-15.2458
쫓	-15.2459
짧	-15.246
쏟	-15.2461
쌓	-15.2462
뭄	-15.2463
슴	-15.2464
뒷	-15.2465
걷	-15.2466
릎	-15.2467
뽑	-15.2468
훨	-15.2469
붉	-15.247
뿌	-15.2471
앓	-15.2472
얘	-15.2473
꺾	-15.2474
멋	-15.2475
곽	-15.2476
낳	-15.2477
휩	-15.2478
돕	-15.2479
녁	-15.248
듣	-15.2481
됩	-15.2482
끊	-15.2483
춰	-15.2484
젝	-15.2485
늦	-15.2486
슷	-15.2487
쿄	-15.2488
앉	-15.2489
렵	-15.249
옮	-15.2491
봤	-15.2492
젊	-15.2493
흡	-15.2494
챔	-15.2495
촬	-15.2496
빨	-15.2497
찍	-15.2498
렀	-15.2499
떻	-15.25
웠	-15.2501
겪	-15.2502
믿	-15.2503
펼	-15.2504
섰	-15.2505
먹	-15.2506
̋	-15.2507
렇	-15.2508
잃	-15.2509
캠	-15.251
싶	-15.2511
랐	-15.2512
갔	-15.2513
끌	-15.2514
켰	-15.2515
밖	-15.2516
얻	-15.2517
쇄	-15.2518
좋	-15.2519
찾	-15.252
떨	-15.2521
높	-15.2522
맞	-15.2523
났	-15.2524
혐	-15.2525
협	-15.2526
확	-15.2527
없	-15.2528
떤	-15.2529
았	-15.2529
