<unk>	0
<s>	0
</s>	0
<start>	0
<end>	0
▁.	-0
▁이	-1
▁는	-2
▁어	-3
▁하	-4
▁아	-5
▁가	-6
▁을	-7
▁해	-8
세요	-9
▁지	-10
▁나	-11
▁고	-12
▁세요	-13
▁거	-14
▁에	-15
▁은	-16
▁보	-17
▁사	-18
▁다	-19
▁도	-20
▁?	-21
▁네	-22
▁한	-23
▁있	-24
▁그	-25
▁게	-26
▁좋	-27
▁겠	-28
▁예	-29
▁시	-30
▁마	-31
▁없	-32
▁예요	-33
▁만	-34
▁기	-35
▁어요	-36
▁면	-37
▁남	-38
▁죠	-39
▁인	-40
▁수	-41
▁할	-42
▁의	-43
▁으	-44
▁봐	-45
▁를	-46
▁같	-47
니다	-48
▁여	-49
▁안	-50
▁네요	-51
▁자	-52
▁싶	-53
▁너	-54
▁일	-55
▁생	-56
▁봐요	-57
▁것	-58
▁사랑	-59
▁내	-60
▁사람	-61
▁연	-62
▁아요	-63
▁주	-64
▁는데	-65
▁말	-66
▁더	-67
▁않	-68
▁힘	-69
▁들	-70
▁바	-71
▁잘	-72
▁너무	-73
▁시키	-74
▁라	-75
▁했	-76
▁헤	-77
▁었	-78
▁오	-79
▁헤어	-80
▁많	-81
▁친	-82
▁생각	-83
▁대	-84
▁정	-85
▁썸	-86
▁건	-87
▁괜	-88
▁무	-89
▁친구	-90
▁마음	-91
▁되	-92
▁괜찮	-93
▁해요	-94
▁걸	-95
▁이별	-96
▁길	-97
▁전	-98
▁부	-99
▁모	-100
▁로	-101
▁요	-102
▁남자	-103
▁알	-104
▁못	-105
▁많이	-106
▁제	-107
▁슬	-108
▁때	-109
▁애	-110
▁중	-111
▁여자	-112
▁으로	-113
▁비	-114
▁야	-115
▁으면	-116
▁았	-117
▁적	-118
▁짝	-119
▁서	-120
▁달	-121
▁니	-122
▁살	-123
▁행	-124
▁연락	-125
▁에요	-126
▁상	-127
▁을까	-128
▁힘들	-129
▁없었	-130
▁습	-131
▁한테	-132
▁저	-133
▁좀	-134
▁에서	-135
▁스	-136
▁돼	-137
▁나쁘	-138
▁추	-139
▁낫	-140
▁될	-141
▁같이	-142
▁슬픔	-143
▁진	-144
▁에게	-145
▁끝	-146
▁습니다	-147
▁!	-148
▁후	-149
▁과	-150
▁데	-151
▁당	-152
▁결	-153
▁드	-154
▁미	-155
▁행복	-156
▁이제	-157
▁마세요	-158
▁시간	-159
▁잊	-160
▁던	-161
▁해야	-162
▁년	-163
▁감	-164
▁헤어지	-165
까요	-166
어지	-167
▁받	-168
▁아니	-169
▁오늘	-170
▁다시	-171
▁해도	-172
▁재	-173
▁확	-174
▁조	-175
▁할까	-176
▁간	-177
▁정말	-178
▁소	-179
▁타	-180
게요	-181
▁또	-182
▁차	-183
▁영	-184
▁뭐	-185
▁절	-186
▁어떻	-187
▁이루	-188
▁줄	-189
▁있었	-190
▁언	-191
▁불	-192
▁랑	-193
▁선	-194
▁까	-195
▁이루어지	-196
▁편	-197
▁왜	-198
▁입	-199
▁만나	-200
▁지만	-201
▁신	-202
▁다른	-203
▁동	-204
▁욕	-205
▁어떻게	-206
▁말로	-207
▁계	-208
▁먹	-209
▁함	-210
▁라고	-211
▁물	-212
▁참	-213
▁인가	-214
▁인데	-215
▁별	-216
▁성	-217
▁원	-218
▁백	-219
▁추억	-220
▁젊	-221
은이	-222
▁젊은이	-223
▁버	-224
▁새	-225
▁느	-226
▁두	-227
▁분	-228
▁와	-229
▁비슷	-230
▁혼	-231
▁필	-232
▁백성	-233
▁똑	-234
▁발	-235
▁여인	-236
▁카	-237
▁모르	-238
▁변	-239
▁엄	-240
▁몰	-241
▁절망	-242
▁그런	-243
▁왔	-244
▁자신	-245
▁따	-246
▁연애	-247
▁볼	-248
▁날	-249
▁봅	-250
▁똑같	-251
▁힘든	-252
▁려	-253
▁이랑	-254
▁얼	-255
▁매	-256
▁잠	-257
▁반	-258
▁개	-259
▁다가	-260
▁봅니다	-261
▁헤어진	-262
▁위	-263
▁괴	-264
▁아가	-265
▁바랄	-266
▁돌	-267
▁아가씨	-268
▁면서	-269
▁방	-270
▁번	-271
▁관	-272
▁합	-273
▁보다	-274
▁찾	-275
▁올	-276
▁아직	-277
▁욕망	-278
▁공	-279
▁먼	-280
▁충	-281
렇게	-282
▁연인	-283
▁유	-284
▁바랄게요	-285
▁은데	-286
▁확신	-287
▁당신	-288
▁답	-289
▁우	-290
▁맞	-291
▁는지	-292
▁준	-293
▁판	-294
▁첫	-295
▁술	-296
▁귀	-297
▁돼요	-298
▁지금	-299
▁누	-300
▁쌍	-301
▁먼저	-302
▁사귀	-303
▁그녀	-304
▁까지	-305
▁엄마	-306
▁잡	-307
▁필요	-308
▁그리	-309
▁합니다	-310
▁쉽	-311
▁쓰	-312
▁장	-313
▁좋아	-314
▁기다	-315
▁만큼	-316
▁애인	-317
▁될까	-318
▁어려	-319
▁직	-320
▁질	-321
▁약	-322
▁하나	-323
▁떠	-324
▁힘드	-325
▁줘	-326
▁결혼	-327
▁지요	-328
▁그럴	-329
▁실	-330
▁괴로	-331
▁피	-332
▁판단	-333
▁1	-334
▁든	-335
▁처	-336
사랑	-337
▁노	-338
▁아무	-339
▁정리	-340
▁언제	-341
랍니다	-342
▁문	-343
▁다고	-344
▁싫	-345
▁영혼	-346
▁집	-347
▁나요	-348
▁눈	-349
▁본	-350
▁후회	-351
▁표	-352
▁다면	-353
▁없다	-354
▁찾아	-355
▁구	-356
▁아닌	-357
▁긴	-358
▁듯	-359
▁충분	-360
▁경	-361
▁깨	-362
▁쉬	-363
▁계속	-364
▁대답	-365
▁짝사랑	-366
▁음	-367
▁진짜	-368
▁배	-369
▁혼자	-370
▁인지	-371
▁바랍니다	-372
▁들어	-373
▁된	-374
▁해서	-375
▁단	-376
▁걸까	-377
▁한다	-378
▁화	-379
▁바라	-380
▁어도	-381
▁괴로움	-382
▁설	-383
▁갈	-384
▁울	-385
▁머	-386
▁시작	-387
▁자고	-388
▁자꾸	-389
▁맘	-390
▁접	-391
▁입니다	-392
▁꿈	-393
▁째	-394
▁라도	-395
▁볼까	-396
▁넘	-397
▁회	-398
▁서로	-399
▁여친	-400
▁니까요	-401
▁러	-402
▁현	-403
▁남친	-404
▁그래	-405
▁어린	-406
▁조금	-407
▁열	-408
▁몰라	-409
▁취	-410
▁복	-411
▁심	-412
로운	-413
▁놀	-414
▁항	-415
▁돌아	-416
▁함께	-417
▁준비	-418
▁속	-419
▁최	-420
▁어려워	-421
▁군	-422
▁녀	-423
▁세	-424
▁어렵	-425
▁으니	-426
▁셨	-427
▁용	-428
▁3	-429
▁즐	-430
▁마주	-431
▁중요	-432
▁외	-433
주일	-434
▁그냥	-435
▁어서	-436
▁일주일	-437
▁카톡	-438
▁됐	-439
▁고민	-440
▁썸남	-441
▁몰라요	-442
▁어떨	-443
▁어떤	-444
▁오래	-445
▁무슨	-446
▁신경	-447
▁감정	-448
▁따라	-449
▁때문	-450
▁고백	-451
▁아침	-452
▁초	-453
▁2	-454
아이	-455
▁새로운	-456
▁어린아이	-457
이트	-458
텐데	-459
▁선물	-460
▁걱	-461
▁운	-462
▁걱정	-463
▁앞	-464
▁방법	-465
▁니까	-466
▁협	-467
▁몸	-468
▁어떨까	-469
▁,	-470
▁텐데	-471
▁협조	-472
▁치	-473
▁궁	-474
▁코	-475
▁헤어진지	-476
▁만날	-477
▁떨	-478
▁알아	-479
▁좋아하	-480
▁믿	-481
▁였	-482
▁보내	-483
▁순	-484
▁가능	-485
▁접촉	-486
▁뭘	-487
▁이야	-488
▁뒤	-489
▁면담	-490
▁교	-491
▁님	-492
▁커	-493
▁어야	-494
▁갑	-495
▁궁금	-496
▁이야기	-497
▁월	-498
▁생겼	-499
▁재회	-500
▁이젠	-501
▁그렇게	-502
▁씩	-503
▁살펴	-504
▁이렇게	-505
▁헤어졌	-506
▁덜	-507
▁점	-508
▁건가	-509
▁스러	-510
▁학	-511
▁난	-512
▁개월	-513
▁군요	-514
▁누구	-515
▁인생	-516
▁항상	-517
▁마주치	-518
▁허	-519
▁붙	-520
▁려고	-521
▁머리	-522
▁그만	-523
▁남장	-524
▁더라	-525
▁통	-526
▁미련	-527
▁발르	-528
▁상대	-529
▁놓	-530
▁처럼	-531
▁데이트	-532
▁어떡	-533
▁기분	-534
▁빠	-535
▁마시	-536
▁메	-537
▁느낌	-538
▁살펴보	-539
▁어디	-540
▁그대	-541
▁추진	-542
다면	-543
▁만났	-544
▁으세요	-545
▁작	-546
▁내일	-547
▁종	-548
▁나이	-549
▁잡아	-550
▁근	-551
▁살아	-552
▁라는	-553
▁한가	-554
▁높	-555
▁졌	-556
▁이상	-557
▁꼭	-558
▁멋	-559
워하	-560
▁어려워지	-561
▁으니까요	-562
▁파	-563
▁분간	-564
▁여행	-565
▁천	-566
▁표현	-567
다보	-568
▁기억	-569
▁다는	-570
▁하루	-571
▁경우	-572
▁들여	-573
▁부터	-574
아들	-575
▁받아들	-576
▁달라	-577
▁상처	-578
▁이나	-579
▁뿐	-580
▁라면	-581
▁아파	-582
▁약혼	-583
▁대로	-584
▁여러	-585
▁전화	-586
▁로맨	-587
▁아서	-588
▁잊어	-589
▁모든	-590
▁언젠	-591
▁강	-592
▁밤	-593
▁휴	-594
▁냐	-595
▁딱	-596
▁자기	-597
▁못하	-598
▁들여다보	-599
▁온	-600
▁간격	-601
▁만들	-602
▁아프	-603
▁바라보	-604
▁각	-605
▁잊혀	-606
▁헤어짐	-607
▁식	-608
▁싸	-609
▁나가	-610
거리	-611
▁이해	-612
▁꾸	-613
▁축	-614
▁일까	-615
▁솔	-616
▁스럽	-617
▁어제	-618
▁이런	-619
▁기다리	-620
▁벌	-621
▁큰	-622
▁지나	-623
▁드세요	-624
지막	-625
▁그게	-626
▁보여	-627
▁마지막	-628
▁돈	-629
▁빨	-630
▁가슴	-631
▁부여	-632
▁생각나	-633
▁곳	-634
▁챙	-635
▁공부	-636
▁잊어버	-637
▁충분히	-638
요일	-639
▁아쉽	-640
▁막	-641
▁호	-642
으면	-643
▁귀찮	-644
▁사이	-645
▁이유	-646
▁완	-647
▁유용	-648
▁너희	-649
▁매일	-650
▁직접	-651
▁알아보	-652
▁을까요	-653
▁잊어버리	-654
▁아픈	-655
▁청	-656
▁프	-657
▁대화	-658
▁무렵	-659
▁들어맞	-660
▁흘	-661
▁..	-662
▁맛	-663
▁플	-664
▁무서	-665
▁씹	-666
▁즐거	-667
▁죽	-668
▁결국	-669
▁손	-670
▁증	-671
▁결정	-672
▁원망	-673
▁나쁜	-674
▁노래	-675
▁선택	-676
▁악	-677
다는	-678
▁뭔	-679
▁웃	-680
▁포	-681
▁월과	-682
▁확실	-683
▁늦	-684
▁익	-685
▁관심	-686
▁답답	-687
▁모두	-688
▁복잡	-689
▁얼른	-690
자기	-691
▁잔	-692
▁거나	-693
▁마다	-694
▁부여받	-695
▁목	-696
▁탈	-697
스로	-698
폭풍	-699
▁스스로	-700
▁잡아먹	-701
▁~	-702
려받	-703
▁동성	-704
▁소개	-705
▁코너	-706
▁존	-707
▁태	-708
▁환	-709
▁변화	-710
▁아닐	-711
▁아도	-712
▁제일	-713
▁갔	-714
▁로맨스	-715
▁봤	-716
▁떠나	-717
▁갑자기	-718
▁건지	-719
▁다음	-720
▁후폭풍	-721
▁글	-722
수록	-723
▁때쯤	-724
▁어때	-725
▁평	-726
▁그러	-727
▁처음	-728
▁줬	-729
▁남편	-730
▁솔직	-731
▁기다려	-732
▁5	-733
▁크	-734
대로	-735
▁도와	-736
▁없이	-737
▁착	-738
▁나와	-739
▁초순	-740
▁물려받	-741
▁물어	-742
▁본인	-743
▁아픔	-744
▁났	-745
▁망	-746
▁느껴	-747
▁중순	-748
▁출	-749
▁무방	-750
▁부담	-751
▁스트	-752
▁어느	-753
▁챙겨	-754
▁그래도	-755
▁가지	-756
▁문제	-757
▁재미	-758
▁며	-759
라이	-760
다고	-761
▁만난	-762
▁아야	-763
▁우리	-764
▁을지	-765
▁양	-766
▁가장	-767
▁내서	-768
▁쉬운	-769
▁빌	-770
▁임	-771
▁노력	-772
▁드릴	-773
▁수많	-774
▁4	-775
▁둘	-776
▁란	-777
▁법	-778
▁짧	-779
▁향	-780
겨받	-781
▁빨리	-782
▁얼굴	-783
▁잘못	-784
▁넘겨받	-785
▁명	-786
▁형	-787
▁운동	-788
▁보이	-789
▁지켜	-790
▁동성애	-791
▁극	-792
▁잦	-793
▁내고	-794
▁다가가	-795
▁겨	-796
▁가끔	-797
▁붙잡	-798
▁영화	-799
▁금	-800
심히	-801
▁거짓	-802
▁달래	-803
▁언젠간	-804
▁찬	-805
어나	-806
▁내려	-807
▁마요	-808
▁완전	-809
▁인연	-810
▁쫓	-811
▁도움	-812
▁재혼	-813
▁차이	-814
▁드릴게요	-815
▁얘	-816
▁무엇	-817
▁버리	-818
▁성행	-819
▁갖	-820
▁견	-821
▁흔	-822
러워	-823
천히	-824
▁상황	-825
▁편하	-826
▁성행위	-827
▁천천히	-828
▁독	-829
▁설레	-830
▁열심히	-831
▁6	-832
▁용기	-833
▁용이	-834
▁점점	-835
▁뜻	-836
▁몇	-837
▁만남	-838
▁익숙	-839
▁s	-840
▁꺼	-841
▁밖	-842
▁밥	-843
▁풀	-844
▁다니	-845
▁두려	-846
▁스러운	-847
자리	-848
▁기쁨	-849
▁뭘까	-850
▁아내	-851
▁요즘	-852
▁알려	-853
▁얼마	-854
▁곤	-855
▁트	-856
▁교제	-857
▁기대	-858
▁예뻐	-859
▁플라	-860
▁현실	-861
▁맨	-862
▁부모	-863
▁순간	-864
▁엄청	-865
▁원하	-866
▁차단	-867
▁소개팅	-868
ns	-869
▁주말	-870
▁sns	-871
▁일요일	-872
▁내기	-873
▁대한	-874
▁정도	-875
▁척	-876
▁달이	-877
▁바람	-878
▁별후	-879
▁사용	-880
▁소중	-881
▁시켜	-882
▁예쁘	-883
▁잠시	-884
▁표정	-885
▁자주	-886
▁돌아가	-887
▁엉	-888
▁터	-889
▁흐	-890
▁가져	-891
▁고생	-892
▁진심	-893
▁해질	-894
▁가량	-895
▁몰르	-896
▁얘기	-897
▁한지	-898
▁할지	-899
▁그리고	-900
레스	-901
마자	-902
▁관계	-903
▁별로	-904
▁아이	-905
▁우울	-906
▁끊	-907
▁멀	-908
▁써	-909
▁각기	-910
▁거기	-911
▁말씀	-912
▁의미	-913
▁작성	-914
▁살아가	-915
▁한다고	-916
▁티	-917
▁따뜻	-918
▁벌써	-919
▁세상	-920
▁위해	-921
▁으려	-922
▁정신	-923
▁축하	-924
▁여러분	-925
▁베	-926
▁병	-927
필요	-928
▁건강	-929
▁슬픈	-930
▁확인	-931
▁불필요	-932
▁리	-933
동안	-934
뜨리	-935
▁계산	-936
▁더니	-937
▁마련	-938
▁전해	-939
▁지내	-940
▁한다는	-941
▁한다면	-942
▁받아들이	-943
▁담	-944
▁다르	-945
▁매력	-946
▁생활	-947
▁물어보	-948
▁플라티	-949
▁듣	-950
▁짜	-951
우스	-952
▁간의	-953
▁게시	-954
▁변하	-955
▁악몽	-956
▁어쩔	-957
▁요약	-958
▁후련	-959
▁그리워하	-960
▁깨닫	-961
▁나아	-962
▁날씨	-963
▁모습	-964
▁사진	-965
▁상관	-966
러지	-967
▁10	-968
▁그렇	-969
▁그분	-970
▁떨어	-971
▁맞춰	-972
▁버려	-973
▁상상	-974
▁혼인	-975
▁상대방	-976
▁찾아보	-977
▁해야지	-978
▁쓸	-979
▁역	-980
▁철	-981
▁극복	-982
▁맛있	-983
▁첫날	-984
▁회사	-985
▁아닌데	-986
▁벗	-987
▁새벽	-988
▁자는	-989
▁자연	-990
▁행세	-991
▁힘내	-992
▁거짓말	-993
▁사세요	-994
▁약혼자	-995
▁곧	-996
▁봄	-997
▁숨	-998
▁읽	-999
▁져	-1000
▁다녀	-1001
▁문득	-1002
▁보냈	-1003
▁부부	-1004
▁상냥	-1005
▁저녁	-1006
▁진정	-1007
▁는다면	-1008
▁언제나	-1009
▁산	-1010
래도	-1011
▁야지	-1012
▁행동	-1013
▁권	-1014
▁삶	-1015
▁개탄	-1016
▁맨날	-1017
▁못한	-1018
▁외로	-1019
▁위로	-1020
▁두려워	-1021
▁졸	-1022
▁게임	-1023
▁무너	-1024
▁예쁜	-1025
▁인식	-1026
▁조심	-1027
▁자마자	-1028
▁대해	-1029
▁돌려	-1030
▁스타	-1031
▁편지	-1032
고요	-1033
▁밖에	-1034
▁실수	-1035
▁아름	-1036
▁줄까	-1037
▁학교	-1038
▁더라고요	-1039
▁아무래도	-1040
캐롤	-1041
▁나눠	-1042
▁습관	-1043
▁이겨	-1044
▁한데	-1045
캐롤라이	-1046
▁억	-1047
▁움	-1048
▁채	-1049
▁투	-1050
▁바로	-1051
▁바쁘	-1052
▁오랜	-1053
▁올려	-1054
▁그리움	-1055
▁염	-1056
▁쯤	-1057
▁다를	-1058
▁생길	-1059
▁인간	-1060
▁추천	-1061
▁환승	-1062
▁빼	-1063
▁옷	-1064
없이	-1065
▁나타	-1066
▁달려	-1067
▁운명	-1068
▁잠깐	-1069
▁주일	-1070
▁살아오	-1071
▁스트레스	-1072
▁깊	-1073
▁삼	-1074
▁옆	-1075
덩이	-1076
▁드려	-1077
▁버릇	-1078
▁움직	-1079
▁인정	-1080
▁사우스	-1081
▁엉덩이	-1082
▁사우스캐롤라이	-1083
▁밀	-1084
▁엔	-1085
▁찍	-1086
▁키	-1087
▁헷	-1088
다니	-1089
▁도전	-1090
▁떠난	-1091
▁려면	-1092
▁무뎌	-1093
▁여기	-1094
▁지났	-1095
▁커피	-1096
▁포기	-1097
▁헷갈	-1098
▁회개	-1099
▁그래요	-1100
▁그런가	-1101
▁곡	-1102
▁꽃	-1103
▁끼	-1104
▁디	-1105
▁겠지	-1106
▁버렸	-1107
▁본격	-1108
▁찬미	-1109
▁현상	-1110
▁호감	-1111
▁그리워	-1112
▁즐거운	-1113
▁흉	-1114
아가	-1115
▁마셔	-1116
▁은가	-1117
▁일쑤	-1118
▁즐겁	-1119
▁사용하	-1120
▁아닌지	-1121
▁다행	-1122
▁대접	-1123
▁미리	-1124
▁성공	-1125
▁심해	-1126
▁직후	-1127
▁흘렀	-1128
▁격	-1129
▁됩	-1130
니즘	-1131
디어	-1132
▁그것	-1133
▁꾸준	-1134
▁멋진	-1135
▁메커	-1136
▁예민	-1137
▁위한	-1138
▁집착	-1139
▁최선	-1140
▁흘러	-1141
▁됩니다	-1142
▁시작하	-1143
▁지켜보	-1144
▁할게요	-1145
▁메커니즘	-1146
▁늘	-1147
▁응	-1148
▁핵	-1149
▁눈물	-1150
▁몸값	-1151
▁종교	-1152
▁게시물	-1153
▁부러워	-1154
▁어려운	-1155
▁찾아오	-1156
▁받아들여	-1157
▁8	-1158
▁묘	-1159
▁빗	-1160
▁셔	-1161
▁핸	-1162
심적	-1163
▁간다	-1164
▁그때	-1165
▁동거	-1166
▁드리	-1167
▁생일	-1168
▁시원	-1169
▁안타	-1170
▁원래	-1171
▁이러	-1172
▁피부	-1173
▁핵심적	-1174
▁7	-1175
▁귀여	-1176
▁불안	-1177
▁어쩌	-1178
▁일찍	-1179
▁조용	-1180
▁존중	-1181
▁차분	-1182
▁화장	-1183
▁그대로	-1184
▁드디어	-1185
▁스러워	-1186
▁어야지	-1187
▁아닐까요	-1188
▁테	-1189
▁핑	-1190
▁헌	-1191
▁관리	-1192
▁마이	-1193
▁뭔지	-1194
▁장면	-1195
▁헌신	-1196
▁달라지	-1197
▁아름다	-1198
▁인가요	-1199
▁즐거움	-1200
▁골	-1201
▁클	-1202
▁탐	-1203
드폰	-1204
스크	-1205
어하	-1206
▁걸로	-1207
▁과정	-1208
▁당연	-1209
▁되돌	-1210
▁바닷	-1211
▁보통	-1212
▁성격	-1213
▁소리	-1214
▁편할	-1215
▁흔들	-1216
▁...	-1217
▁싫어하	-1218
▁핸드폰	-1219
▁냉	-1220
▁뺏	-1221
▁웨	-1222
▁퀼	-1223
▁토	-1224
▁갈까	-1225
▁고심	-1226
▁근육	-1227
▁나왔	-1228
▁답례	-1229
▁데려	-1230
▁떨려	-1231
▁뭔가	-1232
▁방식	-1233
▁붙이	-1234
▁재개	-1235
▁직전	-1236
▁제대로	-1237
▁헤어져	-1238
▁능	-1239
▁쇼	-1240
▁업	-1241
▁죄	-1242
▁책	-1243
▁특	-1244
▁퍼	-1245
▁효	-1246
▁불러	-1247
▁사귄	-1248
▁쇼핑	-1249
▁올라	-1250
▁짜증	-1251
▁허전	-1252
▁돌아오	-1253
▁아무리	-1254
▁좋아할	-1255
▁곁	-1256
덤덤	-1257
▁대요	-1258
▁보름	-1259
▁비싸	-1260
▁빗물	-1261
▁이후	-1262
▁잘하	-1263
▁진지	-1264
▁한탄	-1265
▁해졌	-1266
▁는다는	-1267
▁좋아해	-1268
▁현상금	-1269
▁놈	-1270
▁멍	-1271
▁체	-1272
▁가르	-1273
▁그럼	-1274
▁기념	-1275
▁냐고	-1276
▁미안	-1277
▁부분	-1278
▁불가	-1279
▁썸녀	-1280
▁전은	-1281
▁카페	-1282
▁통보	-1283
▁답니다	-1284
▁마이클	-1285
▁본격화	-1286
▁띄	-1287
▁풍	-1288
당히	-1289
잖아	-1290
▁가사	-1291
▁거부	-1292
▁고마	-1293
▁귀엽	-1294
▁금방	-1295
▁나을	-1296
▁버티	-1297
▁변해	-1298
▁연습	-1299
▁장소	-1300
▁꾸준히	-1301
▁줄거리	-1302
▁깔	-1303
▁삭	-1304
▁퇴	-1305
아지	-1306
▁겨울	-1307
▁누가	-1308
▁두근	-1309
▁몰랐	-1310
▁상태	-1311
▁유효	-1312
▁자격	-1313
▁절대	-1314
▁주무	-1315
▁친해	-1316
▁편견	-1317
▁무서워하	-1318
▁땐	-1319
▁래	-1320
▁흙	-1321
▁희	-1322
듬해	-1323
보내	-1324
시다	-1325
▁괜히	-1326
▁그랬	-1327
▁기법	-1328
▁끝난	-1329
▁놓아	-1330
▁머물	-1331
▁문자	-1332
▁바뀌	-1333
▁에드	-1334
▁영원	-1335
▁일어	-1336
▁전설	-1337
▁주변	-1338
▁지쳐	-1339
▁해결	-1340
▁허리	-1341
▁기다릴	-1342
▁바닷물	-1343
▁언젠가	-1344
▁이듬해	-1345
▁찾아가	-1346
▁됨	-1347
▁멈	-1348
▁쌓	-1349
▁짐	-1350
▁짓	-1351
▁톡	-1352
소리	-1353
지도	-1354
카락	-1355
▁가족	-1356
▁고독	-1357
▁무시	-1358
▁바보	-1359
▁바쁜	-1360
▁봐야	-1361
▁삭제	-1362
▁어깨	-1363
▁아무것	-1364
▁일어나	-1365
▁재미있	-1366
▁할수록	-1367
▁머리카락	-1368
전히	-1369
▁가벼	-1370
▁까먹	-1371
▁내내	-1372
▁눈치	-1373
▁묘사	-1374
▁비밀	-1375
▁일상	-1376
▁해져	-1377
▁어느덧	-1378
▁주무세요	-1379
▁꼬	-1380
등감	-1381
▁갑작	-1382
▁귀중	-1383
▁그건	-1384
▁긴장	-1385
▁깨달	-1386
▁능력	-1387
▁답장	-1388
▁대학	-1389
▁마침	-1390
▁배우	-1391
▁배워	-1392
▁생겨	-1393
▁소망	-1394
▁수록	-1395
▁수학	-1396
▁재밌	-1397
▁지쳤	-1398
▁착각	-1399
▁커플	-1400
▁얼마나	-1401
▁열등감	-1402
▁움직임	-1403
▁으려고	-1404
▁끌	-1405
▁숀	-1406
▁칭	-1407
워질	-1408
▁누군	-1409
▁동안	-1410
▁미치	-1411
▁바꾸	-1412
▁보일	-1413
▁선생	-1414
▁오빠	-1415
▁응원	-1416
▁자아	-1417
▁자존	-1418
▁제물	-1419
▁줘도	-1420
▁파악	-1421
▁프로	-1422
▁헤아	-1423
▁쫓아가	-1424
▁걔	-1425
▁꿨	-1426
▁센	-1427
▁틀	-1428
두막	-1429
▁기간	-1430
▁나오	-1431
▁동년	-1432
▁때론	-1433
▁려나	-1434
▁멋지	-1435
▁사고	-1436
▁약속	-1437
▁예의	-1438
▁으시	-1439
▁이거	-1440
▁최고	-1441
▁피곤	-1442
▁따라가	-1443
▁불가능	-1444
▁오두막	-1445
▁인간성	-1446
▁광	-1447
▁팔	-1448
▁놀드	-1449
▁미친	-1450
▁슬퍼	-1451
▁아물	-1452
▁어색	-1453
▁우선	-1454
▁이란	-1455
▁자체	-1456
▁취미	-1457
▁흉터	-1458
▁그래서	-1459
▁더라도	-1460
▁사이먼	-1461
▁완전히	-1462
▁케	-1463
▁페	-1464
▁가요	-1465
▁녀랑	-1466
▁따로	-1467
▁사라	-1468
▁안녕	-1469
▁인사	-1470
▁제발	-1471
▁중퇴	-1472
▁타이	-1473
▁피어	-1474
▁핑계	-1475
▁헷갈리	-1476
▁흔들리	-1477
▁걷	-1478
▁뛰	-1479
▁레	-1480
▁활	-1481
가요	-1482
개심	-1483
대폰	-1484
태기	-1485
▁고쳐	-1486
▁넘어	-1487
▁느라	-1488
▁당했	-1489
▁드러	-1490
▁라니	-1491
▁바빠	-1492
▁반감	-1493
▁반복	-1494
▁사귈	-1495
▁사유	-1496
▁스킨	-1497
▁시기	-1498
▁잖아	-1499
▁친교	-1500
▁갑작스	-1501
▁권태기	-1502
▁무서워	-1503
▁적개심	-1504
▁타이밍	-1505
▁휴대폰	-1506
▁힘든가	-1507
▁겁	-1508
▁농	-1509
▁뒷	-1510
져요	-1511
▁당황	-1512
▁말투	-1513
▁사친	-1514
▁설명	-1515
▁위험	-1516
▁이럴	-1517
▁조차	-1518
▁지난	-1519
▁지워	-1520
▁질투	-1521
▁청춘	-1522
▁향기	-1523
▁흐르	-1524
▁누군가	-1525
▁무덤덤	-1526
▁스타일	-1527
▁신경계	-1528
▁아름다운	-1529
▁콩	-1530
라마	-1531
지로	-1532
▁가까	-1533
▁간절	-1534
▁견뎌	-1535
▁관련	-1536
▁다듬	-1537
▁메노	-1538
▁며칠	-1539
▁사실	-1540
▁서운	-1541
▁설렘	-1542
▁속상	-1543
▁입력	-1544
▁종일	-1545
▁탐험	-1546
▁될까요	-1547
▁드라마	-1548
▁억지로	-1549
▁장거리	-1550
▁김	-1551
▁찌	-1552
▁패	-1553
라리	-1554
▁끝내	-1555
▁못할	-1556
▁부족	-1557
▁불행	-1558
▁슬프	-1559
▁시험	-1560
▁어울	-1561
▁염려	-1562
▁이성	-1563
▁일지	-1564
▁장난	-1565
▁저택	-1566
▁충전	-1567
▁친한	-1568
▁피해	-1569
▁현재	-1570
▁가르치	-1571
▁떨어졌	-1572
▁무서운	-1573
▁안타깝	-1574
▁외로워	-1575
▁차라리	-1576
▁찾아올	-1577
▁할까요	-1578
▁돌려보내	-1579
▁꿀	-1580
▁넌	-1581
수심	-1582
지지	-1583
▁결심	-1584
▁기본	-1585
▁대결	-1586
▁못했	-1587
▁미워	-1588
▁소식	-1589
▁쓰이	-1590
▁아강	-1591
▁언니	-1592
▁역시	-1593
▁이기	-1594
▁질까	-1595
▁해석	-1596
립니다	-1597
▁복수심	-1598
▁오랜만	-1599
▁적당히	-1600
▁조용히	-1601
▁헤어져야	-1602
▁국	-1603
▁낮	-1604
▁빈	-1605
▁샀	-1606
▁탔	-1607
벌레	-1608
▁다정	-1609
▁당당	-1610
▁멀리	-1611
▁못해	-1612
▁믿음	-1613
▁발전	-1614
▁변명	-1615
▁부탁	-1616
▁분명	-1617
▁빠르	-1618
▁살까	-1619
▁아플	-1620
▁앞쪽	-1621
▁의결	-1622
▁이게	-1623
▁존재	-1624
▁줘야	-1625
▁지우	-1626
▁지점	-1627
▁칭찬	-1628
▁드러내	-1629
▁드려요	-1630
▁로맨틱	-1631
▁해야죠	-1632
▁굳	-1633
▁끈	-1634
▁놔	-1635
▁승	-1636
▁싱	-1637
명상	-1638
방식	-1639
▁감성	-1640
▁계획	-1641
▁달째	-1642
▁뒤쪽	-1643
▁듯이	-1644
▁매달	-1645
▁무기	-1646
▁바뀔	-1647
▁보낼	-1648
▁사회	-1649
▁살짝	-1650
▁상담	-1651
▁생긴	-1652
▁스테	-1653
▁아목	-1654
▁알리	-1655
▁영향	-1656
▁조언	-1657
▁직장	-1658
▁취지	-1659
▁태도	-1660
▁파혼	-1661
▁하늘	-1662
▁귀여워	-1663
▁잊혀질	-1664
▁전화기	-1665
▁치명상	-1666
▁마음대로	-1667
▁사고방식	-1668
▁겸	-1669
▁급	-1670
▁떡	-1671
▁헛	-1672
깍지	-1673
터리	-1674
환경	-1675
회사	-1676
▁가치	-1677
▁감사	-1678
▁고치	-1679
▁괴롭	-1680
▁깔끔	-1681
▁나중	-1682
▁놀이	-1683
▁머릿	-1684
▁무섭	-1685
▁미만	-1686
▁쓰레	-1687
▁알바	-1688
▁월급	-1689
▁으신	-1690
▁이뤄	-1691
▁이사	-1692
▁인터	-1693
▁자리	-1694
▁정해	-1695
▁취해	-1696
▁편안	-1697
▁회상	-1698
▁콩깍지	-1699
▁께	-1700
▁쪽	-1701
들이	-1702
부터	-1703
사자	-1704
오르	-1705
▁걸음	-1706
▁공허	-1707
▁딱정	-1708
▁때로	-1709
▁바꿔	-1710
▁변덕	-1711
▁소통	-1712
▁여름	-1713
▁완벽	-1714
▁외모	-1715
▁음악	-1716
▁의심	-1717
▁이하	-1718
▁편한	-1719
▁해탈	-1720
▁그만큼	-1721
▁딱정벌레	-1722
▁깎	-1723
▁봉	-1724
▁쟁	-1725
▁창	-1726
릴까	-1727
봐도	-1728
▁걸르	-1729
▁경험	-1730
▁꾸미	-1731
▁달달	-1732
▁마셨	-1733
▁바꿀	-1734
▁사로	-1735
▁설정	-1736
▁성장	-1737
▁성향	-1738
▁연예	-1739
▁우연	-1740
▁저렇	-1741
▁점심	-1742
▁정상	-1743
▁지도	-1744
▁최대	-1745
▁크리	-1746
▁한동안	-1747
▁검	-1748
▁뻔	-1749
▁색	-1750
▁셀	-1751
▁씻	-1752
▁침	-1753
▁폰	-1754
고기	-1755
고생	-1756
관성	-1757
생기	-1758
영향	-1759
워요	-1760
▁고통	-1761
▁과제	-1762
▁기준	-1763
▁기회	-1764
▁나올	-1765
▁뛰어	-1766
▁무거	-1767
▁무색	-1768
▁바크	-1769
▁배려	-1770
▁번호	-1771
▁변동	-1772
▁별거	-1773
▁신가	-1774
▁실망	-1775
▁안경	-1776
▁야죠	-1777
▁예전	-1778
▁원한	-1779
▁적극	-1780
▁전하	-1781
▁최후	-1782
▁취업	-1783
▁된다고	-1784
▁들어와	-1785
▁맘고생	-1786
▁악영향	-1787
▁자신감	-1788
▁텐데요	-1789
▁헤어질	-1790
▁긍	-1791
▁등	-1792
▁씌	-1793
▁얇	-1794
▁옮	-1795
▁짚	-1796
▁쪼	-1797
▁택	-1798
▁푸	-1799
▁혹	-1800
가락	-1801
거롭	-1802
학교	-1803
▁결과	-1804
▁긍정	-1805
▁기울	-1806
▁독립	-1807
▁될지	-1808
▁떠올	-1809
▁라서	-1810
▁마무	-1811
▁별의	-1812
▁분노	-1813
▁불만	-1814
▁여유	-1815
▁우산	-1816
▁이혼	-1817
▁입증	-1818
▁정확	-1819
▁주식	-1820
▁출근	-1821
▁취직	-1822
▁취향	-1823
▁판별	-1824
▁항해	-1825
듭니다	-1826
▁갑니다	-1827
▁관련성	-1828
▁놓아주	-1829
▁번거롭	-1830
▁아무런	-1831
▁아무렇	-1832
▁인터뷰	-1833
▁일까요	-1834
▁첫사랑	-1835
▁폭	-1836
데이	-1837
마스	-1838
먼지	-1839
서관	-1840
위기	-1841
▁각자	-1842
▁군대	-1843
▁그림	-1844
▁나온	-1845
▁단단	-1846
▁단순	-1847
▁달콤	-1848
▁미세	-1849
▁반대	-1850
▁상사	-1851
▁생명	-1852
▁셔야	-1853
▁수업	-1854
▁시련	-1855
▁예상	-1856
▁원의	-1857
▁의지	-1858
▁이건	-1859
▁일단	-1860
▁입히	-1861
▁제게	-1862
▁졸려	-1863
▁줘서	-1864
▁집중	-1865
▁채워	-1866
▁한번	-1867
▁회선	-1868
스마스	-1869
스크림	-1870
▁당사자	-1871
▁도서관	-1872
▁돌아올	-1873
▁마무리	-1874
▁머릿속	-1875
▁분위기	-1876
▁쓰러지	-1877
▁쓰레기	-1878
▁아파하	-1879
▁여전히	-1880
▁오늘날	-1881
▁이제야	-1882
▁지나가	-1883
▁미세먼지	-1884
▁받아들여야	-1885
▁아이스크림	-1886
▁크리스마스	-1887
▁'	-1888
▁a	-1889
▁박	-1890
▁액	-1891
▁좁	-1892
▁컨	-1893
▁푹	-1894
생숭	-1895
울까	-1896
▁감기	-1897
▁거절	-1898
▁결의	-1899
▁끌어	-1900
▁끼치	-1901
▁나빠	-1902
▁내리	-1903
▁냉정	-1904
▁다양	-1905
▁단계	-1906
▁대체	-1907
▁더워	-1908
▁돼서	-1909
▁만드	-1910
▁물리	-1911
▁보답	-1912
▁봐도	-1913
▁빠를	-1914
▁빠지	-1915
▁싱숭	-1916
▁예측	-1917
▁은근	-1918
▁음료	-1919
▁전부	-1920
▁증명	-1921
▁찌질	-1922
▁청소	-1923
▁타인	-1924
▁평일	-1925
▁필두	-1926
▁한잔	-1927
▁혹시	-1928
▁는다고	-1929
▁들어가	-1930
▁뛰어넘	-1931
▁미워하	-1932
▁알려줘	-1933
▁연관성	-1934
▁외로운	-1935
▁으면서	-1936
▁잖아요	-1937
▁잡아오	-1938
▁졌으면	-1939
▁퍼뜨리	-1940
▁했으면	-1941
▁싱숭생숭	-1942
▁썼	-1943
▁콘	-1944
렌타	-1945
머니	-1946
아입	-1947
운동	-1948
▁견디	-1949
▁괴력	-1950
▁담배	-1951
▁동생	-1952
▁떨리	-1953
▁마실	-1954
▁만든	-1955
▁방학	-1956
▁빌려	-1957
▁야근	-1958
▁오랫	-1959
▁오해	-1960
▁의식	-1961
▁이곳	-1962
▁이렇	-1963
▁졸업	-1964
▁지니	-1965
▁키우	-1966
▁퇴근	-1967
▁희망	-1968
▁갈아입	-1969
▁거부감	-1970
▁기념일	-1971
▁들어왔	-1972
▁목소리	-1973
▁발렌타	-1974
▁사로잡	-1975
▁스테판	-1976
▁신경절	-1977
▁우울증	-1978
▁한가요	-1979
▁확실히	-1980
▁기다려야	-1981
▁독립운동	-1982
▁부러워요	-1983
▁끓	-1984
▁냄	-1985
▁녹	-1986
▁닮	-1987
▁뜨	-1988
▁묻	-1989
▁옴	-1990
▁햇	-1991
까워	-1992
▁건데	-1993
▁걸려	-1994
▁걸릴	-1995
▁걸요	-1996
▁고파	-1997
▁곡조	-1998
▁곤란	-1999
▁공통	-2000
▁그저	-2001
▁그전	-2002
▁기운	-2003
▁느끼	-2004
▁뒤늦	-2005
▁려구	-2006
▁망했	-2007
▁맞이	-2008
▁멋있	-2009
▁몰래	-2010
▁사내	-2011
▁생기	-2012
▁시어	-2013
▁실감	-2014
▁싸우	-2015
▁아예	-2016
▁애매	-2017
▁어찌	-2018
▁없애	-2019
▁이래	-2020
▁이용	-2021
▁자세	-2022
▁전환	-2023
▁져요	-2024
▁집어	-2025
▁차였	-2026
▁추워	-2027
▁트라	-2028
▁편해	-2029
▁늦어지	-2030
▁달라진	-2031
▁더라구	-2032
▁마셔야	-2033
▁생명력	-2034
▁스킨십	-2035
▁어때요	-2036
▁깜	-2037
▁꽂	-2038
▁끄	-2039
▁땀	-2040
▁쐬	-2041
▁~~	-2042
▁가득	-2043
▁강렬	-2044
▁개인	-2045
▁거리	-2046
▁교분	-2047
▁네여	-2048
▁느냐	-2049
▁모아	-2050
▁미래	-2051
▁본질	-2052
▁부과	-2053
▁부럽	-2054
▁사과	-2055
▁새해	-2056
▁신청	-2057
▁싸움	-2058
▁아빠	-2059
▁애교	-2060
▁애정	-2061
▁약간	-2062
▁울음	-2063
▁웃기	-2064
▁인기	-2065
▁자책	-2066
▁잠수	-2067
▁즐기	-2068
▁증거	-2069
▁지출	-2070
▁차별	-2071
▁착용	-2072
▁친분	-2073
▁타개	-2074
▁학기	-2075
▁한참	-2076
▁항성	-2077
▁걸까요	-2078
▁나아졌	-2079
▁생각날	-2080
▁연예인	-2081
▁예뻐요	-2082
▁일어났	-2083
▁제자리	-2084
▁흘러가	-2085
▁낭	-2086
▁낼	-2087
▁찔	-2088
▁턱	-2089
다시	-2090
생활	-2091
이어	-2092
하루	-2093
▁가을	-2094
▁겨우	-2095
▁공표	-2096
▁과거	-2097
▁관전	-2098
▁끝나	-2099
▁냄새	-2100
▁대단	-2101
▁뒤쫓	-2102
▁려는	-2103
▁발표	-2104
▁버릴	-2105
▁빠져	-2106
▁사소	-2107
▁아주	-2108
▁영상	-2109
▁올까	-2110
▁우린	-2111
▁위생	-2112
▁이미	-2113
▁이번	-2114
▁자유	-2115
▁증오	-2116
▁지울	-2117
▁지칠	-2118
▁충격	-2119
▁태어	-2120
▁흔적	-2121
▁결혼식	-2122
▁그만두	-2123
▁또다시	-2124
▁벗어나	-2125
▁보내주	-2126
▁불고기	-2127
▁상대편	-2128
▁이겨낼	-2129
▁해지지	-2130
▁드립니다	-2131
▁오랫동안	-2132
▁하루하루	-2133
▁객	-2134
▁쌩	-2135
▁쏠	-2136
▁쓴	-2137
▁씁	-2138
▁잃	-2139
▁쳐	-2140
러운	-2141
려오	-2142
어도	-2143
어두	-2144
▁가차	-2145
▁감명	-2146
▁과중	-2147
▁관념	-2148
▁괜한	-2149
▁구나	-2150
▁기술	-2151
▁누굴	-2152
▁느려	-2153
▁단념	-2154
▁막말	-2155
▁매주	-2156
▁면접	-2157
▁미칠	-2158
▁변천	-2159
▁변한	-2160
▁보고	-2161
▁봐서	-2162
▁빼빼	-2163
▁사망	-2164
▁성단	-2165
▁소문	-2166
▁신혼	-2167
▁실패	-2168
▁싸워	-2169
▁쓰여	-2170
▁애틋	-2171
▁와서	-2172
▁울적	-2173
▁은연	-2174
▁은지	-2175
▁음식	-2176
▁이슈	-2177
▁전망	-2178
▁지냈	-2179
▁투쟁	-2180
▁피하	-2181
▁하고	-2182
▁한대	-2183
▁해소	-2184
▁혼란	-2185
▁휴가	-2186
▁겨울철	-2187
▁그동안	-2188
▁단단히	-2189
▁랍니다	-2190
▁마침내	-2191
▁무기한	-2192
▁버려야	-2193
▁스러울	-2194
▁아닐까	-2195
▁이상형	-2196
▁지나갔	-2197
▁찾아내	-2198
▁돌아가시	-2199
▁ᄆ	-2200
▁넓	-2201
▁뽑	-2202
▁뿌	-2203
▁쏟	-2204
▁엿	-2205
▁잤	-2206
▁헬	-2207
▁혁	-2208
드리	-2209
부짖	-2210
▁30	-2211
▁감추	-2212
▁거려	-2213
▁과부	-2214
▁누나	-2215
▁데우	-2216
▁도록	-2217
▁돌리	-2218
▁동물	-2219
▁매번	-2220
▁멈추	-2221
▁모으	-2222
▁비난	-2223
▁심심	-2224
▁어떠	-2225
▁의아	-2226
▁이어	-2227
▁인격	-2228
▁인형	-2229
▁자녀	-2230
▁줘요	-2231
▁철벽	-2232
▁통해	-2233
▁파이	-2234
▁학원	-2235
▁혁명	-2236
▁회복	-2237
▁가벼운	-2238
▁가치관	-2239
▁그러면	-2240
▁데려가	-2241
▁두근거	-2242
▁외로움	-2243
▁울부짖	-2244
▁차분히	-2245
▁해봐도	-2246
▁발렌타인	-2247
▁9	-2248
▁갚	-2249
▁꼼	-2250
▁딸	-2251
▁앤	-2252
▁웬	-2253
▁털	-2254
▁흑	-2255
▁흥	-2256
느님	-2257
라앉	-2258
려도	-2259
영상	-2260
퇴근	-2261
▁겠다	-2262
▁글자	-2263
▁남겨	-2264
▁당한	-2265
▁대리	-2266
▁떠났	-2267
▁떠보	-2268
▁똑똑	-2269
▁라네	-2270
▁모른	-2271
▁모자	-2272
▁바다	-2273
▁버텨	-2274
▁병원	-2275
▁보단	-2276
▁셔요	-2277
▁순수	-2278
▁애절	-2279
▁앤트	-2280
▁열쇠	-2281
▁오락	-2282
▁웨딩	-2283
▁웬수	-2284
▁으셨	-2285
▁이름	-2286
▁인상	-2287
▁전혀	-2288
▁전황	-2289
▁죄송	-2290
▁지옥	-2291
▁차가	-2292
▁체력	-2293
▁초기	-2294
▁한달	-2295
▁가라앉	-2296
▁갈수록	-2297
▁달려가	-2298
▁데려다	-2299
▁동영상	-2300
▁마침표	-2301
▁무거워	-2302
▁보여요	-2303
▁여행자	-2304
▁으니까	-2305
▁으신가	-2306
▁줄게요	-2307
▁짧아지	-2308
▁출퇴근	-2309
▁토요일	-2310
▁하느님	-2311
▁시어머니	-2312
▁오락가락	-2313
▁널	-2314
▁젖	-2315
▁짱	-2316
▁칼	-2317
던지	-2318
모습	-2319
어놓	-2320
이스	-2321
▁간단	-2322
▁근래	-2323
▁깨끗	-2324
▁끈기	-2325
▁끝났	-2326
▁내보	-2327
▁내용	-2328
▁농담	-2329
▁니다	-2330
▁답변	-2331
▁들이	-2332
▁산책	-2333
▁선배	-2334
▁소심	-2335
▁소원	-2336
▁심장	-2337
▁아깝	-2338
▁연속	-2339
▁외국	-2340
▁웃음	-2341
▁유지	-2342
▁일반	-2343
▁잠들	-2344
▁중독	-2345
▁지네	-2346
▁책임	-2347
▁축구	-2348
▁크시	-2349
▁필수	-2350
▁현금	-2351
▁효능	-2352
▁그럴까	-2353
▁깨뜨리	-2354
▁느껴지	-2355
▁늘어놓	-2356
▁떠올리	-2357
▁마스크	-2358
▁물어봐	-2359
▁우연히	-2360
▁헤아리	-2361
▁겟	-2362
▁낙	-2363
▁둔	-2364
▁땡	-2365
▁왤	-2366
▁즉	-2367
▁춥	-2368
▁탄	-2369
▁흠	-2370
도인	-2371
사적	-2372
세우	-2373
스트	-2374
으니	-2375
이크	-2376
작정	-2377
첩장	-2378
큐멘	-2379
▁15	-2380
▁갖추	-2381
▁고맙	-2382
▁골라	-2383
▁광경	-2384
▁그립	-2385
▁깨지	-2386
▁나갔	-2387
▁남녀	-2388
▁놓치	-2389
▁다소	-2390
▁단호	-2391
▁반찬	-2392
▁불편	-2393
▁사안	-2394
▁서툴	-2395
▁신나	-2396
▁아껴	-2397
▁아련	-2398
▁엿보	-2399
▁였을	-2400
▁왤케	-2401
▁운전	-2402
▁이틀	-2403
▁일부	-2404
▁재활	-2405
▁중고	-2406
▁진료	-2407
▁진실	-2408
▁최악	-2409
▁출발	-2410
▁터지	-2411
▁표시	-2412
▁풍습	-2413
▁학생	-2414
▁헛헛	-2415
▁휴식	-2416
답니다	-2417
이어트	-2418
▁굳어지	-2419
▁넘어서	-2420
▁다큐멘	-2421
▁되돌아	-2422
▁드라이	-2423
▁매도인	-2424
▁못생기	-2425
▁무너졌	-2426
▁무작정	-2427
▁봅시다	-2428
▁상관없	-2429
▁쇼핑몰	-2430
▁스트로	-2431
▁영화사	-2432
▁자격증	-2433
▁지나간	-2434
▁청첩장	-2435
▁태어나	-2436
▁파이팅	-2437
▁필사적	-2438
▁다이어트	-2439
▁다큐멘터리	-2440
▁발렌타인데이	-2441
▁꽤	-2442
▁낳	-2443
▁숙	-2444
▁쉴	-2445
▁찼	-2446
▁켠	-2447
▁쿨	-2448
▁폐	-2449
▁훈	-2450
▁히	-2451
까봐	-2452
리카	-2453
버렸	-2454
번호	-2455
분간	-2456
조건	-2457
지부	-2458
풀이	-2459
히려	-2460
▁가만	-2461
▁간대	-2462
▁감출	-2463
▁강조	-2464
▁게요	-2465
▁격차	-2466
▁겸하	-2467
▁고난	-2468
▁고서	-2469
▁고칠	-2470
▁기원	-2471
▁깨졌	-2472
▁끊겼	-2473
▁끼리	-2474
▁나갈	-2475
▁난다	-2476
▁남길	-2477
▁느낀	-2478
▁니깐	-2479
▁다툼	-2480
▁담긴	-2481
▁동일	-2482
▁된다	-2483
▁드와	-2484
▁떠날	-2485
▁뜻하	-2486
▁막히	-2487
▁맞추	-2488
▁모순	-2489
▁불타	-2490
▁생생	-2491
▁솔로	-2492
▁시대	-2493
▁실체	-2494
▁쓰일	-2495
▁씌이	-2496
▁역임	-2497
▁온몸	-2498
▁위의	-2499
▁이쁜	-2500
▁전문	-2501
▁정식	-2502
▁주기	-2503
▁준대	-2504
▁중간	-2505
▁지루	-2506
▁질리	-2507
▁타나	-2508
▁터리	-2509
▁통화	-2510
▁해제	-2511
▁해줘	-2512
▁했었	-2513
▁화내	-2514
을지도	-2515
▁관심사	-2516
▁그리울	-2517
▁기울여	-2518
▁내려놓	-2519
▁노래방	-2520
▁다녀와	-2521
▁당분간	-2522
▁들으면	-2523
▁떠오르	-2524
▁로부터	-2525
▁무너지	-2526
▁무조건	-2527
▁묻어두	-2528
▁변해요	-2529
▁스트레	-2530
▁어려울	-2531
▁오히려	-2532
▁올려놓	-2533
▁인데요	-2534
▁찾아온	-2535
▁헌신적	-2536
▁헤아릴	-2537
▁나을지도	-2538
▁빠를수록	-2539
▁생겼으면	-2540
▁생활환경	-2541
▁주식회사	-2542
▁굴	-2543
▁긁	-2544
▁꺾	-2545
▁낸	-2546
▁딴	-2547
▁묵	-2548
▁벚	-2549
▁삐	-2550
▁쉐	-2551
▁얕	-2552
▁켜	-2553
▁휘	-2554
다리	-2555
만에	-2556
면증	-2557
여행	-2558
역사	-2559
으키	-2560
이브	-2561
체역	-2562
폰지	-2563
▁20	-2564
▁개강	-2565
▁고르	-2566
▁근처	-2567
▁단점	-2568
▁당장	-2569
▁동침	-2570
▁든든	-2571
▁묵살	-2572
▁미끄	-2573
▁바늘	-2574
▁버스	-2575
▁벗겨	-2576
▁벚꽃	-2577
▁부려	-2578
▁사겼	-2579
▁사르	-2580
▁소모	-2581
▁심경	-2582
▁아쉬	-2583
▁온전	-2584
▁왜곡	-2585
▁욕계	-2586
▁유머	-2587
▁인근	-2588
▁읽히	-2589
▁장래	-2590
▁접수	-2591
▁조급	-2592
▁천거	-2593
▁최근	-2594
▁추운	-2595
▁탈퇴	-2596
▁행실	-2597
▁흉내	-2598
▁간만에	-2599
▁강아지	-2600
▁그리운	-2601
▁나타났	-2602
▁드레스	-2603
▁들어오	-2604
▁떨어져	-2605
▁멋져요	-2606
▁바꿀까	-2607
▁불면증	-2608
▁스폰지	-2609
▁어쩌면	-2610
▁올라오	-2611
▁우세요	-2612
▁차이점	-2613
▁최대한	-2614
▁취체역	-2615
▁흑역사	-2616
▁루	-2617
▁민	-2618
▁뺨	-2619
▁송	-2620
▁싣	-2621
▁십	-2622
▁앉	-2623
▁왕	-2624
▁왠	-2625
▁춤	-2626
▁헐	-2627
▁황	-2628
가지	-2629
괴감	-2630
련만	-2631
로지	-2632
머리	-2633
야지	-2634
언가	-2635
위식	-2636
장면	-2637
▁가늠	-2638
▁간혹	-2639
▁감당	-2640
▁감수	-2641
▁강습	-2642
▁거라	-2643
▁검증	-2644
▁공감	-2645
▁과연	-2646
▁과일	-2647
▁구해	-2648
▁꾸짖	-2649
▁또한	-2650
▁모를	-2651
▁발리	-2652
▁비교	-2653
▁새로	-2654
▁생선	-2655
▁셀카	-2656
▁습도	-2657
▁신고	-2658
▁심리	-2659
▁싸운	-2660
▁아마	-2661
▁안개	-2662
▁앞두	-2663
▁양말	-2664
▁어리	-2665
▁온다	-2666
▁와요	-2667
▁외롭	-2668
▁유부	-2669
▁음수	-2670
▁의사	-2671
▁이것	-2672
▁이뻐	-2673
▁익살	-2674
▁자각	-2675
▁적응	-2676
▁조건	-2677
▁조절	-2678
▁존경	-2679
▁죽음	-2680
▁중국	-2681
▁지식	-2682
▁지치	-2683
▁집안	-2684
▁차인	-2685
▁치료	-2686
▁코스	-2687
▁포즈	-2688
▁혼내	-2689
▁회의	-2690
▁100	-2691
▁게시판	-2692
▁기다림	-2693
▁내려지	-2694
▁단순히	-2695
▁모자라	-2696
▁무언가	-2697
▁문제점	-2698
▁보일러	-2699
▁아닌가	-2700
▁연락처	-2701
▁온전히	-2702
▁으련만	-2703
▁자괴감	-2704
▁자세히	-2705
▁정말로	-2706
▁즉위식	-2707
▁화장실	-2708
▁받아들일	-2709
▁아닌가요	-2710
▁원한다면	-2711
▁힘듭니다	-2712
▁눕	-2713
▁블	-2714
▁빚	-2715
▁샤	-2716
▁숫	-2717
구나	-2718
당기	-2719
부로	-2720
의점	-2721
탄절	-2722
호흡	-2723
▁가깝	-2724
▁가입	-2725
▁간사	-2726
▁감히	-2727
▁객관	-2728
▁거만	-2729
▁거울	-2730
▁걸리	-2731
▁고시	-2732
▁구분	-2733
▁기도	-2734
▁깨우	-2735
▁끓이	-2736
▁드셔	-2737
▁딸기	-2738
▁맛난	-2739
▁멍청	-2740
▁무지	-2741
▁미용	-2742
▁반가	-2743
▁배고	-2744
▁번은	-2745
▁비워	-2746
▁빼앗	-2747
▁사죄	-2748
▁서신	-2749
▁성적	-2750
▁속설	-2751
▁속옷	-2752
▁숫자	-2753
▁신뢰	-2754
▁싸웠	-2755
▁오류	-2756
▁옮겨	-2757
▁욕심	-2758
▁장과	-2759
▁저번	-2760
▁조카	-2761
▁종료	-2762
▁줄여	-2763
▁지웠	-2764
▁지하	-2765
▁진급	-2766
▁쪽지	-2767
▁차리	-2768
▁철회	-2769
▁최강	-2770
▁클럽	-2771
▁택시	-2772
▁투자	-2773
▁평소	-2774
▁함수	-2775
▁해명	-2776
▁화가	-2777
▁확보	-2778
▁활용	-2779
등학교	-2780
▁는구나	-2781
▁다녀오	-2782
▁사이트	-2783
▁성탄절	-2784
▁심호흡	-2785
▁알아내	-2786
▁함부로	-2787
▁갇	-2788
▁댄	-2789
▁땅	-2790
▁런	-2791
▁렌	-2792
▁북	-2793
▁촉	-2794
누스	-2795
드름	-2796
라고	-2797
리아	-2798
유증	-2799
질없	-2800
프트	-2801
흐트	-2802
▁가리	-2803
▁간부	-2804
▁건너	-2805
▁격분	-2806
▁경제	-2807
▁경축	-2808
▁계절	-2809
▁공개	-2810
▁과식	-2811
▁그간	-2812
▁기한	-2813
▁김치	-2814
▁끝냈	-2815
▁남기	-2816
▁다리	-2817
▁더럽	-2818
▁두드	-2819
▁로또	-2820
▁망상	-2821
▁모뎀	-2822
▁몸매	-2823
▁발레	-2824
▁별칭	-2825
▁보험	-2826
▁비참	-2827
▁빨래	-2828
▁수건	-2829
▁숨기	-2830
▁시계	-2831
▁심하	-2832
▁애석	-2833
▁야경	-2834
▁양복	-2835
▁언동	-2836
▁연휴	-2837
▁오지	-2838
▁종용	-2839
▁증세	-2840
▁차갑	-2841
▁체육	-2842
▁추대	-2843
▁치과	-2844
▁탈출	-2845
▁통지	-2846
▁특별	-2847
▁틀리	-2848
▁페북	-2849
▁하녀	-2850
▁형상	-2851
▁흠집	-2852
▁게임기	-2853
▁고마워	-2854
▁괴로워	-2855
▁기다렸	-2856
▁나아질	-2857
▁나타내	-2858
▁내세우	-2859
▁말씀하	-2860
▁보름달	-2861
▁보여주	-2862
▁부질없	-2863
▁빈자리	-2864
▁사다리	-2865
▁선생님	-2866
▁여드름	-2867
▁자회사	-2868
▁지하철	-2869
▁찾아갔	-2870
▁후유증	-2871
리카누스	-2872
▁두드러지	-2873
▁자연환경	-2874
▁트라흐트	-2875
▁한답니다	-2876
▁아프리카누스	-2877
▁값	-2878
▁겉	-2879
▁꾹	-2880
▁납	-2881
▁냈	-2882
▁놨	-2883
▁덕	-2884
▁뒹	-2885
▁떴	-2886
▁령	-2887
▁롱	-2888
▁류	-2889
▁맥	-2890
▁맺	-2891
▁밟	-2892
▁뽀	-2893
▁섬	-2894
▁썩	-2895
▁얻	-2896
▁졋	-2897
▁짠	-2898
▁쫄	-2899
▁튀	-2900
개지	-2901
규직	-2902
난히	-2903
너덜	-2904
니까	-2905
대체	-2906
려서	-2907
무원	-2908
보여	-2909
부리	-2910
설여	-2911
스레	-2912
어진	-2913
웠을	-2914
의금	-2915
정신	-2916
젯밤	-2917
진다	-2918
할까	-2919
▁갈라	-2920
▁강물	-2921
▁거의	-2922
▁걸린	-2923
▁겠어	-2924
▁계기	-2925
▁괴짜	-2926
▁굳이	-2927
▁근데	-2928
▁기복	-2929
▁까요	-2930
▁꾹꾹	-2931
▁낭비	-2932
▁내게	-2933
▁너덜	-2934
▁놀랐	-2935
▁느긋	-2936
▁느꼈	-2937
▁느낄	-2938
▁는다	-2939
▁는대	-2940
▁다닐	-2941
▁다쳤	-2942
▁당하	-2943
▁당해	-2944
▁대략	-2945
▁더욱	-2946
▁도망	-2947
▁든지	-2948
▁떨쳐	-2949
▁뜻밖	-2950
▁래요	-2951
▁령기	-2952
▁로워	-2953
▁맞출	-2954
▁매몰	-2955
▁맥주	-2956
▁먹여	-2957
▁먼지	-2958
▁멈춰	-2959
▁목욕	-2960
▁무리	-2961
▁반년	-2962
▁반장	-2963
▁반했	-2964
▁발간	-2965
▁배울	-2966
▁별도	-2967
▁보였	-2968
▁부끄	-2969
▁빠른	-2970
▁빠졌	-2971
▁샤워	-2972
▁성숙	-2973
▁셀프	-2974
▁소비	-2975
▁수영	-2976
▁스키	-2977
▁슬쩍	-2978
▁슬플	-2979
▁실내	-2980
▁쌓인	-2981
▁쓸쓸	-2982
▁씁쓸	-2983
▁애기	-2984
▁어머	-2985
▁에겐	-2986
▁에휴	-2987
▁여섯	-2988
▁예고	-2989
▁예정	-2990
▁오바	-2991
▁옮기	-2992
▁요리	-2993
▁우정	-2994
▁운영	-2995
▁위기	-2996
▁을가	-2997
▁이길	-2998
▁일거	-2999
▁자네	-3000
▁잘라	-3001
▁쟁취	-3002
▁점검	-3003
▁증상	-3004
▁지낸	-3005
▁지속	-3006
▁지키	-3007
▁진다	-3008
▁착한	-3009
▁척하	-3010
▁청해	-3011
▁초대	-3012
▁추스	-3013
▁춤추	-3014
▁치유	-3015
▁택배	-3016
▁통장	-3017
▁패턴	-3018
▁페메	-3019
▁포근	-3020
▁풀렸	-3021
▁풀릴	-3022
▁피싱	-3023
▁학벌	-3024
▁합리	-3025
▁허무	-3026
▁허상	-3027
▁호칭	-3028
릅니다	-3029
보여요	-3030
▁가만히	-3031
▁고마운	-3032
▁구부리	-3033
▁기프트	-3034
▁깨달음	-3035
▁나아가	-3036
▁나타날	-3037
▁난다고	-3038
▁느껴져	-3039
▁다면요	-3040
▁달라요	-3041
▁더러워	-3042
▁도대체	-3043
▁되풀이	-3044
▁들어도	-3045
▁들어올	-3046
▁망설여	-3047
▁못해요	-3048
▁무너진	-3049
▁무뎌질	-3050
▁뭘까요	-3051
▁배울까	-3052
▁배터리	-3053
▁봐야지	-3054
▁부러지	-3055
▁사라진	-3056
▁살아온	-3057
▁생각난	-3058
▁서툴러	-3059
▁셔야죠	-3060
▁속상할	-3061
▁슬퍼하	-3062
▁아까워	-3063
▁아야죠	-3064
▁알아볼	-3065
▁앞머리	-3066
▁어야죠	-3067
▁어울리	-3068
▁어젯밤	-3069
▁영원히	-3070
▁월요일	-3071
▁유난히	-3072
▁이나마	-3073
▁일어날	-3074
▁적어도	-3075
▁제정신	-3076
▁좋아했	-3077
▁지만은	-3078
▁쪼개지	-3079
▁차가워	-3080
▁축의금	-3081
▁취해서	-3082
▁프라이	-3083
▁학교의	-3084
▁해야겠	-3085
▁힘든데	-3086
▁너덜너덜	-3087
▁두근거리	-3088
▁두근거림	-3089
▁어떠세요	-3090
▁전문학교	-3091
▁해보여요	-3092
▁갑작스러운	-3093
▁중고등학교	-3094
▁곱	-3095
▁꾼	-3096
▁돋	-3097
▁밑	-3098
▁브	-3099
▁섭	-3100
▁씨	-3101
▁압	-3102
▁육	-3103
▁총	-3104
▁훔	-3105
기간	-3106
동생	-3107
라도	-3108
마치	-3109
바람	-3110
버스	-3111
버시	-3112
병대	-3113
생긴	-3114
시방	-3115
아리	-3116
조리	-3117
▁간주	-3118
▁간편	-3119
▁겸임	-3120
▁교회	-3121
▁구별	-3122
▁깜빡	-3123
▁꺾이	-3124
▁꼼꼼	-3125
▁나르	-3126
▁는군	-3127
▁다섯	-3128
▁대수	-3129
▁대중	-3130
▁따지	-3131
▁띄우	-3132
▁맞춤	-3133
▁목적	-3134
▁무한	-3135
▁배제	-3136
▁법의	-3137
▁별명	-3138
▁불금	-3139
▁붙여	-3140
▁비우	-3141
▁비통	-3142
▁성품	-3143
▁수다	-3144
▁수면	-3145
▁수상	-3146
▁수월	-3147
▁시켰	-3148
▁식사	-3149
▁써야	-3150
▁어렸	-3151
▁업체	-3152
▁열흘	-3153
▁용서	-3154
▁원비	-3155
▁유학	-3156
▁의료	-3157
▁의리	-3158
▁일시	-3159
▁장해	-3160
▁전기	-3161
▁주위	-3162
▁주인	-3163
▁참견	-3164
▁챙기	-3165
▁철쭉	-3166
▁치맥	-3167
▁친근	-3168
▁친절	-3169
▁평등	-3170
▁평생	-3171
▁필기	-3172
▁한창	-3173
▁헬스	-3174
▁회식	-3175
▁흥미	-3176
아다니	-3177
▁간절히	-3178
▁감사원	-3179
▁건가요	-3180
▁건드리	-3181
▁겁니다	-3182
▁공무원	-3183
▁끝마치	-3184
▁나아지	-3185
▁나타나	-3186
▁내려가	-3187
▁달라질	-3188
▁두려운	-3189
▁듭니다	-3190
▁떠나갔	-3191
▁뜻대로	-3192
▁로마자	-3193
▁밀려오	-3194
▁배고파	-3195
▁벌어지	-3196
▁비바람	-3197
▁아름답	-3198
▁아쉬움	-3199
▁안경테	-3200
▁어린이	-3201
▁으려면	-3202
▁이라도	-3203
▁인정받	-3204
▁일자리	-3205
▁정확히	-3206
▁집어넣	-3207
▁편의점	-3208
▁피시방	-3209
▁끝났으면	-3210
▁만난다면	-3211
▁잡아당기	-3212
▁집어던지	-3213
▁프라이버시	-3214
▁곰	-3215
▁규	-3216
▁넣	-3217
▁늙	-3218
▁닫	-3219
▁득	-3220
▁똥	-3221
▁뜬	-3222
▁롭	-3223
▁맡	-3224
▁범	-3225
▁봇	-3226
▁암	-3227
▁엊	-3228
▁엠	-3229
▁젤	-3230
▁찜	-3231
▁텅	-3232
▁텔	-3233
▁틈	-3234
▁홈	-3235
겹살	-3236
곰히	-3237
더니	-3238
디션	-3239
라나	-3240
레소	-3241
로그	-3242
보라	-3243
서히	-3244
성공	-3245
스프	-3246
오래	-3247
질방	-3248
트업	-3249
호회	-3250
▁11	-3251
▁가려	-3252
▁간식	-3253
▁간접	-3254
▁거둬	-3255
▁거든	-3256
▁겁나	-3257
▁관습	-3258
▁교만	-3259
▁구멍	-3260
▁구워	-3261
▁국경	-3262
▁길래	-3263
▁나름	-3264
▁나약	-3265
▁다치	-3266
▁대출	-3267
▁더디	-3268
▁덜할	-3269
▁덤덤	-3270
▁데빌	-3271
▁돌이	-3272
▁라요	-3273
▁레몬	-3274
▁마중	-3275
▁막혀	-3276
▁먹먹	-3277
▁목표	-3278
▁못난	-3279
▁발달	-3280
▁방금	-3281
▁부딪	-3282
▁비싼	-3283
▁비추	-3284
▁생태	-3285
▁서툰	-3286
▁설날	-3287
▁세워	-3288
▁손해	-3289
▁수수	-3290
▁수십	-3291
▁시선	-3292
▁식과	-3293
▁신앙	-3294
▁실례	-3295
▁쓸모	-3296
▁안정	-3297
▁애초	-3298
▁액션	-3299
▁약정	-3300
▁엉엉	-3301
▁에선	-3302
▁엠티	-3303
▁염색	-3304
▁예능	-3305
▁왠지	-3306
▁요청	-3307
▁위촉	-3308
▁의류	-3309
▁장점	-3310
▁전공	-3311
▁절약	-3312
▁지친	-3313
▁직구	-3314
▁질긴	-3315
▁질려	-3316
▁질문	-3317
▁처리	-3318
▁천재	-3319
▁청구	-3320
▁치매	-3321
▁큰일	-3322
▁태연	-3323
▁피할	-3324
▁해낼	-3325
▁화나	-3326
▁희생	-3327
러워서	-3328
옵니다	-3329
▁가까운	-3330
▁가까이	-3331
▁곰곰히	-3332
▁나을까	-3333
▁넘어가	-3334
▁눈보라	-3335
▁달려들	-3336
▁대성공	-3337
▁도와줘	-3338
▁돌아보	-3339
▁동호회	-3340
▁된다면	-3341
▁떠나간	-3342
▁떨어지	-3343
▁바람난	-3344
▁발레리	-3345
▁사랑니	-3346
▁삼겹살	-3347
▁상사병	-3348
▁상상력	-3349
▁서서히	-3350
▁속상해	-3351
▁아이돌	-3352
▁에스프	-3353
▁우울해	-3354
▁웨이브	-3355
▁유부남	-3356
▁으라고	-3357
▁을수록	-3358
▁재미없	-3359
▁정신병	-3360
▁지나갈	-3361
▁지쳐서	-3362
▁찜질방	-3363
▁추진력	-3364
▁케이스	-3365
▁헷갈려	-3366
▁고마워요	-3367
▁돌아올까	-3368
▁드라이브	-3369
▁따라다니	-3370
▁생긴다는	-3371
▁수학여행	-3372
▁스타트업	-3373
▁스트레칭	-3374
▁안타까워	-3375
▁오래오래	-3376
▁이뤄지지	-3377
▁전화번호	-3378
▁찾아다니	-3379
▁에스프레소	-3380
▁룩	-3381
▁멘	-3382
▁솜	-3383
▁얽	-3384
▁엮	-3385
▁옳	-3386
▁옹	-3387
▁워	-3388
▁윗	-3389
▁컴	-3390
▁탓	-3391
▁팩	-3392
▁푼	-3393
개인	-3394
거려	-3395
나오	-3396
너무	-3397
느리	-3398
다랗	-3399
대사	-3400
데없	-3401
벤트	-3402
부분	-3403
셔널	-3404
양이	-3405
우마	-3406
직자	-3407
코넛	-3408
터디	-3409
트북	-3410
▁가네	-3411
▁갈등	-3412
▁감싸	-3413
▁감이	-3414
▁건조	-3415
▁걸어	-3416
▁경쟁	-3417
▁공원	-3418
▁교양	-3419
▁권리	-3420
▁금연	-3421
▁기뻐	-3422
▁기적	-3423
▁기호	-3424
▁나날	-3425
▁나누	-3426
▁내면	-3427
▁노후	-3428
▁는가	-3429
▁도착	-3430
▁동작	-3431
▁두통	-3432
▁등산	-3433
▁만족	-3434
▁면도	-3435
▁면역	-3436
▁면허	-3437
▁명품	-3438
▁모임	-3439
▁무릎	-3440
▁물건	-3441
▁미약	-3442
▁반지	-3443
▁버린	-3444
▁베이	-3445
▁병신	-3446
▁본능	-3447
▁부디	-3448
▁부르	-3449
▁부자	-3450
▁분개	-3451
▁사탕	-3452
▁생리	-3453
▁설렜	-3454
▁성별	-3455
▁세포	-3456
▁센스	-3457
▁소유	-3458
▁소질	-3459
▁속도	-3460
▁속박	-3461
▁수백	-3462
▁수치	-3463
▁순위	-3464
▁스릴	-3465
▁시외	-3466
▁식이	-3467
▁실재	-3468
▁쌓이	-3469
▁안전	-3470
▁알선	-3471
▁약해	-3472
▁여우	-3473
▁염탐	-3474
▁영양	-3475
▁올리	-3476
▁옹호	-3477
▁유명	-3478
▁이불	-3479
▁이점	-3480
▁인턴	-3481
▁일기	-3482
▁잔인	-3483
▁저희	-3484
▁정답	-3485
▁정성	-3486
▁정치	-3487
▁정황	-3488
▁제주	-3489
▁주력	-3490
▁진행	-3491
▁찍히	-3492
▁찬성	-3493
▁참으	-3494
▁추석	-3495
▁축제	-3496
▁특징	-3497
▁평가	-3498
▁평온	-3499
▁필름	-3500
▁하필	-3501
▁행운	-3502
▁향수	-3503
▁헐뜯	-3504
▁활동	-3505
▁훈련	-3506
로지르	-3507
페셔널	-3508
▁강습소	-3509
▁고양이	-3510
▁공직자	-3511
▁공통점	-3512
▁궁금하	-3513
▁긴장감	-3514
▁남동생	-3515
▁노트북	-3516
▁달라붙	-3517
▁되돌리	-3518
▁들이대	-3519
▁마주쳤	-3520
▁무기력	-3521
▁별자리	-3522
▁본격적	-3523
▁솔직히	-3524
▁스터디	-3525
▁쓸데없	-3526
▁양자리	-3527
▁어리석	-3528
▁엄청나	-3529
▁영화관	-3530
▁이럴까	-3531
▁이벤트	-3532
▁잘생기	-3533
▁좋아지	-3534
▁집들이	-3535
▁집안일	-3536
▁커다랗	-3537
▁코코넛	-3538
▁퇴근길	-3539
▁현대사	-3540
▁가로지르	-3541
▁갑작스럽	-3542
▁너무너무	-3543
▁트라우마	-3544
▁흘러나오	-3545
▁프로페셔널	-3546
▁넋	-3547
▁논	-3548
▁델	-3549
▁뚫	-3550
▁밝	-3551
▁볶	-3552
▁빽	-3553
▁숏	-3554
▁옥	-3555
▁윤	-3556
▁잼	-3557
▁찢	-3558
▁쿠	-3559
▁탁	-3560
▁팁	-3561
▁품	-3562
근차	-3563
달콩	-3564
독여	-3565
돌이	-3566
두리	-3567
둥이	-3568
로리	-3569
린다	-3570
마디	-3571
바이	-3572
수증	-3573
카오	-3574
테리	-3575
▁가속	-3576
▁가운	-3577
▁갇히	-3578
▁감미	-3579
▁감시	-3580
▁걸렸	-3581
▁고장	-3582
▁글쎄	-3583
▁기르	-3584
▁기업	-3585
▁길러	-3586
▁꺼내	-3587
▁꼬시	-3588
▁끓여	-3589
▁낭만	-3590
▁다네	-3591
▁달력	-3592
▁댄스	-3593
▁데이	-3594
▁들려	-3595
▁들키	-3596
▁따듯	-3597
▁뜨겁	-3598
▁라이	-3599
▁런지	-3600
▁막힌	-3601
▁맛집	-3602
▁메리	-3603
▁멘탈	-3604
▁명확	-3605
▁모친	-3606
▁바란	-3607
▁바래	-3608
▁반응	-3609
▁배신	-3610
▁변장	-3611
▁병리	-3612
▁보듬	-3613
▁부드	-3614
▁부서	-3615
▁부정	-3616
▁불쌍	-3617
▁비판	-3618
▁사업	-3619
▁선과	-3620
▁성덕	-3621
▁센터	-3622
▁소음	-3623
▁수락	-3624
▁승리	-3625
▁시려	-3626
▁시합	-3627
▁신기	-3628
▁심성	-3629
▁쏟아	-3630
▁아려	-3631
▁안부	-3632
▁알콩	-3633
▁애니	-3634
▁억울	-3635
▁연상	-3636
▁열받	-3637
▁열정	-3638
▁예랑	-3639
▁오토	-3640
▁웃겨	-3641
▁원해	-3642
▁이리	-3643
▁인고	-3644
▁잃어	-3645
▁입맛	-3646
▁자취	-3647
▁저렴	-3648
▁저주	-3649
▁절친	-3650
▁중복	-3651
▁즐겨	-3652
▁지갑	-3653
▁쪼금	-3654
▁착잡	-3655
▁첫눈	-3656
▁치워	-3657
▁콘솔	-3658
▁페달	-3659
▁풀리	-3660
▁한심	-3661
▁할인	-3662
▁힘껏	-3663
근차근	-3664
러뜨리	-3665
영수증	-3666
일으키	-3667
▁넋두리	-3668
▁다가오	-3669
▁다독여	-3670
▁단기간	-3671
▁대리인	-3672
▁대학원	-3673
▁마실까	-3674
▁망가지	-3675
▁매달리	-3676
▁며느리	-3677
▁모아서	-3678
▁몰려오	-3679
▁배우자	-3680
▁벗겨지	-3681
▁보이스	-3682
▁사라질	-3683
▁알려주	-3684
▁알아차	-3685
▁원거리	-3686
▁의식적	-3687
▁잊혀져	-3688
▁자존심	-3689
▁찾아왔	-3690
▁채워질	-3691
▁카카오	-3692
▁칼로리	-3693
▁태어났	-3694
▁프로필	-3695
▁한마디	-3696
▁흘러들	-3697
▁괴로워하	-3698
▁되돌아오	-3699
▁떠나보내	-3700
▁바란다면	-3701
▁아름다움	-3702
▁알콩달콩	-3703
▁오토바이	-3704
▁정신없이	-3705
▁차근차근	-3706
▁불러일으키	-3707
▁현금영수증	-3708
00	-3709
go	-3710
▁b	-3711
▁겪	-3712
▁괘	-3713
▁굽	-3714
▁깃	-3715
▁깍	-3716
▁꼰	-3717
▁꿔	-3718
▁닭	-3719
▁닿	-3720
▁덧	-3721
▁뒀	-3722
▁땜	-3723
▁떼	-3724
▁력	-3725
▁롤	-3726
▁맴	-3727
▁맹	-3728
▁몫	-3729
▁뻑	-3730
▁섞	-3731
▁섣	-3732
▁슈	-3733
▁쑤	-3734
▁앗	-3735
▁쳤	-3736
▁측	-3737
▁칩	-3738
▁컸	-3739
▁콕	-3740
▁툭	-3741
▁팍	-3742
▁헹	-3743
겨워	-3744
고두	-3745
관문	-3746
긋지	-3747
기업	-3748
긴다	-3749
까운	-3750
꾸로	-3751
나라	-3752
놀이	-3753
는데	-3754
다가	-3755
다발	-3756
다왔	-3757
댓말	-3758
동력	-3759
둬야	-3760
려고	-3761
를까	-3762
리필	-3763
만별	-3764
머지	-3765
메랑	-3766
모티	-3767
묻히	-3768
바닥	-3769
받쳐	-3770
사정	-3771
숭숭	-3772
스터	-3773
슬려	-3774
시지	-3775
시피	-3776
아내	-3777
어날	-3778
으로	-3779
인다	-3780
인트	-3781
작용	-3782
잔데	-3783
저히	-3784
적추	-3785
져서	-3786
지만	-3787
채기	-3788
처럼	-3789
콜록	-3790
콜릿	-3791
토닉	-3792
틈이	-3793
하면	-3794
학관	-3795
행기	-3796
▁??	-3797
▁ab	-3798
▁as	-3799
▁가볍	-3800
▁가짐	-3801
▁각질	-3802
▁간당	-3803
▁간직	-3804
▁간질	-3805
▁간청	-3806
▁갈구	-3807
▁갈래	-3808
▁감과	-3809
▁같애	-3810
▁거래	-3811
▁견적	-3812
▁계신	-3813
▁곤두	-3814
▁괘씸	-3815
▁구두	-3816
▁그나	-3817
▁그지	-3818
▁근심	-3819
▁기댈	-3820
▁기에	-3821
▁긴가	-3822
▁깃털	-3823
▁꼬셔	-3824
▁꼬였	-3825
▁꼰대	-3826
▁꽃길	-3827
▁꾸며	-3828
▁끝날	-3829
▁내딛	-3830
▁노려	-3831
▁놓쳤	-3832
▁다신	-3833
▁다칠	-3834
▁대신	-3835
▁던데	-3836
▁독하	-3837
▁돌보	-3838
▁돼야	-3839
▁뒷담	-3840
▁뒹굴	-3841
▁득템	-3842
▁따르	-3843
▁따위	-3844
▁때리	-3845
▁땡기	-3846
▁똥차	-3847
▁려다	-3848
▁마냥	-3849
▁막차	-3850
▁망한	-3851
▁망함	-3852
▁맡겨	-3853
▁매운	-3854
▁매정	-3855
▁매화	-3856
▁맹세	-3857
▁몰려	-3858
▁무난	-3859
▁문집	-3860
▁뭘로	-3861
▁미루	-3862
▁미소	-3863
▁미쳤	-3864
▁바르	-3865
▁바지	-3866
▁반하	-3867
▁발등	-3868
▁발목	-3869
▁발생	-3870
▁발송	-3871
▁버튼	-3872
▁벗기	-3873
▁변주	-3874
▁별다	-3875
▁보드	-3876
▁복전	-3877
▁비겁	-3878
▁비오	-3879
▁비틀	-3880
▁뻑뻑	-3881
▁삐져	-3882
▁산간	-3883
▁살릴	-3884
▁서글	-3885
▁서약	-3886
▁선언	-3887
▁선연	-3888
▁설득	-3889
▁설마	-3890
▁세밀	-3891
▁소극	-3892
▁소박	-3893
▁손톱	-3894
▁수능	-3895
▁숨길	-3896
▁시린	-3897
▁식당	-3898
▁식혀	-3899
▁신발	-3900
▁실력	-3901
▁실점	-3902
▁싫증	-3903
▁쑤셔	-3904
▁아냐	-3905
▁아들	-3906
▁아팠	-3907
▁알뜰	-3908
▁앞둔	-3909
▁애써	-3910
▁어가	-3911
▁어둠	-3912
▁어른	-3913
▁업무	-3914
▁었었	-3915
▁엊그	-3916
▁여도	-3917
▁예비	-3918
▁오후	-3919
▁올랐	-3920
▁요구	-3921
▁용돈	-3922
▁울컥	-3923
▁원치	-3924
▁위대	-3925
▁유족	-3926
▁으러	-3927
▁으실	-3928
▁은퇴	-3929
▁의자	-3930
▁이른	-3931
▁이여	-3932
▁일그	-3933
▁자다	-3934
▁자동	-3935
▁작아	-3936
▁작정	-3937
▁잠겨	-3938
▁잠재	-3939
▁잡념	-3940
▁절감	-3941
▁정열	-3942
▁져서	-3943
▁종종	-3944
▁주름	-3945
▁주워	-3946
▁줄임	-3947
▁즐길	-3948
▁지낼	-3949
▁지성	-3950
▁지압	-3951
▁직업	-3952
▁질러	-3953
▁질질	-3954
▁질책	-3955
▁차례	-3956
▁참되	-3957
▁천차	-3958
▁초유	-3959
▁축가	-3960
▁측정	-3961
▁친지	-3962
▁커서	-3963
▁케익	-3964
▁크기	-3965
▁테니	-3966
▁토닥	-3967
▁토비	-3968
▁통찰	-3969
▁트로	-3970
▁틀린	-3971
▁파토	-3972
▁팍팍	-3973
▁편린	-3974
▁편식	-3975
▁푸아	-3976
▁풍문	-3977
▁핑거	-3978
▁하객	-3979
▁학번	-3980
▁학점	-3981
▁한스	-3982
▁한편	-3983
▁할래	-3984
▁해선	-3985
▁해진	-3986
▁향하	-3987
▁헛된	-3988
▁혼전	-3989
▁혼주	-3990
▁화났	-3991
▁화폐	-3992
▁환장	-3993
▁효도	-3994
▁효율	-3995
▁후배	-3996
▁후식	-3997
▁흐려	-3998
▁흐를	-3999
▁흐음	-4000
▁힘차	-4001
고두고	-4002
긋지긋	-4003
다는데	-4004
모티콘	-4005
이크업	-4006
적으로	-4007
적추적	-4008
줄게요	-4009
▁갈라놓	-4010
▁갔다왔	-4011
▁거꾸로	-4012
▁거슬려	-4013
▁걸려요	-4014
▁걸어도	-4015
▁과학관	-4016
▁괴로운	-4017
▁구해야	-4018
▁궁금증	-4019
▁귀여운	-4020
▁귀여울	-4021
▁그런지	-4022
▁그럴지	-4023
▁기뻐해	-4024
▁깨어진	-4025
▁꽃다발	-4026
▁나갈까	-4027
▁나머지	-4028
▁나빠졌	-4029
▁나빠지	-4030
▁나아요	-4031
▁나와서	-4032
▁나와야	-4033
▁남겨서	-4034
▁남잔데	-4035
▁냐는데	-4036
▁너무나	-4037
▁놓아줬	-4038
▁누굴까	-4039
▁느껴질	-4040
▁는데요	-4041
▁다가온	-4042
▁다는데	-4043
▁단거리	-4044
▁달라져	-4045
▁당당히	-4046
▁당연히	-4047
▁대부분	-4048
▁대학교	-4049
▁데려오	-4050
▁도저히	-4051
▁돌아서	-4052
▁돌아섰	-4053
▁돌이키	-4054
▁되돌릴	-4055
▁된다는	-4056
▁될까봐	-4057
▁뒤숭숭	-4058
▁들어보	-4059
▁떠날까	-4060
▁떨어뜨	-4061
▁떨어진	-4062
▁레시피	-4063
▁마주쳐	-4064
▁맞출까	-4065
▁매몰찬	-4066
▁멀리서	-4067
▁면서도	-4068
▁모처럼	-4069
▁못생긴	-4070
▁무거운	-4071
▁무뎌진	-4072
▁미용실	-4073
▁바빠서	-4074
▁바쁜가	-4075
▁버려요	-4076
▁버려진	-4077
▁벗어날	-4078
▁변할까	-4079
▁별의별	-4080
▁보내왔	-4081
▁보여도	-4082
▁보여서	-4083
▁부딪혔	-4084
▁부메랑	-4085
▁부작용	-4086
▁북받쳐	-4087
▁분명히	-4088
▁비행기	-4089
▁사생활	-4090
▁사회적	-4091
▁생각났	-4092
▁생겨나	-4093
▁생겨서	-4094
▁설레발	-4095
▁소중히	-4096
▁속사정	-4097
▁속상하	-4098
▁시켜야	-4099
▁씁니다	-4100
▁아닐지	-4101
▁아야지	-4102
▁아파서	-4103
▁아파요	-4104
▁아픈데	-4105
▁알아봐	-4106
▁어느새	-4107
▁어떻하	-4108
▁어서요	-4109
▁여행지	-4110
▁영양제	-4111
▁오지랖	-4112
▁올라갈	-4113
▁올릴까	-4114
▁움직이	-4115
▁원동력	-4116
▁월급날	-4117
▁으려니	-4118
▁을게요	-4119
▁이겨야	-4120
▁이대로	-4121
▁이뤄질	-4122
▁이뻐서	-4123
▁일반적	-4124
▁일부러	-4125
▁일수록	-4126
▁잊혀진	-4127
▁자는데	-4128
▁재채기	-4129
▁전해질	-4130
▁정해져	-4131
▁존댓말	-4132
▁종교가	-4133
▁종지부	-4134
▁중국어	-4135
▁지겨워	-4136
▁짜장면	-4137
▁책임감	-4138
▁쳐다보	-4139
▁초콜릿	-4140
▁추워서	-4141
▁충전기	-4142
▁친해질	-4143
▁탈출구	-4144
▁태어난	-4145
▁틈틈이	-4146
▁파묻히	-4147
▁포인트	-4148
▁필수품	-4149
▁한없이	-4150
▁할텐데	-4151
▁합시다	-4152
▁해줘도	-4153
▁헷갈릴	-4154
▁현관문	-4155
▁회의감	-4156
▁희생양	-4157
▁가까워질	-4158
▁가라앉혀	-4159
▁가벼워질	-4160
▁괴로웠을	-4161
▁그러니까	-4162
▁그럴지도	-4163
▁그리워서	-4164
▁다녀와요	-4165
▁다릅니다	-4166
▁달라져요	-4167
▁더라구요	-4168
▁돌아다니	-4169
▁되돌아가	-4170
▁되돌아보	-4171
▁두고두고	-4172
▁떠난다는	-4173
▁메이크업	-4174
▁무한리필	-4175
▁물어봐도	-4176
▁미련없이	-4177
▁바람둥이	-4178
▁상관없이	-4179
▁아팠으면	-4180
▁울음소리	-4181
▁이모티콘	-4182
▁일그러지	-4183
▁잃어버렸	-4184
▁조심스레	-4185
▁지긋지긋	-4186
▁쫓아다니	-4187
▁천차만별	-4188
▁추적추적	-4189
▁플라토닉	-4190
▁해야겠지	-4191
▁했을지도	-4192
▁객관적으로	-4193
▁받아들여요	-4194
▁생겼을지도	-4195
▁갱	-4196
▁꿰	-4197
▁몹	-4198
▁밉	-4199
▁쌈	-4200
▁웹	-4201
▁잎	-4202
▁촬	-4203
▁펑	-4204
▁픈	-4205
▁홀	-4206
▁홧	-4207
감당	-4208
구니	-4209
나긴	-4210
디오	-4211
레이	-4212
려나	-4213
로워	-4214
릇되	-4215
미디	-4216
벅지	-4217
부르	-4218
부인	-4219
수건	-4220
시락	-4221
운지	-4222
으며	-4223
장고	-4224
조주	-4225
크닉	-4226
탐정	-4227
트롤	-4228
▁12	-4229
▁가출	-4230
▁간섭	-4231
▁감각	-4232
▁강제	-4233
▁개별	-4234
▁겉옷	-4235
▁고는	-4236
▁고야	-4237
▁곱씹	-4238
▁공간	-4239
▁공시	-4240
▁공유	-4241
▁공황	-4242
▁구경	-4243
▁구속	-4244
▁구하	-4245
▁그물	-4246
▁기력	-4247
▁기쁘	-4248
▁기숙	-4249
▁깨진	-4250
▁끊기	-4251
▁나라	-4252
▁난방	-4253
▁날짜	-4254
▁낮잠	-4255
▁냐구	-4256
▁농구	-4257
▁다짐	-4258
▁단맛	-4259
▁단어	-4260
▁당뇨	-4261
▁대개	-4262
▁대변	-4263
▁대우	-4264
▁대하	-4265
▁대회	-4266
▁데리	-4267
▁독려	-4268
▁동료	-4269
▁동산	-4270
▁두렵	-4271
▁리드	-4272
▁멋져	-4273
▁메뉴	-4274
▁명절	-4275
▁목화	-4276
▁몹시	-4277
▁무명	-4278
▁무모	-4279
▁문화	-4280
▁미팅	-4281
▁미흡	-4282
▁발견	-4283
▁밤새	-4284
▁방문	-4285
▁배가	-4286
▁배달	-4287
▁버텼	-4288
▁베풀	-4289
▁봉사	-4290
▁불순	-4291
▁빈약	-4292
▁빌라	-4293
▁사면	-4294
▁사무	-4295
▁사정	-4296
▁살려	-4297
▁색감	-4298
▁서울	-4299
▁서점	-4300
▁성형	-4301
▁세우	-4302
▁소소	-4303
▁소화	-4304
▁속이	-4305
▁솜씨	-4306
▁수거	-4307
▁수정	-4308
▁순환	-4309
▁슬슬	-4310
▁식단	-4311
▁식히	-4312
▁신념	-4313
▁신중	-4314
▁애원	-4315
▁양해	-4316
▁어조	-4317
▁억제	-4318
▁언급	-4319
▁여덟	-4320
▁여부	-4321
▁연못	-4322
▁영통	-4323
▁예감	-4324
▁예금	-4325
▁예약	-4326
▁오인	-4327
▁오전	-4328
▁온도	-4329
▁왕따	-4330
▁위협	-4331
▁유증	-4332
▁음색	-4333
▁인내	-4334
▁입장	-4335
▁입학	-4336
▁자면	-4337
▁자야	-4338
▁작고	-4339
▁작동	-4340
▁잠식	-4341
▁적금	-4342
▁전역	-4343
▁점막	-4344
▁정의	-4345
▁정장	-4346
▁정하	-4347
▁제치	-4348
▁주택	-4349
▁진도	-4350
▁짱나	-4351
▁초라	-4352
▁촬영	-4353
▁축복	-4354
▁충고	-4355
▁치열	-4356
▁칭송	-4357
▁커지	-4358
▁탐욕	-4359
▁터놓	-4360
▁퇴직	-4361
▁파도	-4362
▁편이	-4363
▁평화	-4364
▁포장	-4365
▁피자	-4366
▁하아	-4367
▁한강	-4368
▁합격	-4369
▁햇빛	-4370
▁허락	-4371
▁현존	-4372
▁호투	-4373
▁확률	-4374
▁환심	-4375
지부지	-4376
▁~~~	-4377
▁가르침	-4378
▁걸어가	-4379
▁고마움	-4380
▁국경일	-4381
▁그릇되	-4382
▁글쎄요	-4383
▁기나긴	-4384
▁기울이	-4385
▁깨우치	-4386
▁냉장고	-4387
▁놓아줄	-4388
▁다치바	-4389
▁달려오	-4390
▁도망가	-4391
▁도시락	-4392
▁돌려받	-4393
▁동아리	-4394
▁뒷감당	-4395
▁들으며	-4396
▁라운지	-4397
▁맞춤법	-4398
▁명탐정	-4399
▁밑바닥	-4400
▁바래다	-4401
▁베이비	-4402
▁볼게요	-4403
▁불안감	-4404
▁비슷하	-4405
▁손수건	-4406
▁아파트	-4407
▁알아채	-4408
▁예쁜데	-4409
▁외국어	-4410
▁이러다	-4411
▁이어질	-4412
▁인지도	-4413
▁일단락	-4414
▁자아내	-4415
▁자연적	-4416
▁잠재력	-4417
▁적나라	-4418
▁졸업식	-4419
▁직장인	-4420
▁진료소	-4421
▁창조주	-4422
▁커플링	-4423
▁컨디션	-4424
▁컨트롤	-4425
▁코미디	-4426
▁트로트	-4427
▁피크닉	-4428
▁하우스	-4429
▁허벅지	-4430
▁화장품	-4431
▁회사원	-4432
▁사회생활	-4433
▁쓰러뜨리	-4434
▁잡아먹히	-4435
▁해줄게요	-4436
▁흐지부지	-4437
▁o	-4438
▁ᄂ	-4439
▁깰	-4440
▁뇌	-4441
▁눌	-4442
▁닥	-4443
▁덥	-4444
▁둬	-4445
▁듬	-4446
▁론	-4447
▁뱃	-4448
▁벽	-4449
▁빵	-4450
▁샐	-4451
▁솟	-4452
▁옛	-4453
▁좌	-4454
▁짼	-4455
▁춘	-4456
▁팀	-4457
▁폼	-4458
갈리	-4459
계절	-4460
고리	-4461
관식	-4462
기운	-4463
꺼풀	-4464
다수	-4465
도리	-4466
두근	-4467
러드	-4468
러우	-4469
력서	-4470
력히	-4471
른다	-4472
모으	-4473
바르	-4474
버려	-4475
상시	-4476
성이	-4477
습기	-4478
신자	-4479
어들	-4480
웨어	-4481
을까	-4482
의식	-4483
이없	-4484
쟁이	-4485
주권	-4486
주정	-4487
증기	-4488
쳐올	-4489
▁가혹	-4490
▁각도	-4491
▁간파	-4492
▁강요	-4493
▁거둘	-4494
▁격려	-4495
▁견딜	-4496
▁경관	-4497
▁고갈	-4498
▁고기	-4499
▁고속	-4500
▁고요	-4501
▁고작	-4502
▁곤충	-4503
▁골인	-4504
▁골프	-4505
▁과육	-4506
▁과자	-4507
▁구박	-4508
▁구질	-4509
▁국구	-4510
▁군세	-4511
▁그걸	-4512
▁근무	-4513
▁근황	-4514
▁급성	-4515
▁깊이	-4516
▁깜깜	-4517
▁꺼지	-4518
▁나눴	-4519
▁내편	-4520
▁녹여	-4521
▁놀리	-4522
▁누워	-4523
▁눌러	-4524
▁느리	-4525
▁늦잠	-4526
▁다되	-4527
▁다스	-4528
▁단락	-4529
▁단지	-4530
▁달리	-4531
▁닭발	-4532
▁데치	-4533
▁독한	-4534
▁돌봐	-4535
▁동기	-4536
▁되짚	-4537
▁둔한	-4538
▁뒤돌	-4539
▁때려	-4540
▁뜬금	-4541
▁렌즈	-4542
▁로서	-4543
▁로운	-4544
▁론가	-4545
▁마르	-4546
▁마른	-4547
▁마법	-4548
▁막장	-4549
▁말려	-4550
▁멋질	-4551
▁면모	-4552
▁바니	-4553
▁바닥	-4554
▁바이	-4555
▁반갑	-4556
▁발라	-4557
▁밝혀	-4558
▁뱃살	-4559
▁베프	-4560
▁변경	-4561
▁보컬	-4562
▁본다	-4563
▁부고	-4564
▁부팅	-4565
▁분산	-4566
▁불륜	-4567
▁블랙	-4568
▁비용	-4569
▁비정	-4570
▁비친	-4571
▁비하	-4572
▁사흘	-4573
▁살랑	-4574
▁삼촌	-4575
▁삼키	-4576
▁상종	-4577
▁생강	-4578
▁서문	-4579
▁설렐	-4580
▁섭섭	-4581
▁소름	-4582
▁솟아	-4583
▁수염	-4584
▁슈퍼	-4585
▁스마	-4586
▁스케	-4587
▁승진	-4588
▁시급	-4589
▁시끄	-4590
▁시트	-4591
▁신입	-4592
▁심한	-4593
▁아끼	-4594
▁아님	-4595
▁악취	-4596
▁양치	-4597
▁어언	-4598
▁언쟁	-4599
▁언행	-4600
▁여쭤	-4601
▁역량	-4602
▁연민	-4603
▁연하	-4604
▁열망	-4605
▁오르	-4606
▁옷감	-4607
▁외박	-4608
▁외숙	-4609
▁요건	-4610
▁요격	-4611
▁용모	-4612
▁위태	-4613
▁유료	-4614
▁유흥	-4615
▁이끌	-4616
▁이외	-4617
▁익히	-4618
▁인의	-4619
▁임대	-4620
▁자르	-4621
▁장사	-4622
▁쟁이	-4623
▁저작	-4624
▁저편	-4625
▁적당	-4626
▁적절	-4627
▁제거	-4628
▁지독	-4629
▁지적	-4630
▁진학	-4631
▁짼데	-4632
▁쫓기	-4633
▁찔러	-4634
▁청약	-4635
▁침대	-4636
▁침묵	-4637
▁카드	-4638
▁카시	-4639
▁커터	-4640
▁키워	-4641
▁터졌	-4642
▁통산	-4643
▁통수	-4644
▁펑펑	-4645
▁폐수	-4646
▁폭식	-4647
▁표준	-4648
▁학부	-4649
▁해외	-4650
▁호구	-4651
▁혼나	-4652
▁화해	-4653
▁황당	-4654
▁훔치	-4655
▁휘둘	-4656
▁흔한	-4657
갑니다	-4658
납니다	-4659
부인과	-4660
오른다	-4661
▁가야지	-4662
▁가운데	-4663
▁가져가	-4664
▁강력히	-4665
▁개개인	-4666
▁걸릴지	-4667
▁고시원	-4668
▁기병대	-4669
▁기숙사	-4670
▁나들이	-4671
▁날아가	-4672
▁내던지	-4673
▁내려요	-4674
▁내버려	-4675
▁눈꺼풀	-4676
▁는데도	-4677
▁다녀왔	-4678
▁닥쳐올	-4679
▁대관식	-4680
▁대다수	-4681
▁대중화	-4682
▁던가요	-4683
▁돌아간	-4684
▁돌아갈	-4685
▁돌아온	-4686
▁돌아와	-4687
▁돌아왔	-4688
▁뒷모습	-4689
▁똑같이	-4690
▁라면요	-4691
▁마셔도	-4692
▁마음먹	-4693
▁면도기	-4694
▁목도리	-4695
▁무너짐	-4696
▁무뎌져	-4697
▁무뎌졌	-4698
▁무의식	-4699
▁바빠도	-4700
▁배워가	-4701
▁불행히	-4702
▁빌릴까	-4703
▁사계절	-4704
▁상대식	-4705
▁샐러드	-4706
▁생리통	-4707
▁수영장	-4708
▁수증기	-4709
▁술기운	-4710
▁술자리	-4711
▁술주정	-4712
▁신가요	-4713
▁안녕히	-4714
▁앞모습	-4715
▁어이없	-4716
▁여행가	-4717
▁연락도	-4718
▁영주권	-4719
▁예뻐질	-4720
▁온다고	-4721
▁올바르	-4722
▁옵니다	-4723
▁은가요	-4724
▁음료수	-4725
▁이겨냈	-4726
▁이력서	-4727
▁일상적	-4728
▁일어난	-4729
▁일으키	-4730
▁자라나	-4731
▁자장면	-4732
▁장난감	-4733
▁전해졌	-4734
▁주름살	-4735
▁주인공	-4736
▁준다면	-4737
▁줄어들	-4738
▁즐거울	-4739
▁찢어지	-4740
▁출근길	-4741
▁통찰력	-4742
▁투성이	-4743
▁평상시	-4744
▁필기구	-4745
▁한데요	-4746
▁해져야	-4747
▁화요일	-4748
▁화이트	-4749
▁그럴까요	-4750
▁기다려도	-4751
▁끌어들이	-4752
▁두근두근	-4753
▁미끄러지	-4754
▁보냈으니	-4755
▁비정규직	-4756
▁사로잡히	-4757
▁산부인과	-4758
▁솟아오르	-4759
▁시끄러워	-4760
▁어린이날	-4761
▁낚	-4762
▁립	-4763
▁멜	-4764
▁잇	-4765
▁첨	-4766
▁칠	-4767
▁팟	-4768
▁팬	-4769
▁퓨	-4770
▁픽	-4771
걸이	-4772
그인	-4773
뚝뚝	-4774
러움	-4775
로디	-4776
류장	-4777
리적	-4778
무게	-4779
물관	-4780
미터	-4781
민가	-4782
민화	-4783
벤션	-4784
실점	-4785
울렛	-4786
음밥	-4787
잔치	-4788
저씨	-4789
친상	-4790
카르	-4791
토닥	-4792
트남	-4793
▁가스	-4794
▁감상	-4795
▁감지	-4796
▁개념	-4797
▁개미	-4798
▁건네	-4799
▁검소	-4800
▁견해	-4801
▁고관	-4802
▁고자	-4803
▁공평	-4804
▁과오	-4805
▁관대	-4806
▁교환	-4807
▁군데	-4808
▁권투	-4809
▁귀가	-4810
▁그중	-4811
▁극찬	-4812
▁급료	-4813
▁낚시	-4814
▁날려	-4815
▁눈썹	-4816
▁단수	-4817
▁단체	-4818
▁단풍	-4819
▁당첨	-4820
▁대역	-4821
▁더느	-4822
▁들리	-4823
▁따끔	-4824
▁러브	-4825
▁롤러	-4826
▁맞닥	-4827
▁맞서	-4828
▁매너	-4829
▁메모	-4830
▁무덥	-4831
▁문단	-4832
▁문신	-4833
▁민속	-4834
▁백업	-4835
▁법령	-4836
▁법이	-4837
▁보살	-4838
▁보수	-4839
▁복종	-4840
▁본뜨	-4841
▁봉황	-4842
▁불매	-4843
▁불신	-4844
▁불우	-4845
▁불쾌	-4846
▁빌미	-4847
▁사야	-4848
▁살인	-4849
▁상자	-4850
▁새끼	-4851
▁설계	-4852
▁세계	-4853
▁세월	-4854
▁소액	-4855
▁소주	-4856
▁수꽃	-4857
▁수순	-4858
▁수중	-4859
▁순진	-4860
▁시노	-4861
▁시도	-4862
▁식물	-4863
▁심정	-4864
▁아래	-4865
▁안주	-4866
▁암꽃	-4867
▁액정	-4868
▁억압	-4869
▁여서	-4870
▁예원	-4871
▁욕설	-4872
▁욕실	-4873
▁원인	-4874
▁위쪽	-4875
▁의견	-4876
▁의도	-4877
▁일련	-4878
▁임차	-4879
▁자금	-4880
▁자요	-4881
▁재심	-4882
▁재즈	-4883
▁저장	-4884
▁적기	-4885
▁적재	-4886
▁조가	-4887
▁조각	-4888
▁주제	-4889
▁주체	-4890
▁주행	-4891
▁줄이	-4892
▁지각	-4893
▁직관	-4894
▁찔려	-4895
▁총회	-4896
▁출간	-4897
▁출반	-4898
▁출현	-4899
▁치킨	-4900
▁침착	-4901
▁파브	-4902
▁파편	-4903
▁패션	-4904
▁폭력	-4905
▁한계	-4906
▁해내	-4907
▁헬멧	-4908
▁호의	-4909
▁환원	-4910
▁희미	-4911
떨어지	-4912
▁기념식	-4913
▁끌어내	-4914
▁논리적	-4915
▁놀이터	-4916
▁다가왔	-4917
▁더워서	-4918
▁루리아	-4919
▁멜로디	-4920
▁목걸이	-4921
▁몸무게	-4922
▁무뚝뚝	-4923
▁무실점	-4924
▁바닷속	-4925
▁바보짓	-4926
▁박물관	-4927
▁베트남	-4928
▁빠뜨리	-4929
▁생활과	-4930
▁아울렛	-4931
▁아저씨	-4932
▁외국인	-4933
▁위험성	-4934
▁유명인	-4935
▁음악인	-4936
▁의료원	-4937
▁이사회	-4938
▁자동차	-4939
▁작성자	-4940
▁정규직	-4941
▁정류장	-4942
▁정신없	-4943
▁제주도	-4944
▁종교적	-4945
▁주어지	-4946
▁중거리	-4947
▁컨벤션	-4948
▁피카르	-4949
▁혼란기	-4950
▁황민화	-4951
▁가라앉히	-4952
▁맞닥뜨리	-4953
▁민속놀이	-4954
▁부끄러움	-4955
▁시외버스	-4956
▁어울릴까	-4957
▁일련번호	-4958
▁일상생활	-4959
▁토닥토닥	-4960
▁스트레이트	-4961
▁균	-4962
▁꿩	-4963
▁뉴	-4964
▁덮	-4965
▁돕	-4966
▁뜰	-4967
▁띠	-4968
▁랭	-4969
▁벅	-4970
▁샌	-4971
▁욜	-4972
▁웅	-4973
▁젠	-4974
▁쫒	-4975
▁텀	-4976
▁펌	-4977
▁펠	-4978
▁펴	-4979
▁펼	-4980
▁험	-4981
▁혈	-4982
▁혐	-4983
▁훌	-4984
▁휩	-4985
결제	-4986
공격	-4987
교통	-4988
구리	-4989
그만	-4990
극히	-4991
기물	-4992
너지	-4993
년기	-4994
니티	-4995
단체	-4996
대기	-4997
댑터	-4998
도라	-4999
드위	-5000
러니	-5001
러웠	-5002
르몬	-5003
먹을	-5004
메일	-5005
문학	-5006
바지	-5007
방전	-5008
본어	-5009
산물	-5010
센트	-5011
수수	-5012
시도	-5013
쓸리	-5014
아오	-5015
액형	-5016
어내	-5017
잡이	-5018
저기	-5019
저분	-5020
지르	-5021
지션	-5022
차림	-5023
청소	-5024
춘기	-5025
크놀	-5026
통제	-5027
티브	-5028
파민	-5029
팡이	-5030
프터	-5031
피드	-5032
학금	-5033
한다	-5034
획사	-5035
휴일	-5036
▁가게	-5037
▁가망	-5038
▁가방	-5039
▁가재	-5040
▁감동	-5041
▁감속	-5042
▁개시	-5043
▁갱신	-5044
▁거두	-5045
▁거룩	-5046
▁거지	-5047
▁건들	-5048
▁건축	-5049
▁격렬	-5050
▁격식	-5051
▁견과	-5052
▁경악	-5053
▁고문	-5054
▁고스	-5055
▁고집	-5056
▁공복	-5057
▁관하	-5058
▁구걸	-5059
▁구매	-5060
▁구체	-5061
▁궁핍	-5062
▁그쪽	-5063
▁극우	-5064
▁근교	-5065
▁근로	-5066
▁기입	-5067
▁기재	-5068
▁기침	-5069
▁꾸리	-5070
▁꿈꾸	-5071
▁나쁨	-5072
▁난감	-5073
▁난처	-5074
▁낮술	-5075
▁낮추	-5076
▁내과	-5077
▁낼까	-5078
▁노동	-5079
▁노출	-5080
▁놀려	-5081
▁높이	-5082
▁누락	-5083
▁누우	-5084
▁다육	-5085
▁단초	-5086
▁담담	-5087
▁대충	-5088
▁덜하	-5089
▁독약	-5090
▁독학	-5091
▁동봉	-5092
▁돼지	-5093
▁라인	-5094
▁로봇	-5095
▁마찬	-5096
▁막막	-5097
▁만져	-5098
▁맛나	-5099
▁맨션	-5100
▁맺었	-5101
▁멈출	-5102
▁명곡	-5103
▁명상	-5104
▁몰아	-5105
▁무료	-5106
▁미의	-5107
▁민감	-5108
▁믿기	-5109
▁반발	-5110
▁반영	-5111
▁발매	-5112
▁방심	-5113
▁방침	-5114
▁배구	-5115
▁백수	-5116
▁버림	-5117
▁벌레	-5118
▁변신	-5119
▁병이	-5120
▁병행	-5121
▁보임	-5122
▁복합	-5123
▁봉급	-5124
▁부리	-5125
▁부활	-5126
▁분담	-5127
▁분양	-5128
▁분하	-5129
▁불리	-5130
▁블루	-5131
▁빌어	-5132
▁사도	-5133
▁사수	-5134
▁사전	-5135
▁사치	-5136
▁산다	-5137
▁삼가	-5138
▁상의	-5139
▁상하	-5140
▁새장	-5141
▁색소	-5142
▁생물	-5143
▁서류	-5144
▁서적	-5145
▁서핑	-5146
▁선천	-5147
▁섬유	-5148
▁섭취	-5149
▁세척	-5150
▁수저	-5151
▁수해	-5152
▁숙소	-5153
▁숙취	-5154
▁순결	-5155
▁스튜	-5156
▁스팸	-5157
▁스프	-5158
▁시골	-5159
▁시차	-5160
▁식상	-5161
▁신맛	-5162
▁실용	-5163
▁실태	-5164
▁실행	-5165
▁심난	-5166
▁심재	-5167
▁씨앗	-5168
▁아기	-5169
▁아날	-5170
▁아라	-5171
▁아롱	-5172
▁아른	-5173
▁아부	-5174
▁아스	-5175
▁아토	-5176
▁아휴	-5177
▁알람	-5178
▁압축	-5179
▁야식	-5180
▁약점	-5181
▁양의	-5182
▁어둡	-5183
▁어장	-5184
▁어필	-5185
▁업자	-5186
▁여지	-5187
▁역할	-5188
▁연구	-5189
▁영역	-5190
▁옥상	-5191
▁와인	-5192
▁외부	-5193
▁외우	-5194
▁외출	-5195
▁욕구	-5196
▁욕해	-5197
▁용도	-5198
▁용량	-5199
▁웹툰	-5200
▁위층	-5201
▁유적	-5202
▁육아	-5203
▁은행	-5204
▁음향	-5205
▁의무	-5206
▁의외	-5207
▁이랬	-5208
▁이브	-5209
▁이직	-5210
▁인본	-5211
▁인신	-5212
▁일례	-5213
▁일루	-5214
▁일방	-5215
▁자게	-5216
▁자랑	-5217
▁자퇴	-5218
▁장모	-5219
▁장애	-5220
▁쟁점	-5221
▁저랬	-5222
▁저음	-5223
▁전시	-5224
▁전제	-5225
▁정량	-5226
▁정적	-5227
▁제안	-5228
▁제외	-5229
▁줄곧	-5230
▁중소	-5231
▁증여	-5232
▁지겹	-5233
▁지끈	-5234
▁지수	-5235
▁지시	-5236
▁지진	-5237
▁지침	-5238
▁지표	-5239
▁진리	-5240
▁쫒기	-5241
▁참석	-5242
▁창법	-5243
▁채소	-5244
▁채우	-5245
▁채취	-5246
▁천국	-5247
▁청결	-5248
▁초록	-5249
▁최승	-5250
▁최신	-5251
▁최우	-5252
▁취급	-5253
▁취소	-5254
▁치우	-5255
▁치장	-5256
▁커뮤	-5257
▁코드	-5258
▁타입	-5259
▁터질	-5260
▁통하	-5261
▁튀기	-5262
▁편중	-5263
▁폭발	-5264
▁한결	-5265
▁한때	-5266
▁한적	-5267
▁합스	-5268
▁허기	-5269
▁현명	-5270
▁형편	-5271
▁호가	-5272
▁호평	-5273
▁혼수	-5274
▁화살	-5275
▁환각	-5276
▁환경	-5277
▁환기	-5278
▁환상	-5279
▁후각	-5280
▁훔쳐	-5281
▁휴학	-5282
▁힘겹	-5283
드위치	-5284
지러워	-5285
테리어	-5286
▁가속기	-5287
▁겉모습	-5288
▁결과물	-5289
▁계획안	-5290
▁공휴일	-5291
▁그리웠	-5292
▁기본적	-5293
▁기술력	-5294
▁기원전	-5295
▁기획사	-5296
▁길거리	-5297
▁끌어올	-5298
▁날아오	-5299
▁대청소	-5300
▁도자기	-5301
▁도파민	-5302
▁떠돌이	-5303
▁라이브	-5304
▁마음껏	-5305
▁막힌다	-5306
▁매달렸	-5307
▁메시지	-5308
▁목욕탕	-5309
▁물리치	-5310
▁보병대	-5311
▁부드럽	-5312
▁부서지	-5313
▁불쌍히	-5314
▁빠져들	-5315
▁사춘기	-5316
▁섣부르	-5317
▁손가락	-5318
▁쉬운가	-5319
▁스키장	-5320
▁신입생	-5321
▁아이고	-5322
▁애프터	-5323
▁어댑터	-5324
▁에너지	-5325
▁예뻐해	-5326
▁옮겨가	-5327
▁옮겨오	-5328
▁옷차림	-5329
▁위해서	-5330
▁이메일	-5331
▁이어지	-5332
▁일본어	-5333
▁작아지	-5334
▁잔소리	-5335
▁장학금	-5336
▁지극히	-5337
▁지저분	-5338
▁지팡이	-5339
▁진통제	-5340
▁차별적	-5341
▁처리장	-5342
▁축구팀	-5343
▁턱시도	-5344
▁테크놀	-5345
▁판단력	-5346
▁판도라	-5347
▁퍼센트	-5348
▁펌웨어	-5349
▁폐기물	-5350
▁필요없	-5351
▁해산물	-5352
▁혈액형	-5353
▁호르몬	-5354
▁휩쓸리	-5355
▁끌어모으	-5356
▁대중교통	-5357
▁동떨어지	-5358
▁마찬가지	-5359
▁미워한다	-5360
▁빌어먹을	-5361
▁사탕수수	-5362
▁샌드위치	-5363
▁소액결제	-5364
▁스튜디오	-5365
▁아날로그	-5366
▁아이러니	-5367
▁알아차리	-5368
▁어린이집	-5369
▁여기저기	-5370
▁외로워서	-5371
▁인신공격	-5372
▁인테리어	-5373
▁중소기업	-5374
▁지끈거려	-5375
▁커뮤니티	-5376
▁갑작스러웠	-5377
▁아름다워요	-5378
▁테크놀로지	-5379
65	-5380
??	-5381
▁꽉	-5382
▁덤	-5383
▁률	-5384
▁벤	-5385
▁앙	-5386
가짐	-5387
교회	-5388
기울	-5389
꺼번	-5390
라스	-5391
란다	-5392
려면	-5393
막혀	-5394
말락	-5395
볼까	-5396
서야	-5397
슬쩍	-5398
어난	-5399
▁딩	-5400
▁렴	-5401
▁빙	-5402
▁캄	-5403
▁텁	-5404
거름	-5405
기능	-5406
까옷	-5407
도염	-5408
드려	-5409
려요	-5410
봐야	-5411
오를	-5412
올랐	-5413
우드	-5414
이면	-5415
인데	-5416
인지	-5417
종일	-5418
직이	-5419
질러	-5420
쳐서	-5421
테일	-5422
했었	-5423
▁14	-5424
▁23	-5425
▁40	-5426
▁go	-5427
▁sd	-5428
▁~!	-5429
▁가물	-5430
▁가상	-5431
▁가시	-5432
▁가질	-5433
▁각이	-5434
▁갈궈	-5435
▁갈지	-5436
▁강림	-5437
▁강원	-5438
▁갖춰	-5439
▁개불	-5440
▁개학	-5441
▁객실	-5442
▁거르	-5443
▁건냈	-5444
▁건느	-5445
▁걸으	-5446
▁검색	-5447
▁결실	-5448
▁결코	-5449
▁경과	-5450
▁경찰	-5451
▁경쾌	-5452
▁경향	-5453
▁계셨	-5454
▁계시	-5455
▁계약	-5456
▁계정	-5457
▁계좌	-5458
▁고가	-5459
▁고뇌	-5460
▁고를	-5461
▁고무	-5462
▁고용	-5463
▁고픈	-5464
▁곤경	-5465
▁곧장	-5466
▁공기	-5467
▁공동	-5468
▁공중	-5469
▁공채	-5470
▁과감	-5471
▁과함	-5472
▁광범	-5473
▁괜찬	-5474
▁교과	-5475
▁구구	-5476
▁구릿	-5477
▁구함	-5478
▁군인	-5479
▁군침	-5480
▁궁상	-5481
▁규정	-5482
▁그날	-5483
▁그르	-5484
▁그린	-5485
▁그적	-5486
▁근사	-5487
▁근질	-5488
▁글로	-5489
▁금수	-5490
▁급기	-5491
▁기관	-5492
▁기네	-5493
▁기댄	-5494
▁기부	-5495
▁깊숙	-5496
▁까봐	-5497
▁깎인	-5498
▁깔창	-5499
▁깼	-5500
▁꺽	-5501
▁뚱	-5502
▁락	-5503
▁징	-5504
▁챘	-5505
간질	-5506
감기	-5507
껄이	-5508
나올	-5509
동갑	-5510
동산	-5511
러요	-5512
려선	-5513
려야	-5514
액션	-5515
워야	-5516
워크	-5517
위제	-5518
인상	-5519
저것	-5520
주리	-5521
트폰	-5522
파일	-5523
학생	-5524
할지	-5525
▁고비	-5526
▁금값	-5527
▁기쁜	-5528
▁김동	-5529
▁깨울	-5530
▁꺼려	-5531
▁꺼진	-5532
▁꺼질	-5533
▁꽃바	-5534
▁꿀꿀	-5535
▁꿈꿀	-5536
▁꿈꿨	-5537
▁끌려	-5538
▁끌림	-5539
▁끝낸	-5540
▁끼우	-5541
▁나감	-5542
▁나나	-5543
▁나쁠	-5544
▁나았	-5545
▁나왓	-5546
▁낙이	-5547
▁난데	-5548
▁날렸	-5549
▁날릴	-5550
▁날이	-5551
▁남겼	-5552
▁남긴	-5553
▁남음	-5554
▁났었	-5555
▁낮춰	-5556
▁내요	-5557
▁냉철	-5558
▁너야	-5559
▁넘가	-5560
▁넘나	-5561
▁넘쳐	-5562
▁네버	-5563
▁노여	-5564
▁놀라	-5565
▁놔야	-5566
▁놨나	-5567
▁놨다	-5568
▁눈빛	-5569
▁니즘	-5570
▁다냐	-5571
▁다녔	-5572
▁다님	-5573
▁다름	-5574
▁다림	-5575
▁다울	-5576
▁다쳐	-5577
▁단말	-5578
▁당번	-5579
▁당할	-5580
▁당함	-5581
▁대놓	-5582
▁대박	-5583
▁대판	-5584
▁댄디	-5585
▁더군	-5586
▁더치	-5587
▁도네	-5588
▁도피	-5589
▁돌과	-5590
▁돌릴	-5591
▁동갑	-5592
▁동그	-5593
▁동심	-5594
▁동창	-5595
▁됐었	-5596
▁되게	-5597
▁된대	-5598
▁두건	-5599
▁굶	-5600
▁빛	-5601
▁쭉	-5602
▁텐	-5603
겨움	-5604
금치	-5605
닝콜	-5606
라구	-5607
랑거	-5608
롤레	-5609
마다	-5610
비전	-5611
사니	-5612
상화	-5613
에도	-5614
예요	-5615
워졌	-5616
워지	-5617
자이	-5618
조심	-5619
중히	-5620
지근	-5621
진거	-5622
차피	-5623
타이	-5624
플라	-5625
하나	-5626
해질	-5627
현듯	-5628
홀히	-5629
▁감흥	-5630
▁개판	-5631
▁구조	-5632
▁굽힐	-5633
▁극심	-5634
▁기견	-5635
▁꺼져	-5636
▁녹봉	-5637
▁놓친	-5638
▁둬서	-5639
▁드론	-5640
▁들킨	-5641
▁디딜	-5642
▁디저	-5643
▁따를	-5644
▁따져	-5645
▁딸까	-5646
▁땀나	-5647
▁떠가	-5648
▁떠서	-5649
▁뚫리	-5650
▁뚱뚱	-5651
▁뜨끈	-5652
▁라뇨	-5653
▁레고	-5654
▁려니	-5655
▁력도	-5656
▁로라	-5657
▁루머	-5658
▁루어	-5659
▁리언	-5660
▁립니	-5661
▁마디	-5662
▁마려	-5663
▁마저	-5664
▁마추	-5665
▁마카	-5666
▁막지	-5667
▁막혔	-5668
▁만보	-5669
▁만해	-5670
▁만화	-5671
▁말라	-5672
▁말렸	-5673
▁말수	-5674
▁망가	-5675
▁망명	-5676
▁맞붙	-5677
▁매년	-5678
▁매입	-5679
▁먹방	-5680
▁먹일	-5681
▁먼데	-5682
▁멀미	-5683
▁멈춘	-5684
▁메우	-5685
▁면밀	-5686
▁몇일	-5687
▁모여	-5688
▁모잘	-5689
▁모질	-5690
▁목과	-5691
▁몸부	-5692
▁몸살	-5693
▁몸통	-5694
▁묘약	-5695
▁묘한	-5696
▁무겁	-5697
▁무궁	-5698
▁무던	-5699
jk	-5700
가물	-5701
겠다	-5702
근무	-5703
기사	-5704
덜투	-5705
디쓴	-5706
리여	-5707
바퀴	-5708
버림	-5709
빡빡	-5710
수리	-5711
습관	-5712
으른	-5713
이션	-5714
일링	-5715
전거	-5716
조사	-5717
줄까	-5718
증금	-5719
질까	-5720
취감	-5721
취제	-5722
층간	-5723
헤치	-5724
▁jk	-5725
▁금사	-5726
▁깜놀	-5727
▁꽃꽂	-5728
▁나위	-5729
▁남사	-5730
▁냉동	-5731
▁대만	-5732
▁드메	-5733
▁로써	-5734
▁망해	-5735
▁몸약	-5736
▁문서	-5737
▁문의	-5738
▁물론	-5739
▁물증	-5740
▁미운	-5741
▁밀랍	-5742
▁바꿈	-5743
▁바꿨	-5744
▁바랐	-5745
▁바쁠	-5746
▁박력	-5747
▁박찬	-5748
▁반드	-5749
▁반짝	-5750
▁반한	-5751
▁밟혀	-5752
▁밟힐	-5753
▁밥상	-5754
▁밥심	-5755
▁밥통	-5756
▁방구	-5757
▁배관	-5758
▁배낭	-5759
▁배래	-5760
▁배움	-5761
▁배의	-5762
▁백만	-5763
▁벅찰	-5764
▁벌떡	-5765
▁벌려	-5766
▁범퍼	-5767
▁베기	-5768
▁베인	-5769
▁베지	-5770
▁베푸	-5771
▁변치	-5772
▁변했	-5773
▁별것	-5774
▁별똥	-5775
▁별별	-5776
▁별증	-5777
▁병나	-5778
▁보관	-5779
▁보태	-5780
▁복근	-5781
▁복마	-5782
▁복만	-5783
▁본래	-5784
▁본전	-5785
▁본지	-5786
▁봄날	-5787
▁봉투	-5788
▁부딛	-5789
▁부렸	-5790
▁부의	-5791
▁부장	-5792
▁부재	-5793
▁부츠	-5794
▁분다	-5795
▁분출	-5796
▁분통	-5797
▁불과	-5798
▁불운	-5799
▁껴	-5800
▁꽈	-5801
▁끗	-5802
▁낌	-5803
▁댓	-5804
▁럽	-5805
▁맙	-5806
▁뮤	-5807
▁샘	-5808
▁샜	-5809
▁즘	-5810
▁찰	-5811
가간	-5812
간당	-5813
간히	-5814
같아	-5815
구려	-5816
구질	-5817
놔요	-5818
동본	-5819
디컬	-5820
려자	-5821
마초	-5822
만갑	-5823
무진	-5824
반짝	-5825
붙였	-5826
사체	-5827
쉬기	-5828
웃풋	-5829
육아	-5830
이표	-5831
재주	-5832
저냥	-5833
질지	-5834
찌개	-5835
쳐도	-5836
타기	-5837
피린	-5838
험생	-5839
흡연	-5840
▁곱창	-5841
▁귀차	-5842
▁그름	-5843
▁까매	-5844
▁깎였	-5845
▁껴야	-5846
▁낌새	-5847
▁노라	-5848
▁댓글	-5849
▁데요	-5850
▁모았	-5851
▁바퀴	-5852
▁붙였	-5853
▁브런	-5854
▁비와	-5855
▁비키	-5856
▁비해	-5857
▁빌리	-5858
▁빙수	-5859
▁빠이	-5860
▁빠진	-5861
▁빠짐	-5862
▁빡빡	-5863
▁빨간	-5864
▁빨랑	-5865
▁빵꾸	-5866
▁뺏긴	-5867
▁뺏길	-5868
▁뽀뽀	-5869
▁뿌려	-5870
▁뿐이	-5871
▁삐지	-5872
▁사빠	-5873
▁사연	-5874
▁사표	-5875
▁살빼	-5876
▁살살	-5877
▁상반	-5878
▁상실	-5879
▁상영	-5880
▁상은	-5881
▁상이	-5882
▁상했	-5883
▁색계	-5884
▁색채	-5885
▁서른	-5886
▁서먹	-5887
▁섞인	-5888
▁선글	-5889
▁선용	-5890
▁설움	-5891
▁설쳤	-5892
▁성간	-5893
▁성관	-5894
▁성질	-5895
▁성큼	-5896
▁세용	-5897
▁세운	-5898
▁세의	-5899
▁림	-5900
▁쎄	-5901
▁왓	-5902
▁캐	-5903
▁큐	-5904
▁탕	-5905
과응	-5906
국수	-5907
기름	-5908
나서	-5909
다봐	-5910
닥터	-5911
대요	-5912
동진	-5913
딘가	-5914
력소	-5915
로드	-5916
름신	-5917
린대	-5918
망진	-5919
사시	-5920
새웠	-5921
성모	-5922
야할	-5923
웃음	-5924
의치	-5925
장판	-5926
절절	-5927
정선	-5928
젠데	-5929
종신	-5930
중독	-5931
지심	-5932
커페	-5933
키지	-5934
페이	-5935
▁간통	-5936
▁갇혀	-5937
▁거릴	-5938
▁구축	-5939
▁기실	-5940
▁꼼수	-5941
▁내렸	-5942
▁높여	-5943
▁덧나	-5944
▁뒹글	-5945
▁딱히	-5946
▁맛없	-5947
▁맴도	-5948
▁메에	-5949
▁목전	-5950
▁미울	-5951
▁별일	-5952
▁보자	-5953
▁센치	-5954
▁셔도	-5955
▁소가	-5956
▁소분	-5957
▁손길	-5958
▁손맛	-5959
▁손실	-5960
▁솔리	-5961
▁솔솔	-5962
▁수시	-5963
▁수제	-5964
▁수준	-5965
▁순경	-5966
▁쉬워	-5967
▁스위	-5968
▁스크	-5969
▁승부	-5970
▁시덥	-5971
▁시럽	-5972
▁시비	-5973
▁신겨	-5974
▁신선	-5975
▁신천	-5976
▁실추	-5977
▁실컷	-5978
▁심각	-5979
▁쌓았	-5980
▁써도	-5981
▁써서	-5982
▁쓰인	-5983
▁쓰임	-5984
▁쓴다	-5985
▁쓴맛	-5986
▁쓴지	-5987
▁쓸까	-5988
▁씨씨	-5989
▁아낌	-5990
▁아따	-5991
▁아선	-5992
▁아싸	-5993
▁아오	-5994
▁아자	-5995
▁아함	-5996
▁악령	-5997
▁악연	-5998
▁안대	-5999
▁껀	-6000
▁덴	-6001
선도	-6002
연제	-6003
저나	-6004
▁값싸	-6005
▁근거	-6006
▁끊긴	-6007
▁누름	-6008
▁동의	-6009
▁뒷맛	-6010
▁드나	-6011
▁들렀	-6012
▁뜬눈	-6013
▁모발	-6014
▁부근	-6015
▁섬세	-6016
▁시킬	-6017
▁신대	-6018
▁쌓였	-6019
▁앞둬	-6020
▁앞서	-6021
▁앞일	-6022
▁애국	-6023
▁애그	-6024
▁애잔	-6025
▁액체	-6026
▁야가	-6027
▁야한	-6028
▁약하	-6029
▁양가	-6030
▁양궁	-6031
▁어김	-6032
▁어니	-6033
▁어릴	-6034
▁어째	-6035
▁어흥	-6036
▁얼도	-6037
▁얽힌	-6038
▁엉킨	-6039
▁여가	-6040
▁여겨	-6041
▁여느	-6042
▁여린	-6043
▁여잘	-6044
▁여차	-6045
▁연계	-6046
▁연연	-6047
▁연차	-6048
▁열릴	-6049
▁영어	-6050
▁영영	-6051
▁영적	-6052
▁예보	-6053
▁예쁠	-6054
▁예우	-6055
▁오기	-6056
▁오를	-6057
▁오코	-6058
▁옥죄	-6059
▁온대	-6060
▁온통	-6061
▁올게	-6062
▁올인	-6063
▁올지	-6064
▁와라	-6065
▁와야	-6066
▁와우	-6067
▁외비	-6068
▁외향	-6069
▁요긴	-6070
▁요번	-6071
▁요술	-6072
▁요인	-6073
▁욕했	-6074
▁우릴	-6075
▁우아	-6076
▁운세	-6077
▁울르	-6078
▁원두	-6079
▁위병	-6080
▁위축	-6081
▁위통	-6082
▁윗몸	-6083
▁윗집	-6084
▁유세	-6085
▁으네	-6086
▁으란	-6087
▁으아	-6088
▁으으	-6089
▁으지	-6090
▁응시	-6091
▁의롭	-6092
▁의중	-6093
▁이겼	-6094
▁이듭	-6095
▁이왕	-6096
▁이요	-6097
▁이케	-6098
▁인강	-6099
▁인복	-6100
▁인품	-6101
▁인한	-6102
▁일생	-6103
▁일정	-6104
▁임관	-6105
▁자극	-6106
▁자나	-6107
▁자던	-6108
▁잔잔	-6109
▁잘나	-6110
▁잠궈	-6111
▁잠잠	-6112
▁잡담	-6113
▁잡동	-6114
▁잡혀	-6115
▁잡혔	-6116
▁잡힐	-6117
▁장답	-6118
▁장례	-6119
▁재설	-6120
▁재앙	-6121
▁재택	-6122
▁쟁여	-6123
▁저승	-6124
▁적성	-6125
▁적적	-6126
▁전과	-6127
▁전재	-6128
▁전할	-6129
▁전했	-6130
▁정녀	-6131
▁정한	-6132
▁제끼	-6133
▁젠가	-6134
▁져야	-6135
▁졋네	-6136
▁졋습	-6137
▁조깅	-6138
▁조별	-6139
▁조취	-6140
▁졸라	-6141
▁졸린	-6142
▁졸음	-6143
▁주길	-6144
▁주년	-6145
▁주량	-6146
▁주저	-6147
▁주절	-6148
▁주포	-6149
▁줄일	-6150
▁중기	-6151
▁증기	-6152
▁지기	-6153
▁지녔	-6154
▁지단	-6155
▁지롱	-6156
▁지르	-6157
▁지상	-6158
▁지운	-6159
▁지형	-6160
▁진대	-6161
▁진중	-6162
▁질린	-6163
▁질지	-6164
▁질타	-6165
▁짠하	-6166
▁쫄딱	-6167
▁차면	-6168
▁차차	-6169
▁착가	-6170
▁착색	-6171
▁창가	-6172
▁창업	-6173
▁책장	-6174
▁챙겼	-6175
▁챙긴	-6176
▁챙길	-6177
▁처량	-6178
▁처러	-6179
▁척도	-6180
▁쳐요	-6181
▁초면	-6182
▁초청	-6183
▁추우	-6184
▁추울	-6185
▁충부	-6186
▁충족	-6187
▁취한	-6188
▁취할	-6189
▁층간	-6190
▁치가	-6191
▁치고	-6192
▁치정	-6193
▁친하	-6194
▁침침	-6195
▁카본	-6196
▁카풀	-6197
▁캄캄	-6198
▁커져	-6199
▁커졌	-6200
▁코인	-6201
▁콕콕	-6202
▁콜록	-6203
▁클라	-6204
▁클리	-6205
▁키울	-6206
▁타락	-6207
▁타성	-6208
▁탁월	-6209
▁탄다	-6210
▁탄탄	-6211
▁탈까	-6212
▁탈모	-6213
▁탈함	-6214
▁태엽	-6215
▁터닝	-6216
▁터짐	-6217
▁털털	-6218
▁텁텁	-6219
▁텅비	-6220
▁통증	-6221
▁통했	-6222
▁툭툭	-6223
▁트인	-6224
▁특이	-6225
▁특질	-6226
▁특히	-6227
▁틀려	-6228
▁파란	-6229
▁파먹	-6230
▁판매	-6231
▁팔린	-6232
▁패딩	-6233
▁편복	-6234
▁편히	-6235
▁펼쳐	-6236
▁폭풍	-6237
▁표대	-6238
▁풀려	-6239
▁풍물	-6240
▁풍부	-6241
▁퓨저	-6242
▁플래	-6243
▁피맥	-6244
▁피웠	-6245
▁피치	-6246
▁픽서	-6247
▁핑핑	-6248
▁하직	-6249
▁하하	-6250
▁한껏	-6251
▁한나	-6252
▁한눈	-6253
▁할거	-6254
▁할걸	-6255
▁할꺼	-6256
▁해몽	-6257
▁했긴	-6258
▁행보	-6259
▁향한	-6260
▁향해	-6261
▁허비	-6262
▁허하	-6263
▁험해	-6264
▁헤치	-6265
▁헤헤	-6266
▁헹궈	-6267
▁호수	-6268
▁홀릭	-6269
▁화날	-6270
▁화낼	-6271
▁화창	-6272
▁환해	-6273
▁효녀	-6274
▁훈훈	-6275
▁휘성	-6276
▁흔치	-6277
▁흘려	-6278
▁흥겹	-6279
▁히스	-6280
간다고	-6281
갑시다	-6282
과응보	-6283
기울이	-6284
길까봐	-6285
꺼번에	-6286
덜투덜	-6287
랑거렸	-6288
려나간	-6289
롤레타	-6290
리여리	-6291
망진창	-6292
볶음밥	-6293
어나오	-6294
인다는	-6295
자이너	-6296
잖아요	-6297
직이수	-6298
진다면	-6299
코스터	-6300
플라워	-6301
▁119	-6302
▁365	-6303
▁400	-6304
▁600	-6305
▁~!!	-6306
▁~??	-6307
▁가까웠	-6308
▁가르쳐	-6309
▁가릴까	-6310
▁가벼움	-6311
▁가벼웠	-6312
▁가속화	-6313
▁가습기	-6314
▁가져간	-6315
▁가져도	-6316
▁간간히	-6317
▁간다고	-6318
▁간다니	-6319
▁갈게요	-6320
▁갈고리	-6321
▁갈구지	-6322
▁갑시다	-6323
▁갖춰서	-6324
▁거려요	-6325
▁거예요	-6326
▁건데요	-6327
▁건축가	-6328
▁걸쳐서	-6329
▁게스트	-6330
▁게으른	-6331
▁견뎌낼	-6332
▁경조사	-6333
▁계신가	-6334
▁고무신	-6335
▁고서점	-6336
▁고장났	-6337
▁고쳐져	-6338
▁고픈데	-6339
▁곤두서	-6340
▁관계없	-6341
▁광범위	-6342
▁괜잖아	-6343
▁괜찬아	-6344
▁괴로우	-6345
▁구릿빛	-6346
▁굶주리	-6347
▁규정지	-6348
▁그나마	-6349
▁그래야	-6350
▁그랬었	-6351
▁그런데	-6352
▁그르친	-6353
▁그리우	-6354
▁그만둔	-6355
▁급성장	-6356
▁기대치	-6357
▁기를까	-6358
▁기막혀	-6359
▁기에요	-6360
▁길러도	-6361
▁김동욱	-6362
▁깊숙이	-6363
▁깔끔히	-6364
▁깨끗이	-6365
▁깨어난	-6366
▁깨질지	-6367
▁꼬까옷	-6368
▁꽃꽂이	-6369
▁끓여서	-6370
▁나빠질	-6371
▁나쁜데	-6372
▁나올까	-6373
▁나와요	-6374
▁난다면	-6375
▁날까봐	-6376
▁남겨요	-6377
▁남긴다	-6378
▁납시다	-6379
▁내려야	-6380
▁내려올	-6381
▁내볼까	-6382
▁내편이	-6383
▁낸다면	-6384
▁냄새나	-6385
▁냉동실	-6386
▁넘쳐날	-6387
▁노려보	-6388
▁노여움	-6389
▁녹여서	-6390
▁놔둬야	-6391
▁누군지	-6392
▁느껴졌	-6393
▁느낄지	-6394
▁느라고	-6395
▁는군요	-6396
▁는다네	-6397
▁는대도	-6398
▁다가갈	-6399
▁다가갔	-6400
▁다가와	-6401
▁다녀도	-6402
▁다녀야	-6403
▁다녀온	-6404
▁다닐까	-6405
▁다더니	-6406
▁다듬기	-6407
▁다른가	-6408
▁다를까	-6409
▁다면서	-6410
▁다스릴	-6411
▁다워야	-6412
▁다음해	-6413
▁다쳐요	-6414
▁단말기	-6415
▁달라졌	-6416
▁달했었	-6417
▁당해요	-6418
▁대놓고	-6419
▁대마초	-6420
▁대수롭	-6421
▁대역죄	-6422
▁대해서	-6423
▁더라면	-6424
▁더없이	-6425
▁던데요	-6426
▁도망갈	-6427
▁도피성	-6428
▁동그란	-6429
▁동창회	-6430
▁될라나	-6431
▁두려웠	-6432
▁둔한데	-6433
▁뒷담화	-6434
▁들어야	-6435
▁디저트	-6436
▁디테일	-6437
▁땡긴다	-6438
▁떠난대	-6439
▁떠올라	-6440
▁떠올려	-6441
▁떨려요	-6442
▁떨쳐낼	-6443
▁뜻밖에	-6444
▁띠동갑	-6445
▁라더니	-6446
▁라이징	-6447
▁라지만	-6448
▁락말락	-6449
▁려나요	-6450
▁려니까	-6451
▁로그인	-6452
▁로워질	-6453
▁리액션	-6454
▁마르셀	-6455
▁마법사	-6456
▁마셔서	-6457
▁마실래	-6458
▁마카롱	-6459
▁만났었	-6460
▁말조심	-6461
▁망가졌	-6462
▁맞춰야	-6463
▁맞춰줄	-6464
▁매달린	-6465
▁매몰차	-6466
▁맥주병	-6467
▁머릿결	-6468
▁멀리하	-6469
▁멈춰야	-6470
▁멋진가	-6471
▁멍청이	-6472
▁멍해질	-6473
▁메디컬	-6474
▁메리지	-6475
▁면밀히	-6476
▁모닝콜	-6477
▁모자란	-6478
▁모잘라	-6479
▁모조리	-6480
▁목감기	-6481
▁몰라서	-6482
▁몰려가	-6483
▁몰려왔	-6484
▁몸부림	-6485
▁못할까	-6486
▁무던히	-6487
▁무서움	-6488
▁문질러	-6489
▁물어볼	-6490
▁뮤지션	-6491
▁미워지	-6492
▁미워할	-6493
▁미지근	-6494
▁믿음직	-6495
▁밀어내	-6496
▁밀어두	-6497
▁밑거름	-6498
▁바꿔야	-6499
▁바라봤	-6500
▁바람기	-6501
▁바빠졌	-6502
▁반가운	-6503
▁반가울	-6504
▁반대말	-6505
▁반드시	-6506
▁반려자	-6507
▁발신자	-6508
▁배신감	-6509
▁배워야	-6510
▁배워요	-6511
▁버려서	-6512
▁버려졌	-6513
▁버텨낼	-6514
▁버텨라	-6515
▁벗겨질	-6516
▁베란다	-6517
▁변한걸	-6518
▁별다르	-6519
▁별다를	-6520
▁별똥별	-6521
▁보여준	-6522
▁보인다	-6523
▁보일까	-6524
▁보일지	-6525
▁보증금	-6526
▁보험료	-6527
▁본다면	-6528
▁본위제	-6529
▁부담감	-6530
▁부딛히	-6531
▁부서진	-6532
▁부친상	-6533
▁부활절	-6534
▁불러봐	-6535
▁불러야	-6536
▁불현듯	-6537
▁브라이	-6538
▁브런치	-6539
▁비틀즈	-6540
▁빌려줘	-6541
▁빗소리	-6542
▁빠질까	-6543
▁빼앗겼	-6544
▁뿌려도	-6545
▁사귄다	-6546
▁사라져	-6547
▁사라지	-6548
▁사라짐	-6549
▁사무치	-6550
▁사인데	-6551
▁살까봐	-6552
▁살랑대	-6553
▁살려도	-6554
▁살아왔	-6555
▁생겨요	-6556
▁생길까	-6557
▁서글퍼	-6558
▁서글픈	-6559
▁서러운	-6560
▁서부터	-6561
▁선다고	-6562
▁성적표	-6563
▁성취감	-6564
▁소리나	-6565
▁소홀히	-6566
▁손재주	-6567
▁솔리드	-6568
▁송만갑	-6569
▁수면제	-6570
▁수시로	-6571
▁수요일	-6572
▁수학원	-6573
▁수험생	-6574
▁순기능	-6575
▁순환계	-6576
▁숨쉬기	-6577
▁스러우	-6578
▁스러움	-6579
▁스러웠	-6580
▁스쳐도	-6581
▁스트립	-6582
▁슬퍼요	-6583
▁시금치	-6584
▁시어터	-6585
▁시트콤	-6586
▁식도염	-6587
▁식습관	-6588
▁식중독	-6589
▁심리학	-6590
▁심장병	-6591
▁싸구려	-6592
▁싸울까	-6593
▁싸워요	-6594
▁쏟아져	-6595
▁쓰디쓴	-6596
▁아까운	-6597
▁아껴야	-6598
▁아니면	-6599
▁아마도	-6600
▁아쉬운	-6601
▁아웃풋	-6602
▁아파도	-6603
▁아파라	-6604
▁아파야	-6605
▁아파할	-6606
▁아플까	-6607
▁안대용	-6608
▁알려준	-6609
▁알아챘	-6610
▁앞자리	-6611
▁액티브	-6612
▁야겠다	-6613
▁어딘가	-6614
▁어려서	-6615
▁어려우	-6616
▁어린애	-6617
▁어울려	-6618
▁어울렸	-6619
▁어차피	-6620
▁언젠지	-6621
▁엄청난	-6622
▁업로드	-6623
▁엊그제	-6624
▁에게서	-6625
▁에다가	-6626
▁여의치	-6627
▁연상녀	-6628
▁였으면	-6629
▁예뻐서	-6630
▁예뻐졌	-6631
▁오래갈	-6632
▁온다니	-6633
▁온종일	-6634
▁올라왔	-6635
▁완전체	-6636
▁움직여	-6637
▁움직일	-6638
▁원해서	-6639
▁유부녀	-6640
▁유연제	-6641
▁윤종신	-6642
▁으려구	-6643
▁으려나	-6644
▁은근히	-6645
▁은데요	-6646
▁을려고	-6647
▁이끌리	-6648
▁이러면	-6649
▁이를까	-6650
▁이쁜데	-6651
▁이어주	-6652
▁이해심	-6653
▁일러요	-6654
▁입학식	-6655
▁자전거	-6656
▁자취방	-6657
▁작아져	-6658
▁작아질	-6659
▁잘라야	-6660
▁잘라요	-6661
▁잠자리	-6662
▁잡아내	-6663
▁장가간	-6664
▁장난치	-6665
▁재학생	-6666
▁저마다	-6667
▁적정선	-6668
▁전시관	-6669
▁절대로	-6670
▁정교회	-6671
▁정동진	-6672
▁정수리	-6673
▁정중히	-6674
▁정해서	-6675
▁정해진	-6676
▁조성모	-6677
▁조심히	-6678
▁존재감	-6679
▁좋아한	-6680
▁주세요	-6681
▁죽인다	-6682
▁줄여줄	-6683
▁즐겨야	-6684
▁증거물	-6685
▁지껄이	-6686
▁지난주	-6687
▁지름신	-6688
▁지새웠	-6689
▁지우개	-6690
▁지켜야	-6691
▁진실로	-6692
▁진정한	-6693
▁진짜로	-6694
▁질리나	-6695
▁질린다	-6696
▁짠돌이	-6697
▁찔까봐	-6698
▁찔러보	-6699
▁차려야	-6700
▁챙겨야	-6701
▁챙겨줘	-6702
▁처방전	-6703
▁첫인상	-6704
▁쳐다봐	-6705
▁최우선	-6706
▁추상화	-6707
▁추스렸	-6708
▁추스리	-6709
▁추스린	-6710
▁춘다는	-6711
▁충격파	-6712
▁친해졌	-6713
▁칩니다	-6714
▁칼국수	-6715
▁컴파일	-6716
▁큐피드	-6717
▁타오를	-6718
▁탈취제	-6719
▁태어날	-6720
▁태연히	-6721
▁테니스	-6722
▁통할지	-6723
▁통해야	-6724
▁툭하면	-6725
▁팀워크	-6726
▁파헤치	-6727
▁패키지	-6728
▁편할지	-6729
▁편해도	-6730
▁편해요	-6731
▁편해진	-6732
▁포커페	-6733
▁피사체	-6734
▁피우스	-6735
▁하지만	-6736
▁학부모	-6737
▁한달전	-6738
▁한대요	-6739
▁한테서	-6740
▁할라구	-6741
▁할래요	-6742
▁해로워	-6743
▁해버림	-6744
▁해서요	-6745
▁해어진	-6746
▁해져도	-6747
▁해져서	-6748
▁해줘서	-6749
▁해진다	-6750
▁해질까	-6751
▁햇갈리	-6752
▁했으니	-6753
▁했을까	-6754
▁헛웃음	-6755
▁홈닥터	-6756
▁화풀이	-6757
▁활력소	-6758
▁회복력	-6759
▁흔들릴	-6760
▁흔들림	-6761
▁흘러갈	-6762
▁흘려도	-6763
▁히사시	-6764
▁힘겨움	-6765
▁힘드신	-6766
진거같아	-6767
▁1000	-6768
▁gogo	-6769
▁가물가물	-6770
▁가벼워졌	-6771
▁간다는데	-6772
▁간당간당	-6773
▁간접흡연	-6774
▁간질간질	-6775
▁갑작스런	-6776
▁고속버스	-6777
▁곤두세우	-6778
▁공동육아	-6779
▁교직이수	-6780
▁구구절절	-6781
▁구질구질	-6782
▁귀기울이	-6783
▁그나저나	-6784
▁그냥저냥	-6785
▁그러다가	-6786
▁그런다면	-6787
▁그럴수록	-6788
▁그럼에도	-6789
▁그만둬야	-6790
▁긴가민가	-6791
▁김치찌개	-6792
▁꽃바구니	-6793
▁끌어올려	-6794
▁끝낸다면	-6795
▁나온다는	-6796
▁나온대요	-6797
▁나옵니다	-6798
▁나타났나	-6799
▁내려놔요	-6800
▁내립니다	-6801
▁내버려두	-6802
▁넘어져서	-6803
▁놀이동산	-6804
▁눈치봐야	-6805
▁느껴져요	-6806
▁느껴진다	-6807
▁느낀다는	-6808
▁느낀다면	-6809
▁는다면요	-6810
▁다녀와서	-6811
▁달라질까	-6812
▁당할까봐	-6813
▁더러워졌	-6814
▁더치페이	-6815
▁도와줄까	-6816
▁돌아와요	-6817
▁동성동본	-6818
▁되돌이표	-6819
▁된답니다	-6820
▁두려워도	-6821
▁두려워지	-6822
▁들어올리	-6823
▁들으면서	-6824
▁디자이너	-6825
▁떠오른다	-6826
▁떨어뜨려	-6827
▁떨어져야	-6828
▁마음가짐	-6829
▁만드세요	-6830
▁말라버렸	-6831
▁말씀드려	-6832
▁매달려서	-6833
▁모릅니다	-6834
▁몰아붙였	-6835
▁못한다면	-6836
▁못했으니	-6837
▁무거워져	-6838
▁무궁무진	-6839
▁물리치료	-6840
▁미끄러우	-6841
▁바꿔야지	-6842
▁반가워요	-6843
▁반짝반짝	-6844
▁배울려면	-6845
▁버릴수록	-6846
▁베트남어	-6847
▁베푸세요	-6848
▁변해야할	-6849
▁부드러운	-6850
▁불타오르	-6851
▁불타올랐	-6852
▁블랙데이	-6853
▁빠짐없이	-6854
▁사회단체	-6855
▁생각난다	-6856
▁생각없이	-6857
▁생긴다고	-6858
▁선글라스	-6859
▁스러운가	-6860
▁스러운데	-6861
▁스러울까	-6862
▁스마트폰	-6863
▁스케일링	-6864
▁쏟아진다	-6865
▁쓰레기통	-6866
▁쓰인다고	-6867
▁아낌없이	-6868
▁아스피린	-6869
▁아픈가요	-6870
▁안전거리	-6871
▁안타까운	-6872
▁알아차렸	-6873
▁어김없이	-6874
▁어려웠을	-6875
▁어울린대	-6876
▁엉망진창	-6877
▁엊그젠데	-6878
▁에서부터	-6879
▁여리여리	-6880
▁외로울까	-6881
▁요리조리	-6882
▁욕심쟁이	-6883
▁으로부터	-6884
▁으셨으면	-6885
▁은근슬쩍	-6886
▁이것저것	-6887
▁이어져서	-6888
▁이왕이면	-6889
▁이제서야	-6890
▁인과응보	-6891
▁일어날까	-6892
▁잊혀질까	-6893
▁자격지심	-6894
▁자연스레	-6895
▁잘라야지	-6896
▁잘려나간	-6897
▁잡동사니	-6898
▁재택근무	-6899
▁전기장판	-6900
▁정신병자	-6901
▁져서인지	-6902
▁졋습니다	-6903
▁즐거워지	-6904
▁지겨워진	-6905
▁지낸다는	-6906
▁지워져요	-6907
▁지쳐버렸	-6908
▁진다는데	-6909
▁차가워서	-6910
▁차가워질	-6911
▁찰랑거렸	-6912
▁찾아나서	-6913
▁찾아올까	-6914
▁챙긴다는	-6915
▁카카오톡	-6916
▁콜록콜록	-6917
▁클라우드	-6918
▁투덜투덜	-6919
▁튀어나오	-6920
▁프롤레타	-6921
▁피웠으면	-6922
▁하나하나	-6923
▁한꺼번에	-6924
▁해야겠다	-6925
▁해야할까	-6926
▁해질려고	-6927
▁했잖아요	-6928
▁헤아려도	-6929
▁헤어나올	-6930
▁휘둘려선	-6931
▁히스테리	-6932
▁기다립니다	-6933
▁김치볶음밥	-6934
▁나타납니다	-6935
▁느껴진다면	-6936
▁돌아갑시다	-6937
▁두근거려서	-6938
▁들어간다고	-6939
▁떨어뜨려서	-6940
▁떨어진다고	-6941
▁롤러코스터	-6942
▁부끄러워서	-6943
▁빼앗길까봐	-6944
▁사다리타기	-6945
▁잊어버려요	-6946
▁태어났으면	-6947
▁패키지여행	-6948
▁포커페이스	-6949
▁화이트데이	-6950
▁흘러갑니다	-6951
▁갑작스러워서	-6952
▁드라이플라워	-6953
▁받아들인다는	-6954
▁프롤레타리아	-6955
▁괜잖아진거같아	-6956
▁깐	-6957
▁뉘	-6958
▁렵	-6959
▁린	-6960
▁뿅	-6961
▁콜	-6962
▁킬	-6963
간대	-6964
게임	-6965
결핵	-6966
관급	-6967
국인	-6968
급생	-6969
기압	-6970
꿈치	-6971
나물	-6972
높이	-6973
더지	-6974
래요	-6975
레인	-6976
려구	-6977
로막	-6978
론트	-6979
리법	-6980
리케	-6981
림돌	-6982
립트	-6983
매여	-6984
문서	-6985
베개	-6986
병증	-6987
볶이	-6988
부심	-6989
블릿	-6990
빠르	-6991
서트	-6992
세포	-6993
속판	-6994
숭이	-6995
스름	-6996
시험	-6997
싸움	-6998
아봐	-6999
양력	-7000
언트	-7001
연상	-7002
오로	-7003
온다	-7004
용직	-7005
용차	-7006
우제	-7007
작가	-7008
장가	-7009
재료	-7010
졸중	-7011
추장	-7012
치원	-7013
커스	-7014
크대	-7015
표권	-7016
하위	-7017
▁가맹	-7018
▁가자	-7019
▁가죽	-7020
▁가짜	-7021
▁각처	-7022
▁감염	-7023
▁강탈	-7024
▁강하	-7025
▁개의	-7026
▁거위	-7027
▁게이	-7028
▁게재	-7029
▁격노	-7030
▁결론	-7031
▁결별	-7032
▁결점	-7033
▁경유	-7034
▁계단	-7035
▁고고	-7036
▁고온	-7037
▁고하	-7038
▁골자	-7039
▁곳곳	-7040
▁관절	-7041
▁관찰	-7042
▁광고	-7043
▁굴곡	-7044
▁굽히	-7045
▁권고	-7046
▁그늘	-7047
▁기능	-7048
▁기름	-7049
▁기색	-7050
▁깐깐	-7051
▁깔리	-7052
▁꼼짝	-7053
▁꿰매	-7054
▁나야	-7055
▁낙방	-7056
▁날뛰	-7057
▁날카	-7058
▁내년	-7059
▁내릴	-7060
▁내분	-7061
▁내주	-7062
▁내키	-7063
▁능가	-7064
▁다채	-7065
▁단결	-7066
▁달르	-7067
▁달빛	-7068
▁답신	-7069
▁대상	-7070
▁대처	-7071
▁대표	-7072
▁대행	-7073
▁동감	-7074
▁동네	-7075
▁동적	-7076
▁동조	-7077
▁들켰	-7078
▁따내	-7079
▁따오	-7080
▁떠돌	-7081
▁라크	-7082
▁런가	-7083
▁리모	-7084
▁리턴	-7085
▁막연	-7086
▁만류	-7087
▁만약	-7088
▁만지	-7089
▁말기	-7090
▁매듭	-7091
▁매이	-7092
▁맨틀	-7093
▁멀티	-7094
▁메인	-7095
▁메일	-7096
▁명칭	-7097
▁모실	-7098
▁모태	-7099
▁몸짓	-7100
▁못나	-7101
▁무상	-7102
▁물품	-7103
▁뭐한	-7104
▁미모	-7105
▁미쳐	-7106
▁밀치	-7107
▁발굴	-7108
▁발급	-7109
▁발열	-7110
▁발휘	-7111
▁방안	-7112
▁방향	-7113
▁배상	-7114
▁배웠	-7115
▁배정	-7116
▁범죄	-7117
▁별하	-7118
▁보안	-7119
▁보육	-7120
▁복구	-7121
▁분야	-7122
▁불황	-7123
▁비례	-7124
▁빨렸	-7125
▁빼놓	-7126
▁뿅뿅	-7127
▁삐딱	-7128
▁사발	-7129
▁살균	-7130
▁선의	-7131
▁섣달	-7132
▁설탕	-7133
▁섬기	-7134
▁성악	-7135
▁세분	-7136
▁세탁	-7137
▁손자	-7138
▁수당	-7139
▁수신	-7140
▁숙부	-7141
▁술중	-7142
▁시각	-7143
▁식초	-7144
▁신은	-7145
▁신의	-7146
▁심야	-7147
▁쌓여	-7148
▁아메	-7149
▁아재	-7150
▁애플	-7151
▁야외	-7152
▁약초	-7153
▁양육	-7154
▁업데	-7155
▁에이	-7156
▁여건	-7157
▁염료	-7158
▁오른	-7159
▁외장	-7160
▁요금	-7161
▁요소	-7162
▁우애	-7163
▁원삼	-7164
▁유감	-7165
▁유발	-7166
▁유재	-7167
▁이민	-7168
▁이치	-7169
▁인척	-7170
▁임신	-7171
▁임용	-7172
▁자도	-7173
▁자료	-7174
▁자만	-7175
▁작년	-7176
▁작별	-7177
▁잠길	-7178
▁잡화	-7179
▁장갑	-7180
▁장교	-7181
▁장비	-7182
▁재물	-7183
▁저린	-7184
▁적립	-7185
▁전세	-7186
▁정과	-7187
▁정무	-7188
▁정보	-7189
▁제전	-7190
▁제철	-7191
▁조립	-7192
▁존칭	-7193
▁좌절	-7194
▁주령	-7195
▁중지	-7196
▁지날	-7197
▁지원	-7198
▁직감	-7199
▁진전	-7200
▁질환	-7201
▁차입	-7202
▁착해	-7203
▁참깨	-7204
▁참혹	-7205
▁창문	-7206
▁채무	-7207
▁철저	-7208
▁초코	-7209
▁추가	-7210
▁출판	-7211
▁충동	-7212
▁취임	-7213
▁카탈	-7214
▁코닥	-7215
▁코프	-7216
▁킬로	-7217
▁타당	-7218
▁타협	-7219
▁털이	-7220
▁텔레	-7221
▁토끼	-7222
▁통일	-7223
▁통행	-7224
▁퇴사	-7225
▁퇴임	-7226
▁튀김	-7227
▁편리	-7228
▁평범	-7229
▁표피	-7230
▁푸스	-7231
▁품의	-7232
▁프랑	-7233
▁학년	-7234
▁한두	-7235
▁할껄	-7236
▁행태	-7237
▁허해	-7238
▁허허	-7239
▁혼례	-7240
▁홈런	-7241
▁화끈	-7242
▁화난	-7243
▁화합	-7244
▁확충	-7245
▁활기	-7246
▁홧김	-7247
▁회유	-7248
▁휴일	-7249
▁흐른	-7250
▁흔하	-7251
로워져	-7252
이스틱	-7253
▁ᄂ가요	-7254
▁가로막	-7255
▁건너가	-7256
▁걸림돌	-7257
▁견뎌왔	-7258
▁경제가	-7259
▁고추장	-7260
▁공중파	-7261
▁구조적	-7262
▁구축함	-7263
▁극작가	-7264
▁금속판	-7265
▁금요일	-7266
▁기우제	-7267
▁나간대	-7268
▁납니다	-7269
▁내릴까	-7270
▁뇌졸중	-7271
▁다양체	-7272
▁답례품	-7273
▁대잔치	-7274
▁대학생	-7275
▁돌려도	-7276
▁돌려주	-7277
▁동급생	-7278
▁동일시	-7279
▁두더지	-7280
▁떡볶이	-7281
▁랭커스	-7282
▁렵니다	-7283
▁마셔요	-7284
▁마주보	-7285
▁맺었으	-7286
▁무색계	-7287
▁밀려나	-7288
▁바구니	-7289
▁바라지	-7290
▁바오로	-7291
▁버텨요	-7292
▁볼래요	-7293
▁볼려구	-7294
▁봉사자	-7295
▁부모님	-7296
▁부조리	-7297
▁빚어지	-7298
▁빼어나	-7299
▁살인죄	-7300
▁상당히	-7301
▁성공회	-7302
▁소극장	-7303
▁소시지	-7304
▁소화제	-7305
▁순환선	-7306
▁승용차	-7307
▁식물원	-7308
▁식재료	-7309
▁심해요	-7310
▁싱크대	-7311
▁아이구	-7312
▁아이스	-7313
▁안정화	-7314
▁알아주	-7315
▁어떠셨	-7316
▁어스름	-7317
▁얽매여	-7318
▁오디션	-7319
▁외로울	-7320
▁원숭이	-7321
▁유년기	-7322
▁유치원	-7323
▁윤선도	-7324
▁이래도	-7325
▁일용직	-7326
▁자부심	-7327
▁자장가	-7328
▁잘생긴	-7329
▁장례식	-7330
▁재빠르	-7331
▁저기압	-7332
▁조리법	-7333
▁졸린데	-7334
▁주연상	-7335
▁중개인	-7336
▁중독자	-7337
▁진정하	-7338
▁차관급	-7339
▁체육부	-7340
▁최하위	-7341
▁친해서	-7342
▁콘서트	-7343
▁콩나물	-7344
▁클라이	-7345
▁태블릿	-7346
▁태양력	-7347
▁투표권	-7348
▁팔꿈치	-7349
▁팔베개	-7350
▁편안히	-7351
▁펼쳐질	-7352
▁폐결핵	-7353
▁프론트	-7354
▁플래그	-7355
▁합병증	-7356
리케이션	-7357
▁감정싸움	-7358
▁두근거려	-7359
▁뒤돌아봐	-7360
▁보드게임	-7361
▁부탁드리	-7362
▁스크립트	-7363
▁아메리카	-7364
▁어려워서	-7365
▁업데이트	-7366
▁올라온다	-7367
▁자격시험	-7368
▁조이스틱	-7369
▁즐거워요	-7370
▁지하철역	-7371
▁카탈로그	-7372
▁캐롤라이	-7373
▁킬로미터	-7374
▁텔레비전	-7375
▁기다릴게요	-7376
▁날카로워져	-7377
▁클라이언트	-7378
▁애플리케이션	-7379
cc	-7380
xx	-7381
▁p	-7382
▁껄	-7383
▁꼈	-7384
▁낀	-7385
▁랄	-7386
▁렛	-7387
▁엇	-7388
▁즈	-7389
▁촌	-7390
감각	-7391
거울	-7392
결합	-7393
고사	-7394
골이	-7395
기법	-7396
꾸룩	-7397
난다	-7398
다감	-7399
▁뢰	-7400
▁쩌	-7401
너스	-7402
눅눅	-7403
다른	-7404
단점	-7405
데요	-7406
독상	-7407
래라	-7408
러들	-7409
록금	-7410
루즈	-7411
면허	-7412
목적	-7413
박스	-7414
반경	-7415
뱃돈	-7416
벌이	-7417
보이	-7418
봐요	-7419
부선	-7420
블러	-7421
뿌둥	-7422
사고	-7423
살랑	-7424
상종	-7425
성숙	-7426
스타	-7427
올까	-7428
용증	-7429
우치	-7430
울증	-7431
인자	-7432
자식	-7433
자의	-7434
지손	-7435
째깍	-7436
차례	-7437
창기	-7438
척이	-7439
코인	-7440
클링	-7441
탄소	-7442
트곡	-7443
푸려	-7444
하키	-7445
합리	-7446
합성	-7447
험실	-7448
헥헥	-7449
현실	-7450
화점	-7451
▁25	-7452
▁cc	-7453
▁pp	-7454
▁xx	-7455
▁ᄂ데	-7456
▁가난	-7457
▁가늘	-7458
▁가즈	-7459
▁각서	-7460
▁간결	-7461
▁간신	-7462
▁간장	-7463
▁갈렸	-7464
▁갈림	-7465
▁강가	-7466
▁강남	-7467
▁강박	-7468
▁강해	-7469
▁개가	-7470
▁개거	-7471
▁개발	-7472
▁개선	-7473
▁개신	-7474
▁거칠	-7475
▁건물	-7476
▁건방	-7477
▁검진	-7478
▁겠죠	-7479
▁격전	-7480
▁결단	-7481
▁결말	-7482
▁결성	-7483
▁경기	-7484
▁경량	-7485
▁경영	-7486
▁경전	-7487
▁경칭	-7488
▁계륵	-7489
▁계모	-7490
▁고데	-7491
▁고분	-7492
▁고압	-7493
▁고충	-7494
▁고히	-7495
▁곡과	-7496
▁골랐	-7497
▁공공	-7498
▁공책	-7499
▁긋	-7500
▁뜯	-7501
▁련	-7502
▁풋	-7503
간다	-7504
공평	-7505
그네	-7506
레질	-7507
명도	-7508
보문	-7509
서적	-7510
얘졌	-7511
일러	-7512
즈키	-7513
첨화	-7514
테크	-7515
통수	-7516
▁고수	-7517
▁고의	-7518
▁골반	-7519
▁공훈	-7520
▁과묵	-7521
▁과소	-7522
▁과실	-7523
▁관복	-7524
▁관점	-7525
▁광둥	-7526
▁광탈	-7527
▁교란	-7528
▁교복	-7529
▁교습	-7530
▁교착	-7531
▁교통	-7532
▁구금	-7533
▁구상	-7534
▁구역	-7535
▁구출	-7536
▁구타	-7537
▁국가	-7538
▁국밥	-7539
▁국외	-7540
▁군왕	-7541
▁굴뚝	-7542
▁궁합	-7543
▁권위	-7544
▁귀농	-7545
▁귀천	-7546
▁규범	-7547
▁균형	-7548
▁그놈	-7549
▁그치	-7550
▁그해	-7551
▁근각	-7552
▁근년	-7553
▁근린	-7554
▁금상	-7555
▁급여	-7556
▁기계	-7557
▁기량	-7558
▁기로	-7559
▁기류	-7560
▁기박	-7561
▁기사	-7562
▁기초	-7563
▁긴다	-7564
▁까닭	-7565
▁깰까	-7566
▁꼬르	-7567
▁꼬리	-7568
▁꼬박	-7569
▁꼭꼭	-7570
▁꾸룩	-7571
▁끄집	-7572
▁나른	-7573
▁나바	-7574
▁나서	-7575
▁낙엽	-7576
▁난폭	-7577
▁날까	-7578
▁날림	-7579
▁남부	-7580
▁납득	-7581
▁내쫓	-7582
▁내치	-7583
▁냉방	-7584
▁냐면	-7585
▁너그	-7586
▁너르	-7587
▁널스	-7588
▁넘치	-7589
▁노렸	-7590
▁노무	-7591
▁노와	-7592
▁녹음	-7593
▁녹차	-7594
▁논문	-7595
▁농도	-7596
▁농촌	-7597
▁놓이	-7598
▁놔주	-7599
▁0	-7600
▁닝	-7601
▁링	-7602
▁붓	-7603
▁킁	-7604
개월	-7605
꺼워	-7606
꼬박	-7607
담길	-7608
랑비	-7609
러스	-7610
러질	-7611
망이	-7612
모닝	-7613
방의	-7614
버거	-7615
산강	-7616
압기	-7617
양지	-7618
어력	-7619
어링	-7620
인드	-7621
인배	-7622
전수	-7623
조합	-7624
지런	-7625
지마	-7626
착역	-7627
처지	-7628
크족	-7629
터카	-7630
투스	-7631
퓨터	-7632
피스	-7633
해하	-7634
혈구	-7635
▁견딘	-7636
▁결재	-7637
▁과의	-7638
▁괴물	-7639
▁구제	-7640
▁기기	-7641
▁기차	-7642
▁기흥	-7643
▁낙수	-7644
▁냉면	-7645
▁네일	-7646
▁눅눅	-7647
▁눈살	-7648
▁눈앞	-7649
▁뉴스	-7650
▁능동	-7651
▁다이	-7652
▁다투	-7653
▁단거	-7654
▁단독	-7655
▁단발	-7656
▁단시	-7657
▁단오	-7658
▁달랐	-7659
▁달랬	-7660
▁달렸	-7661
▁당구	-7662
▁당근	-7663
▁당시	-7664
▁대기	-7665
▁대량	-7666
▁대립	-7667
▁대외	-7668
▁대책	-7669
▁대피	-7670
▁더우	-7671
▁덕분	-7672
▁덜덜	-7673
▁덤빈	-7674
▁도구	-7675
▁도덕	-7676
▁도형	-7677
▁독점	-7678
▁독특	-7679
▁동굴	-7680
▁동상	-7681
▁동선	-7682
▁동전	-7683
▁돼라	-7684
▁두께	-7685
▁뒤따	-7686
▁뒤집	-7687
▁드물	-7688
▁디지	-7689
▁따질	-7690
▁땅콩	-7691
▁떠들	-7692
▁떨기	-7693
▁떨렸	-7694
▁또래	-7695
▁띄웠	-7696
▁라구	-7697
▁라던	-7698
▁랄프	-7699
▁랜	-7700
▁쾌	-7701
▁혀	-7702
견례	-7703
곡차	-7704
금통	-7705
기심	-7706
꾸러	-7707
나워	-7708
댓값	-7709
랑이	-7710
러덩	-7711
레임	-7712
려왔	-7713
례허	-7714
룩주	-7715
리밍	-7716
마차	-7717
메라	-7718
며시	-7719
물주	-7720
바심	-7721
방향	-7722
부름	-7723
비스	-7724
산화	-7725
설팅	-7726
스턴	-7727
업소	-7728
완전	-7729
이킹	-7730
정인	-7731
종자	-7732
주회	-7733
차장	-7734
출력	-7735
텐츠	-7736
투리	-7737
풍기	-7738
▁가나	-7739
▁거창	-7740
▁고프	-7741
▁공연	-7742
▁구르	-7743
▁구토	-7744
▁그릴	-7745
▁나옴	-7746
▁대비	-7747
▁대빵	-7748
▁대지	-7749
▁독감	-7750
▁동원	-7751
▁레알	-7752
▁레지	-7753
▁로망	-7754
▁로비	-7755
▁로울	-7756
▁롭스	-7757
▁리다	-7758
▁리서	-7759
▁리스	-7760
▁리치	-7761
▁린트	-7762
▁마라	-7763
▁마마	-7764
▁마세	-7765
▁마스	-7766
▁마을	-7767
▁마치	-7768
▁마켓	-7769
▁마트	-7770
▁만담	-7771
▁만두	-7772
▁말랐	-7773
▁말문	-7774
▁망고	-7775
▁망하	-7776
▁맞히	-7777
▁맡기	-7778
▁매콤	-7779
▁맴돈	-7780
▁머신	-7781
▁먹히	-7782
▁메가	-7783
▁면세	-7784
▁명치	-7785
▁모공	-7786
▁모레	-7787
▁모양	-7788
▁모은	-7789
▁모의	-7790
▁모텔	-7791
▁목숨	-7792
▁못자	-7793
▁무게	-7794
▁무죄	-7795
▁문책	-7796
▁물가	-7797
▁물류	-7798
▁물질	-7799
색빛	-7800
▁기어	-7801
▁미싱	-7802
▁미움	-7803
▁미인	-7804
▁바치	-7805
▁반성	-7806
▁반함	-7807
▁반항	-7808
▁발령	-7809
▁발현	-7810
▁밤샜	-7811
▁방랑	-7812
▁방면	-7813
▁방약	-7814
▁방해	-7815
▁번번	-7816
▁번복	-7817
▁번식	-7818
▁벌주	-7819
▁범위	-7820
▁법익	-7821
▁벤츠	-7822
▁변기	-7823
▁별개	-7824
▁병동	-7825
▁병장	-7826
▁보람	-7827
▁보약	-7828
▁보입	-7829
▁보조	-7830
▁보좌	-7831
▁복귀	-7832
▁복원	-7833
▁복제	-7834
▁본받	-7835
▁본심	-7836
▁볼께	-7837
▁봉지	-7838
▁부산	-7839
▁부업	-7840
▁부치	-7841
▁부케	-7842
▁북치	-7843
▁분류	-7844
▁분리	-7845
▁분배	-7846
▁분석	-7847
▁불꽃	-7848
▁불능	-7849
▁불렀	-7850
▁불빛	-7851
▁붙일	-7852
▁비결	-7853
▁비만	-7854
▁비비	-7855
▁비트	-7856
▁빈도	-7857
▁빈사	-7858
▁빌렸	-7859
▁빨강	-7860
▁빵빵	-7861
▁뻔뻔	-7862
▁뻔하	-7863
▁뿌듯	-7864
▁뿌리	-7865
▁뿌린	-7866
▁사량	-7867
▁사별	-7868
▁사제	-7869
▁사지	-7870
▁사채	-7871
▁산화	-7872
▁살피	-7873
▁삼각	-7874
▁삼재	-7875
▁상기	-7876
▁새기	-7877
▁새롭	-7878
▁새치	-7879
▁서럽	-7880
▁서방	-7881
▁선단	-7882
▁선명	-7883
▁선수	-7884
▁설사	-7885
▁성경	-7886
▁성급	-7887
▁성분	-7888
▁성욕	-7889
▁세금	-7890
▁세비	-7891
▁세심	-7892
▁센티	-7893
▁소독	-7894
▁소맥	-7895
▁소연	-7896
▁소진	-7897
▁속력	-7898
▁속성	-7899
▁속지	-7900
▁손발	-7901
▁손쉽	-7902
▁솜털	-7903
▁송어	-7904
▁송장	-7905
▁수강	-7906
▁수난	-7907
▁수단	-7908
▁수드	-7909
▁수료	-7910
▁수박	-7911
▁수용	-7912
▁수지	-7913
▁수행	-7914
▁수혈	-7915
▁숙면	-7916
▁순서	-7917
▁순항	-7918
▁술병	-7919
▁술집	-7920
▁쉬울	-7921
▁스노	-7922
▁스런	-7923
▁스몰	-7924
▁스윗	-7925
▁습성	-7926
▁승낙	-7927
▁승차	-7928
▁시누	-7929
▁시베	-7930
▁시의	-7931
▁시절	-7932
▁식비	-7933
▁식욕	-7934
▁신부	-7935
▁신상	-7936
▁신하	-7937
▁신행	-7938
▁신호	-7939
▁실비	-7940
▁실상	-7941
▁실시	-7942
▁실외	-7943
▁심란	-7944
▁심화	-7945
▁싸늘	-7946
▁쓰리	-7947
▁아네	-7948
▁아보	-7949
▁아푸	-7950
▁앉히	-7951
▁애완	-7952
▁애착	-7953
▁야구	-7954
▁야만	-7955
▁약인	-7956
▁약품	-7957
▁양면	-7958
▁양식	-7959
▁양심	-7960
▁양초	-7961
▁양파	-7962
▁어여	-7963
▁언어	-7964
▁얽히	-7965
▁에덴	-7966
▁엔드	-7967
▁여사	-7968
▁여운	-7969
▁여이	-7970
▁여전	-7971
▁역류	-7972
▁엮여	-7973
▁엮이	-7974
▁연관	-7975
▁연극	-7976
▁연금	-7977
▁연령	-7978
▁연말	-7979
▁연봉	-7980
▁연일	-7981
▁열나	-7982
▁열림	-7983
▁열반	-7984
▁열악	-7985
▁영광	-7986
▁영장	-7987
▁예견	-7988
▁예편	-7989
▁오름	-7990
▁온수	-7991
▁온천	-7992
▁올해	-7993
▁옳소	-7994
▁옷깃	-7995
▁와플	-7996
▁완료	-7997
▁외과	-7998
▁외교	-7999
▁외제	-8000
▁외쳐	-8001
▁요법	-8002
▁욕먹	-8003
▁용납	-8004
▁용품	-8005
▁우먼	-8006
▁우습	-8007
▁울리	-8008
▁울면	-8009
▁움츠	-8010
▁웃긴	-8011
▁웅변	-8012
▁워워	-8013
▁워커	-8014
▁워킹	-8015
▁원상	-8016
▁원서	-8017
▁원작	-8018
▁원점	-8019
▁월세	-8020
▁웹사	-8021
▁위드	-8022
▁위안	-8023
▁위치	-8024
▁유사	-8025
▁유아	-8026
▁유유	-8027
▁유의	-8028
▁유저	-8029
▁유통	-8030
▁유행	-8031
▁유형	-8032
▁유혹	-8033
▁육체	-8034
▁으며	-8035
▁은총	-8036
▁의문	-8037
▁의욕	-8038
▁의의	-8039
▁의존	-8040
▁이공	-8041
▁이날	-8042
▁이론	-8043
▁이마	-8044
▁이빨	-8045
▁이웃	-8046
▁인걸	-8047
▁인공	-8048
▁인도	-8049
▁인듯	-8050
▁인맥	-8051
▁인색	-8052
▁일전	-8053
▁일치	-8054
▁일화	-8055
▁임무	-8056
▁입각	-8057
▁입술	-8058
▁입원	-8059
▁입혀	-8060
▁잇몸	-8061
▁자가	-8062
▁자길	-8063
▁자라	-8064
▁자식	-8065
▁자율	-8066
▁자제	-8067
▁작용	-8068
▁잔고	-8069
▁잔액	-8070
▁잔해	-8071
▁잔혹	-8072
▁잠겼	-8073
▁잡음	-8074
▁잡이	-8075
▁잡히	-8076
▁장기	-8077
▁장르	-8078
▁장명	-8079
▁장수	-8080
▁저서	-8081
▁저축	-8082
▁저해	-8083
▁적히	-8084
▁전개	-8085
▁전달	-8086
▁전생	-8087
▁전학	-8088
▁전형	-8089
▁절반	-8090
▁절벽	-8091
▁절차	-8092
▁점차	-8093
▁점프	-8094
▁접근	-8095
▁정글	-8096
▁정들	-8097
▁정략	-8098
▁정색	-8099
▁정운	-8100
▁정이	-8101
▁정작	-8102
▁정정	-8103
▁제곱	-8104
▁제사	-8105
▁제시	-8106
▁제작	-8107
▁제조	-8108
▁제한	-8109
▁제후	-8110
▁조교	-8111
▁조롱	-8112
▁조우	-8113
▁조의	-8114
▁조커	-8115
▁종결	-8116
▁종목	-8117
▁종적	-8118
▁종점	-8119
▁종족	-8120
▁종합	-8121
▁좌우	-8122
▁죄인	-8123
▁죄책	-8124
▁주눅	-8125
▁주당	-8126
▁주사	-8127
▁주소	-8128
▁주의	-8129
▁죽이	-8130
▁줄래	-8131
▁줄지	-8132
▁중단	-8133
▁중문	-8134
▁중병	-8135
▁중심	-8136
▁중임	-8137
▁즈음	-8138
▁즉흥	-8139
▁증권	-8140
▁증폭	-8141
▁지로	-8142
▁지불	-8143
▁지세	-8144
▁직선	-8145
▁직시	-8146
▁직책	-8147
▁진구	-8148
▁진담	-8149
▁진출	-8150
▁진하	-8151
▁질척	-8152
▁짐작	-8153
▁집이	-8154
▁징용	-8155
▁째깍	-8156
▁쪼잔	-8157
▁찍혔	-8158
▁차원	-8159
▁찬물	-8160
▁찬하	-8161
▁참고	-8162
▁참담	-8163
▁창피	-8164
▁채널	-8165
▁천사	-8166
▁천일	-8167
▁천지	-8168
▁첨부	-8169
▁청개	-8170
▁체조	-8171
▁체질	-8172
▁체형	-8173
▁초과	-8174
▁초급	-8175
▁초반	-8176
▁초심	-8177
▁초월	-8178
▁초조	-8179
▁촉각	-8180
▁촉구	-8181
▁촉발	-8182
▁최소	-8183
▁추세	-8184
▁출생	-8185
▁출항	-8186
▁출혈	-8187
▁충당	-8188
▁충실	-8189
▁취하	-8190
▁치마	-8191
▁치즈	-8192
▁친밀	-8193
▁침해	-8194
▁케른	-8195
▁케빈	-8196
▁케어	-8197
▁코딩	-8198
▁코트	-8199
▁콘테	-8200
▁쿠스	-8201
▁쿠폰	-8202
▁클릭	-8203
▁클립	-8204
▁킁킁	-8205
▁키스	-8206
▁타가	-8207
▁타도	-8208
▁타로	-8209
▁타임	-8210
▁탄로	-8211
▁탄생	-8212
▁탄핵	-8213
▁태몽	-8214
▁태음	-8215
▁터진	-8216
▁통학	-8217
▁투어	-8218
▁투정	-8219
▁트였	-8220
▁트집	-8221
▁특색	-8222
▁특종	-8223
▁티나	-8224
▁티비	-8225
▁파급	-8226
▁팔뚝	-8227
▁퍼가	-8228
▁퍼붓	-8229
▁퍼즐	-8230
▁편치	-8231
▁포털	-8232
▁폭넓	-8233
▁표의	-8234
▁표출	-8235
▁풀린	-8236
▁풋풋	-8237
▁풍광	-8238
▁풍요	-8239
▁플러	-8240
▁피고	-8241
▁피로	-8242
▁피우	-8243
▁필연	-8244
▁하드	-8245
▁하시	-8246
▁학과	-8247
▁한국	-8248
▁한복	-8249
▁한숨	-8250
▁한약	-8251
▁한자	-8252
▁한쪽	-8253
▁할땐	-8254
▁함인	-8255
▁함포	-8256
▁합치	-8257
▁해온	-8258
▁해치	-8259
▁햇살	-8260
▁행사	-8261
▁행적	-8262
▁허위	-8263
▁허한	-8264
▁헐크	-8265
▁헤드	-8266
▁헥헥	-8267
▁헬리	-8268
▁혐오	-8269
▁협의	-8270
▁호시	-8271
▁호텔	-8272
▁호호	-8273
▁혼났	-8274
▁혼동	-8275
▁혼영	-8276
▁홀로	-8277
▁환율	-8278
▁활약	-8279
▁황사	-8280
▁회원	-8281
▁효과	-8282
▁효자	-8283
▁후군	-8284
▁후기	-8285
▁후미	-8286
▁훌쩍	-8287
▁휘감	-8288
▁휴지	-8289
▁휴직	-8290
▁흘렸	-8291
▁흥분	-8292
곡차곡	-8293
꾸러기	-8294
레이닝	-8295
레이드	-8296
례허식	-8297
룩주룩	-8298
문서답	-8299
물주물	-8300
보문고	-8301
아내리	-8302
집니다	-8303
▁가랑비	-8304
▁가려워	-8305
▁간신히	-8306
▁감독상	-8307
▁감수성	-8308
▁강원도	-8309
▁개기름	-8310
▁개신교	-8311
▁개인전	-8312
▁객관성	-8313
▁객관식	-8314
▁건들이	-8315
▁건방져	-8316
▁건조기	-8317
▁걸레질	-8318
▁겁난다	-8319
▁견뎌냈	-8320
▁견딜까	-8321
▁경부선	-8322
▁경전철	-8323
▁경제력	-8324
▁고분자	-8325
▁고속정	-8326
▁고스트	-8327
▁관절염	-8328
▁광둥어	-8329
▁광합성	-8330
▁괴롭히	-8331
▁귀여웠	-8332
▁그걸로	-8333
▁기술인	-8334
▁꼬르륵	-8335
▁꼭대기	-8336
▁꽃놀이	-8337
▁끌어오	-8338
▁나그네	-8339
▁나이스	-8340
▁나이테	-8341
▁나이트	-8342
▁나이프	-8343
▁남겨진	-8344
▁났으면	-8345
▁내국인	-8346
▁내려보	-8347
▁내려오	-8348
▁내리치	-8349
▁너그럽	-8350
▁넘어지	-8351
▁넘어질	-8352
▁놀려먹	-8353
▁눈높이	-8354
▁눈물샘	-8355
▁뉘우치	-8356
▁다스리	-8357
▁답답증	-8358
▁당해도	-8359
▁대기업	-8360
▁대인배	-8361
▁돌담길	-8362
▁돌잔치	-8363
▁동물원	-8364
▁두꺼워	-8365
▁두드리	-8366
▁두려움	-8367
▁두통약	-8368
▁뒤따르	-8369
▁뒤처지	-8370
▁뒤척이	-8371
▁뒤통수	-8372
▁드러머	-8373
▁들어줄	-8374
▁등록금	-8375
▁등산로	-8376
▁딩크족	-8377
▁따라오	-8378
▁따라와	-8379
▁따져요	-8380
▁떨린다	-8381
▁라디오	-8382
▁라이어	-8383
▁라이트	-8384
▁렌터카	-8385
▁리서치	-8386
▁마음놓	-8387
▁마인드	-8388
▁막대기	-8389
▁막바지	-8390
▁면허증	-8391
▁모세포	-8392
▁모아야	-8393
▁무감각	-8394
▁무방비	-8395
▁무서웠	-8396
▁문지르	-8397
▁물리적	-8398
▁물리학	-8399
▁물린다	-8400
▁미성숙	-8401
▁미스트	-8402
▁미워질	-8403
▁미워해	-8404
▁밀려왔	-8405
▁반바지	-8406
▁밥벌이	-8407
▁방망이	-8408
▁방어력	-8409
▁배고프	-8410
▁배부르	-8411
▁배워도	-8412
▁백화점	-8413
▁버거울	-8414
▁벗겨져	-8415
▁베어링	-8416
▁변압기	-8417
▁보낼까	-8418
▁보너스	-8419
▁보살피	-8420
▁부끄럽	-8421
▁부딪혀	-8422
▁부러우	-8423
▁부지런	-8424
▁불공평	-8425
▁불안정	-8426
▁불완전	-8427
▁불쾌감	-8428
▁붙여지	-8429
▁블로그	-8430
▁비싼데	-8431
▁사귈래	-8432
▁사나워	-8433
▁사이즈	-8434
▁사투리	-8435
▁산다는	-8436
▁살며시	-8437
▁상견례	-8438
▁색다른	-8439
▁생강차	-8440
▁생활비	-8441
▁서비스	-8442
▁선풍기	-8443
▁세계화	-8444
▁세뱃돈	-8445
▁세탁소	-8446
▁소유격	-8447
▁속상했	-8448
▁수개월	-8449
▁수수료	-8450
▁수신자	-8451
▁수차례	-8452
▁쉬운데	-8453
▁스즈키	-8454
▁스케줄	-8455
▁슬퍼도	-8456
▁시간표	-8457
▁신혼집	-8458
▁실험실	-8459
▁심부름	-8460
▁심한가	-8461
▁싸운다	-8462
▁쏟아지	-8463
▁쓸모없	-8464
▁아세요	-8465
▁아이디	-8466
▁아이쿠	-8467
▁아이템	-8468
▁아픈가	-8469
▁알아들	-8470
▁알아줄	-8471
▁앞당기	-8472
▁애국가	-8473
▁애벌레	-8474
▁약해졌	-8475
▁양방향	-8476
▁어때서	-8477
▁어머나	-8478
▁어머니	-8479
▁어울림	-8480
▁어째야	-8481
▁엄지손	-8482
▁엇갈리	-8483
▁에스트	-8484
▁여름철	-8485
▁연방의	-8486
▁연주회	-8487
▁영문학	-8488
▁영산강	-8489
▁옆구리	-8490
▁오랫만	-8491
▁오지마	-8492
▁온다면	-8493
▁올라와	-8494
▁왕자의	-8495
▁외로우	-8496
▁운전사	-8497
▁으로서	-8498
▁이기심	-8499
▁이래라	-8500
▁이미지	-8501
▁이뻐요	-8502
▁이산화	-8503
▁이어폰	-8504
▁이직각	-8505
▁인격권	-8506
▁인내심	-8507
▁인문학	-8508
▁인생관	-8509
▁일반인	-8510
▁일인자	-8511
▁임차권	-8512
▁자더니	-8513
▁자동화	-8514
▁자만심	-8515
▁잡아가	-8516
▁장기간	-8517
▁장난친	-8518
▁장단점	-8519
▁재결합	-8520
▁재테크	-8521
▁저고리	-8522
▁저금통	-8523
▁저래라	-8524
▁적어지	-8525
▁적혈구	-8526
▁전문가	-8527
▁정무직	-8528
▁정서적	-8529
▁정확도	-8530
▁제습기	-8531
▁졌으니	-8532
▁조각가	-8533
▁조그만	-8534
▁조바심	-8535
▁조울증	-8536
▁종아리	-8537
▁종착역	-8538
▁주목적	-8539
▁주무셨	-8540
▁주차장	-8541
▁줄라고	-8542
▁지나쳤	-8543
▁지루함	-8544
▁지명도	-8545
▁지워도	-8546
▁지워질	-8547
▁지침서	-8548
▁집중력	-8549
▁쪼그만	-8550
▁쫓아내	-8551
▁찌뿌둥	-8552
▁찌푸려	-8553
▁차가운	-8554
▁차용증	-8555
▁채무자	-8556
▁청구권	-8557
▁청소기	-8558
▁체육복	-8559
▁초창기	-8560
▁최댓값	-8561
▁추종자	-8562
▁출판사	-8563
▁친해져	-8564
▁카메라	-8565
▁카페인	-8566
▁컨설팅	-8567
▁컴퓨터	-8568
▁코골이	-8569
▁코스터	-8570
▁크루즈	-8571
▁클리닉	-8572
▁타일러	-8573
▁터뜨리	-8574
▁텀블러	-8575
▁토닥여	-8576
▁투자가	-8577
▁특정인	-8578
▁파이브	-8579
▁판매점	-8580
▁편할까	-8581
▁평등권	-8582
▁폭식증	-8583
▁표기법	-8584
▁프레임	-8585
▁프로그	-8586
▁피어싱	-8587
▁피해자	-8588
▁하얘졌	-8589
▁하이킹	-8590
▁할까봐	-8591
▁할인점	-8592
▁합의점	-8593
▁행동파	-8594
▁허기지	-8595
▁허기진	-8596
▁허리띠	-8597
▁호기심	-8598
▁호랑이	-8599
▁활기찬	-8600
▁회색빛	-8601
▁회의적	-8602
▁회전수	-8603
▁효율성	-8604
▁훌러덩	-8605
▁휘둘리	-8606
▁휴식기	-8607
▁휴양지	-8608
▁히트곡	-8609
▁힘드실	-8610
▁~~~~	-8611
▁간지러워	-8612
▁걸어다니	-8613
▁견딘다는	-8614
▁고마워할	-8615
▁교보문고	-8616
▁교통사고	-8617
▁그런가요	-8618
▁그럴게요	-8619
▁그리워지	-8620
▁그리워했	-8621
▁금상첨화	-8622
▁꼬박꼬박	-8623
▁꾸룩꾸룩	-8624
▁노동조합	-8625
▁녹아내리	-8626
▁다가올까	-8627
▁다정다감	-8628
▁돌아올지	-8629
▁동문서답	-8630
▁돼지고기	-8631
▁두려운가	-8632
▁드릴까요	-8633
▁들어와서	-8634
▁뜬금없이	-8635
▁라던데요	-8636
▁레지스터	-8637
▁마마보이	-8638
▁만납니다	-8639
▁매달려도	-8640
▁모의고사	-8641
▁무너뜨리	-8642
▁물어봐서	-8643
▁미끄러질	-8644
▁바이러스	-8645
▁받아들였	-8646
▁버렸으면	-8647
▁변덕쟁이	-8648
▁보입니다	-8649
▁불안해하	-8650
▁블랙박스	-8651
▁블루투스	-8652
▁비트코인	-8653
▁살랑살랑	-8654
▁살아간다	-8655
▁살펴봐요	-8656
▁센티미터	-8657
▁소리지르	-8658
▁스노클링	-8659
▁스타일러	-8660
▁스테이크	-8661
▁스트리밍	-8662
▁시베리아	-8663
▁아른거려	-8664
▁아른거리	-8665
▁어지러워	-8666
▁올립니다	-8667
▁운전기사	-8668
▁운전면허	-8669
▁움츠러들	-8670
▁웹사이트	-8671
▁유유상종	-8672
▁유흥업소	-8673
▁잠꾸러기	-8674
▁주룩주룩	-8675
▁주물주물	-8676
▁지나간다	-8677
▁지나다니	-8678
▁질척거리	-8679
▁째깍째깍	-8680
▁차곡차곡	-8681
▁청개구리	-8682
▁콘테스트	-8683
▁트레이닝	-8684
▁퍼레이드	-8685
▁포장마차	-8686
▁행동반경	-8687
▁허례허식	-8688
▁헤어져서	-8689
▁기어오른다	-8690
▁떠돌아다니	-8691
▁미끄러워서	-8692
▁사라집니다	-8693
▁아메리카노	-8694
▁아이스하키	-8695
▁엄지손가락	-8696
▁이산화탄소	-8697
▁잊혀진다는	-8698
▁지나갑니다	-8699
▁태어났을까	-8700
▁흔들리지마	-8701
▁받아들여야지	-8702
▁끔	-8703
▁람	-8704
▁르	-8705
갈색	-8706
건비	-8707
검사	-8708
공간	-8709
공기	-8710
관계	-8711
구마	-8712
권도	-8713
귀포	-8714
나무	-8715
나미	-8716
난방	-8717
니터	-8718
달구	-8719
달리	-8720
담회	-8721
당수	-8722
대부	-8723
도록	-8724
동강	-8725
드로	-8726
드민	-8727
떨떨	-8728
라인	-8729
라클	-8730
러리	-8731
러싸	-8732
레오	-8733
령어	-8734
로겐	-8735
로인	-8736
론사	-8737
론회	-8738
르바	-8739
리과	-8740
리지	-8741
마네	-8742
마땅	-8743
마켓	-8744
마토	-8745
먼트	-8746
목원	-8747
무르	-8748
문가	-8749
문화	-8750
미널	-8751
반기	-8752
반대	-8753
발점	-8754
방면	-8755
백기	-8756
백질	-8757
별시	-8758
비수	-8759
사리	-8760
사전	-8761
상금	-8762
생물	-8763
생수	-8764
생제	-8765
성분	-8766
세스	-8767
소연	-8768
솟값	-8769
수차	-8770
스템	-8771
승달	-8772
아나	-8773
아래	-8774
용사	-8775
워싸	-8776
원로	-8777
웨이	-8778
유류	-8779
육학	-8780
이버	-8781
이슨	-8782
자금	-8783
자법	-8784
자적	-8785
전지	-8786
조트	-8787
주의	-8788
주제	-8789
즈마	-8790
직서	-8791
집기	-8792
짜기	-8793
찌르	-8794
차기	-8795
처스	-8796
체어	-8797
추위	-8798
취록	-8799
침대	-8800
케팅	-8801
코니	-8802
크쇼	-8803
킨토	-8804
투력	-8805
투르	-8806
틀콕	-8807
혈압	-8808
형화	-8809
호자	-8810
▁가권	-8811
▁가급	-8812
▁가꿔	-8813
▁가모	-8814
▁가문	-8815
▁각지	-8816
▁감축	-8817
▁감행	-8818
▁강북	-8819
▁개수	-8820
▁개입	-8821
▁개축	-8822
▁거구	-8823
▁거머	-8824
▁거액	-8825
▁거점	-8826
▁거치	-8827
▁겸손	-8828
▁경합	-8829
▁계곡	-8830
▁고우	-8831
▁골르	-8832
▁공이	-8833
▁관세	-8834
▁광자	-8835
▁교내	-8836
▁교류	-8837
▁교법	-8838
▁교재	-8839
▁교편	-8840
▁교화	-8841
▁구로	-8842
▁구절	-8843
▁구획	-8844
▁국물	-8845
▁국어	-8846
▁국책	-8847
▁굴리	-8848
▁권유	-8849
▁규제	-8850
▁균류	-8851
▁글귀	-8852
▁금리	-8853
▁금은	-8854
▁기거	-8855
▁기소	-8856
▁기질	-8857
▁기특	-8858
▁꺼리	-8859
▁꽂히	-8860
▁끔찍	-8861
▁나뉘	-8862
▁낙찰	-8863
▁날리	-8864
▁남성	-8865
▁납부	-8866
▁내오	-8867
▁내재	-8868
▁냄비	-8869
▁너트	-8870
▁노시	-8871
▁녹지	-8872
▁농업	-8873
▁농협	-8874
▁늘리	-8875
▁늘이	-8876
▁니스	-8877
▁단기	-8878
▁단추	-8879
▁답하	-8880
▁당의	-8881
▁대응	-8882
▁더미	-8883
▁더하	-8884
▁덤불	-8885
▁도기	-8886
▁도다	-8887
▁도매	-8888
▁도술	-8889
▁동부	-8890
▁두목	-8891
▁둔갑	-8892
▁드롭	-8893
▁득표	-8894
▁딱딱	-8895
▁때때	-8896
▁떨치	-8897
▁랭킹	-8898
▁레이	-8899
▁렌스	-8900
▁로이	-8901
▁로저	-8902
▁르만	-8903
▁리얼	-8904
▁립스	-8905
▁마운	-8906
▁만료	-8907
▁망토	-8908
▁매매	-8909
▁매사	-8910
▁멋졌	-8911
▁명함	-8912
▁몇몇	-8913
▁모체	-8914
▁모호	-8915
▁무신	-8916
▁문고	-8917
▁문항	-8918
▁묻히	-8919
▁미혹	-8920
▁박자	-8921
▁반값	-8922
▁반론	-8923
▁발톱	-8924
▁발품	-8925
▁방지	-8926
▁배당	-8927
▁배설	-8928
▁배이	-8929
▁배포	-8930
▁벤처	-8931
▁벽면	-8932
▁보유	-8933
▁복장	-8934
▁부락	-8935
▁부피	-8936
▁불량	-8937
▁불르	-8938
▁불미	-8939
▁사노	-8940
▁삭감	-8941
▁산과	-8942
▁산정	-8943
▁상가	-8944
▁상세	-8945
▁상점	-8946
▁상환	-8947
▁새우	-8948
▁서버	-8949
▁서술	-8950
▁서안	-8951
▁선례	-8952
▁성폭	-8953
▁센과	-8954
▁센서	-8955
▁소양	-8956
▁손잡	-8957
▁송달	-8958
▁수고	-8959
▁수긍	-8960
▁수생	-8961
▁수체	-8962
▁수퍼	-8963
▁수평	-8964
▁순방	-8965
▁슈팅	-8966
▁습기	-8967
▁시동	-8968
▁시력	-8969
▁시루	-8970
▁시찰	-8971
▁식기	-8972
▁식성	-8973
▁신체	-8974
▁실과	-8975
▁실습	-8976
▁실신	-8977
▁실제	-8978
▁실천	-8979
▁쓰카	-8980
▁씨방	-8981
▁아뢰	-8982
▁아미	-8983
▁악의	-8984
▁안상	-8985
▁알파	-8986
▁암석	-8987
▁암컷	-8988
▁압력	-8989
▁압박	-8990
▁야기	-8991
▁약물	-8992
▁양용	-8993
▁양쪽	-8994
▁어종	-8995
▁어택	-8996
▁엄격	-8997
▁업소	-8998
▁여력	-8999
▁여로	-9000
▁여파	-9001
▁연도	-9002
▁연동	-9003
▁연임	-9004
▁연줄	-9005
▁예산	-9006
▁예시	-9007
▁오스	-9008
▁올드	-9009
▁올르	-9010
▁와중	-9011
▁완고	-9012
▁완도	-9013
▁외식	-9014
▁요란	-9015
▁용어	-9016
▁우려	-9017
▁우편	-9018
▁웅장	-9019
▁원반	-9020
▁월말	-9021
▁웨스	-9022
▁위하	-9023
▁유경	-9024
▁유무	-9025
▁육지	-9026
▁으깨	-9027
▁은화	-9028
▁응모	-9029
▁응징	-9030
▁의촉	-9031
▁이때	-9032
▁이재	-9033
▁인문	-9034
▁인수	-9035
▁인접	-9036
▁인플	-9037
▁일하	-9038
▁자의	-9039
▁작문	-9040
▁저감	-9041
▁저러	-9042
▁적분	-9043
▁전곡	-9044
▁전날	-9045
▁전담	-9046
▁전산	-9047
▁전서	-9048
▁전송	-9049
▁전통	-9050
▁점수	-9051
▁점원	-9052
▁점유	-9053
▁정봉	-9054
▁정취	-9055
▁제본	-9056
▁종류	-9057
▁종친	-9058
▁죄형	-9059
▁주거	-9060
▁주호	-9061
▁중의	-9062
▁증서	-9063
▁지분	-9064
▁직과	-9065
▁직무	-9066
▁직물	-9067
▁진부	-9068
▁진숙	-9069
▁진우	-9070
▁진척	-9071
▁짐승	-9072
▁징발	-9073
▁차림	-9074
▁착오	-9075
▁착하	-9076
▁참가	-9077
▁참선	-9078
▁참여	-9079
▁채찍	-9080
▁책망	-9081
▁천인	-9082
▁천장	-9083
▁첨단	-9084
▁첨예	-9085
▁청강	-9086
▁청일	-9087
▁체중	-9088
▁추론	-9089
▁추앙	-9090
▁추측	-9091
▁춘분	-9092
▁출산	-9093
▁치중	-9094
▁친족	-9095
▁카나	-9096
▁케이	-9097
▁켜지	-9098
▁쾌감	-9099
▁쿠도	-9100
▁쿠키	-9101
▁타국	-9102
▁타르	-9103
▁태수	-9104
▁태영	-9105
▁태왕	-9106
▁토대	-9107
▁토하	-9108
▁통념	-9109
▁통합	-9110
▁퇴거	-9111
▁퇴원	-9112
▁퇴학	-9113
▁트폰	-9114
▁특성	-9115
▁특진	-9116
▁패스	-9117
▁패주	-9118
▁편차	-9119
▁폐하	-9120
▁포악	-9121
▁표범	-9122
▁풍미	-9123
▁풍자	-9124
▁퓨어	-9125
▁플레	-9126
▁피터	-9127
▁하산	-9128
▁하트	-9129
▁학병	-9130
▁학술	-9131
▁할당	-9132
▁항거	-9133
▁항체	-9134
▁해물	-9135
▁해의	-9136
▁해피	-9137
▁행위	-9138
▁향락	-9139
▁향료	-9140
▁허가	-9141
▁허공	-9142
▁허물	-9143
▁헤더	-9144
▁형과	-9145
▁형성	-9146
▁혹독	-9147
▁화염	-9148
▁화질	-9149
▁효성	-9150
▁후아	-9151
▁후우	-9152
▁휴업	-9153
▁휴우	-9154
▁흘리	-9155
▁희경	-9156
귀포시	-9157
드민턴	-9158
디스크	-9159
러리즘	-9160
러싸이	-9161
미디어	-9162
손잡이	-9163
친상간	-9164
킨토시	-9165
특별시	-9166
피스텔	-9167
▁가요제	-9168
▁간담회	-9169
▁간접적	-9170
▁강추위	-9171
▁건너편	-9172
▁경영진	-9173
▁고구마	-9174
▁고사리	-9175
▁고혈압	-9176
▁골짜기	-9177
▁골프장	-9178
▁공백기	-9179
▁교육학	-9180
▁군자금	-9181
▁기계식	-9182
▁기관포	-9183
▁기념품	-9184
▁기본권	-9185
▁기부금	-9186
▁기뻐하	-9187
▁기업체	-9188
▁기원후	-9189
▁깨어지	-9190
▁끊어지	-9191
▁끝나가	-9192
▁나눠주	-9193
▁낙동강	-9194
▁냉난방	-9195
▁네이버	-9196
▁녹취록	-9197
▁눈치채	-9198
▁다방면	-9199
▁단백질	-9200
▁달아나	-9201
▁담아내	-9202
▁대나무	-9203
▁대역폭	-9204
▁대형화	-9205
▁도와주	-9206
▁독자적	-9207
▁되도록	-9208
▁뒷다리	-9209
▁드러나	-9210
▁디지몬	-9211
▁떠나가	-9212
▁라이터	-9213
▁람세스	-9214
▁레이크	-9215
▁리조트	-9216
▁마음속	-9217
▁마케팅	-9218
▁막아내	-9219
▁명령어	-9220
▁명문가	-9221
▁모니터	-9222
▁목적물	-9223
▁못마땅	-9224
▁무찌르	-9225
▁문리과	-9226
▁미라클	-9227
▁미생물	-9228
▁민주제	-9229
▁바람직	-9230
▁바크르	-9231
▁반가워	-9232
▁받침대	-9233
▁발전기	-9234
▁발코니	-9235
▁방법론	-9236
▁번번이	-9237
▁베드로	-9238
▁병원체	-9239
▁보상금	-9240
▁보조금	-9241
▁보험사	-9242
▁볶음밥	-9243
▁부수차	-9244
▁불러오	-9245
▁불합리	-9246
▁브레인	-9247
▁빈민가	-9248
▁빼앗기	-9249
▁사대부	-9250
▁사업단	-9251
▁사용량	-9252
▁사직서	-9253
▁사진기	-9254
▁상당수	-9255
▁상영관	-9256
▁서투르	-9257
▁선언문	-9258
▁설레였	-9259
▁셔틀콕	-9260
▁소고기	-9261
▁소생수	-9262
▁손잡이	-9263
▁수목원	-9264
▁수비수	-9265
▁수행법	-9266
▁수호자	-9267
▁순수성	-9268
▁스릴러	-9269
▁스위트	-9270
▁시공간	-9271
▁시달리	-9272
▁시발점	-9273
▁시스템	-9274
▁신경망	-9275
▁신경증	-9276
▁신뢰도	-9277
▁실내악	-9278
▁쓰나미	-9279
▁아르바	-9280
▁애국심	-9281
▁양치기	-9282
▁어웨이	-9283
▁어째서	-9284
▁언론사	-9285
▁얼떨떨	-9286
▁에워싸	-9287
▁여동생	-9288
▁여행사	-9289
▁연구자	-9290
▁오래전	-9291
▁오른쪽	-9292
▁온라인	-9293
▁웨이크	-9294
▁위아래	-9295
▁윗부분	-9296
▁유사점	-9297
▁유아기	-9298
▁윤원로	-9299
▁이어받	-9300
▁인간형	-9301
▁인건비	-9302
▁임차인	-9303
▁입출력	-9304
▁자가용	-9305
▁재활용	-9306
▁전세권	-9307
▁전자식	-9308
▁전투력	-9309
▁절대적	-9310
▁정반대	-9311
▁정치력	-9312
▁정치적	-9313
▁제이슨	-9314
▁주머니	-9315
▁주성분	-9316
▁중국인	-9317
▁지상파	-9318
▁지점장	-9319
▁지표면	-9320
▁진정서	-9321
▁참기름	-9322
▁천재적	-9323
▁철자법	-9324
▁초기화	-9325
▁초승달	-9326
▁최솟값	-9327
▁축전지	-9328
▁치료법	-9329
▁칼리지	-9330
▁컨텐츠	-9331
▁케이크	-9332
▁클리프	-9333
▁태권도	-9334
▁터미널	-9335
▁토론회	-9336
▁토마토	-9337
▁토크쇼	-9338
▁투자자	-9339
▁파스타	-9340
▁파이트	-9341
▁팔달구	-9342
▁페스트	-9343
▁편집기	-9344
▁포유류	-9345
▁폭풍우	-9346
▁피부색	-9347
▁픽처스	-9348
▁필수적	-9349
▁하소연	-9350
▁학생회	-9351
▁항공기	-9352
▁항생제	-9353
▁항아리	-9354
▁형용사	-9355
▁흑기사	-9356
▁히로인	-9357
▁가상현실	-9358
▁거둬들이	-9359
▁결혼식장	-9360
▁고기잡이	-9361
▁국어사전	-9362
▁근친상간	-9363
▁내려다보	-9364
▁동성애자	-9365
▁두려워하	-9366
▁둘러싸이	-9367
▁떨어뜨리	-9368
▁뛰어오르	-9369
▁말씀드리	-9370
▁매킨토시	-9371
▁배드민턴	-9372
▁부러뜨리	-9373
▁불러모으	-9374
▁서귀포시	-9375
▁슈퍼마켓	-9376
▁스테레오	-9377
▁승부차기	-9378
▁신체검사	-9379
▁오피스텔	-9380
▁이해관계	-9381
▁전통문화	-9382
▁중등학교	-9383
▁청소년기	-9384
▁컴파일러	-9385
▁테러리즘	-9386
▁플라즈마	-9387
▁플러그인	-9388
▁플레이어	-9389
▁허물어지	-9390
▁멀티미디어	-9391
▁서울특별시	-9392
▁아르바이트	-9393
▁에스트로겐	-9394
▁하드디스크	-9395
▁겹	-9396
▁름	-9397
▁뻐	-9398
▁옵	-9399
▁녕	-9400
▁닷	-9401
▁숭	-9402
▁켓	-9403
▁킹	-9404
▁획	-9405
▁흡	-9406
▁힌	-9407
가루	-9408
걸리	-9409
겨지	-9410
계선	-9411
곤증	-9412
골어	-9413
공업	-9414
공황	-9415
광지	-9416
교수	-9417
국어	-9418
기인	-9419
길이	-9420
나크	-9421
냥꾼	-9422
너비	-9423
노산	-9424
니버	-9425
닉스	-9426
대건	-9427
더링	-9428
드벤	-9429
라기	-9430
라시	-9431
라트	-9432
레라	-9433
르노	-9434
리마	-9435
리즈	-9436
린터	-9437
면조	-9438
무소	-9439
무이	-9440
미리	-9441
밀리	-9442
바겐	-9443
발견	-9444
방성	-9445
방울	-9446
버리	-9447
보팬	-9448
브라	-9449
브스	-9450
브유	-9451
뿌리	-9452
상도	-9453
색기	-9454
석방	-9455
석사	-9456
선전	-9457
설업	-9458
섭섭	-9459
소수	-9460
쇠약	-9461
수궁	-9462
술사	-9463
스럽	-9464
스어	-9465
스탄	-9466
시간	-9467
시타	-9468
식축	-9469
신저	-9470
앙대	-9471
어마	-9472
엄종	-9473
엄치	-9474
업화	-9475
연회	-9476
외선	-9477
우르	-9478
유럽	-9479
인간	-9480
인공	-9481
인애	-9482
자매	-9483
작동	-9484
정적	-9485
제도	-9486
제종	-9487
주절	-9488
줄기	-9489
지니	-9490
차점	-9491
창군	-9492
천군	-9493
추기	-9494
쿠이	-9495
타불	-9496
패류	-9497
페라	-9498
폭발	-9499
▁쩔	-9500
가스	-9501
거래	-9502
건소	-9503
넘기	-9504
니스	-9505
루엔	-9506
받침	-9507
보자	-9508
빙고	-9509
빽이	-9510
사각	-9511
서부	-9512
세손	-9513
스인	-9514
스탕	-9515
시버	-9516
어치	-9517
인점	-9518
저리	-9519
전기	-9520
전체	-9521
틀리	-9522
품군	-9523
학과	-9524
합원	-9525
해주	-9526
행본	-9527
혈병	-9528
형수	-9529
화벽	-9530
▁가군	-9531
▁가금	-9532
▁가정	-9533
▁가하	-9534
▁가해	-9535
▁간쑤	-9536
▁간염	-9537
▁간하	-9538
▁갈망	-9539
▁갈이	-9540
▁감면	-9541
▁감안	-9542
▁감자	-9543
▁갑판	-9544
▁개그	-9545
▁개울	-9546
▁거미	-9547
▁거스	-9548
▁거실	-9549
▁건위	-9550
▁겨루	-9551
▁결전	-9552
▁결제	-9553
▁경내	-9554
▁경련	-9555
▁계략	-9556
▁계천	-9557
▁고래	-9558
▁고묘	-9559
▁고액	-9560
▁고유	-9561
▁고음	-9562
▁고찰	-9563
▁곡인	-9564
▁공격	-9565
▁공경	-9566
▁공은	-9567
▁과격	-9568
▁과목	-9569
▁관등	-9570
▁관목	-9571
▁관여	-9572
▁관청	-9573
▁광운	-9574
▁광원	-9575
▁광주	-9576
▁광화	-9577
▁교외	-9578
▁교의	-9579
▁구과	-9580
▁구면	-9581
▁구석	-9582
▁구요	-9583
▁구입	-9584
▁구현	-9585
▁국고	-9586
▁국운	-9587
▁굴하	-9588
▁귀국	-9589
▁규약	-9590
▁규율	-9591
▁균등	-9592
▁그곳	-9593
▁그레	-9594
▁근면	-9595
▁금당	-9596
▁금동	-9597
▁금물	-9598
▁급식	-9599
경기	-9600
권자	-9601
균형	-9602
금물	-9603
나리	-9604
내외	-9605
당화	-9606
덕궁	-9607
들리	-9608
리스	-9609
리프	-9610
린더	-9611
마리	-9612
무라	-9613
민주	-9614
버티	-9615
분배	-9616
요량	-9617
이드	-9618
임금	-9619
임러	-9620
찬성	-9621
천장	-9622
철역	-9623
체형	-9624
출혈	-9625
코딩	-9626
타민	-9627
토화	-9628
트리	-9629
팔트	-9630
풀리	-9631
학적	-9632
▁강간	-9633
▁급인	-9634
▁급작	-9635
▁급제	-9636
▁기구	-9637
▁기악	-9638
▁기절	-9639
▁끌리	-9640
▁낙농	-9641
▁낙담	-9642
▁난간	-9643
▁난류	-9644
▁날드	-9645
▁남용	-9646
▁남짓	-9647
▁납품	-9648
▁내가	-9649
▁내부	-9650
▁내어	-9651
▁내통	-9652
▁노름	-9653
▁녹이	-9654
▁녹화	-9655
▁논술	-9656
▁농부	-9657
▁눈금	-9658
▁뉘른	-9659
▁늘보	-9660
▁능률	-9661
▁니퍼	-9662
▁다린	-9663
▁단교	-9664
▁단서	-9665
▁담그	-9666
▁담당	-9667
▁대뇌	-9668
▁대순	-9669
▁대현	-9670
▁더듬	-9671
▁덮이	-9672
▁도주	-9673
▁도처	-9674
▁독백	-9675
▁동맥	-9676
▁동북	-9677
▁동사	-9678
▁동양	-9679
▁동평	-9680
▁된장	-9681
▁두르	-9682
▁둔하	-9683
▁뒤쳐	-9684
▁등에	-9685
▁디스	-9686
▁따돌	-9687
▁따름	-9688
▁딱하	-9689
▁땅속	-9690
▁래드	-9691
▁런스	-9692
▁레드	-9693
▁레스	-9694
▁레프	-9695
▁렌트	-9696
▁로프	-9697
▁루브	-9698
▁름스	-9699
▁릴	-9700
▁몽	-9701
▁욱	-9702
▁율	-9703
▁족	-9704
객기	-9705
관직	-9706
광필	-9707
그널	-9708
극적	-9709
김새	-9710
내소	-9711
니아	-9712
델링	-9713
도덕	-9714
득세	-9715
랜드	-9716
령도	-9717
로스	-9718
료품	-9719
리노	-9720
방송	-9721
본금	-9722
비아	-9723
산시	-9724
상식	-9725
수인	-9726
안점	-9727
업률	-9728
원지	-9729
이지	-9730
자파	-9731
장서	-9732
직원	-9733
직체	-9734
진강	-9735
징어	-9736
처님	-9737
출량	-9738
치형	-9739
터테	-9740
토랑	-9741
플릿	-9742
호인	-9743
▁구약	-9744
▁굳히	-9745
▁당과	-9746
▁리브	-9747
▁리크	-9748
▁린스	-9749
▁마노	-9750
▁마늘	-9751
▁만물	-9752
▁만이	-9753
▁매직	-9754
▁매혹	-9755
▁메이	-9756
▁명소	-9757
▁명시	-9758
▁모금	-9759
▁목본	-9760
▁몰살	-9761
▁묘의	-9762
▁무산	-9763
▁무식	-9764
▁문법	-9765
▁문언	-9766
▁문장	-9767
▁문체	-9768
▁물음	-9769
▁미각	-9770
▁미경	-9771
▁미륵	-9772
▁민간	-9773
▁민원	-9774
▁민첩	-9775
▁바드	-9776
▁바레	-9777
▁바울	-9778
▁박승	-9779
▁박테	-9780
▁박히	-9781
▁반납	-9782
▁반수	-9783
▁반주	-9784
▁받들	-9785
▁받치	-9786
▁발병	-9787
▁발부	-9788
▁발신	-9789
▁발언	-9790
▁발탁	-9791
▁방아	-9792
▁방언	-9793
▁방편	-9794
▁배격	-9795
▁배반	-9796
▁배분	-9797
▁백사	-9798
▁벅스	-9799
▁범람	-9800
▁법왕	-9801
▁베네	-9802
▁별궁	-9803
▁별빛	-9804
▁병들	-9805
▁병용	-9806
▁보도	-9807
▁보크	-9808
▁복리	-9809
▁복부	-9810
▁복지	-9811
▁복직	-9812
▁본디	-9813
▁본성	-9814
▁볼링	-9815
▁봐주	-9816
▁부당	-9817
▁부스	-9818
▁부합	-9819
▁북부	-9820
▁북쪽	-9821
▁분광	-9822
▁분비	-9823
▁분화	-9824
▁붙히	-9825
▁비늘	-9826
▁비료	-9827
▁비스	-9828
▁비즈	-9829
▁비탄	-9830
▁빼내	-9831
▁뻐근	-9832
▁사납	-9833
▁사돈	-9834
▁사장	-9835
▁사탄	-9836
▁산의	-9837
▁삼형	-9838
▁상면	-9839
▁상병	-9840
▁상생	-9841
▁상표	-9842
▁색깔	-9843
▁색상	-9844
▁생육	-9845
▁샤크	-9846
▁서슴	-9847
▁서역	-9848
▁서평	-9849
▁석사	-9850
▁선교	-9851
▁선왕	-9852
▁선율	-9853
▁성게	-9854
▁성남	-9855
▁성령	-9856
▁성만	-9857
▁성서	-9858
▁성실	-9859
▁성의	-9860
▁성찰	-9861
▁세그	-9862
▁세뇌	-9863
▁세수	-9864
▁세입	-9865
▁센트	-9866
▁소드	-9867
▁소용	-9868
▁소켓	-9869
▁소풍	-9870
▁속구	-9871
▁속시	-9872
▁손목	-9873
▁송금	-9874
▁송병	-9875
▁송신	-9876
▁송지	-9877
▁쇠약	-9878
▁수도	-9879
▁수범	-9880
▁수분	-9881
▁수압	-9882
▁수억	-9883
▁수열	-9884
▁수은	-9885
▁수첩	-9886
▁수컷	-9887
▁숙제	-9888
▁순은	-9889
▁순응	-9890
▁숭고	-9891
▁스콜	-9892
▁스티	-9893
▁스피	-9894
▁슬기	-9895
▁승산	-9896
▁승상	-9897
▁승천	-9898
▁시경	-9899
▁시내	-9900
▁시모	-9901
▁시책	-9902
▁시초	-9903
▁식견	-9904
▁신극	-9905
▁신보	-9906
▁신속	-9907
▁신일	-9908
▁실기	-9909
▁실무	-9910
▁실버	-9911
▁실현	-9912
▁심도	-9913
▁심문	-9914
▁심배	-9915
▁심층	-9916
▁심플	-9917
▁쌍발	-9918
▁쌍방	-9919
▁쓰러	-9920
▁쓰키	-9921
▁씨티	-9922
▁씻기	-9923
▁아동	-9924
▁아첨	-9925
▁악마	-9926
▁악용	-9927
▁암시	-9928
▁압류	-9929
▁약제	-9930
▁양주	-9931
▁양팔	-9932
▁어마	-9933
▁어우	-9934
▁어음	-9935
▁어학	-9936
▁어휘	-9937
▁엄밀	-9938
▁에코	-9939
▁여과	-9940
▁여래	-9941
▁여몽	-9942
▁여생	-9943
▁여주	-9944
▁역마	-9945
▁연소	-9946
▁연중	-9947
▁열강	-9948
▁열녀	-9949
▁열대	-9950
▁열량	-9951
▁염두	-9952
▁영숙	-9953
▁영준	-9954
▁예복	-9955
▁예술	-9956
▁오더	-9957
▁오목	-9958
▁오무	-9959
▁오야	-9960
▁오적	-9961
▁옵션	-9962
▁와도	-9963
▁와의	-9964
▁왕인	-9965
▁왕족	-9966
▁외신	-9967
▁외양	-9968
▁용암	-9969
▁용액	-9970
▁용역	-9971
▁용접	-9972
▁용제	-9973
▁우가	-9974
▁우구	-9975
▁우시	-9976
▁운반	-9977
▁운임	-9978
▁울산	-9979
▁웅천	-9980
▁워즈	-9981
▁워크	-9982
▁원곡	-9983
▁원유	-9984
▁원형	-9985
▁월동	-9986
▁위엄	-9987
▁위임	-9988
▁유념	-9989
▁유럽	-9990
▁유린	-9991
▁유복	-9992
▁유실	-9993
▁유죄	-9994
▁육류	-9995
▁육상	-9996
▁육식	-9997
▁율리	-9998
▁으나	-9999
▁은폐	-10000
▁음절	-10001
▁응급	-10002
▁의복	-10003
▁의주	-10004
▁이놈	-10005
▁이드	-10006
▁이영	-10007
▁이우	-10008
▁이주	-10009
▁인증	-10010
▁일월	-10011
▁입건	-10012
▁입국	-10013
▁입성	-10014
▁잊히	-10015
▁자막	-10016
▁자손	-10017
▁자형	-10018
▁잡고	-10019
▁잡지	-10020
▁장유	-10021
▁재료	-10022
▁재직	-10023
▁저압	-10024
▁저하	-10025
▁적법	-10026
▁적합	-10027
▁전근	-10028
▁전동	-10029
▁전류	-10030
▁전압	-10031
▁전염	-10032
▁전용	-10033
▁절묘	-10034
▁절실	-10035
▁절지	-10036
▁접사	-10037
▁접시	-10038
▁접착	-10039
▁정윤	-10040
▁정재	-10041
▁정철	-10042
▁정화	-10043
▁제공	-10044
▁제길	-10045
▁제례	-10046
▁젠장	-10047
▁조달	-10048
▁조명	-10049
▁조운	-10050
▁조원	-10051
▁조장	-10052
▁조조	-10053
▁죄수	-10054
▁주입	-10055
▁줄게	-10056
▁중령	-10057
▁중반	-10058
▁중풍	-10059
▁증대	-10060
▁증발	-10061
▁증식	-10062
▁증축	-10063
▁지노	-10064
▁지망	-10065
▁지인	-10066
▁지폐	-10067
▁직류	-10068
▁직종	-10069
▁직행	-10070
▁진산	-10071
▁질감	-10072
▁집회	-10073
▁짝수	-10074
▁찌르	-10075
▁찔리	-10076
▁차트	-10077
▁찬동	-10078
▁참사	-10079
▁참살	-10080
▁창극	-10081
▁채점	-10082
▁천연	-10083
▁철판	-10084
▁청각	-10085
▁청동	-10086
▁청렴	-10087
▁청운	-10088
▁체급	-10089
▁체전	-10090
▁촉경	-10091
▁총명	-10092
▁총무	-10093
▁총알	-10094
▁총재	-10095
▁총탄	-10096
▁추구	-10097
▁추분	-10098
▁축출	-10099
▁출국	-10100
▁출동	-10101
▁출석	-10102
▁출소	-10103
▁출전	-10104
▁출처	-10105
▁출토	-10106
▁충의	-10107
▁충이	-10108
▁취입	-10109
▁취조	-10110
▁치밀	-10111
▁치솟	-10112
▁치욕	-10113
▁친척	-10114
▁칠하	-10115
▁침체	-10116
▁커리	-10117
▁컴백	-10118
▁쾌락	-10119
▁크림	-10120
▁타계	-10121
▁타시	-10122
▁탄산	-10123
▁탄원	-10124
▁탈수	-10125
▁탐구	-10126
▁태동	-10127
▁태산	-10128
▁투구	-10129
▁트가	-10130
▁티끌	-10131
▁파마	-10132
▁파키	-10133
▁파형	-10134
▁판결	-10135
▁판명	-10136
▁패소	-10137
▁패용	-10138
▁패퇴	-10139
▁팬케	-10140
▁편향	-10141
▁펼치	-10142
▁평균	-10143
▁포수	-10144
▁폭스	-10145
▁폭우	-10146
▁표방	-10147
▁푸젠	-10148
▁푸트	-10149
▁품성	-10150
▁풍경	-10151
▁풍족	-10152
▁피난	-10153
▁피력	-10154
▁피질	-10155
▁하품	-10156
▁학력	-10157
▁학비	-10158
▁학설	-10159
▁학식	-10160
▁학회	-10161
▁한랭	-10162
▁한우	-10163
▁한하	-10164
▁한학	-10165
▁함량	-10166
▁해바	-10167
▁해시	-10168
▁해일	-10169
▁해학	-10170
▁험담	-10171
▁현보	-10172
▁협판	-10173
▁형제	-10174
▁호걸	-10175
▁호박	-10176
▁홀딩	-10177
▁화기	-10178
▁화분	-10179
▁화신	-10180
▁화재	-10181
▁화풍	-10182
▁확산	-10183
▁환불	-10184
▁환자	-10185
▁활달	-10186
▁활엽	-10187
▁회수	-10188
▁회장	-10189
▁획책	-10190
▁효시	-10191
▁후송	-10192
▁후원	-10193
▁후천	-10194
▁후퇴	-10195
▁흉상	-10196
▁흡입	-10197
▁힌트	-10198
니버설	-10199
드벤처	-10200
라시아	-10201
레이션	-10202
루엔자	-10203
린다는	-10204
메이션	-10205
무이사	-10206
사각형	-10207
스크톱	-10208
스타일	-10209
스턴트	-10210
식축구	-10211
어치우	-10212
우스력	-10213
인먼트	-10214
인애플	-10215
지니어	-10216
플레이	-10217
▁ᄂ다면	-10218
▁가능성	-10219
▁가석방	-10220
▁가자미	-10221
▁가정부	-10222
▁가져오	-10223
▁가해자	-10224
▁강연회	-10225
▁개방성	-10226
▁거느리	-10227
▁거제도	-10228
▁건설업	-10229
▁건축물	-10230
▁게이코	-10231
▁결정짓	-10232
▁경계선	-10233
▁경찰관	-10234
▁경찰의	-10235
▁곁들이	-10236
▁계기판	-10237
▁계절풍	-10238
▁고고학	-10239
▁고용인	-10240
▁고유어	-10241
▁고출력	-10242
▁공격성	-10243
▁공문서	-10244
▁공방전	-10245
▁공업화	-10246
▁공통적	-10247
▁관광지	-10248
▁광고주	-10249
▁광화문	-10250
▁괴로울	-10251
▁교차점	-10252
▁구조물	-10253
▁국경선	-10254
▁군무원	-10255
▁그래미	-10256
▁그레그	-10257
▁근거지	-10258
▁근로자	-10259
▁기억나	-10260
▁김대건	-10261
▁꽃받침	-10262
▁나가시	-10263
▁나무라	-10264
▁내려앉	-10265
▁넘어오	-10266
▁노선도	-10267
▁뇌출혈	-10268
▁다임러	-10269
▁단체전	-10270
▁단행본	-10271
▁달리하	-10272
▁닭고기	-10273
▁대공황	-10274
▁대내외	-10275
▁대리석	-10276
▁대상인	-10277
▁대지진	-10278
▁대표인	-10279
▁더럽히	-10280
▁더스트	-10281
▁덕수궁	-10282
▁데이비	-10283
▁데이터	-10284
▁도덕성	-10285
▁도덕적	-10286
▁도망치	-10287
▁독립국	-10288
▁동북쪽	-10289
▁동유럽	-10290
▁뒤쳐지	-10291
▁뒤틀리	-10292
▁드높이	-10293
▁디비전	-10294
▁디지털	-10295
▁따돌림	-10296
▁떠넘기	-10297
▁라이플	-10298
▁레코딩	-10299
▁렌더링	-10300
▁렌스크	-10301
▁로마네	-10302
▁로저스	-10303
▁리모컨	-10304
▁리버스	-10305
▁리버티	-10306
▁리시버	-10307
▁릴리즈	-10308
▁마리노	-10309
▁막걸리	-10310
▁만화가	-10311
▁매니아	-10312
▁매달려	-10313
▁매수인	-10314
▁머무르	-10315
▁메모리	-10316
▁메신저	-10317
▁모국어	-10318
▁모델링	-10319
▁목요일	-10320
▁몰아쳐	-10321
▁몸길이	-10322
▁몽골어	-10323
▁무상정	-10324
▁무전기	-10325
▁무한대	-10326
▁물방울	-10327
▁미디어	-10328
▁미술사	-10329
▁민감도	-10330
▁바가지	-10331
▁바로잡	-10332
▁발기인	-10333
▁발바닥	-10334
▁방화벽	-10335
▁배상액	-10336
▁백령도	-10337
▁백혈병	-10338
▁번번히	-10339
▁범죄자	-10340
▁변호인	-10341
▁병리학	-10342
▁보건소	-10343
▁보험금	-10344
▁복소수	-10345
▁부교수	-10346
▁부도덕	-10347
▁부스터	-10348
▁부처님	-10349
▁부추기	-10350
▁부풀리	-10351
▁북서부	-10352
▁불균형	-10353
▁불순물	-10354
▁붙들리	-10355
▁붙잡히	-10356
▁브랜드	-10357
▁브레이	-10358
▁비극적	-10359
▁비민주	-10360
▁비인간	-10361
▁비타민	-10362
▁비합리	-10363
▁빽빽이	-10364
▁사기업	-10365
▁사냥꾼	-10366
▁사들이	-10367
▁사람됨	-10368
▁사무소	-10369
▁사진가	-10370
▁사형수	-10371
▁산책로	-10372
▁산출량	-10373
▁살아나	-10374
▁상거래	-10375
▁상반기	-10376
▁새겨지	-10377
▁생김새	-10378
▁생리학	-10379
▁생방송	-10380
▁샤스탕	-10381
▁서로소	-10382
▁서빙고	-10383
▁서울시	-10384
▁성폭력	-10385
▁성폭행	-10386
▁세계적	-10387
▁세탁기	-10388
▁소금물	-10389
▁소득세	-10390
▁소리치	-10391
▁소프트	-10392
▁소화기	-10393
▁송아지	-10394
▁수백만	-10395
▁수신기	-10396
▁수영복	-10397
▁수요량	-10398
▁수준의	-10399
▁스크린	-10400
▁스트림	-10401
▁스티브	-10402
▁스프링	-10403
▁스플릿	-10404
▁스피드	-10405
▁승차권	-10406
▁시각표	-10407
▁시그널	-10408
▁시나리	-10409
▁시마네	-10410
▁시상식	-10411
▁시작점	-10412
▁식료품	-10413
▁식물성	-10414
▁실린더	-10415
▁실마리	-10416
▁실업률	-10417
▁쏟아붓	-10418
▁아니하	-10419
▁아래층	-10420
▁아우르	-10421
▁아이피	-10422
▁아재비	-10423
▁아치형	-10424
▁아토스	-10425
▁안내소	-10426
▁안산시	-10427
▁암갈색	-10428
▁앞다리	-10429
▁앞장서	-10430
▁양고기	-10431
▁어패류	-10432
▁얻어내	-10433
▁에로스	-10434
▁에이지	-10435
▁엔터테	-10436
▁여객기	-10437
▁연구서	-10438
▁연구소	-10439
▁연구실	-10440
▁연구회	-10441
▁연해주	-10442
▁영양분	-10443
▁영양소	-10444
▁영화상	-10445
▁예선전	-10446
▁오래가	-10447
▁오래되	-10448
▁오른손	-10449
▁오작동	-10450
▁오징어	-10451
▁오페라	-10452
▁와이드	-10453
▁왕세손	-10454
▁외교관	-10455
▁외교적	-10456
▁외부인	-10457
▁요리법	-10458
▁워너비	-10459
▁원줄기	-10460
▁원피스	-10461
▁유사성	-10462
▁유원지	-10463
▁유전체	-10464
▁음식물	-10465
▁음식점	-10466
▁음악회	-10467
▁이민자	-10468
▁이사장	-10469
▁인지의	-10470
▁일어서	-10471
▁일체형	-10472
▁임대료	-10473
▁임대차	-10474
▁임제종	-10475
▁임직원	-10476
▁임진강	-10477
▁입장권	-10478
▁입천장	-10479
▁자금성	-10480
▁자본금	-10481
▁자연사	-10482
▁자외선	-10483
▁잘못되	-10484
▁잠재우	-10485
▁잠정적	-10486
▁장관직	-10487
▁장시간	-10488
▁재발견	-10489
▁재분배	-10490
▁저임금	-10491
▁적갈색	-10492
▁적시타	-10493
▁전문의	-10494
▁전문직	-10495
▁전시회	-10496
▁전자파	-10497
▁전철역	-10498
▁정광필	-10499
▁정당화	-10500
▁정치범	-10501
▁정해지	-10502
▁제철소	-10503
▁제품군	-10504
▁제후국	-10505
▁조각상	-10506
▁조금씩	-10507
▁조용필	-10508
▁조직체	-10509
▁조합원	-10510
▁졸린가	-10511
▁졸업자	-10512
▁졸업장	-10513
▁좌찬성	-10514
▁주둥이	-10515
▁주안점	-10516
▁중공업	-10517
▁중앙대	-10518
▁중요도	-10519
▁증명서	-10520
▁증폭기	-10521
▁지난해	-10522
▁지속적	-10523
▁지원금	-10524
▁지하실	-10525
▁진행자	-10526
▁창덕궁	-10527
▁채권자	-10528
▁체세포	-10529
▁체인점	-10530
▁초보자	-10531
▁초토화	-10532
▁초현실	-10533
▁최소한	-10534
▁최우수	-10535
▁축구장	-10536
▁춘곤증	-10537
▁출판물	-10538
▁치료제	-10539
▁친자식	-10540
▁칠면조	-10541
▁카르노	-10542
▁케이블	-10543
▁코브라	-10544
▁콘라트	-10545
▁콘텐츠	-10546
▁콜레라	-10547
▁크나크	-10548
▁클레인	-10549
▁타이완	-10550
▁탁지부	-10551
▁탐색기	-10552
▁터보팬	-10553
▁통일당	-10554
▁통일성	-10555
▁통일안	-10556
▁통행료	-10557
▁트레인	-10558
▁트로츠	-10559
▁티무르	-10560
▁패밀리	-10561
▁퍼스트	-10562
▁펼쳐지	-10563
▁평창군	-10564
▁포브스	-10565
▁포지션	-10566
▁폭력적	-10567
▁표현력	-10568
▁프리마	-10569
▁프린터	-10570
▁플래시	-10571
▁플러그	-10572
▁피고인	-10573
▁피닉스	-10574
▁피어나	-10575
▁필리프	-10576
▁하반기	-10577
▁학생과	-10578
▁학술원	-10579
▁학술지	-10580
▁한국인	-10581
▁할머니	-10582
▁해상도	-10583
▁핵폭발	-10584
▁행위자	-10585
▁헤엄치	-10586
▁협조적	-10587
▁혹시나	-10588
▁홈경기	-10589
▁화엄종	-10590
▁화천군	-10591
▁화학적	-10592
▁화합물	-10593
▁활기차	-10594
▁후반기	-10595
▁후쿠이	-10596
▁경영학과	-10597
▁그리스인	-10598
▁급작스럽	-10599
▁기울어지	-10600
▁끌어올리	-10601
▁날아다니	-10602
▁데스크톱	-10603
▁동사무소	-10604
▁뒤떨어지	-10605
▁뛰어다니	-10606
▁레스토랑	-10607
▁먹어치우	-10608
▁미리미리	-10609
▁미식축구	-10610
▁민간단체	-10611
▁박테리아	-10612
▁배고파서	-10613
▁보수주의	-10614
▁비즈니스	-10615
▁상무이사	-10616
▁세그먼트	-10617
▁스테이지	-10618
▁스트로크	-10619
▁습니다만	-10620
▁시내버스	-10621
▁시원섭섭	-10622
▁쓰러트리	-10623
▁아라비아	-10624
▁아미노산	-10625
▁아미타불	-10626
▁아스팔트	-10627
▁어드벤처	-10628
▁어마어마	-10629
▁어우러지	-10630
▁엔지니어	-10631
▁여주인공	-10632
▁올리브유	-10633
▁우리나라	-10634
▁유니버설	-10635
▁유라시아	-10636
▁이리저리	-10637
▁인스턴트	-10638
▁잃어버리	-10639
▁자유주의	-10640
▁정사각형	-10641
▁주절주절	-10642
▁천연가스	-10643
▁파인애플	-10644
▁파키스탄	-10645
▁팬케이크	-10646
▁폭스바겐	-10647
▁프라이빗	-10648
▁프랑스어	-10649
▁하드웨어	-10650
▁해바라기	-10651
▁해외여행	-10652
▁형제자매	-10653
▁기다린다는	-10654
▁디스플레이	-10655
▁로마네스크	-10656
▁불러줄게요	-10657
▁소프트웨어	-10658
▁애니메이션	-10659
▁오른손잡이	-10660
▁율리우스력	-10661
▁인플레이션	-10662
▁인플루엔자	-10663
▁헤어스타일	-10664
▁엔터테인먼트	-10665
합물	-10666
홀딩	-10667
홈경	-10668
화분	-10669
화재	-10670
화천	-10671
화풍	-10672
화학	-10673
환자	-10674
회수	-10675
효시	-10676
후원	-10677
후천	-10678
후쿠	-10679
후퇴	-10680
흉상	-10681
힌트	-10682
gog	-10683
ᄂ다면	-10684
▁36	-10685
▁가라	-10686
▁가로	-10687
▁가릴	-10688
▁가습	-10689
▁간담	-10690
▁간지	-10691
▁갈고	-10692
▁갈수	-10693
▁갈아	-10694
▁감독	-10695
▁갑시	-10696
▁강력	-10697
▁강연	-10698
▁강추	-10699
고인	-10700
랑스	-10701
래시	-10702
력적	-10703
로츠	-10704
생과	-10705
술원	-10706
술지	-10707
스바	-10708
외여	-10709
위자	-10710
이완	-10711
일당	-10712
일성	-10713
일안	-10714
탄원	-10715
탈수	-10716
탐구	-10717
태산	-10718
투구	-10719
트가	-10720
파마	-10721
파인	-10722
파키	-10723
파형	-10724
패밀	-10725
패소	-10726
패용	-10727
패퇴	-10728
퍼스	-10729
평균	-10730
포브	-10731
포수	-10732
포지	-10733
표방	-10734
푸젠	-10735
푸트	-10736
품성	-10737
풍경	-10738
풍족	-10739
피난	-10740
피질	-10741
필리	-10742
하반	-10743
학력	-10744
학설	-10745
학회	-10746
한랭	-10747
한우	-10748
한하	-10749
할머	-10750
함량	-10751
해상	-10752
해일	-10753
해학	-10754
핵폭	-10755
행료	-10756
험담	-10757
헤엄	-10758
현력	-10759
현보	-10760
협판	-10761
형제	-10762
호걸	-10763
호박	-10764
▁개개	-10765
▁개기	-10766
▁개방	-10767
▁건드	-10768
▁건설	-10769
▁걸림	-10770
▁걸쳐	-10771
▁겁난	-10772
▁경부	-10773
▁곁들	-10774
▁고구	-10775
▁고사	-10776
▁고양	-10777
▁고출	-10778
▁고혈	-10779
▁골짜	-10780
▁곰곰	-10781
▁공무	-10782
▁공문	-10783
▁공방	-10784
▁공백	-10785
▁공직	-10786
▁공휴	-10787
▁교직	-10788
▁교차	-10789
▁군무	-10790
▁군자	-10791
▁권태	-10792
▁귀기	-10793
▁그동	-10794
▁극작	-10795
▁금속	-10796
▁기를	-10797
▁기병	-10798
▁기프	-10799
가차	-10800
가혹	-10801
각도	-10802
고작	-10803
과육	-10804
구장	-10805
나들	-10806
날아	-10807
내세	-10808
넘쳐	-10809
네버	-10810
녀왔	-10811
달래	-10812
담감	-10813
대관	-10814
데도	-10815
독한	-10816
돌봐	-10817
됐었	-10818
때려	-10819
런지	-10820
말려	-10821
매입	-10822
멋질	-10823
면도	-10824
면요	-10825
목도	-10826
무뚝	-10827
미끄	-10828
민간	-10829
민원	-10830
바니	-10831
배우	-10832
분산	-10833
사계	-10834
셔도	-10835
소한	-10836
수염	-10837
수적	-10838
술병	-10839
슬프	-10840
아갈	-10841
업장	-10842
예측	-10843
입혀	-10844
조차	-10845
주택	-10846
중퇴	-10847
지러	-10848
진우	-10849
짝사	-10850
채찍	-10851
청동	-10852
청렴	-10853
청운	-10854
체급	-10855
체세	-10856
초보	-10857
총알	-10858
총탄	-10859
추분	-10860
축출	-10861
출토	-10862
충의	-10863
취입	-10864
취조	-10865
치밀	-10866
치욕	-10867
친자	-10868
칠면	-10869
칠하	-10870
침체	-10871
침표	-10872
콘라	-10873
콘텐	-10874
콜레	-10875
클레	-10876
탄다	-10877
터닝	-10878
털털	-10879
판물	-10880
편해	-10881
피자	-10882
한강	-10883
해줄	-10884
허벅	-10885
혀진	-10886
현존	-10887
호투	-10888
환심	-10889
활기	-10890
흐지	-10891
▁길거	-10892
▁김대	-10893
▁깨어	-10894
▁꼬까	-10895
▁꼭대	-10896
▁꽃다	-10897
▁나간	-10898
▁나그	-10899
가문	-10900
강력	-10901
건조	-10902
고는	-10903
공시	-10904
구경	-10905
그러	-10906
글쎄	-10907
급작	-10908
깨진	-10909
깰까	-10910
끝났	-10911
났으	-10912
냉난	-10913
노력	-10914
놀리	-10915
는군	-10916
단맛	-10917
달력	-10918
당시	-10919
당황	-10920
댄디	-10921
덕분	-10922
데리	-10923
동굴	-10924
떨치	-10925
라갈	-10926
라토	-10927
러뜨	-10928
러모	-10929
레몬	-10930
로트	-10931
른가	-10932
머릿	-10933
메뉴	-10934
명절	-10935
명탐	-10936
목욕	-10937
무명	-10938
무전	-10939
묻어	-10940
미팅	-10941
배고	-10942
배달	-10943
버텨	-10944
빈약	-10945
살려	-10946
상하	-10947
상해	-10948
색감	-10949
서글	-10950
설득	-10951
수거	-10952
스키	-10953
슬슬	-10954
슷하	-10955
식당	-10956
신념	-10957
쎄요	-10958
안경	-10959
안녕	-10960
약해	-10961
양해	-10962
어떡	-10963
어뜨	-10964
역할	-10965
예금	-10966
옳소	-10967
와이	-10968
위드	-10969
위협	-10970
이비	-10971
자는	-10972
자면	-10973
정장	-10974
중화	-10975
지진	-10976
진도	-10977
짧아	-10978
천재	-10979
촬영	-10980
치열	-10981
탐욕	-10982
투표	-10983
틈틈	-10984
팍팍	-10985
하지	-10986
한스	-10987
햇살	-10988
현관	-10989
혼란	-10990
환장	-10991
회의	-10992
후배	-10993
힘듭	-10994
▁나들	-10995
▁나머	-10996
▁나무	-10997
▁남동	-10998
▁내국	-10999
각난	-11000
간절	-11001
감성	-11002
거둘	-11003
겨나	-11004
겨야	-11005
관절	-11006
구상	-11007
끊기	-11008
낸다	-11009
느새	-11010
닐지	-11011
다신	-11012
대만	-11013
독학	-11014
딪혔	-11015
떻하	-11016
뜻밖	-11017
라운	-11018
막걸	-11019
만든	-11020
맹세	-11021
먹히	-11022
멀미	-11023
뭔지	-11024
뭘로	-11025
미루	-11026
바래	-11027
반적	-11028
배가	-11029
배울	-11030
버튼	-11031
별별	-11032
본능	-11033
부려	-11034
북받	-11035
불완	-11036
비행	-11037
빌렸	-11038
뻑뻑	-11039
사야	-11040
색다	-11041
서워	-11042
손수	-11043
수능	-11044
수제	-11045
순결	-11046
숨길	-11047
신발	-11048
신하	-11049
애써	-11050
양제	-11051
연못	-11052
영숙	-11053
영양	-11054
예비	-11055
울림	-11056
으란	-11057
은퇴	-11058
을게	-11059
음먹	-11060
입국	-11061
자가	-11062
잠궈	-11063
재채	-11064
적나	-11065
절감	-11066
정도	-11067
정열	-11068
주보	-11069
주워	-11070
지낸	-11071
지랖	-11072
직접	-11073
착용	-11074
찰의	-11075
천사	-11076
천연	-11077
천차	-11078
청구	-11079
초과	-11080
출구	-11081
친지	-11082
커서	-11083
코미	-11084
통하	-11085
티콘	-11086
파야	-11087
파요	-11088
▁~?	-11089
▁내립	-11090
▁내버	-11091
▁냉장	-11092
▁냐는	-11093
▁넘겨	-11094
▁녹아	-11095
▁논리	-11096
▁놔둬	-11097
▁뇌출	-11098
▁눈높	-11099
가라	-11100
가볍	-11101
가사	-11102
가습	-11103
가온	-11104
각질	-11105
간청	-11106
갔다	-11107
강추	-11108
같애	-11109
고문	-11110
괘씸	-11111
굴까	-11112
근데	-11113
기댈	-11114
기복	-11115
기부	-11116
깃털	-11117
깔리	-11118
꺼지	-11119
껴져	-11120
꼼수	-11121
꾸리	-11122
꾸며	-11123
나빠	-11124
날까	-11125
남겨	-11126
너그	-11127
느낄	-11128
는구	-11129
는대	-11130
늦잠	-11131
도대	-11132
독하	-11133
돌보	-11134
땡기	-11135
라놓	-11136
라보	-11137
랫동	-11138
럴지	-11139
려주	-11140
릅니	-11141
맞출	-11142
매매	-11143
맥주	-11144
맨스	-11145
몹시	-11146
배이	-11147
별로	-11148
부차	-11149
부탁	-11150
분통	-11151
뻐해	-11152
샤워	-11153
성동	-11154
식적	-11155
신없	-11156
쓰이	-11157
아토	-11158
안부	-11159
알콩	-11160
억울	-11161
연적	-11162
오른	-11163
오스	-11164
와야	-11165
운영	-11166
위생	-11167
이듬	-11168
재밌	-11169
전역	-11170
정말	-11171
줘야	-11172
증상	-11173
지스	-11174
진행	-11175
챙겼	-11176
초유	-11177
칼로	-11178
크기	-11179
타로	-11180
토바	-11181
통점	-11182
통해	-11183
트림	-11184
한마	-11185
해진	-11186
허무	-11187
혀져	-11188
현금	-11189
호칭	-11190
확률	-11191
후반	-11192
후회	-11193
힘내	-11194
▁눈보	-11195
▁뉘우	-11196
▁는구	-11197
▁다독	-11198
▁다임	-11199
가네	-11200
가오	-11201
가입	-11202
각가	-11203
갇히	-11204
갈등	-11205
격시	-11206
격적	-11207
견과	-11208
경선	-11209
고출	-11210
고치	-11211
공원	-11212
관습	-11213
괴짜	-11214
교양	-11215
권리	-11216
귀중	-11217
금연	-11218
기력	-11219
기르	-11220
기뻐	-11221
기적	-11222
끊겼	-11223
나날	-11224
나누	-11225
내키	-11226
넋두	-11227
노트	-11228
다독	-11229
단호	-11230
대개	-11231
대차	-11232
더워	-11233
떠날	-11234
라붙	-11235
랫만	-11236
러갑	-11237
러나	-11238
론가	-11239
립스	-11240
매듭	-11241
멍청	-11242
멘탈	-11243
모태	-11244
무릎	-11245
보단	-11246
보듬	-11247
부디	-11248
부메	-11249
붙여	-11250
비탄	-11251
비틀	-11252
빨강	-11253
사다	-11254
사제	-11255
성찰	-11256
소질	-11257
속박	-11258
손목	-11259
식점	-11260
실체	-11261
심성	-11262
아다	-11263
아쉬	-11264
여우	-11265
울해	-11266
유부	-11267
이럴	-11268
이뤄	-11269
인턴	-11270
임신	-11271
잔인	-11272
잘생	-11273
장품	-11274
정답	-11275
정한	-11276
조취	-11277
주쳤	-11278
지워	-11279
참선	-11280
채우	-11281
청나	-11282
축제	-11283
출발	-11284
켜야	-11285
큰일	-11286
키워	-11287
편린	-11288
한답	-11289
해내	-11290
향수	-11291
▁닥쳐	-11292
▁단백	-11293
▁단행	-11294
▁담아	-11295
▁당분	-11296
▁당사	-11297
▁대관	-11298
▁대나	-11299
23	-11300
간식	-11301
간직	-11302
거치	-11303
겸하	-11304
경일	-11305
경테	-11306
계신	-11307
고수	-11308
광고	-11309
구멍	-11310
근심	-11311
기를	-11312
나름	-11313
나약	-11314
내딛	-11315
대성	-11316
대출	-11317
뒤돌	-11318
라다	-11319
라져	-11320
람난	-11321
려먹	-11322
마실	-11323
마중	-11324
만난	-11325
먹어	-11326
문법	-11327
문장	-11328
미지	-11329
밀치	-11330
발레	-11331
방금	-11332
배웠	-11333
분노	-11334
비통	-11335
살인	-11336
삼겹	-11337
서서	-11338
속정	-11339
손톱	-11340
수십	-11341
스캐	-11342
식과	-11343
식물	-11344
신기	-11345
실례	-11346
싸구	-11347
아갔	-11348
아마	-11349
아하	-11350
애틋	-11351
약점	-11352
어떨	-11353
여받	-11354
여인	-11355
연휴	-11356
열흘	-11357
예능	-11358
오토	-11359
왠지	-11360
이돌	-11361
인플	-11362
임직	-11363
입성	-11364
저주	-11365
전곡	-11366
정리	-11367
중교	-11368
지갑	-11369
지압	-11370
차가	-11371
참견	-11372
챙기	-11373
최선	-11374
축하	-11375
친근	-11376
친절	-11377
친족	-11378
코브	-11379
클럽	-11380
타까	-11381
통지	-11382
트콤	-11383
평생	-11384
포즈	-11385
프라	-11386
피시	-11387
한창	-11388
해바	-11389
허락	-11390
헐크	-11391
회식	-11392
흥미	-11393
▁가석	-11394
▁과학	-11395
▁대부	-11396
▁대성	-11397
▁대잔	-11398
▁대청	-11399
강연	-11400
건드	-11401
겸임	-11402
고등	-11403
곤경	-11404
골짜	-11405
공무	-11406
교의	-11407
교제	-11408
국구	-11409
군세	-11410
근슬	-11411
기나	-11412
꼭대	-11413
끌려	-11414
끌림	-11415
끝마	-11416
나르	-11417
난간	-11418
늘이	-11419
대화	-11420
뎌진	-11421
동료	-11422
뒤숭	-11423
따지	-11424
땅속	-11425
뜻대	-11426
라봤	-11427
막대	-11428
메노	-11429
명곡	-11430
무던	-11431
무지	-11432
미식	-11433
반복	-11434
발생	-11435
배제	-11436
부남	-11437
비우	-11438
비워	-11439
사면	-11440
사빠	-11441
서답	-11442
선택	-11443
성품	-11444
수월	-11445
슬퍼	-11446
시켰	-11447
식사	-11448
심각	-11449
심란	-11450
싸워	-11451
쌍발	-11452
아했	-11453
안개	-11454
안해	-11455
알뜰	-11456
애기	-11457
어던	-11458
어봐	-11459
업체	-11460
용서	-11461
용인	-11462
울이	-11463
원체	-11464
을수	-11465
의료	-11466
의적	-11467
일시	-11468
일자	-11469
장해	-11470
재분	-11471
쟁취	-11472
적기	-11473
절히	-11474
정하	-11475
정해	-11476
쪼개	-11477
쪽지	-11478
축의	-11479
치료	-11480
치유	-11481
카로	-11482
탈퇴	-11483
탐색	-11484
파브	-11485
포근	-11486
피싱	-11487
피크	-11488
한눈	-11489
해심	-11490
회색	-11491
▁거제	-11492
▁대형	-11493
▁더러	-11494
▁더스	-11495
▁도서	-11496
▁도시	-11497
▁도자	-11498
▁도저	-11499
가만	-11500
감수	-11501
갑작	-11502
강림	-11503
겼을	-11504
고통	-11505
공통	-11506
과학	-11507
교류	-11508
굳이	-11509
금증	-11510
기프	-11511
끄럽	-11512
냄새	-11513
너진	-11514
닐까	-11515
단단	-11516
대략	-11517
도파	-11518
뒷감	-11519
드립	-11520
들으	-11521
듭니	-11522
라네	-11523
려가	-11524
령기	-11525
리운	-11526
명확	-11527
몇몇	-11528
바가	-11529
반려	-11530
방문	-11531
보였	-11532
비친	-11533
상의	-11534
서도	-11535
셀프	-11536
수당	-11537
수정	-11538
슬플	-11539
신극	-11540
신뢰	-11541
아스	-11542
야경	-11543
어떠	-11544
여드	-11545
여력	-11546
외국	-11547
운데	-11548
월요	-11549
유용	-11550
육류	-11551
음놓	-11552
이번	-11553
이빨	-11554
이제	-11555
이터	-11556
인먼	-11557
작스	-11558
적합	-11559
전시	-11560
정반	-11561
정의	-11562
종점	-11563
즉위	-11564
증대	-11565
지네	-11566
지요	-11567
지우	-11568
진실	-11569
질리	-11570
차갑	-11571
초라	-11572
취급	-11573
치과	-11574
친하	-11575
카누	-11576
칼리	-11577
케익	-11578
타계	-11579
태연	-11580
특별	-11581
파도	-11582
페북	-11583
피고	-11584
피어	-11585
하녀	-11586
한껏	-11587
해명	-11588
헛웃	-11589
후유	-11590
흐를	-11591
▁근친	-11592
▁도파	-11593
▁독자	-11594
▁돌잔	-11595
▁동떨	-11596
▁동문	-11597
▁동영	-11598
▁동유	-11599
간사	-11600
감히	-11601
걸린	-11602
경축	-11603
고장	-11604
과식	-11605
관광	-11606
그대	-11607
금은	-11608
기도	-11609
기술	-11610
깐깐	-11611
나간	-11612
날림	-11613
냈으	-11614
녀오	-11615
다툼	-11616
동거	-11617
두드	-11618
따져	-11619
딸기	-11620
래다	-11621
맛난	-11622
매정	-11623
멀티	-11624
메에	-11625
미각	-11626
방비	-11627
번은	-11628
베풀	-11629
변주	-11630
별칭	-11631
부질	-11632
부팅	-11633
비해	-11634
사업	-11635
사죄	-11636
생태	-11637
세히	-11638
속옷	-11639
순간	-11640
순방	-11641
숫자	-11642
습성	-11643
씁니	-11644
아질	-11645
양말	-11646
어이	-11647
언제	-11648
여러	-11649
여주	-11650
역량	-11651
오류	-11652
외롭	-11653
용역	-11654
울음	-11655
으셨	-11656
은연	-11657
은지	-11658
음수	-11659
이른	-11660
이불	-11661
익살	-11662
인근	-11663
임기	-11664
입천	-11665
잡고	-11666
잡혀	-11667
장실	-11668
장점	-11669
저번	-11670
접수	-11671
조원	-11672
존경	-11673
존심	-11674
졸업	-11675
지식	-11676
지치	-11677
차리	-11678
차별	-11679
착하	-11680
착한	-11681
참사	-11682
최악	-11683
치킨	-11684
타내	-11685
팀워	-11686
페인	-11687
펴보	-11688
프링	-11689
한리	-11690
혼전	-11691
휴식	-11692
▁덕수	-11693
▁동호	-11694
▁되도	-11695
▁되풀	-11696
▁된답	-11697
▁될라	-11698
▁두고	-11699
가속	-11700
간혹	-11701
갈수	-11702
강아	-11703
개강	-11704
거슬	-11705
거워	-11706
고난	-11707
고르	-11708
근처	-11709
금속	-11710
깨질	-11711
꼬였	-11712
남부	-11713
내내	-11714
내릴	-11715
내쫓	-11716
녹여	-11717
누가	-11718
느려	-11719
답변	-11720
당장	-11721
또한	-11722
뜻하	-11723
라질	-11724
레시	-11725
만나	-11726
매년	-11727
멋져	-11728
못자	-11729
무언	-11730
미쳐	-11731
반응	-11732
발리	-11733
법의	-11734
벗겨	-11735
벚꽃	-11736
부자	-11737
비교	-11738
빨리	-11739
뻐요	-11740
사안	-11741
상사	-11742
서운	-11743
셀카	-11744
소모	-11745
순히	-11746
습도	-11747
시내	-11748
실내	-11749
아릴	-11750
아싸	-11751
아온	-11752
야겠	-11753
양궁	-11754
어오	-11755
예인	-11756
온몸	-11757
온전	-11758
용모	-11759
은근	-11760
이래	-11761
이점	-11762
일거	-11763
임무	-11764
입학	-11765
자던	-11766
장인	-11767
저하	-11768
적으	-11769
절친	-11770
제작	-11771
조급	-11772
주기	-11773
주식	-11774
중간	-11775
줘도	-11776
직책	-11777
쩌면	-11778
차트	-11779
참으	-11780
초창	-11781
추대	-11782
커지	-11783
케줄	-11784
통약	-11785
통화	-11786
해제	-11787
혼주	-11788
후식	-11789
▁두더	-11790
▁둘러	-11791
▁뒤떨	-11792
▁뒤숭	-11793
▁뒤통	-11794
▁뒤틀	-11795
▁뒷다	-11796
▁드높	-11797
▁드레	-11798
▁들으	-11799
as	-11800
감미	-11801
갑니	-11802
강조	-11803
걸릴	-11804
격려	-11805
격증	-11806
공표	-11807
관등	-11808
관없	-11809
구릿	-11810
구별	-11811
극장	-11812
금영	-11813
기기	-11814
나쳤	-11815
남녀	-11816
냐구	-11817
녀랑	-11818
노후	-11819
다큐	-11820
단순	-11821
단어	-11822
담긴	-11823
더디	-11824
동급	-11825
동호	-11826
때때	-11827
떠오	-11828
람둥	-11829
랑니	-11830
레리	-11831
려울	-11832
로잡	-11833
리울	-11834
리저	-11835
만날	-11836
맞춤	-11837
몰차	-11838
무모	-11839
버텼	-11840
별하	-11841
봅시	-11842
불리	-11843
불편	-11844
사로	-11845
생생	-11846
선연	-11847
성단	-11848
식단	-11849
신나	-11850
싫증	-11851
아져	-11852
아채	-11853
언급	-11854
여몽	-11855
염탐	-11856
오히	-11857
와주	-11858
용접	-11859
울여	-11860
위의	-11861
위쪽	-11862
전날	-11863
정략	-11864
제습	-11865
젠지	-11866
종아	-11867
증폭	-11868
진급	-11869
진료	-11870
질긴	-11871
창조	-11872
초기	-11873
추운	-11874
출석	-11875
치장	-11876
칭찬	-11877
캄캄	-11878
태어	-11879
터지	-11880
트로	-11881
파이	-11882
퍼붓	-11883
하아	-11884
학벌	-11885
함부	-11886
행히	-11887
헛헛	-11888
호호	-11889
화사	-11890
▁교보	-11891
▁디자	-11892
▁딩크	-11893
▁떠넘	-11894
▁떠오	-11895
▁떨린	-11896
▁또다	-11897
▁라더	-11898
▁라디	-11899
가금	-11900
간편	-11901
결별	-11902
계산	-11903
고칠	-11904
고파	-11905
그리	-11906
그립	-11907
근래	-11908
끈기	-11909
나온	-11910
나위	-11911
넘어	-11912
농담	-11913
놓치	-11914
답증	-11915
당하	-11916
당한	-11917
덤빈	-11918
뎌질	-11919
둘리	-11920
떠났	-11921
떠보	-11922
똑똑	-11923
런데	-11924
리언	-11925
린스	-11926
발간	-11927
발달	-11928
별의	-11929
비밀	-11930
사친	-11931
서문	-11932
성적	-11933
셔요	-11934
소망	-11935
소심	-11936
소원	-11937
송달	-11938
시관	-11939
시키	-11940
신앙	-11941
신혼	-11942
쓰러	-11943
아갑	-11944
약속	-11945
어찌	-11946
여요	-11947
연히	-11948
열쇠	-11949
열정	-11950
엿보	-11951
오두	-11952
오톡	-11953
올릴	-11954
올해	-11955
왜곡	-11956
울시	-11957
원동	-11958
위병	-11959
유지	-11960
의사	-11961
의촉	-11962
이름	-11963
일어	-11964
자격	-11965
자녀	-11966
잠수	-11967
재미	-11968
점검	-11969
조울	-11970
조조	-11971
종료	-11972
중개	-11973
줘요	-11974
지쳐	-11975
진대	-11976
진학	-11977
추워	-11978
출퇴	-11979
충고	-11980
치명	-11981
콘서	-11982
턱시	-11983
트라	-11984
파토	-11985
학여	-11986
학원	-11987
혁명	-11988
화폐	-11989
활동	-11990
▁다릅	-11991
▁레시	-11992
▁레코	-11993
▁로마	-11994
▁로부	-11995
▁루리	-11996
▁리버	-11997
▁리시	-11998
▁리액	-11999
▁랍	-12000
가벼	-12001
거라	-12002
격지	-12003
골라	-12004
과부	-12005
괜잖	-12006
그동	-12007
나갔	-12008
내주	-12009
념일	-12010
놀라	-12011
눈물	-12012
단념	-12013
단히	-12014
대현	-12015
데우	-12016
동문	-12017
뒤늦	-12018
러면	-12019
루하	-12020
말라	-12021
매번	-12022
멋진	-12023
명히	-12024
모텔	-12025
문집	-12026
벗어	-12027
변동	-12028
별자	-12029
봐서	-12030
부녀	-12031
북부	-12032
불고	-12033
불러	-12034
비참	-12035
빌려	-12036
쁜데	-12037
사망	-12038
사이	-12039
색계	-12040
설렘	-12041
성탄	-12042
성향	-12043
세워	-12044
소문	-12045
속력	-12046
수면	-12047
순항	-12048
숭고	-12049
시찰	-12050
아줄	-12051
양자	-12052
어드	-12053
여워	-12054
연방	-12055
예쁠	-12056
예정	-12057
오랫	-12058
와도	-12059
울산	-12060
울적	-12061
울철	-12062
월급	-12063
이슈	-12064
익숙	-12065
인형	-12066
자유	-12067
재결	-12068
전망	-12069
점점	-12070
정규	-12071
제례	-12072
졌으	-12073
주력	-12074
주사	-12075
지칠	-12076
짜로	-12077
째야	-12078
차만	-12079
충실	-12080
토비	-12081
풍습	-12082
해지	-12083
혼식	-12084
화가	-12085
화상	-12086
훈련	-12087
ᄂ가요	-12088
▁다워	-12089
▁대내	-12090
▁마리	-12091
▁마인	-12092
▁마지	-12093
▁마케	-12094
▁막대	-12095
▁막바	-12096
▁만납	-12097
▁말조	-12098
▁망설	-12099
각날	-12100
간단	-12101
간파	-12102
겨낼	-12103
겨우	-12104
겨울	-12105
결심	-12106
고고	-12107
고비	-12108
고우	-12109
곡과	-12110
과거	-12111
구실	-12112
그르	-12113
그저	-12114
그전	-12115
기병	-12116
깔창	-12117
껴질	-12118
나아	-12119
남동	-12120
내던	-12121
내리	-12122
농구	-12123
놔둬	-12124
느냐	-12125
늦어	-12126
다양	-12127
단기	-12128
대단	-12129
대편	-12130
댄스	-12131
동물	-12132
따끔	-12133
때요	-12134
라진	-12135
로비	-12136
로서	-12137
립니	-12138
마무	-12139
마셔	-12140
막지	-12141
만두	-12142
멋있	-12143
명력	-12144
몰래	-12145
반하	-12146
변해	-12147
볼링	-12148
분명	-12149
빼빼	-12150
사내	-12151
설날	-12152
셔야	-12153
수품	-12154
스킨	-12155
신감	-12156
쓰키	-12157
아빠	-12158
애매	-12159
약간	-12160
양고	-12161
언어	-12162
여야	-12163
예뻐	-12164
요약	-12165
우린	-12166
우자	-12167
유년	-12168
의심	-12169
이사	-12170
이용	-12171
일용	-12172
자각	-12173
잠식	-12174
저린	-12175
전산	-12176
전환	-12177
중임	-12178
즐기	-12179
차차	-12180
청해	-12181
출동	-12182
춤법	-12183
치매	-12184
카나	-12185
탐험	-12186
트코	-12187
팔린	-12188
필두	-12189
필수	-12190
한참	-12191
허상	-12192
회선	-12193
▁내던	-12194
▁매니	-12195
▁먹어	-12196
▁멍해	-12197
▁메시	-12198
▁메신	-12199
가족	-12200
가치	-12201
간신	-12202
갈망	-12203
갈아	-12204
강제	-12205
거부	-12206
걸음	-12207
결의	-12208
고갈	-12209
과연	-12210
괴력	-12211
근황	-12212
기념	-12213
긴장	-12214
깜깜	-12215
끼치	-12216
날렸	-12217
남길	-12218
냉정	-12219
냉철	-12220
뉘른	-12221
늘날	-12222
단계	-12223
대상	-12224
데려	-12225
독려	-12226
드세	-12227
등산	-12228
따질	-12229
떨리	-12230
려줘	-12231
립운	-12232
매운	-12233
목소	-12234
목표	-12235
뭘까	-12236
발목	-12237
방침	-12238
벌어	-12239
보답	-12240
불타	-12241
붙히	-12242
비판	-12243
빙수	-12244
빠지	-12245
뻐졌	-12246
상병	-12247
새로	-12248
세상	-12249
수백	-12250
스테	-12251
스폰	-12252
슬픔	-12253
시대	-12254
실히	-12255
아깝	-12256
아쳐	-12257
여름	-12258
여전	-12259
연관	-12260
완벽	-12261
웅장	-12262
위한	-12263
으러	-12264
으세	-12265
이치	-12266
인고	-12267
일그	-12268
일상	-12269
자형	-12270
잡지	-12271
장관	-12272
전부	-12273
제게	-12274
조장	-12275
졸려	-12276
중복	-12277
최근	-12278
추적	-12279
충전	-12280
크림	-12281
타인	-12282
테레	-12283
테판	-12284
퍼뜨	-12285
퍼하	-12286
프린	-12287
한번	-12288
흔하	-12289
힌다	-12290
▁다큐	-12291
▁드라	-12292
▁멜로	-12293
▁명령	-12294
▁명문	-12295
▁명탐	-12296
▁모니	-12297
▁모델	-12298
▁모릅	-12299
▁g	-12300
갈게	-12301
갑판	-12302
강해	-12303
거릴	-12304
결정	-12305
고온	-12306
광범	-12307
괴롭	-12308
급기	-12309
꽃다	-12310
끓이	-12311
끝낸	-12312
낙엽	-12313
늘리	-12314
당분	-12315
당사	-12316
대한	-12317
될지	-12318
두목	-12319
딱하	-12320
로필	-12321
료소	-12322
릿속	-12323
막말	-12324
말랐	-12325
말수	-12326
맘고	-12327
매도	-12328
모릅	-12329
물류	-12330
미성	-12331
미칠	-12332
배의	-12333
번거	-12334
벗기	-12335
변덕	-12336
병용	-12337
보름	-12338
보험	-12339
복부	-12340
부고	-12341
부끄	-12342
부러	-12343
불만	-12344
비결	-12345
비만	-12346
새겨	-12347
선생	-12348
설정	-12349
소식	-12350
소진	-12351
수강	-12352
순위	-12353
신청	-12354
실과	-12355
실망	-12356
쌓았	-12357
아함	-12358
어가	-12359
연민	-12360
염려	-12361
예전	-12362
와요	-12363
의주	-12364
인터	-12365
입증	-12366
자게	-12367
자제	-12368
장학	-12369
적극	-12370
전하	-12371
점심	-12372
정상	-12373
존재	-12374
종류	-12375
종종	-12376
좌우	-12377
주년	-12378
철벽	-12379
최후	-12380
축가	-12381
취직	-12382
탈로	-12383
통장	-12384
판별	-12385
항해	-12386
헛된	-12387
혀질	-12388
혈액	-12389
회적	-12390
▁60	-12391
▁기막	-12392
▁넋두	-12393
▁돌담	-12394
▁모세	-12395
▁모처	-12396
▁목감	-12397
▁목걸	-12398
▁목소	-12399
12	-12400
가로	-12401
겠지	-12402
곡조	-12403
공허	-12404
구하	-12405
구해	-12406
굴리	-12407
깨뜨	-12408
껴졌	-12409
꽃길	-12410
끄집	-12411
나옴	-12412
내려	-12413
녹아	-12414
대수	-12415
돼서	-12416
든가	-12417
딱정	-12418
때로	-12419
떨려	-12420
러가	-12421
리어	-12422
릴리	-12423
막바	-12424
모뎀	-12425
못했	-12426
무거	-12427
무섭	-12428
미만	-12429
미세	-12430
배낭	-12431
복수	-12432
복지	-12433
봉사	-12434
부치	-12435
분석	-12436
비싸	-12437
비추	-12438
상담	-12439
상세	-12440
속사	-12441
쇼핑	-12442
식성	-12443
식히	-12444
아니	-12445
아목	-12446
아올	-12447
아플	-12448
알리	-12449
알바	-12450
약혼	-12451
여덟	-12452
영수	-12453
영원	-12454
오바	-12455
외모	-12456
요청	-12457
유족	-12458
으려	-12459
이미	-12460
이하	-12461
인걸	-12462
일지	-12463
자아	-12464
자존	-12465
잠재	-12466
장감	-12467
장거	-12468
재우	-12469
저압	-12470
저음	-12471
지의	-12472
지점	-12473
직구	-12474
질간	-12475
집니	-12476
집중	-12477
차라	-12478
축전	-12479
치관	-12480
친해	-12481
털이	-12482
푸스	-12483
피맥	-12484
필름	-12485
하늘	-12486
하철	-12487
행복	-12488
형상	-12489
화끈	-12490
회상	-12491
흉내	-12492
흡입	-12493
▁광합	-12494
▁노선	-12495
▁몸길	-12496
▁몸무	-12497
▁못생	-12498
▁무감	-12499
가르	-12500
거둬	-12501
구워	-12502
꿀까	-12503
끝내	-12504
남편	-12505
내용	-12506
냐면	-12507
너편	-12508
누굴	-12509
느라	-12510
대책	-12511
더러	-12512
더럽	-12513
돌려	-12514
떠돌	-12515
떨어	-12516
려들	-12517
록콜	-12518
르치	-12519
리다	-12520
리워	-12521
만류	-12522
만지	-12523
망했	-12524
머나	-12525
멈추	-12526
멋지	-12527
목화	-12528
무기	-12529
무자	-12530
문득	-12531
반갑	-12532
베푸	-12533
보관	-12534
보냈	-12535
분출	-12536
사귈	-12537
산책	-12538
생명	-12539
서귀	-12540
속도	-12541
솔솔	-12542
수개	-12543
씁쓸	-12544
아강	-12545
안정	-12546
억제	-12547
오락	-12548
오랜	-12549
용히	-12550
울렸	-12551
위촉	-12552
유의	-12553
음소	-12554
의아	-12555
이상	-12556
이유	-12557
자회	-12558
작고	-12559
잠정	-12560
적개	-12561
직업	-12562
질려	-12563
질질	-12564
질책	-12565
집들	-12566
철회	-12567
청개	-12568
청첩	-12569
쳐다	-12570
초면	-12571
출까	-12572
콩나	-12573
크시	-12574
클릭	-12575
타깝	-12576
터질	-12577
팔뚝	-12578
퓨저	-12579
하직	-12580
해석	-12581
했잖	-12582
향기	-12583
향락	-12584
헌신	-12585
환선	-12586
회복	-12587
흔들	-12588
▁도대	-12589
▁며느	-12590
▁무덤	-12591
▁무뚝	-12592
▁무언	-12593
▁무작	-12594
▁무조	-12595
▁문리	-12596
▁문지	-12597
▁문질	-12598
▁물려	-12599
간결	-12600
간쑤	-12601
갱신	-12602
결성	-12603
계곡	-12604
과일	-12605
관심	-12606
구구	-12607
구박	-12608
군대	-12609
규범	-12610
극심	-12611
금없	-12612
급날	-12613
기쁜	-12614
날씨	-12615
내서	-12616
내왔	-12617
눈꺼	-12618
눈보	-12619
다이	-12620
대리	-12621
대학	-12622
덜하	-12623
동네	-12624
득템	-12625
들일	-12626
등학	-12627
락말	-12628
래그	-12629
러울	-12630
레칭	-12631
료수	-12632
릴지	-12633
마른	-12634
마워	-12635
많이	-12636
메이	-12637
면역	-12638
모든	-12639
못생	-12640
무서	-12641
바다	-12642
발병	-12643
버릇	-12644
변한	-12645
별궁	-12646
부딛	-12647
분양	-12648
불안	-12649
붙이	-12650
사르	-12651
사진	-12652
소유	-12653
수많	-12654
수첩	-12655
순물	-12656
시판	-12657
식증	-12658
신중	-12659
쓴맛	-12660
언동	-12661
여도	-12662
였을	-12663
유형	-12664
이건	-12665
이기	-12666
이렇	-12667
일기	-12668
잡동	-12669
저택	-12670
정식	-12671
주쳐	-12672
준대	-12673
중국	-12674
지불	-12675
참여	-12676
추종	-12677
춰야	-12678
패스	-12679
포악	-12680
풍부	-12681
핑거	-12682
할인	-12683
허해	-12684
혹시	-12685
활엽	-12686
활환	-12687
▁괜잖	-12688
▁물방	-12689
▁미디	-12690
▁미라	-12691
▁미생	-12692
▁미성	-12693
▁미스	-12694
▁미식	-12695
▁미지	-12696
▁민주	-12697
▁밀어	-12698
▁밑바	-12699
가량	-12700
거림	-12701
결말	-12702
공휴	-12703
괴로	-12704
구함	-12705
궁금	-12706
극작	-12707
금하	-12708
꼬르	-12709
내게	-12710
넘가	-12711
누구	-12712
닌지	-12713
단락	-12714
당함	-12715
도망	-12716
독약	-12717
랑대	-12718
료제	-12719
리하	-12720
막혔	-12721
망함	-12722
목과	-12723
미쳤	-12724
바뀌	-12725
발등	-12726
버린	-12727
병동	-12728
병이	-12729
비트	-12730
빈자	-12731
생각	-12732
서평	-12733
설렜	-12734
설마	-12735
세심	-12736
소화	-12737
순경	-12738
술자	-12739
스튜	-12740
승리	-12741
실감	-12742
실재	-12743
쓰나	-12744
쓰인	-12745
쓸쓸	-12746
아도	-12747
악마	-12748
어와	-12749
어제	-12750
언론	-12751
없애	-12752
여기	-12753
여느	-12754
여유	-12755
역시	-12756
연해	-12757
예고	-12758
오기	-12759
와의	-12760
요란	-12761
요리	-12762
웃긴	-12763
원숭	-12764
원치	-12765
원히	-12766
이듭	-12767
인도	-12768
입히	-12769
자랑	-12770
자외	-12771
접적	-12772
제가	-12773
제시	-12774
조언	-12775
줄곧	-12776
증세	-12777
지긋	-12778
천천	-12779
청난	-12780
취업	-12781
취하	-12782
친한	-12783
카페	-12784
칼국	-12785
콩달	-12786
팬케	-12787
해소	-12788
해져	-12789
화신	-12790
흉터	-12791
▁갔다	-12792
▁달했	-12793
▁바구	-12794
▁바랍	-12795
▁바오	-12796
▁박물	-12797
▁받아	-12798
▁받침	-12799
갈려	-12800
강습	-12801
거짓	-12802
검증	-12803
격노	-12804
격화	-12805
과정	-12806
광주	-12807
교분	-12808
구자	-12809
국경	-12810
그물	-12811
근두	-12812
근육	-12813
까매	-12814
남기	-12815
농도	-12816
느끼	-12817
대외	-12818
대중	-12819
대회	-12820
더욱	-12821
든데	-12822
띠동	-12823
레발	-12824
로우	-12825
름살	-12826
마셨	-12827
만족	-12828
만히	-12829
맞춰	-12830
무셨	-12831
물론	-12832
미래	-12833
바란	-12834
백화	-12835
변천	-12836
별빛	-12837
보람	-12838
복장	-12839
삼촌	-12840
삼형	-12841
서술	-12842
서투	-12843
소중	-12844
솔로	-12845
솔직	-12846
수긍	-12847
수지	-12848
습소	-12849
시동	-12850
신경	-12851
신일	-12852
아간	-12853
아닌	-12854
악영	-12855
약품	-12856
어짐	-12857
엔터	-12858
염색	-12859
옮기	-12860
와줘	-12861
용하	-12862
우선	-12863
운가	-12864
워할	-12865
유료	-12866
으라	-12867
음식	-12868
이피	-12869
인접	-12870
일까	-12871
일찍	-12872
자다	-12873
전혀	-12874
제자	-12875
조물	-12876
조용	-12877
졸음	-12878
중반	-12879
지시	-12880
지키	-12881
직전	-12882
차권	-12883
차분	-12884
착가	-12885
코스	-12886
탁드	-12887
택배	-12888
통적	-12889
파트	-12890
편리	-12891
평소	-12892
▁녹취	-12893
▁바가	-12894
▁발렌	-12895
▁발바	-12896
▁발코	-12897
▁방어	-12898
▁방화	-12899
각처	-12900
간만	-12901
감자	-12902
경쟁	-12903
곤란	-12904
곧장	-12905
광경	-12906
괜찮	-12907
그지	-12908
기잡	-12909
기회	-12910
꽃꽂	-12911
날이	-12912
높여	-12913
다울	-12914
단거	-12915
대변	-12916
돌담	-12917
랍니	-12918
리미	-12919
리서	-12920
리석	-12921
마시	-12922
만보	-12923
망해	-12924
면담	-12925
모잘	-12926
묘약	-12927
바꿨	-12928
바드	-12929
발라	-12930
보병	-12931
보인	-12932
불균	-12933
불행	-12934
빠를	-12935
선글	-12936
선명	-12937
소주	-12938
수상	-12939
숙면	-12940
스팸	-12941
식회	-12942
실까	-12943
실외	-12944
실천	-12945
실패	-12946
쌍히	-12947
아롱	-12948
아우	-12949
야외	-12950
양심	-12951
양팔	-12952
열받	-12953
예보	-12954
올리	-12955
욕계	-12956
울부	-12957
유념	-12958
이대	-12959
입맛	-12960
자네	-12961
전사	-12962
제나	-12963
제치	-12964
줄게	-12965
줄지	-12966
증축	-12967
지난	-12968
진가	-12969
출소	-12970
침묵	-12971
켜보	-12972
타락	-12973
툴러	-12974
판결	-12975
퍼센	-12976
편히	-12977
폭스	-12978
피닉	-12979
하우	-12980
해결	-12981
해어	-12982
행지	-12983
호가	-12984
혼났	-12985
희생	-12986
힘들	-12987
▁거꾸	-12988
▁밑거	-12989
▁배드	-12990
▁배부	-12991
▁배터	-12992
▁백령	-12993
▁백화	-12994
▁버거	-12995
▁벗어	-12996
▁베드	-12997
▁베어	-12998
▁베트	-12999
간부	-13000
겨서	-13001
겨진	-13002
경관	-13003
계기	-13004
고방	-13005
고백	-13006
곤충	-13007
과중	-13008
관전	-13009
귈래	-13010
그런	-13011
글퍼	-13012
껴지	-13013
나갈	-13014
낭비	-13015
녹취	-13016
놓아	-13017
달랐	-13018
달음	-13019
도매	-13020
도시	-13021
도와	-13022
도저	-13023
동침	-13024
뒤틀	-13025
때문	-13026
똑같	-13027
랄프	-13028
러보	-13029
로마	-13030
리움	-13031
만남	-13032
말씀	-13033
모르	-13034
몸통	-13035
바빠	-13036
바크	-13037
배반	-13038
보컬	-13039
본지	-13040
부딪	-13041
부정	-13042
빌라	-13043
빨랑	-13044
뻐서	-13045
살빼	-13046
소가	-13047
수혈	-13048
시의	-13049
싸운	-13050
아당	-13051
아예	-13052
앞쪽	-13053
약정	-13054
약하	-13055
어져	-13056
어졌	-13057
연봉	-13058
연예	-13059
염료	-13060
올게	-13061
요도	-13062
용실	-13063
우울	-13064
울려	-13065
웃기	-13066
워했	-13067
위대	-13068
으실	-13069
을가	-13070
의별	-13071
일주	-13072
입력	-13073
자길	-13074
자마	-13075
제발	-13076
존중	-13077
좌절	-13078
치가	-13079
타날	-13080
택시	-13081
편한	-13082
포기	-13083
폭우	-13084
플러	-13085
피터	-13086
학기	-13087
흔한	-13088
흘렸	-13089
▁게스	-13090
▁냉난	-13091
▁뒷모	-13092
▁번거	-13093
▁변압	-13094
▁변할	-13095
▁보건	-13096
▁보너	-13097
▁보병	-13098
▁보상	-13099
간섭	-13100
관리	-13101
괜한	-13102
군인	-13103
극복	-13104
깊이	-13105
깨닫	-13106
끝날	-13107
나타	-13108
날드	-13109
낼까	-13110
노려	-13111
논문	-13112
눈금	-13113
느긋	-13114
는지	-13115
능가	-13116
닥쳐	-13117
대형	-13118
더군	-13119
돌릴	-13120
동원	-13121
듯이	-13122
때리	-13123
련없	-13124
로부	-13125
로웠	-13126
명품	-13127
미치	-13128
민속	-13129
밀어	-13130
바보	-13131
배터	-13132
보다	-13133
불금	-13134
상력	-13135
선다	-13136
섣부	-13137
세먼	-13138
소금	-13139
수드	-13140
스피	-13141
승천	-13142
실비	-13143
실험	-13144
아련	-13145
악인	-13146
앞머	-13147
여가	-13148
여쭤	-13149
욕망	-13150
위아	-13151
유난	-13152
응징	-13153
의자	-13154
이겨	-13155
이빗	-13156
이키	-13157
인기	-13158
인스	-13159
임감	-13160
입니	-13161
자부	-13162
잡담	-13163
재력	-13164
정벌	-13165
종착	-13166
좌찬	-13167
주치	-13168
증거	-13169
지팡	-13170
직임	-13171
짜증	-13172
찢어	-13173
축복	-13174
카탈	-13175
타리	-13176
타시	-13177
태동	-13178
터졌	-13179
티무	-13180
플레	-13181
피로	-13182
한심	-13183
해줘	-13184
확인	-13185
환승	-13186
휴대	-13187
▁무전	-13188
▁밥벌	-13189
▁베란	-13190
▁복소	-13191
▁볶음	-13192
▁본위	-13193
▁볼래	-13194
▁볼려	-13195
▁봅시	-13196
▁부교	-13197
▁부도	-13198
▁부러	-13199
▁잖	-13200
갈릴	-13201
강렬	-13202
걸어	-13203
견뎌	-13204
공회	-13205
과제	-13206
귀기	-13207
그간	-13208
꺾이	-13209
난감	-13210
낮춰	-13211
네이	-13212
놀랐	-13213
뉘우	-13214
느덧	-13215
다소	-13216
달콤	-13217
대잔	-13218
도전	-13219
동심	-13220
뒤처	-13221
드론	-13222
라서	-13223
러분	-13224
로움	-13225
마냥	-13226
마법	-13227
멋졌	-13228
모실	-13229
무렵	-13230
문체	-13231
바랍	-13232
배워	-13233
번이	-13234
보통	-13235
부담	-13236
비하	-13237
빵빵	-13238
사병	-13239
살아	-13240
수억	-13241
시킬	-13242
심하	-13243
싸우	-13244
아한	-13245
아해	-13246
안타	-13247
암꽃	-13248
애인	-13249
액결	-13250
었었	-13251
연락	-13252
영진	-13253
예약	-13254
와서	-13255
워가	-13256
워서	-13257
이게	-13258
저작	-13259
적금	-13260
적당	-13261
정확	-13262
조절	-13263
주둥	-13264
주령	-13265
주말	-13266
주포	-13267
주행	-13268
줄어	-13269
지날	-13270
지루	-13271
지울	-13272
진지	-13273
찰관	-13274
철판	-13275
최대	-13276
추천	-13277
춤추	-13278
크루	-13279
크린	-13280
킨십	-13281
타일	-13282
퇴임	-13283
학비	-13284
했긴	-13285
행동	-13286
화제	-13287
황민	-13288
효과	-13289
희경	-13290
▁갑자	-13291
▁깨뜨	-13292
▁꽃받	-13293
▁부메	-13294
▁부수	-13295
▁부작	-13296
▁부조	-13297
▁부질	-13298
▁부처	-13299
20	-13300
가군	-13301
거나	-13302
거느	-13303
걸렸	-13304
겁니	-13305
고마	-13306
고프	-13307
골프	-13308
괴물	-13309
구역	-13310
굴곡	-13311
그중	-13312
기한	-13313
나보	-13314
노동	-13315
놓쳤	-13316
눈앞	-13317
다렸	-13318
단수	-13319
더스	-13320
뎌져	-13321
동년	-13322
동전	-13323
돼야	-13324
두려	-13325
둬서	-13326
들려	-13327
따듯	-13328
따로	-13329
라가	-13330
러일	-13331
루어	-13332
뤄지	-13333
마움	-13334
막히	-13335
만심	-13336
면접	-13337
모아	-13338
문신	-13339
물성	-13340
민감	-13341
반인	-13342
반지	-13343
별거	-13344
봅니	-13345
사대	-13346
성덕	-13347
성취	-13348
소비	-13349
수락	-13350
쉬울	-13351
시골	-13352
시끄	-13353
쓰여	-13354
압박	-13355
어보	-13356
여동	-13357
오코	-13358
외로	-13359
요구	-13360
위안	-13361
이성	-13362
잠깐	-13363
잠잠	-13364
재물	-13365
중고	-13366
지냈	-13367
청각	-13368
체전	-13369
출근	-13370
큐피	-13371
탁소	-13372
태엽	-13373
텔레	-13374
트데	-13375
파서	-13376
편의	-13377
피부	-13378
한테	-13379
할꺼	-13380
항성	-13381
헬멧	-13382
화기	-13383
화번	-13384
확실	-13385
확히	-13386
▁거슬	-13387
▁기획	-13388
▁발기	-13389
▁북받	-13390
▁북서	-13391
▁분위	-13392
▁불공	-13393
▁불면	-13394
▁불필	-13395
▁불합	-13396
▁불현	-13397
▁붙들	-13398
▁브랜	-13399
가운	-13400
각기	-13401
걸까	-13402
걸르	-13403
걸요	-13404
겠어	-13405
과자	-13406
교편	-13407
냄비	-13408
능력	-13409
다되	-13410
닥토	-13411
닭발	-13412
대답	-13413
더하	-13414
디비	-13415
따위	-13416
떠올	-13417
런다	-13418
려놓	-13419
려다	-13420
마트	-13421
매이	-13422
매화	-13423
먹먹	-13424
멀리	-13425
메커	-13426
모임	-13427
무너	-13428
문리	-13429
미약	-13430
보크	-13431
본인	-13432
비난	-13433
빠진	-13434
삐지	-13435
사과	-13436
생선	-13437
속상	-13438
송아	-13439
수시	-13440
술기	-13441
숭생	-13442
시켜	-13443
신부	-13444
쌓인	-13445
악몽	-13446
알려	-13447
언니	-13448
엄마	-13449
없다	-13450
영화	-13451
오늘	-13452
울어	-13453
원비	-13454
의외	-13455
이라	-13456
인과	-13457
인죄	-13458
인품	-13459
자더	-13460
잠길	-13461
잠시	-13462
장래	-13463
재심	-13464
절약	-13465
제야	-13466
조교	-13467
죽이	-13468
줄여	-13469
중거	-13470
중병	-13471
지속	-13472
지켜	-13473
집착	-13474
첨단	-13475
카풀	-13476
코너	-13477
코코	-13478
통할	-13479
파라	-13480
퍼레	-13481
필기	-13482
하객	-13483
해치	-13484
형과	-13485
호텔	-13486
흐음	-13487
힘차	-13488
▁기나	-13489
▁대공	-13490
▁렌더	-13491
▁맘고	-13492
▁비극	-13493
▁비민	-13494
▁비바	-13495
▁비인	-13496
▁비합	-13497
▁비행	-13498
▁빌릴	-13499
25	-13500
sn	-13501
가까	-13502
가져	-13503
가출	-13504
각상	-13505
거든	-13506
거점	-13507
경험	-13508
근년	-13509
기재	-13510
기저	-13511
깎인	-13512
꼰대	-13513
꽃놀	-13514
나눠	-13515
남자	-13516
낮잠	-13517
너졌	-13518
녀와	-13519
눌러	-13520
다방	-13521
단발	-13522
달째	-13523
대신	-13524
동일	-13525
됩니	-13526
뒤쪽	-13527
드레	-13528
랄게	-13529
렌즈	-13530
례품	-13531
루함	-13532
린아	-13533
릿빛	-13534
만났	-13535
모호	-13536
몸무	-13537
무실	-13538
뭔가	-13539
미워	-13540
반발	-13541
받아	-13542
보수	-13543
봉투	-13544
부드	-13545
비인	-13546
비키	-13547
생일	-13548
서툰	-13549
선왕	-13550
성격	-13551
숙제	-13552
술인	-13553
아서	-13554
야가	-13555
야기	-13556
양면	-13557
양복	-13558
어넘	-13559
어우	-13560
얼굴	-13561
에게	-13562
에요	-13563
연애	-13564
연연	-13565
열량	-13566
요번	-13567
월과	-13568
유행	-13569
이벤	-13570
인정	-13571
적응	-13572
전생	-13573
주병	-13574
증여	-13575
지친	-13576
질투	-13577
찌푸	-13578
차인	-13579
참깨	-13580
참살	-13581
처음	-13582
쳐버	-13583
출생	-13584
컨트	-13585
팠으	-13586
프로	-13587
한결	-13588
한복	-13589
항생	-13590
화해	-13591
활비	-13592
휴업	-13593
▁노트	-13594
▁부친	-13595
▁빠질	-13596
▁빽빽	-13597
▁사계	-13598
▁사나	-13599
ᄂ다	-13600
가능	-13601
가려	-13602
간접	-13603
감과	-13604
감정	-13605
건데	-13606
겉옷	-13607
구현	-13608
그먼	-13609
근거	-13610
기량	-13611
깨어	-13612
끝난	-13613
나을	-13614
낙농	-13615
니퍼	-13616
다듬	-13617
다섯	-13618
당신	-13619
되돌	-13620
드셔	-13621
들켰	-13622
래오	-13623
련번	-13624
를수	-13625
만둬	-13626
만큼	-13627
모질	-13628
목요	-13629
몸매	-13630
무뎌	-13631
무엇	-13632
물리	-13633
벼운	-13634
볼래	-13635
부합	-13636
부활	-13637
분리	-13638
빠도	-13639
사세	-13640
세척	-13641
소시	-13642
솜털	-13643
숙사	-13644
시물	-13645
시원	-13646
신체	-13647
실태	-13648
싸웠	-13649
쓰일	-13650
아줬	-13651
아침	-13652
알아	-13653
압류	-13654
어젯	-13655
어택	-13656
에서	-13657
여울	-13658
올려	-13659
올립	-13660
용량	-13661
용암	-13662
우릴	-13663
우습	-13664
이구	-13665
인격	-13666
일체	-13667
일치	-13668
자책	-13669
잘하	-13670
장과	-13671
재회	-13672
전압	-13673
정녀	-13674
정취	-13675
제거	-13676
존댓	-13677
준히	-13678
중단	-13679
지성	-13680
쳐요	-13681
초청	-13682
축구	-13683
취지	-13684
취향	-13685
친분	-13686
클립	-13687
터뷰	-13688
통학	-13689
튀기	-13690
트레	-13691
▁부추	-13692
▁사냥	-13693
▁사다	-13694
▁사대	-13695
▁사들	-13696
▁사생	-13697
▁사우	-13698
▁사직	-13699
11	-13700
각나	-13701
갈렸	-13702
감동	-13703
결과	-13704
고서	-13705
곱창	-13706
관념	-13707
그럼	-13708
글자	-13709
긴가	-13710
김동	-13711
까닭	-13712
까이	-13713
놔주	-13714
눈치	-13715
닌가	-13716
달달	-13717
당뇨	-13718
대빵	-13719
도구	-13720
동영	-13721
동창	-13722
든지	-13723
떠넘	-13724
라크	-13725
리크	-13726
멘터	-13727
며칠	-13728
몸길	-13729
못마	-13730
미련	-13731
미운	-13732
바라	-13733
배신	-13734
변장	-13735
본심	-13736
부당	-13737
불빛	-13738
비싼	-13739
생리	-13740
서신	-13741
수저	-13742
쌓였	-13743
아닐	-13744
아섰	-13745
양체	-13746
어서	-13747
어울	-13748
역류	-13749
연인	-13750
열악	-13751
영영	-13752
요술	-13753
음대	-13754
의고	-13755
이재	-13756
읽히	-13757
자막	-13758
잠들	-13759
재개	-13760
재발	-13761
전담	-13762
전류	-13763
전설	-13764
전학	-13765
제일	-13766
제한	-13767
죽음	-13768
줄이	-13769
지저	-13770
직후	-13771
집어	-13772
첫사	-13773
총무	-13774
충분	-13775
친교	-13776
케이	-13777
탁월	-13778
페셔	-13779
편지	-13780
표정	-13781
핑몰	-13782
행운	-13783
허한	-13784
헤아	-13785
▁고추	-13786
▁드립	-13787
▁묻어	-13788
▁사춘	-13789
▁사투	-13790
▁사형	-13791
▁산부	-13792
▁산출	-13793
▁상거	-13794
▁상당	-13795
▁상무	-13796
▁새겨	-13797
▁색다	-13798
▁샌드	-13799
가용	-13800
감축	-13801
거움	-13802
거절	-13803
견디	-13804
고독	-13805
고양	-13806
구토	-13807
국고	-13808
군요	-13809
그늘	-13810
금동	-13811
기실	-13812
깨끗	-13813
꼼꼼	-13814
끝나	-13815
낭만	-13816
뇌졸	-13817
느껴	-13818
답니	-13819
덜너	-13820
뛰어	-13821
란기	-13822
롭스	-13823
르쳐	-13824
목본	-13825
못한	-13826
뭐한	-13827
밀려	-13828
반감	-13829
병원	-13830
본다	-13831
부금	-13832
불미	-13833
빠서	-13834
사우	-13835
생님	-13836
서점	-13837
설쳤	-13838
소기	-13839
손해	-13840
솟아	-13841
송어	-13842
스력	-13843
시금	-13844
시려	-13845
시책	-13846
씌이	-13847
아픈	-13848
앞두	-13849
앞모	-13850
애잔	-13851
야죠	-13852
어디	-13853
어요	-13854
열심	-13855
예의	-13856
오목	-13857
욕설	-13858
용도	-13859
우연	-13860
원망	-13861
웹툰	-13862
으시	-13863
음껏	-13864
이것	-13865
이곳	-13866
일요	-13867
입원	-13868
잊어	-13869
자야	-13870
잡념	-13871
장답	-13872
점막	-13873
종용	-13874
지하	-13875
직장	-13876
징용	-13877
청춘	-13878
총명	-13879
추억	-13880
트였	-13881
파혼	-13882
표출	-13883
픽처	-13884
핑계	-13885
허증	-13886
헬스	-13887
훔쳐	-13888
흑역	-13889
▁교육	-13890
▁눈꺼	-13891
▁대인	-13892
▁못마	-13893
▁샐러	-13894
▁생김	-13895
▁생방	-13896
▁샤스	-13897
▁서귀	-13898
▁서부	-13899
15	-13900
가늠	-13901
가야	-13902
감사	-13903
거의	-13904
교과	-13905
귀여	-13906
깨지	-13907
▁	-13908
.	-13909
요	-13910
이	-13911
어	-13912
는	-13913
아	-13914
지	-13915
하	-13916
가	-13917
다	-13918
해	-13919
나	-13920
고	-13921
을	-13922
세	-13923
도	-13924
보	-13925
거	-13926
사	-13927
게	-13928
은	-13929
에	-13930
자	-13931
기	-13932
한	-13933
시	-13934
면	-13935
까	-13936
네	-13937
?	-13938
니	-13939
인	-13940
로	-13941
있	-13942
그	-13943
데	-13944
만	-13945
마	-13946
좋	-13947
서	-13948
겠	-13949
예	-13950
무	-13951
라	-13952
리	-13953
일	-13954
랑	-13955
수	-13956
없	-13957
남	-13958
들	-13959
여	-13960
었	-13961
의	-13962
죠	-13963
같	-13964
할	-13965
내	-13966
으	-13967
주	-13968
생	-13969
말	-13970
야	-13971
정	-13972
안	-13973
봐	-13974
를	-13975
제	-13976
대	-13977
려	-13978
너	-13979
연	-13980
싶	-13981
친	-13982
것	-13983
오	-13984
람	-13985
구	-13986
신	-13987
간	-13988
음	-13989
바	-13990
상	-13991
키	-13992
더	-13993
않	-13994
했	-13995
힘	-13996
잘	-13997
스	-13998
별	-13999
부	-14000
진	-14001
전	-14002
각	-14003
헤	-14004
많	-14005
애	-14006
건	-14007
성	-14008
혼	-14009
드	-14010
워	-14011
찮	-14012
썸	-14013
분	-14014
비	-14015
행	-14016
적	-14017
모	-14018
중	-14019
저	-14020
러	-14021
괜	-14022
길	-14023
되	-14024
망	-14025
운	-14026
물	-14027
르	-14028
히	-14029
복	-14030
때	-14031
걸	-14032
미	-14033
장	-14034
못	-14035
래	-14036
달	-14037
금	-14038
과	-14039
심	-14040
감	-14041
습	-14042
락	-14043
알	-14044
우	-14045
직	-14046
받	-14047
쁘	-14048
슬	-14049
후	-14050
추	-14051
테	-14052
살	-14053
화	-14054
날	-14055
짝	-14056
조	-14057
든	-14058
았	-14059
동	-14060
회	-14061
소	-14062
치	-14063
당	-14064
픔	-14065
단	-14066
결	-14067
답	-14068
질	-14069
타	-14070
원	-14071
좀	-14072
돼	-14073
낫	-14074
될	-14075
차	-14076
개	-14077
루	-14078
절	-14079
녀	-14080
두	-14081
재	-14082
와	-14083
방	-14084
끝	-14085
계	-14086
선	-14087
!	-14088
년	-14089
관	-14090
실	-14091
늘	-14092
편	-14093
귀	-14094
른	-14095
백	-14096
경	-14097
용	-14098
던	-14099
울	-14100
억	-14101
먹	-14102
유	-14103
영	-14104
속	-14105
움	-14106
잊	-14107
버	-14108
문	-14109
식	-14110
트	-14111
확	-14112
런	-14113
난	-14114
위	-14115
느	-14116
언	-14117
잡	-14118
또	-14119
졌	-14120
입	-14121
줄	-14122
발	-14123
왔	-14124
카	-14125
필	-14126
뭐	-14127
불	-14128
떻	-14129
올	-14130
작	-14131
렇	-14132
처	-14133
겨	-14134
함	-14135
번	-14136
욕	-14137
변	-14138
력	-14139
참	-14140
새	-14141
약	-14142
왜	-14143
씨	-14144
점	-14145
공	-14146
맞	-14147
매	-14148
접	-14149
돌	-14150
순	-14151
쉽	-14152
꾸	-14153
담	-14154
명	-14155
준	-14156
몰	-14157
터	-14158
젊	-14159
교	-14160
똑	-14161
반	-14162
져	-14163
근	-14164
났	-14165
먼	-14166
슷	-14167
련	-14168
볼	-14169
따	-14170
떨	-14171
엄	-14172
판	-14173
격	-14174
현	-14175
피	-14176
합	-14177
잠	-14178
봅	-14179
학	-14180
디	-14181
괴	-14182
긴	-14183
갈	-14184
통	-14185
얼	-14186
표	-14187
월	-14188
법	-14189
술	-14190
프	-14191
노	-14192
린	-14193
랄	-14194
충	-14195
줘	-14196
파	-14197
짜	-14198
찾	-14199
증	-14200
누	-14201
렵	-14202
레	-14203
큼	-14204
설	-14205
집	-14206
럴	-14207
쌍	-14208
천	-14209
첫	-14210
머	-14211
배	-14212
본	-14213
능	-14214
젠	-14215
침	-14216
떠	-14217
릴	-14218
막	-14219
쓰	-14220
깨	-14221
민	-14222
강	-14223
1	-14224
임	-14225
냥	-14226
눈	-14227
취	-14228
빠	-14229
듯	-14230
랍	-14231
쉬	-14232
군	-14233
싫	-14234
째	-14235
셨	-14236
닌	-14237
청	-14238
된	-14239
넘	-14240
외	-14241
께	-14242
톡	-14243
였	-14244
열	-14245
꿈	-14246
맘	-14247
놀	-14248
커	-14249
름	-14250
호	-14251
쁜	-14252
놓	-14253
크	-14254
초	-14255
갑	-14256
항	-14257
온	-14258
겼	-14259
향	-14260
님	-14261
티	-14262
산	-14263
최	-14264
코	-14265
3	-14266
태	-14267
체	-14268
맨	-14269
즐	-14270
플	-14271
짐	-14272
몸	-14273
럼	-14274
악	-14275
허	-14276
럽	-14277
출	-14278
국	-14279
란	-14280
혀	-14281
2	-14282
됐	-14283
슨	-14284
촉	-14285
픈	-14286
떤	-14287
덜	-14288
협	-14289
텐	-14290
싸	-14291
궁	-14292
앞	-14293
업	-14294
걱	-14295
떡	-14296
메	-14297
종	-14298
,	-14299
황	-14300
택	-14301
믿	-14302
켜	-14303
붙	-14304
록	-14305
뭘	-14306
뒤	-14307
환	-14308
착	-14309
펴	-14310
벌	-14311
양	-14312
형	-14313
희	-14314
갔	-14315
독	-14316
렸	-14317
씩	-14318
휴	-14319
쳐	-14320
냐	-14321
s	-14322
축	-14323
찬	-14324
낌	-14325
견	-14326
풍	-14327
쯤	-14328
목	-14329
투	-14330
잔	-14331
험	-14332
써	-14333
존	-14334
탈	-14335
뜻	-14336
곳	-14337
맛	-14338
높	-14339
꼭	-14340
탄	-14341
밤	-14342
활	-14343
멋	-14344
0	-14345
딱	-14346
셔	-14347
굴	-14348
즘	-14349
폭	-14350
솔	-14351
돈	-14352
짓	-14353
~	-14354
극	-14355
료	-14356
뿐	-14357
포	-14358
흘	-14359
폰	-14360
숙	-14361
역	-14362
색	-14363
늦	-14364
림	-14365
급	-14366
병	-14367
빨	-14368
완	-14369
큰	-14370
퇴	-14371
슴	-14372
글	-14373
끔	-14374
챙	-14375
5	-14376
씹	-14377
냈	-14378
벽	-14379
손	-14380
웃	-14381
익	-14382
껴	-14383
죽	-14384
닐	-14385
평	-14386
곤	-14387
풀	-14388
며	-14389
팅	-14390
량	-14391
철	-14392
뭔	-14393
밀	-14394
등	-14395
쫓	-14396
줬	-14397
책	-14398
겁	-14399
념	-14400
봤	-14401
낼	-14402
득	-14403
쪽	-14404
칠	-14405
찍	-14406
뜨	-14407
둘	-14408
뻐	-14409
족	-14410
빌	-14411
핑	-14412
페	-14413
승	-14414
립	-14415
퍼	-14416
꺼	-14417
4	-14418
끼	-14419
육	-14420
클	-14421
쓸	-14422
덤	-14423
밖	-14424
권	-14425
롭	-14426
짧	-14427
쳤	-14428
토	-14429
듬	-14430
척	-14431
례	-14432
밥	-14433
잦	-14434
곡	-14435
채	-14436
뎌	-14437
얘	-14438
엇	-14439
효	-14440
6	-14441
흐	-14442
춰	-14443
쁨	-14444
갖	-14445
엉	-14446
웠	-14447
흔	-14448
몇	-14449
꽃	-14450
칭	-14451
옷	-14452
빼	-14453
응	-14454
깐	-14455
랐	-14456
롤	-14457
n	-14458
닫	-14459
석	-14460
죄	-14461
박	-14462
염	-14463
몽	-14464
베	-14465
값	-14466
끊	-14467
류	-14468
멀	-14469
씀	-14470
케	-14471
쟁	-14472
론	-14473
숭	-14474
곧	-14475
숨	-14476
쩔	-14477
틀	-14478
꿀	-14479
듣	-14480
브	-14481
품	-14482
창	-14483
깝	-14484
벗	-14485
졸	-14486
탐	-14487
녁	-14488
봄	-14489
읽	-14490
릇	-14491
캐	-14492
삶	-14493
쑤	-14494
랜	-14495
찌	-14496
눠	-14497
렀	-14498
삼	-14499
덩	-14500
혹	-14501
끄	-14502
섭	-14503
핵	-14504
골	-14505
깊	-14506
엔	-14507
옆	-14508
멍	-14509
웨	-14510
헷	-14511
덕	-14512
랬	-14513
콩	-14514
패	-14515
흉	-14516
션	-14517
송	-14518
됩	-14519
묘	-14520
즈	-14521
쩌	-14522
특	-14523
빗	-14524
엽	-14525
킨	-14526
8	-14527
춘	-14528
핸	-14529
7	-14530
닥	-14531
닷	-14532
덧	-14533
십	-14534
싱	-14535
헌	-14536
놈	-14537
쇼	-14538
귄	-14539
냉	-14540
뺏	-14541
퀼	-14542
헛	-14543
꿨	-14544
끌	-14545
릿	-14546
액	-14547
곁	-14548
광	-14549
김	-14550
땐	-14551
탁	-14552
깔	-14553
띄	-14554
잖	-14555
깍	-14556
끈	-14557
삭	-14558
센	-14559
꼬	-14560
뀌	-14561
됨	-14562
흙	-14563
검	-14564
멈	-14565
봉	-14566
쌓	-14567
벼	-14568
밌	-14569
꿔	-14570
뛰	-14571
북	-14572
숀	-14573
팔	-14574
흥	-14575
걔	-14576
농	-14577
밍	-14578
압	-14579
획	-14580
녕	-14581
렌	-14582
털	-14583
빈	-14584
걷	-14585
귈	-14586
푸	-14587
놔	-14588
뒷	-14589
령	-14590
앉	-14591
짖	-14592
측	-14593
틱	-14594
듭	-14595
렘	-14596
맥	-14597
빛	-14598
널	-14599
짚	-14600
낸	-14601
넌	-14602
콘	-14603
콤	-14604
긋	-14605
낮	-14606
딩	-14607
묻	-14608
샀	-14609
셀	-14610
탔	-14611
굳	-14612
꼼	-14613
뀔	-14614
객	-14615
겸	-14616
둔	-14617
둬	-14618
뤄	-14619
뻔	-14620
턴	-14621
깜	-14622
슈	-14623
찰	-14624
긍	-14625
깎	-14626
롱	-14627
옥	-14628
렬	-14629
멘	-14630
씻	-14631
앗	-14632
꽂	-14633
뷰	-14634
씌	-14635
얇	-14636
옮	-14637
쪼	-14638
춤	-14639
폐	-14640
흡	-14641
겹	-14642
낭	-14643
옴	-14644
컨	-14645
'	-14646
a	-14647
꾹	-14648
룩	-14649
묵	-14650
쓴	-14651
왕	-14652
좁	-14653
콜	-14654
푹	-14655
랫	-14656
범	-14657
섯	-14658
썼	-14659
9	-14660
규	-14661
끓	-14662
납	-14663
냄	-14664
녹	-14665
닮	-14666
뿌	-14667
탕	-14668
햇	-14669
훈	-14670
끗	-14671
넓	-14672
넣	-14673
땀	-14674
링	-14675
쐬	-14676
곰	-14677
맙	-14678
앙	-14679
찔	-14680
큐	-14681
턱	-14682
벤	-14683
블	-14684
쌩	-14685
쏠	-14686
씁	-14687
잃	-14688
징	-14689
틋	-14690
ᄆ	-14691
낙	-14692
빡	-14693
뽑	-14694
쇠	-14695
쏟	-14696
엿	-14697
잤	-14698
헬	-14699
혁	-14700
휘	-14701
갚	-14702
낀	-14703
닉	-14704
딸	-14705
앤	-14706
웬	-14707
쩍	-14708
첩	-14709
텨	-14710
틈	-14711
혔	-14712
흑	-14713
껏	-14714
뢰	-14715
젖	-14716
짱	-14717
칼	-14718
겟	-14719
댄	-14720
땡	-14721
몬	-14722
왤	-14723
욱	-14724
즉	-14725
춥	-14726
텔	-14727
툴	-14728
흠	-14729
b	-14730
꽤	-14731
낳	-14732
덥	-14733
뚝	-14734
볶	-14735
뻑	-14736
뽀	-14737
쉴	-14738
찼	-14739
켠	-14740
쿨	-14741
툼	-14742
팍	-14743
긁	-14744
꺾	-14745
닝	-14746
딴	-14747
략	-14748
벚	-14749
봇	-14750
삐	-14751
쉐	-14752
얕	-14753
율	-14754
쭉	-14755
툰	-14756
혈	-14757
o	-14758
겐	-14759
꼈	-14760
늠	-14761
댓	-14762
땅	-14763
똥	-14764
뺨	-14765
싣	-14766
왠	-14767
첨	-14768
켰	-14769
헐	-14770
곱	-14771
눕	-14772
둥	-14773
렴	-14774
빚	-14775
샤	-14776
숫	-14777
총	-14778
콕	-14779
펑	-14780
힌	-14781
갇	-14782
뎀	-14783
뜰	-14784
률	-14785
쎄	-14786
좌	-14787
겉	-14788
궈	-14789
꾼	-14790
낄	-14791
놨	-14792
뇌	-14793
뉴	-14794
뒹	-14795
딛	-14796
떴	-14797
뜯	-14798
릅	-14799
맺	-14800
밟	-14801
벅	-14802
쁠	-14803
섬	-14804
썩	-14805
얻	-14806
윗	-14807
젯	-14808
졋	-14809
짠	-14810
쫄	-14811
츠	-14812
쾌	-14813
쿠	-14814
템	-14815
툭	-14816
튀	-14817
힐	-14818
뇨	-14819
돋	-14820
맹	-14821
밑	-14822
빵	-14823
암	-14824
옵	-14825
촌	-14826
팀	-14827
홀	-14828
훔	-14829
깃	-14830
늙	-14831
닭	-14832
딜	-14833
딪	-14834
뜬	-14835
맡	-14836
싼	-14837
엊	-14838
엠	-14839
젤	-14840
찜	-14841
층	-14842
컬	-14843
텅	-14844
톱	-14845
홈	-14846
균	-14847
껄	-14848
넛	-14849
델	-14850
랗	-14851
렜	-14852
릎	-14853
빽	-14854
솜	-14855
얽	-14856
엮	-14857
옳	-14858
옹	-14859
윤	-14860
컴	-14861
탓	-14862
팩	-14863
푼	-14864
넋	-14865
논	-14866
뚫	-14867
뮤	-14868
밝	-14869
뱃	-14870
솟	-14871
숏	-14872
잼	-14873
찢	-14874
팁	-14875
풋	-14876
g	-14877
겪	-14878
괘	-14879
굽	-14880
꼰	-14881
녔	-14882
닿	-14883
댈	-14884
둠	-14885
뒀	-14886
땜	-14887
떼	-14888
뚱	-14889
랖	-14890
렛	-14891
맴	-14892
몫	-14893
볍	-14894
섞	-14895
섣	-14896
섰	-14897
씸	-14898
왓	-14899
챘	-14900
칩	-14901
캄	-14902
컥	-14903
컸	-14904
퀴	-14905
텁	-14906
튼	-14907
팠	-14908
퓨	-14909
헹	-14910
갱	-14911
꿰	-14912
눅	-14913
덟	-14914
띠	-14915
몹	-14916
밉	-14917
쌈	-14918
웹	-14919
잎	-14920
촬	-14921
킬	-14922
킹	-14923
텼	-14924
홧	-14925
ᄂ	-14926
깰	-14927
눌	-14928
눴	-14929
덴	-14930
딘	-14931
랙	-14932
렐	-14933
륜	-14934
릭	-14935
뿅	-14936
샐	-14937
샘	-14938
샜	-14939
옛	-14940
짼	-14941
쭤	-14942
컷	-14943
팬	-14944
폼	-14945
낚	-14946
랭	-14947
륵	-14948
멜	-14949
멧	-14950
붓	-14951
썹	-14952
잇	-14953
켓	-14954
팟	-14955
픽	-14956
c	-14957
p	-14958
x	-14959
꿩	-14960
뉘	-14961
댑	-14962
덮	-14963
돕	-14964
둡	-14965
빙	-14966
샌	-14967
욜	-14968
웅	-14969
쫒	-14970
킁	-14971
텀	-14972
튜	-14973
팡	-14974
팸	-14975
펌	-14976
펠	-14977
펼	-14978
핍	-14979
헥	-14980
혐	-14981
훌	-14982
휩	-14983
d	-14984
j	-14985
k	-14986
겊	-14987
굶	-14988
깅	-14989
깼	-14990
꺽	-14991
껀	-14992
꽈	-14993
꽉	-14994
