<unk>	0
<s>	0
</s>	0
<start>	0
<end>	0
▁.	-0
▁이	-1
▁는	-2
▁어	-3
▁하	-4
▁아	-5
▁가	-6
▁을	-7
▁해	-8
세요	-9
▁지	-10
▁나	-11
▁고	-12
▁세요	-13
▁거	-14
▁에	-15
▁은	-16
▁보	-17
▁사	-18
▁다	-19
▁도	-20
▁?	-21
▁네	-22
▁한	-23
▁있	-24
▁게	-25
▁그	-26
▁좋	-27
▁겠	-28
▁예	-29
▁시	-30
▁마	-31
▁없	-32
▁예요	-33
▁만	-34
▁기	-35
▁어요	-36
▁남	-37
▁면	-38
▁죠	-39
▁수	-40
▁인	-41
▁할	-42
▁의	-43
▁으	-44
▁봐	-45
▁를	-46
니다	-47
▁같	-48
▁여	-49
▁안	-50
▁네요	-51
▁자	-52
▁싶	-53
▁생	-54
▁너	-55
▁일	-56
▁봐요	-57
▁것	-58
▁내	-59
▁사랑	-60
▁사람	-61
▁아요	-62
▁연	-63
▁주	-64
▁는데	-65
▁더	-66
▁말	-67
▁않	-68
▁힘	-69
▁들	-70
▁잘	-71
▁바	-72
▁너무	-73
▁시키	-74
▁라	-75
▁했	-76
▁헤	-77
▁었	-78
▁헤어	-79
▁오	-80
▁친	-81
▁많	-82
▁생각	-83
▁대	-84
▁정	-85
▁썸	-86
▁건	-87
▁괜	-88
▁무	-89
▁친구	-90
▁마음	-91
▁되	-92
▁괜찮	-93
▁해요	-94
▁걸	-95
▁이별	-96
▁길	-97
▁전	-98
▁모	-99
▁부	-100
▁로	-101
▁요	-102
▁남자	-103
▁알	-104
▁못	-105
▁많이	-106
▁제	-107
▁때	-108
▁애	-109
▁중	-110
▁슬	-111
▁여자	-112
▁으로	-113
▁야	-114
▁았	-115
▁으면	-116
▁적	-117
▁짝	-118
▁비	-119
▁서	-120
▁니	-121
▁달	-122
▁살	-123
▁행	-124
▁연락	-125
▁상	-126
▁에요	-127
▁힘들	-128
▁을까	-129
▁없었	-130
▁좀	-131
▁한테	-132
▁습	-133
▁에서	-134
▁돼	-135
▁추	-136
▁나쁘	-137
▁될	-138
▁스	-139
▁낫	-140
▁저	-141
▁같이	-142
▁진	-143
▁에게	-144
▁끝	-145
▁습니다	-146
▁슬픔	-147
▁후	-148
▁!	-149
▁과	-150
▁데	-151
▁당	-152
▁결	-153
▁드	-154
▁미	-155
▁행복	-156
▁이제	-157
▁마세요	-158
▁시간	-159
▁던	-160
▁잊	-161
▁해야	-162
▁년	-163
▁헤어지	-164
▁감	-165
까요	-166
어지	-167
▁아니	-168
▁받	-169
▁오늘	-170
▁다시	-171
▁해도	-172
▁소	-173
▁간	-174
▁할까	-175
▁확	-176
▁조	-177
▁정말	-178
게요	-179
▁또	-180
▁타	-181
▁영	-182
▁재	-183
▁차	-184
▁절	-185
▁뭐	-186
▁어떻	-187
▁이루	-188
▁불	-189
▁줄	-190
▁있었	-191
▁편	-192
▁입	-193
▁랑	-194
▁언	-195
▁이루어지	-196
▁까	-197
▁선	-198
▁만나	-199
▁동	-200
▁왜	-201
▁지만	-202
▁계	-203
▁성	-204
▁신	-205
▁물	-206
▁다른	-207
▁어떻게	-208
▁먹	-209
▁말로	-210
▁함	-211
▁원	-212
▁라고	-213
▁백	-214
▁참	-215
▁인가	-216
▁인데	-217
▁별	-218
▁추억	-219
▁새	-220
▁버	-221
▁느	-222
▁백성	-223
▁똑	-224
▁카	-225
▁두	-226
▁여인	-227
▁혼	-228
▁분	-229
▁와	-230
▁비슷	-231
▁엄	-232
▁절망	-233
▁모르	-234
▁젊	-235
▁필	-236
은이	-237
▁젊은이	-238
▁그런	-239
▁똑같	-240
▁왔	-241
▁몰	-242
▁발	-243
▁변	-244
▁욕	-245
▁자신	-246
▁연애	-247
▁따	-248
▁볼	-249
▁봅	-250
▁아가	-251
▁반	-252
▁위	-253
▁아가씨	-254
▁힘든	-255
▁려	-256
▁날	-257
▁이랑	-258
▁잠	-259
▁돌	-260
▁매	-261
▁봅니다	-262
▁다가	-263
▁괴	-264
▁헤어진	-265
▁개	-266
▁번	-267
▁바랄	-268
▁얼	-269
▁방	-270
▁관	-271
▁올	-272
▁합	-273
▁면서	-274
▁보다	-275
▁유	-276
▁아직	-277
▁먼	-278
▁충	-279
렇게	-280
▁답	-281
▁바랄게요	-282
▁공	-283
▁찾	-284
▁은데	-285
▁확신	-286
▁당신	-287
▁판	-288
▁는지	-289
▁준	-290
▁술	-291
▁맞	-292
▁우	-293
▁첫	-294
▁애인	-295
▁돼요	-296
▁쌍	-297
▁그녀	-298
▁누	-299
▁지금	-300
▁귀	-301
▁먼저	-302
▁연인	-303
▁실	-304
▁까지	-305
▁엄마	-306
▁쉽	-307
▁필요	-308
▁직	-309
▁사귀	-310
▁합니다	-311
▁쓰	-312
▁기다	-313
▁만큼	-314
▁괴로	-315
▁좋아	-316
▁될까	-317
▁장	-318
▁질	-319
▁하나	-320
▁약	-321
▁힘드	-322
▁줘	-323
▁그리	-324
▁지요	-325
▁잡	-326
▁결혼	-327
▁그럴	-328
▁어려	-329
▁욕망	-330
▁판단	-331
▁처	-332
▁영혼	-333
▁1	-334
▁든	-335
▁싫	-336
▁피	-337
사랑	-338
▁아무	-339
▁정리	-340
▁떠	-341
▁노	-342
▁없다	-343
▁깨	-344
▁문	-345
▁후회	-346
랍니다	-347
▁집	-348
▁다고	-349
▁표	-350
▁쉬	-351
▁나요	-352
▁눈	-353
▁구	-354
▁본	-355
▁언제	-356
▁다면	-357
▁충분	-358
▁아닌	-359
▁듯	-360
▁괴로움	-361
▁음	-362
▁계속	-363
▁짝사랑	-364
▁단	-365
▁배	-366
▁대답	-367
▁진짜	-368
▁찾아	-369
▁긴	-370
▁바랍니다	-371
▁혼자	-372
▁인지	-373
▁들어	-374
▁된	-375
▁해서	-376
▁걸까	-377
▁한다	-378
▁경	-379
▁머	-380
▁설	-381
▁어도	-382
▁시작	-383
▁갈	-384
▁접	-385
▁자꾸	-386
▁자고	-387
▁맘	-388
▁화	-389
▁꿈	-390
▁울	-391
▁입니다	-392
▁넘	-393
▁열	-394
▁즐	-395
▁째	-396
▁놀	-397
▁심	-398
▁라도	-399
▁볼까	-400
▁여친	-401
▁니까요	-402
▁취	-403
▁서로	-404
▁그래	-405
▁남친	-406
▁러	-407
▁현	-408
▁회	-409
▁조금	-410
▁몰라	-411
▁복	-412
▁돌아	-413
▁항	-414
로운	-415
▁준비	-416
▁함께	-417
▁속	-418
▁최	-419
▁어린	-420
▁군	-421
▁녀	-422
▁바라	-423
▁어렵	-424
▁셨	-425
▁으니	-426
▁3	-427
▁중요	-428
▁세	-429
▁외	-430
▁신경	-431
▁협	-432
▁어려워	-433
▁그냥	-434
▁어서	-435
▁카톡	-436
▁됐	-437
▁고민	-438
▁썸남	-439
▁몰라요	-440
▁감정	-441
▁무슨	-442
▁어떨	-443
▁오래	-444
▁살펴	-445
▁마주	-446
▁어떤	-447
▁때문	-448
▁협조	-449
▁고백	-450
▁2	-451
▁새로운	-452
▁아침	-453
주일	-454
▁일주일	-455
▁용	-456
▁초	-457
텐데	-458
▁선물	-459
▁치	-460
▁앞	-461
이트	-462
▁니까	-463
▁따라	-464
▁방법	-465
▁걱	-466
▁걱정	-467
▁살펴보	-468
▁운	-469
▁어떨까	-470
▁,	-471
▁보내	-472
▁접촉	-473
아이	-474
▁텐데	-475
▁어린아이	-476
▁헤어진지	-477
▁뒤	-478
▁몸	-479
▁순	-480
▁만날	-481
▁궁	-482
▁떨	-483
▁믿	-484
▁였	-485
▁코	-486
▁좋아하	-487
▁가능	-488
▁교	-489
▁뭘	-490
▁알아	-491
▁커	-492
▁이야	-493
▁점	-494
▁재회	-495
▁님	-496
▁어야	-497
▁갑	-498
▁생겼	-499
▁궁금	-500
▁이젠	-501
▁그렇게	-502
▁이야기	-503
▁난	-504
▁씩	-505
▁이렇게	-506
▁허	-507
▁헤어졌	-508
▁덜	-509
▁건가	-510
▁스러	-511
▁빠	-512
▁개월	-513
▁군요	-514
▁상대	-515
▁인생	-516
▁항상	-517
▁누구	-518
▁려고	-519
▁붙	-520
▁월	-521
▁마시	-522
▁종	-523
▁머리	-524
▁더라	-525
▁그만	-526
▁미련	-527
▁추진	-528
▁놓	-529
▁처럼	-530
▁데이트	-531
▁학	-532
▁어떡	-533
▁마주치	-534
▁기분	-535
▁느낌	-536
▁어디	-537
▁면담	-538
다면	-539
대로	-540
▁만났	-541
▁으세요	-542
▁발르	-543
▁통	-544
▁나이	-545
▁내일	-546
▁분간	-547
▁남장	-548
▁여행	-549
▁라는	-550
▁졌	-551
▁이상	-552
▁한가	-553
▁메	-554
▁으니까요	-555
▁꼭	-556
▁약혼	-557
▁멋	-558
▁가슴	-559
▁표현	-560
▁기억	-561
▁다는	-562
▁하루	-563
▁부터	-564
▁이나	-565
▁근	-566
▁천	-567
▁파	-568
▁아서	-569
▁아파	-570
▁전화	-571
▁휴	-572
다보	-573
▁들여	-574
▁상처	-575
▁뿐	-576
아들	-577
▁라면	-578
▁여러	-579
▁작	-580
▁달라	-581
▁받아들	-582
▁대로	-583
▁어려워지	-584
▁간격	-585
▁밤	-586
▁경우	-587
▁언젠	-588
워하	-589
▁모든	-590
▁냐	-591
▁딱	-592
▁아프	-593
▁이해	-594
▁자기	-595
▁잡아	-596
▁못하	-597
▁보여	-598
요일	-599
▁만들	-600
▁어제	-601
▁잊혀	-602
▁헤어짐	-603
▁나가	-604
▁사이	-605
▁들여다보	-606
▁싸	-607
▁아쉽	-608
▁잊어	-609
▁기다리	-610
▁높	-611
▁축	-612
▁로맨	-613
▁부여	-614
▁일까	-615
▁지나	-616
▁살아	-617
▁스럽	-618
▁이런	-619
▁솔	-620
▁큰	-621
▁드세요	-622
▁각	-623
▁곳	-624
▁식	-625
▁온	-626
지막	-627
▁그게	-628
▁즐거	-629
▁마지막	-630
▁생각나	-631
▁충분히	-632
▁강	-633
▁꾸	-634
▁돈	-635
▁씹	-636
거리	-637
▁챙	-638
▁호	-639
▁벌	-640
▁유용	-641
▁막	-642
▁공부	-643
으면	-644
▁때쯤	-645
▁이유	-646
▁..	-647
▁남편	-648
▁알아보	-649
▁빨	-650
▁매일	-651
▁직접	-652
▁을까요	-653
▁완	-654
▁아픈	-655
▁죽	-656
▁대화	-657
▁들어맞	-658
▁잊어버	-659
▁맛	-660
▁귀찮	-661
▁프	-662
▁너희	-663
▁포	-664
▁플	-665
▁흘	-666
▁결국	-667
▁결정	-668
▁무서	-669
▁악	-670
▁웃	-671
▁잊어버리	-672
▁나쁜	-673
▁선택	-674
▁익	-675
다는	-676
▁답답	-677
▁뭔	-678
▁손	-679
▁동성	-680
▁확실	-681
▁부여받	-682
▁목	-683
▁물어	-684
▁잔	-685
▁복잡	-686
▁얼른	-687
▁원망	-688
▁탈	-689
자기	-690
▁노래	-691
▁모두	-692
▁존	-693
▁환	-694
폭풍	-695
▁거나	-696
▁마다	-697
▁관심	-698
▁~	-699
▁늦	-700
스로	-701
▁무렵	-702
▁소개	-703
▁중순	-704
▁코너	-705
▁스스로	-706
▁형	-707
▁수많	-708
▁아닐	-709
▁제일	-710
▁갔	-711
라이	-712
▁봤	-713
▁건지	-714
▁갑자기	-715
▁다음	-716
▁변화	-717
▁처음	-718
▁후폭풍	-719
▁청	-720
수록	-721
▁어때	-722
려받	-723
▁그대	-724
▁그러	-725
▁월과	-726
▁줬	-727
▁느껴	-728
▁기다려	-729
▁5	-730
▁글	-731
▁없이	-732
▁나와	-733
▁도와	-734
▁솔직	-735
▁아도	-736
▁초순	-737
▁바라보	-738
▁증	-739
▁크	-740
▁났	-741
▁망	-742
▁출	-743
▁아픔	-744
▁착	-745
▁부담	-746
▁어느	-747
▁챙겨	-748
▁그래도	-749
▁태	-750
▁로맨스	-751
▁물려받	-752
▁잦	-753
▁문제	-754
다고	-755
▁만난	-756
▁아야	-757
▁을지	-758
▁동성애	-759
▁법	-760
▁빌	-761
행위	-762
▁가장	-763
▁무방	-764
▁무엇	-765
▁쉬운	-766
▁우리	-767
▁성행위	-768
▁잡아먹	-769
▁며	-770
▁거짓	-771
▁노력	-772
▁드릴	-773
▁떠나	-774
▁4	-775
▁겨	-776
▁극	-777
▁란	-778
▁향	-779
어나	-780
▁가지	-781
▁내서	-782
▁본인	-783
▁붙잡	-784
▁빨리	-785
▁잘못	-786
▁지켜	-787
▁운동	-788
▁둘	-789
▁얘	-790
▁평	-791
▁스트	-792
▁편하	-793
▁금	-794
▁양	-795
겨받	-796
▁넘겨받	-797
▁가끔	-798
▁다가가	-799
▁흔	-800
심히	-801
▁영화	-802
▁재미	-803
▁차이	-804
▁언젠간	-805
▁내려	-806
▁마요	-807
▁보이	-808
▁얼굴	-809
▁완전	-810
▁인연	-811
▁임	-812
▁도움	-813
▁표정	-814
▁드릴게요	-815
▁명	-816
▁짧	-817
▁버리	-818
▁갖	-819
러워	-820
천히	-821
▁계산	-822
▁천천히	-823
▁견	-824
▁내고	-825
▁설레	-826
▁열심히	-827
▁6	-828
▁교제	-829
▁내기	-830
▁달래	-831
▁상황	-832
▁용기	-833
▁점점	-834
▁두려	-835
▁만남	-836
▁익숙	-837
▁s	-838
▁뜻	-839
▁밖	-840
▁밥	-841
▁풀	-842
▁알려	-843
▁스러운	-844
▁몇	-845
▁다니	-846
▁뭘까	-847
▁요즘	-848
▁물어보	-849
▁척	-850
▁깨닫	-851
▁얼마	-852
▁엄청	-853
▁찬	-854
▁기대	-855
▁예뻐	-856
▁현실	-857
▁꺼	-858
▁독	-859
자리	-860
▁고생	-861
▁대한	-862
▁순간	-863
▁얘기	-864
▁원하	-865
▁소개팅	-866
ns	-867
우스	-868
▁바람	-869
▁생활	-870
▁sns	-871
▁쫓	-872
▁가져	-873
▁정도	-874
▁주말	-875
▁진심	-876
▁기쁨	-877
▁달이	-878
▁별후	-879
▁소중	-880
▁시켜	-881
▁자주	-882
▁일요일	-883
▁맨	-884
▁베	-885
▁터	-886
▁부모	-887
▁잠시	-888
▁플라	-889
레스	-890
▁아이	-891
▁차단	-892
▁축하	-893
▁해질	-894
▁관계	-895
▁사용	-896
▁재혼	-897
▁한지	-898
▁할지	-899
▁그리고	-900
▁돌아가	-901
▁말씀	-902
▁별로	-903
▁의미	-904
▁여러분	-905
▁멀	-906
▁써	-907
▁트	-908
▁티	-909
▁따뜻	-910
▁예쁘	-911
▁으려	-912
▁정신	-913
▁한다고	-914
▁흐	-915
뜨리	-916
필요	-917
▁다르	-918
▁벌써	-919
▁세상	-920
▁위해	-921
▁확인	-922
▁불필요	-923
마자	-924
▁건강	-925
▁새벽	-926
▁슬픈	-927
▁리	-928
▁읽	-929
캐롤	-930
▁더니	-931
▁마련	-932
▁용이	-933
▁전해	-934
▁지내	-935
▁혼인	-936
▁한다는	-937
▁한다면	-938
캐롤라이	-939
▁끊	-940
▁담	-941
▁곤	-942
▁곧	-943
▁듣	-944
▁병	-945
▁숨	-946
동안	-947
러지	-948
▁각기	-949
▁간의	-950
▁극복	-951
▁매력	-952
▁상상	-953
▁악몽	-954
▁어쩔	-955
▁진정	-956
▁후련	-957
▁거짓말	-958
▁상대방	-959
▁엉	-960
▁역	-961
▁나아	-962
▁상관	-963
▁짜	-964
▁10	-965
▁가량	-966
▁떨어	-967
▁맞춰	-968
▁몰르	-969
▁버려	-970
▁변하	-971
▁사진	-972
▁우울	-973
▁즐겁	-974
▁행세	-975
▁찾아보	-976
▁플라티	-977
▁해야지	-978
▁받아들이	-979
▁벗	-980
▁삶	-981
▁게시	-982
▁그렇	-983
▁맛있	-984
▁아닌데	-985
▁철	-986
▁모습	-987
▁문득	-988
▁자는	-989
▁첫날	-990
▁회사	-991
▁힘내	-992
▁사세요	-993
▁사우스	-994
▁사우스캐롤라이	-995
▁쓸	-996
▁져	-997
▁졸	-998
▁날씨	-999
▁다녀	-1000
▁보냈	-1001
▁자연	-1002
▁작성	-1003
▁는다면	-1004
▁언제나	-1005
▁봄	-1006
▁그분	-1007
▁상냥	-1008
▁아내	-1009
▁야지	-1010
▁외로	-1011
▁행동	-1012
▁살아가	-1013
▁약혼자	-1014
래도	-1015
▁거기	-1016
▁맨날	-1017
▁못한	-1018
▁바쁘	-1019
▁위로	-1020
▁조용	-1021
▁두려워	-1022
▁그리워하	-1023
▁권	-1024
▁채	-1025
▁무너	-1026
▁예쁜	-1027
▁인식	-1028
▁투	-1029
▁대해	-1030
▁스타	-1031
▁산	-1032
고요	-1033
▁밖에	-1034
▁부부	-1035
▁실수	-1036
▁요약	-1037
▁줄까	-1038
▁직후	-1039
▁더라고요	-1040
▁셔	-1041
▁억	-1042
▁엔	-1043
▁게임	-1044
▁나타	-1045
▁습관	-1046
▁아름	-1047
▁이겨	-1048
▁조심	-1049
▁학교	-1050
▁한데	-1051
▁즐거움	-1052
▁아무래도	-1053
▁곡	-1054
▁키	-1055
▁돌려	-1056
▁바로	-1057
▁오랜	-1058
▁운명	-1059
▁현상	-1060
▁자마자	-1061
▁쯤	-1062
▁나눠	-1063
▁다를	-1064
▁생길	-1065
▁추천	-1066
▁환승	-1067
▁빼	-1068
▁찍	-1069
어하	-1070
없이	-1071
▁개탄	-1072
▁여기	-1073
▁잠깐	-1074
▁주일	-1075
▁편지	-1076
▁싫어하	-1077
▁스트레스	-1078
▁곁	-1079
▁밀	-1080
▁삼	-1081
▁드려	-1082
▁올려	-1083
▁인정	-1084
▁종교	-1085
▁시작하	-1086
▁격	-1087
▁깊	-1088
▁끼	-1089
▁늘	-1090
▁핑	-1091
▁헌	-1092
▁헷	-1093
▁달려	-1094
▁도전	-1095
▁떠난	-1096
▁려면	-1097
▁무뎌	-1098
▁지났	-1099
▁커피	-1100
▁포기	-1101
▁헌신	-1102
▁헷갈	-1103
▁그래요	-1104
▁그런가	-1105
▁꽃	-1106
▁디	-1107
다니	-1108
▁겠지	-1109
▁되돌	-1110
▁버렸	-1111
▁본격	-1112
▁성공	-1113
▁호감	-1114
▁회개	-1115
▁그리워	-1116
▁즐거운	-1117
▁움	-1118
디어	-1119
▁마셔	-1120
▁불안	-1121
▁은가	-1122
▁이러	-1123
▁저녁	-1124
▁존중	-1125
▁한탄	-1126
▁...	-1127
▁아닌지	-1128
▁지켜보	-1129
▁염	-1130
등감	-1131
▁가르	-1132
▁미리	-1133
▁소망	-1134
▁심해	-1135
▁흘렀	-1136
▁사용하	-1137
▁열등감	-1138
▁됩	-1139
▁멋진	-1140
▁안타	-1141
▁위한	-1142
▁집착	-1143
▁최선	-1144
▁됩니다	-1145
▁할게요	-1146
▁핸	-1147
▁꾸준	-1148
▁눈물	-1149
▁머물	-1150
▁버릇	-1151
▁움직	-1152
▁원래	-1153
▁차분	-1154
▁피부	-1155
▁흔들	-1156
▁게시물	-1157
▁그리움	-1158
▁부러워	-1159
▁어려운	-1160
▁받아들여	-1161
▁8	-1162
▁옆	-1163
▁옷	-1164
▁응	-1165
▁간다	-1166
▁그것	-1167
▁그때	-1168
▁드리	-1169
▁불가	-1170
▁생일	-1171
▁시원	-1172
▁예민	-1173
▁일쑤	-1174
▁7	-1175
▁골	-1176
▁빗	-1177
스크	-1178
아가	-1179
▁귀여	-1180
▁답례	-1181
▁동거	-1182
▁일찍	-1183
▁편견	-1184
▁화장	-1185
▁그대로	-1186
▁드디어	-1187
▁스러워	-1188
▁어야지	-1189
▁현상금	-1190
▁아닐까요	-1191
▁흙	-1192
덩이	-1193
▁데려	-1194
▁뭔지	-1195
▁방식	-1196
▁버티	-1197
▁소리	-1198
▁어쩌	-1199
▁올라	-1200
▁장면	-1201
▁핸드	-1202
▁흘러	-1203
▁돌아오	-1204
▁엉덩이	-1205
▁인가요	-1206
▁토	-1207
▁걸로	-1208
▁과정	-1209
▁관리	-1210
▁놀드	-1211
▁대학	-1212
▁보통	-1213
▁성격	-1214
▁편할	-1215
▁허리	-1216
▁아름다	-1217
▁핸드폰	-1218
▁능	-1219
▁테	-1220
소리	-1221
▁갈까	-1222
▁그럼	-1223
▁나왔	-1224
▁떨려	-1225
▁몸값	-1226
▁뭔가	-1227
▁유효	-1228
▁자격	-1229
▁달라지	-1230
▁살아오	-1231
▁제대로	-1232
▁헤어져	-1233
▁냉	-1234
▁묘	-1235
▁퀼	-1236
니즘	-1237
▁메커	-1238
▁사귄	-1239
▁인간	-1240
▁직전	-1241
▁짜증	-1242
▁허전	-1243
▁아무리	-1244
▁좋아할	-1245
▁메커니즘	-1246
▁삭	-1247
▁쇼	-1248
▁업	-1249
▁죄	-1250
▁풍	-1251
덤덤	-1252
▁겨울	-1253
▁다행	-1254
▁대요	-1255
▁비싸	-1256
▁삭제	-1257
▁재개	-1258
▁전은	-1259
▁제물	-1260
▁진지	-1261
▁찬미	-1262
▁해졌	-1263
▁는다는	-1264
▁사이먼	-1265
▁좋아해	-1266
▁놈	-1267
▁멍	-1268
▁클	-1269
▁퇴	-1270
▁효	-1271
▁흉	-1272
아지	-1273
▁냐고	-1274
▁당연	-1275
▁미안	-1276
▁쇼핑	-1277
▁썸녀	-1278
▁장소	-1279
▁카페	-1280
▁답니다	-1281
▁일어나	-1282
▁뺏	-1283
당히	-1284
잖아	-1285
▁고마	-1286
▁고심	-1287
▁귀중	-1288
▁근육	-1289
▁금방	-1290
▁기념	-1291
▁기법	-1292
▁나을	-1293
▁대접	-1294
▁변해	-1295
▁보름	-1296
▁빗물	-1297
▁연습	-1298
▁이후	-1299
▁자아	-1300
▁깔	-1301
▁끌	-1302
▁멈	-1303
▁거부	-1304
▁누가	-1305
▁두근	-1306
▁몰랐	-1307
▁불러	-1308
▁일상	-1309
▁절대	-1310
▁주무	-1311
▁친해	-1312
▁꾸준히	-1313
▁불가능	-1314
▁땐	-1315
▁래	-1316
▁웨	-1317
▁특	-1318
▁퍼	-1319
▁핵	-1320
▁희	-1321
시다	-1322
심적	-1323
▁괜히	-1324
▁그랬	-1325
▁끝난	-1326
▁놓아	-1327
▁능력	-1328
▁마이	-1329
▁문자	-1330
▁부분	-1331
▁붙이	-1332
▁영원	-1333
▁일어	-1334
▁지쳐	-1335
▁핑계	-1336
▁기다릴	-1337
▁본격화	-1338
▁언젠가	-1339
▁조용히	-1340
▁찾아가	-1341
▁찾아오	-1342
▁핵심적	-1343
▁꼬	-1344
▁됨	-1345
▁톡	-1346
지도	-1347
▁가족	-1348
▁무시	-1349
▁바쁜	-1350
▁봐야	-1351
▁상태	-1352
▁전설	-1353
▁통보	-1354
▁해결	-1355
▁할수록	-1356
▁무서워하	-1357
▁쌓	-1358
▁짐	-1359
▁책	-1360
전히	-1361
▁가벼	-1362
▁가사	-1363
▁고독	-1364
▁까먹	-1365
▁내내	-1366
▁넘어	-1367
▁눈치	-1368
▁동년	-1369
▁바뀌	-1370
▁바보	-1371
▁비밀	-1372
▁어깨	-1373
▁주변	-1374
▁취미	-1375
▁친교	-1376
▁해져	-1377
▁아무것	-1378
▁어느덧	-1379
▁으려고	-1380
▁주무세요	-1381
▁짓	-1382
▁케	-1383
대폰	-1384
듬해	-1385
보내	-1386
▁갑작	-1387
▁귀엽	-1388
▁그건	-1389
▁깨달	-1390
▁끝내	-1391
▁뒤쪽	-1392
▁배우	-1393
▁배워	-1394
▁생겨	-1395
▁수록	-1396
▁오빠	-1397
▁지쳤	-1398
▁가르치	-1399
▁얼마나	-1400
▁이듬해	-1401
▁줄거리	-1402
▁휴대폰	-1403
워질	-1404
카락	-1405
▁누군	-1406
▁동안	-1407
▁드러	-1408
▁미치	-1409
▁바닷	-1410
▁에드	-1411
▁응원	-1412
▁자존	-1413
▁재밌	-1414
▁줘도	-1415
▁착각	-1416
▁프로	-1417
▁헤아	-1418
▁머리카락	-1419
▁걔	-1420
▁꿨	-1421
▁탐	-1422
개심	-1423
▁감성	-1424
▁관련	-1425
▁기간	-1426
▁나오	-1427
▁답장	-1428
▁당황	-1429
▁때론	-1430
▁려나	-1431
▁빠르	-1432
▁선생	-1433
▁설명	-1434
▁약속	-1435
▁예의	-1436
▁으시	-1437
▁잘하	-1438
▁중퇴	-1439
▁최고	-1440
▁커플	-1441
▁타이	-1442
▁피곤	-1443
▁마이클	-1444
▁재미있	-1445
▁적개심	-1446
▁승	-1447
▁팔	-1448
가요	-1449
명상	-1450
▁따로	-1451
▁미친	-1452
▁바크	-1453
▁보일	-1454
▁사라	-1455
▁슬퍼	-1456
▁아물	-1457
▁우선	-1458
▁이란	-1459
▁자체	-1460
▁종일	-1461
▁그래서	-1462
▁완전히	-1463
▁치명상	-1464
▁굳	-1465
▁띄	-1466
▁칭	-1467
▁페	-1468
▁활	-1469
▁녀랑	-1470
▁마침	-1471
▁멋지	-1472
▁묘사	-1473
▁바꾸	-1474
▁반감	-1475
▁안녕	-1476
▁어색	-1477
▁이거	-1478
▁인사	-1479
▁입력	-1480
▁입증	-1481
▁더라도	-1482
▁헷갈리	-1483
▁흔들리	-1484
▁걷	-1485
▁겸	-1486
▁뒷	-1487
▁색	-1488
▁센	-1489
▁찌	-1490
수심	-1491
태기	-1492
▁가요	-1493
▁걸르	-1494
▁고쳐	-1495
▁느라	-1496
▁당했	-1497
▁바빠	-1498
▁반복	-1499
▁사귈	-1500
▁스킨	-1501
▁시기	-1502
▁알리	-1503
▁잖아	-1504
▁장난	-1505
▁해석	-1506
▁갑작스	-1507
▁권태기	-1508
▁무서워	-1509
▁복수심	-1510
▁타이밍	-1511
▁힘든가	-1512
▁겁	-1513
▁끈	-1514
▁틀	-1515
져요	-1516
▁가치	-1517
▁라니	-1518
▁미만	-1519
▁사고	-1520
▁사친	-1521
▁이럴	-1522
▁조차	-1523
▁지난	-1524
▁지워	-1525
▁질투	-1526
▁누군가	-1527
▁무덤덤	-1528
▁바닷물	-1529
▁스타일	-1530
▁안타깝	-1531
▁쫓아가	-1532
▁아름다운	-1533
▁김	-1534
▁뛰	-1535
▁쪽	-1536
▁콩	-1537
▁패	-1538
사자	-1539
지로	-1540
▁가까	-1541
▁간절	-1542
▁견뎌	-1543
▁며칠	-1544
▁부탁	-1545
▁사실	-1546
▁서운	-1547
▁설렘	-1548
▁속상	-1549
▁수학	-1550
▁슬프	-1551
▁위험	-1552
▁제발	-1553
▁될까요	-1554
▁억지로	-1555
▁장거리	-1556
▁국	-1557
▁농	-1558
▁빈	-1559
▁체	-1560
라리	-1561
벌레	-1562
▁메노	-1563
▁못할	-1564
▁부족	-1565
▁시험	-1566
▁쓰이	-1567
▁어울	-1568
▁이성	-1569
▁인터	-1570
▁일지	-1571
▁점심	-1572
▁충전	-1573
▁친한	-1574
▁파악	-1575
▁향기	-1576
▁드러내	-1577
▁떨어졌	-1578
▁로맨틱	-1579
▁무서운	-1580
▁외로워	-1581
▁움직임	-1582
▁전화기	-1583
▁차라리	-1584
▁찾아올	-1585
▁할까요	-1586
▁마음대로	-1587
▁급	-1588
▁꿀	-1589
▁넌	-1590
▁레	-1591
▁숀	-1592
지지	-1593
▁결심	-1594
▁긴장	-1595
▁못했	-1596
▁무기	-1597
▁무섭	-1598
▁미워	-1599
▁변덕	-1600
▁소식	-1601
▁아강	-1602
▁역시	-1603
▁이기	-1604
▁질까	-1605
▁피어	-1606
▁피해	-1607
▁항해	-1608
립니다	-1609
▁오랜만	-1610
▁적당히	-1611
▁헤어져야	-1612
▁떡	-1613
▁샀	-1614
▁탔	-1615
들이	-1616
▁기본	-1617
▁다듬	-1618
▁당당	-1619
▁말투	-1620
▁못해	-1621
▁믿음	-1622
▁발전	-1623
▁분명	-1624
▁사회	-1625
▁살까	-1626
▁아플	-1627
▁원한	-1628
▁이게	-1629
▁정해	-1630
▁존재	-1631
▁줘야	-1632
▁지우	-1633
▁취지	-1634
▁흐르	-1635
▁드려요	-1636
▁신경계	-1637
▁아무런	-1638
▁해야죠	-1639
▁낮	-1640
▁놔	-1641
▁봉	-1642
▁싱	-1643
거롭	-1644
두막	-1645
라마	-1646
터리	-1647
▁놀이	-1648
▁다정	-1649
▁달째	-1650
▁듯이	-1651
▁딱정	-1652
▁매달	-1653
▁멀리	-1654
▁바뀔	-1655
▁보낼	-1656
▁불행	-1657
▁살짝	-1658
▁상담	-1659
▁생긴	-1660
▁저택	-1661
▁조언	-1662
▁파혼	-1663
▁판별	-1664
▁편안	-1665
▁하늘	-1666
▁흉터	-1667
▁관련성	-1668
▁귀여워	-1669
▁드라마	-1670
▁번거롭	-1671
▁신경절	-1672
▁오두막	-1673
▁잊혀질	-1674
▁돌려보내	-1675
▁딱정벌레	-1676
▁헛	-1677
깍지	-1678
▁감사	-1679
▁과제	-1680
▁기울	-1681
▁깔끔	-1682
▁끌어	-1683
▁나중	-1684
▁대결	-1685
▁머릿	-1686
▁변명	-1687
▁별거	-1688
▁분노	-1689
▁불만	-1690
▁성장	-1691
▁스테	-1692
▁쓰레	-1693
▁알바	-1694
▁연예	-1695
▁월급	-1696
▁으신	-1697
▁음악	-1698
▁의심	-1699
▁이뤄	-1700
▁자리	-1701
▁직장	-1702
▁취업	-1703
▁취해	-1704
▁당사자	-1705
▁인터뷰	-1706
▁콩깍지	-1707
▁검	-1708
▁께	-1709
▁침	-1710
고기	-1711
부터	-1712
오르	-1713
회사	-1714
▁걸음	-1715
▁계획	-1716
▁공허	-1717
▁때로	-1718
▁물리	-1719
▁바꿔	-1720
▁시련	-1721
▁염려	-1722
▁예전	-1723
▁집중	-1724
▁최대	-1725
▁칭찬	-1726
▁편한	-1727
▁그만큼	-1728
▁땀	-1729
▁얇	-1730
▁좁	-1731
▁쪼	-1732
▁흥	-1733
릴까	-1734
봐도	-1735
영향	-1736
환경	-1737
▁경험	-1738
▁그전	-1739
▁단계	-1740
▁달달	-1741
▁동생	-1742
▁마셨	-1743
▁바꿀	-1744
▁본질	-1745
▁사로	-1746
▁사유	-1747
▁생명	-1748
▁실망	-1749
▁언니	-1750
▁예상	-1751
▁외모	-1752
▁우연	-1753
▁의결	-1754
▁정상	-1755
▁정확	-1756
▁지도	-1757
▁크리	-1758
▁회상	-1759
▁따라가	-1760
▁보내주	-1761
▁악영향	-1762
▁긍	-1763
▁끓	-1764
▁뻔	-1765
▁셀	-1766
▁액	-1767
▁창	-1768
▁턱	-1769
▁폭	-1770
▁폰	-1771
▁혹	-1772
고생	-1773
방식	-1774
워요	-1775
▁걸어	-1776
▁괴롭	-1777
▁긍정	-1778
▁기준	-1779
▁기회	-1780
▁나올	-1781
▁독립	-1782
▁무거	-1783
▁배려	-1784
▁번호	-1785
▁빠지	-1786
▁신가	-1787
▁안경	-1788
▁야죠	-1789
▁여름	-1790
▁예측	-1791
▁음료	-1792
▁이곳	-1793
▁이혼	-1794
▁적극	-1795
▁타인	-1796
▁현재	-1797
▁된다고	-1798
▁들어와	-1799
▁맘고생	-1800
▁목소리	-1801
▁인간성	-1802
▁지나가	-1803
▁텐데요	-1804
▁헤어질	-1805
▁사고방식	-1806
▁닮	-1807
▁쟁	-1808
▁짚	-1809
가락	-1810
무리	-1811
▁거절	-1812
▁결과	-1813
▁결의	-1814
▁고통	-1815
▁나빠	-1816
▁될지	-1817
▁무색	-1818
▁방학	-1819
▁성향	-1820
▁아목	-1821
▁여유	-1822
▁우산	-1823
▁의지	-1824
▁취향	-1825
▁키우	-1826
듭니다	-1827
▁갑니다	-1828
▁놓아주	-1829
▁일까요	-1830
▁한동안	-1831
▁낭	-1832
▁녹	-1833
▁등	-1834
▁컨	-1835
▁택	-1836
데이	-1837
마스	-1838
먼지	-1839
생기	-1840
서관	-1841
위기	-1842
▁각자	-1843
▁곡조	-1844
▁군대	-1845
▁나온	-1846
▁단순	-1847
▁달콤	-1848
▁뛰어	-1849
▁라서	-1850
▁미세	-1851
▁상사	-1852
▁설정	-1853
▁셔야	-1854
▁소통	-1855
▁앞쪽	-1856
▁연관	-1857
▁영향	-1858
▁원의	-1859
▁이건	-1860
▁이사	-1861
▁전하	-1862
▁제게	-1863
▁졸려	-1864
▁줘서	-1865
▁지점	-1866
▁지출	-1867
▁채워	-1868
▁최후	-1869
▁출근	-1870
▁취직	-1871
▁한번	-1872
▁혹시	-1873
스마스	-1874
스크림	-1875
▁도서관	-1876
▁돌아올	-1877
▁마무리	-1878
▁머릿속	-1879
▁분위기	-1880
▁생명력	-1881
▁쓰레기	-1882
▁아파하	-1883
▁여전히	-1884
▁이제야	-1885
▁자신감	-1886
▁미세먼지	-1887
▁받아들여야	-1888
▁아이스크림	-1889
▁크리스마스	-1890
▁'	-1891
▁a	-1892
▁광	-1893
▁깎	-1894
▁옮	-1895
▁콘	-1896
▁푹	-1897
드리	-1898
생숭	-1899
운동	-1900
울까	-1901
▁감기	-1902
▁고치	-1903
▁끼치	-1904
▁단단	-1905
▁대체	-1906
▁더워	-1907
▁돼서	-1908
▁떠올	-1909
▁만드	-1910
▁반대	-1911
▁변천	-1912
▁별의	-1913
▁보답	-1914
▁봐도	-1915
▁빠를	-1916
▁싱숭	-1917
▁완벽	-1918
▁웃기	-1919
▁은근	-1920
▁이래	-1921
▁자유	-1922
▁졸업	-1923
▁찌질	-1924
▁착용	-1925
▁청소	-1926
▁탐험	-1927
▁한잔	-1928
▁혼란	-1929
▁가치관	-1930
▁는다고	-1931
▁들어가	-1932
▁쓰러지	-1933
▁알려줘	-1934
▁오늘날	-1935
▁외로운	-1936
▁으면서	-1937
▁잖아요	-1938
▁잡아오	-1939
▁졌으면	-1940
▁토요일	-1941
▁했으면	-1942
▁독립운동	-1943
▁싱숭생숭	-1944
▁박	-1945
▁썼	-1946
▁푸	-1947
렌타	-1948
생활	-1949
▁그림	-1950
▁내리	-1951
▁다양	-1952
▁담배	-1953
▁떨리	-1954
▁마실	-1955
▁만든	-1956
▁모순	-1957
▁빌려	-1958
▁소문	-1959
▁야근	-1960
▁오랫	-1961
▁오해	-1962
▁이하	-1963
▁입히	-1964
▁자세	-1965
▁저렇	-1966
▁지니	-1967
▁퇴근	-1968
▁회선	-1969
▁희망	-1970
▁굳어지	-1971
▁기념일	-1972
▁들어왔	-1973
▁발렌타	-1974
▁사로잡	-1975
▁상대편	-1976
▁스테판	-1977
▁아무렇	-1978
▁첫사랑	-1979
▁한가요	-1980
▁확실히	-1981
▁기다려야	-1982
▁부러워요	-1983
▁뜨	-1984
▁묻	-1985
▁쓴	-1986
▁씌	-1987
▁옴	-1988
까워	-1989
아입	-1990
▁건데	-1991
▁걸려	-1992
▁걸릴	-1993
▁걸요	-1994
▁고파	-1995
▁그저	-1996
▁기운	-1997
▁꾸미	-1998
▁느끼	-1999
▁려구	-2000
▁망했	-2001
▁멋있	-2002
▁몰래	-2003
▁반찬	-2004
▁사내	-2005
▁성단	-2006
▁실감	-2007
▁실패	-2008
▁싸우	-2009
▁아예	-2010
▁애매	-2011
▁어찌	-2012
▁영상	-2013
▁음식	-2014
▁이렇	-2015
▁이어	-2016
▁전부	-2017
▁전환	-2018
▁져요	-2019
▁증거	-2020
▁증명	-2021
▁차였	-2022
▁추워	-2023
▁친분	-2024
▁편해	-2025
▁갈아입	-2026
▁깨뜨리	-2027
▁달라진	-2028
▁더라구	-2029
▁데려가	-2030
▁마셔야	-2031
▁스킨십	-2032
▁어때요	-2033
▁찾아내	-2034
▁깜	-2035
▁끄	-2036
▁넓	-2037
▁쐬	-2038
▁씻	-2039
영상	-2040
학교	-2041
▁~~	-2042
▁가득	-2043
▁감명	-2044
▁거리	-2045
▁견디	-2046
▁공통	-2047
▁네여	-2048
▁느냐	-2049
▁뒤쫓	-2050
▁모아	-2051
▁미래	-2052
▁부럽	-2053
▁사과	-2054
▁싸움	-2055
▁아빠	-2056
▁애교	-2057
▁울음	-2058
▁인기	-2059
▁일단	-2060
▁자녀	-2061
▁자책	-2062
▁잠수	-2063
▁주식	-2064
▁즐기	-2065
▁타개	-2066
▁태도	-2067
▁필두	-2068
▁걸까요	-2069
▁나아졌	-2070
▁동영상	-2071
▁되돌아	-2072
▁뛰어넘	-2073
▁불고기	-2074
▁생각날	-2075
▁여행자	-2076
▁연관성	-2077
▁연예인	-2078
▁예뻐요	-2079
▁일어났	-2080
▁제자리	-2081
▁퍼뜨리	-2082
▁낼	-2083
▁냄	-2084
▁앤	-2085
▁쳐	-2086
머니	-2087
어놓	-2088
이어	-2089
하루	-2090
▁가을	-2091
▁개인	-2092
▁겨우	-2093
▁과거	-2094
▁관전	-2095
▁끈기	-2096
▁냉정	-2097
▁대단	-2098
▁동일	-2099
▁맞이	-2100
▁멈추	-2101
▁버릴	-2102
▁사소	-2103
▁생기	-2104
▁수업	-2105
▁신청	-2106
▁아주	-2107
▁안개	-2108
▁앤트	-2109
▁올까	-2110
▁우린	-2111
▁유지	-2112
▁의식	-2113
▁의아	-2114
▁이미	-2115
▁이번	-2116
▁전황	-2117
▁지울	-2118
▁지칠	-2119
▁태어	-2120
▁트라	-2121
▁파이	-2122
▁평일	-2123
▁항성	-2124
▁흔적	-2125
▁거부감	-2126
▁결혼식	-2127
▁느껴지	-2128
▁늘어놓	-2129
▁미워하	-2130
▁벗어나	-2131
▁이겨낼	-2132
▁해지지	-2133
▁드립니다	-2134
▁오랫동안	-2135
▁하루하루	-2136
▁뽑	-2137
▁쌩	-2138
▁쏠	-2139
▁씁	-2140
▁왕	-2141
▁찔	-2142
▁햇	-2143
▁혁	-2144
▁휘	-2145
다시	-2146
러운	-2147
려오	-2148
어두	-2149
이크	-2150
▁과중	-2151
▁괜한	-2152
▁구나	-2153
▁냄새	-2154
▁누굴	-2155
▁누나	-2156
▁느려	-2157
▁뒤늦	-2158
▁려는	-2159
▁막말	-2160
▁매주	-2161
▁미칠	-2162
▁발표	-2163
▁변한	-2164
▁병원	-2165
▁보고	-2166
▁봐서	-2167
▁빼빼	-2168
▁새해	-2169
▁시어	-2170
▁신혼	-2171
▁싸워	-2172
▁쓰여	-2173
▁애절	-2174
▁애틋	-2175
▁없애	-2176
▁와서	-2177
▁울적	-2178
▁위생	-2179
▁은연	-2180
▁은지	-2181
▁잠들	-2182
▁지냈	-2183
▁청춘	-2184
▁최근	-2185
▁충격	-2186
▁피하	-2187
▁하고	-2188
▁한대	-2189
▁한참	-2190
▁해탈	-2191
▁회복	-2192
▁휴가	-2193
▁그동안	-2194
▁넘어서	-2195
▁단단히	-2196
▁또다시	-2197
▁랍니다	-2198
▁무기한	-2199
▁버려야	-2200
▁스러울	-2201
▁아닐까	-2202
▁외로움	-2203
▁이상형	-2204
▁지나갔	-2205
▁돌아가시	-2206
▁ᄆ	-2207
▁뿌	-2208
▁엿	-2209
▁잤	-2210
▁탄	-2211
▁헬	-2212
▁30	-2213
▁거려	-2214
▁격차	-2215
▁관습	-2216
▁괴력	-2217
▁기술	-2218
▁끝나	-2219
▁답변	-2220
▁도록	-2221
▁동물	-2222
▁뜻하	-2223
▁매번	-2224
▁면접	-2225
▁모으	-2226
▁사망	-2227
▁심심	-2228
▁애정	-2229
▁어떠	-2230
▁이슈	-2231
▁이용	-2232
▁인형	-2233
▁중고	-2234
▁줘요	-2235
▁집어	-2236
▁차별	-2237
▁철벽	-2238
▁터지	-2239
▁통해	-2240
▁투쟁	-2241
▁학원	-2242
▁해소	-2243
▁혁명	-2244
▁형상	-2245
▁가벼운	-2246
▁그러면	-2247
▁늦어지	-2248
▁두근거	-2249
▁차분히	-2250
▁해봐도	-2251
▁헌신적	-2252
▁발렌타인	-2253
▁9	-2254
▁갚	-2255
▁긁	-2256
▁쉐	-2257
▁싣	-2258
▁쏟	-2259
▁웬	-2260
▁황	-2261
▁흑	-2262
려도	-2263
부짖	-2264
의점	-2265
지르	-2266
▁강렬	-2267
▁겠다	-2268
▁고난	-2269
▁과부	-2270
▁교분	-2271
▁남겨	-2272
▁농담	-2273
▁당한	-2274
▁더럽	-2275
▁돌리	-2276
▁동침	-2277
▁드와	-2278
▁떠났	-2279
▁떠보	-2280
▁똑똑	-2281
▁라네	-2282
▁모른	-2283
▁버텨	-2284
▁보단	-2285
▁부과	-2286
▁셔요	-2287
▁약간	-2288
▁오락	-2289
▁웨딩	-2290
▁웬수	-2291
▁으셨	-2292
▁이름	-2293
▁인상	-2294
▁전혀	-2295
▁죄송	-2296
▁죽음	-2297
▁중독	-2298
▁지옥	-2299
▁진료	-2300
▁쪽지	-2301
▁차가	-2302
▁학기	-2303
▁한달	-2304
▁갈수록	-2305
▁겨울철	-2306
▁그만두	-2307
▁데려다	-2308
▁마침표	-2309
▁무거워	-2310
▁보여요	-2311
▁보여주	-2312
▁울부짖	-2313
▁으니까	-2314
▁으신가	-2315
▁자격증	-2316
▁줄게요	-2317
▁오락가락	-2318
▁객	-2319
▁꼼	-2320
▁둔	-2321
▁잃	-2322
▁털	-2323
국어	-2324
라앉	-2325
모습	-2326
세우	-2327
으키	-2328
큐멘	-2329
▁가깝	-2330
▁건너	-2331
▁고르	-2332
▁깨끗	-2333
▁끓이	-2334
▁끝났	-2335
▁내보	-2336
▁니다	-2337
▁단점	-2338
▁단호	-2339
▁들이	-2340
▁미끄	-2341
▁바늘	-2342
▁바다	-2343
▁변동	-2344
▁빠져	-2345
▁산책	-2346
▁선배	-2347
▁소원	-2348
▁속옷	-2349
▁순수	-2350
▁연속	-2351
▁웃음	-2352
▁점검	-2353
▁증오	-2354
▁지네	-2355
▁탈퇴	-2356
▁해명	-2357
▁효능	-2358
▁가라앉	-2359
▁그럴까	-2360
▁다큐멘	-2361
▁마스크	-2362
▁물어봐	-2363
▁올라오	-2364
▁우연히	-2365
▁짧아지	-2366
▁헤아리	-2367
▁다큐멘터리	-2368
▁겟	-2369
▁굴	-2370
▁딸	-2371
▁땡	-2372
▁왤	-2373
▁춥	-2374
▁훈	-2375
가지	-2376
던지	-2377
리카	-2378
으니	-2379
작정	-2380
첩장	-2381
풀이	-2382
▁15	-2383
▁가로	-2384
▁간단	-2385
▁고맙	-2386
▁골라	-2387
▁그립	-2388
▁꾸짖	-2389
▁나갔	-2390
▁놓치	-2391
▁모자	-2392
▁벗겨	-2393
▁불편	-2394
▁서툴	-2395
▁소심	-2396
▁숨기	-2397
▁신나	-2398
▁심장	-2399
▁아껴	-2400
▁아련	-2401
▁엿보	-2402
▁였을	-2403
▁왤케	-2404
▁이것	-2405
▁이틀	-2406
▁익살	-2407
▁일반	-2408
▁장해	-2409
▁종료	-2410
▁진실	-2411
▁최악	-2412
▁추운	-2413
▁출발	-2414
▁표시	-2415
▁헛헛	-2416
▁현금	-2417
▁회의	-2418
▁휴식	-2419
답니다	-2420
이어트	-2421
▁강아지	-2422
▁관심사	-2423
▁노래방	-2424
▁달려가	-2425
▁마침내	-2426
▁무너졌	-2427
▁무작정	-2428
▁봅시다	-2429
▁상관없	-2430
▁쇼핑몰	-2431
▁영화사	-2432
▁우울증	-2433
▁지나간	-2434
▁청첩장	-2435
▁태어나	-2436
▁파이팅	-2437
▁다이어트	-2438
▁생활환경	-2439
▁시어머니	-2440
▁발렌타인데이	-2441
▁꽂	-2442
▁꽤	-2443
▁낙	-2444
▁낳	-2445
▁널	-2446
▁브	-2447
▁쉴	-2448
▁찼	-2449
▁칼	-2450
▁켠	-2451
▁쿨	-2452
▁흠	-2453
까봐	-2454
버렸	-2455
번호	-2456
분간	-2457
조건	-2458
지부	-2459
퇴근	-2460
히려	-2461
▁가만	-2462
▁간대	-2463
▁감추	-2464
▁감출	-2465
▁게요	-2466
▁겸임	-2467
▁고서	-2468
▁고칠	-2469
▁근처	-2470
▁글자	-2471
▁기원	-2472
▁깨졌	-2473
▁깨지	-2474
▁끊겼	-2475
▁끼리	-2476
▁나갈	-2477
▁난다	-2478
▁남길	-2479
▁낭비	-2480
▁느낀	-2481
▁니깐	-2482
▁다소	-2483
▁다툼	-2484
▁단념	-2485
▁담긴	-2486
▁된다	-2487
▁떠날	-2488
▁막히	-2489
▁맞추	-2490
▁무지	-2491
▁버스	-2492
▁별칭	-2493
▁부끄	-2494
▁불타	-2495
▁비난	-2496
▁사안	-2497
▁생생	-2498
▁소모	-2499
▁솔로	-2500
▁쓰일	-2501
▁어리	-2502
▁열쇠	-2503
▁위의	-2504
▁이쁜	-2505
▁일부	-2506
▁재활	-2507
▁전망	-2508
▁주기	-2509
▁준대	-2510
▁중간	-2511
▁질리	-2512
▁크시	-2513
▁타나	-2514
▁터리	-2515
▁해줘	-2516
▁했었	-2517
▁화내	-2518
을지도	-2519
▁그리울	-2520
▁기울여	-2521
▁다녀와	-2522
▁당분간	-2523
▁드라이	-2524
▁들어오	-2525
▁들으면	-2526
▁떠오르	-2527
▁떠올리	-2528
▁로부터	-2529
▁무너지	-2530
▁무조건	-2531
▁묻어두	-2532
▁변해요	-2533
▁어려울	-2534
▁오히려	-2535
▁인데요	-2536
▁자회사	-2537
▁찾아온	-2538
▁추진력	-2539
▁출퇴근	-2540
▁편의점	-2541
▁헤아릴	-2542
▁나을지도	-2543
▁빠를수록	-2544
▁생겼으면	-2545
▁낸	-2546
▁딴	-2547
▁벚	-2548
▁삐	-2549
▁솜	-2550
▁짱	-2551
▁켜	-2552
느님	-2553
도인	-2554
만에	-2555
면증	-2556
여행	-2557
역사	-2558
이스	-2559
체역	-2560
▁20	-2561
▁강습	-2562
▁갖추	-2563
▁개강	-2564
▁겸하	-2565
▁경축	-2566
▁구분	-2567
▁내용	-2568
▁당장	-2569
▁대리	-2570
▁든든	-2571
▁벚꽃	-2572
▁부려	-2573
▁빼앗	-2574
▁사겼	-2575
▁수백	-2576
▁실체	-2577
▁심경	-2578
▁아쉬	-2579
▁옮겨	-2580
▁운전	-2581
▁위촉	-2582
▁위태	-2583
▁장래	-2584
▁저희	-2585
▁조급	-2586
▁초기	-2587
▁축구	-2588
▁통지	-2589
▁통화	-2590
▁투자	-2591
▁학생	-2592
▁함수	-2593
등학교	-2594
▁간만에	-2595
▁걸어가	-2596
▁그리운	-2597
▁나타났	-2598
▁나타내	-2599
▁내려놓	-2600
▁드레스	-2601
▁떨어져	-2602
▁매도인	-2603
▁멋져요	-2604
▁바꿀까	-2605
▁불면증	-2606
▁어쩌면	-2607
▁우세요	-2608
▁자세히	-2609
▁최대한	-2610
▁취체역	-2611
▁하느님	-2612
▁흑역사	-2613
▁흘러가	-2614
▁흘러들	-2615
▁송	-2616
▁십	-2617
▁앉	-2618
▁옹	-2619
▁왠	-2620
▁젖	-2621
괴감	-2622
련만	-2623
머리	-2624
부분	-2625
야지	-2626
언가	-2627
이브	-2628
장면	-2629
▁가늠	-2630
▁간파	-2631
▁감당	-2632
▁감수	-2633
▁강물	-2634
▁거라	-2635
▁검증	-2636
▁곤란	-2637
▁공감	-2638
▁과연	-2639
▁과일	-2640
▁관념	-2641
▁구해	-2642
▁또한	-2643
▁모를	-2644
▁반년	-2645
▁발리	-2646
▁비교	-2647
▁비참	-2648
▁새로	-2649
▁셀카	-2650
▁시대	-2651
▁신고	-2652
▁싸운	-2653
▁아깝	-2654
▁아마	-2655
▁앞두	-2656
▁온다	-2657
▁온전	-2658
▁옹호	-2659
▁와요	-2660
▁외롭	-2661
▁요리	-2662
▁욕계	-2663
▁유부	-2664
▁의사	-2665
▁이뻐	-2666
▁적응	-2667
▁조건	-2668
▁조절	-2669
▁지속	-2670
▁지식	-2671
▁진급	-2672
▁집안	-2673
▁차인	-2674
▁치료	-2675
▁코스	-2676
▁포즈	-2677
▁혼내	-2678
▁활용	-2679
▁100	-2680
▁건드리	-2681
▁기다림	-2682
▁내려지	-2683
▁단순히	-2684
▁못생기	-2685
▁무언가	-2686
▁스트레	-2687
▁아닌가	-2688
▁연락처	-2689
▁온전히	-2690
▁으련만	-2691
▁자괴감	-2692
▁정말로	-2693
▁화장실	-2694
▁받아들일	-2695
▁아닌가요	-2696
▁원한다면	-2697
▁힘듭니다	-2698
▁중고등학교	-2699
▁맹	-2700
▁묵	-2701
▁민	-2702
▁블	-2703
▁뺨	-2704
▁샤	-2705
▁섬	-2706
▁숫	-2707
개지	-2708
구나	-2709
누스	-2710
다리	-2711
무원	-2712
부로	-2713
사적	-2714
작용	-2715
탄절	-2716
호흡	-2717
▁간사	-2718
▁간편	-2719
▁감히	-2720
▁객관	-2721
▁거울	-2722
▁걸리	-2723
▁고시	-2724
▁공표	-2725
▁기도	-2726
▁데우	-2727
▁돌이	-2728
▁드셔	-2729
▁맛난	-2730
▁맹세	-2731
▁멍청	-2732
▁묵살	-2733
▁반가	-2734
▁발레	-2735
▁배고	-2736
▁번은	-2737
▁비워	-2738
▁사죄	-2739
▁생선	-2740
▁성적	-2741
▁숫자	-2742
▁스키	-2743
▁실점	-2744
▁심리	-2745
▁싸웠	-2746
▁예정	-2747
▁오류	-2748
▁욕심	-2749
▁읽히	-2750
▁저번	-2751
▁정식	-2752
▁존경	-2753
▁줄여	-2754
▁지루	-2755
▁지웠	-2756
▁차리	-2757
▁천거	-2758
▁클럽	-2759
▁합리	-2760
▁화가	-2761
▁흉내	-2762
▁내세우	-2763
▁는구나	-2764
▁다녀오	-2765
▁말씀하	-2766
▁문제점	-2767
▁보름달	-2768
▁부작용	-2769
▁생활과	-2770
▁성탄절	-2771
▁스트로	-2772
▁심호흡	-2773
▁올려놓	-2774
▁쪼개지	-2775
▁필사적	-2776
▁함부로	-2777
리카누스	-2778
▁돌아다니	-2779
▁되돌아오	-2780
▁아프리카누스	-2781
▁납	-2782
▁득	-2783
▁런	-2784
▁북	-2785
▁숙	-2786
▁즉	-2787
▁훔	-2788
▁히	-2789
당기	-2790
동생	-2791
드름	-2792
라고	-2793
버시	-2794
스트	-2795
아리	-2796
유증	-2797
질없	-2798
프트	-2799
▁가리	-2800
▁가차	-2801
▁감과	-2802
▁경제	-2803
▁공개	-2804
▁과식	-2805
▁교만	-2806
▁그간	-2807
▁깨우	-2808
▁끝냈	-2809
▁다리	-2810
▁대략	-2811
▁대변	-2812
▁로또	-2813
▁망상	-2814
▁먼지	-2815
▁목욕	-2816
▁몸매	-2817
▁미용	-2818
▁발간	-2819
▁시계	-2820
▁식사	-2821
▁신뢰	-2822
▁심하	-2823
▁액션	-2824
▁야경	-2825
▁언동	-2826
▁열흘	-2827
▁오지	-2828
▁왜곡	-2829
▁음수	-2830
▁인격	-2831
▁인근	-2832
▁접수	-2833
▁주위	-2834
▁증세	-2835
▁차갑	-2836
▁최강	-2837
▁치과	-2838
▁탈출	-2839
▁택시	-2840
▁특별	-2841
▁페북	-2842
▁풍습	-2843
▁필수	-2844
▁고마워	-2845
▁괴로워	-2846
▁기다렸	-2847
▁나아가	-2848
▁나아질	-2849
▁내려가	-2850
▁되풀이	-2851
▁모자라	-2852
▁보일러	-2853
▁부질없	-2854
▁불안감	-2855
▁빈자리	-2856
▁여드름	-2857
▁찾아갔	-2858
▁프라이	-2859
▁후유증	-2860
▁가로지르	-2861
▁한답니다	-2862
▁프라이버시	-2863
▁겉	-2864
▁꾹	-2865
▁냈	-2866
▁놨	-2867
▁눕	-2868
▁덕	-2869
▁뒹	-2870
▁땅	-2871
▁떴	-2872
▁렌	-2873
▁령	-2874
▁롱	-2875
▁류	-2876
▁맥	-2877
▁맺	-2878
▁밟	-2879
▁빚	-2880
▁뽀	-2881
▁씨	-2882
▁얕	-2883
▁얻	-2884
▁윗	-2885
▁졋	-2886
▁짠	-2887
▁쫄	-2888
▁튀	-2889
▁폐	-2890
▁헐	-2891
▁홈	-2892
개인	-2893
규직	-2894
기간	-2895
난히	-2896
너덜	-2897
니까	-2898
대체	-2899
라도	-2900
려서	-2901
병대	-2902
보여	-2903
설여	-2904
스레	-2905
어도	-2906
어진	-2907
웠을	-2908
의금	-2909
정신	-2910
젯밤	-2911
진다	-2912
할까	-2913
▁간혹	-2914
▁갈등	-2915
▁거의	-2916
▁걸린	-2917
▁겠어	-2918
▁구별	-2919
▁굳이	-2920
▁근데	-2921
▁기복	-2922
▁김치	-2923
▁까요	-2924
▁꺼내	-2925
▁꾹꾹	-2926
▁남기	-2927
▁내게	-2928
▁너덜	-2929
▁놀랐	-2930
▁느긋	-2931
▁느꼈	-2932
▁느낄	-2933
▁는다	-2934
▁는대	-2935
▁다닐	-2936
▁다섯	-2937
▁다쳤	-2938
▁당하	-2939
▁당해	-2940
▁대출	-2941
▁더욱	-2942
▁데빌	-2943
▁두드	-2944
▁든지	-2945
▁떨쳐	-2946
▁뜻밖	-2947
▁래요	-2948
▁령기	-2949
▁로워	-2950
▁맞출	-2951
▁매몰	-2952
▁맥주	-2953
▁먹여	-2954
▁멈춰	-2955
▁무리	-2956
▁무한	-2957
▁반장	-2958
▁반했	-2959
▁배울	-2960
▁베이	-2961
▁별도	-2962
▁보였	-2963
▁보험	-2964
▁붙여	-2965
▁빠른	-2966
▁빠졌	-2967
▁샤워	-2968
▁성숙	-2969
▁셀프	-2970
▁소비	-2971
▁수건	-2972
▁슬쩍	-2973
▁슬플	-2974
▁실내	-2975
▁쌓인	-2976
▁쓸쓸	-2977
▁씁쓸	-2978
▁씌이	-2979
▁애기	-2980
▁애석	-2981
▁양복	-2982
▁어머	-2983
▁업체	-2984
▁에겐	-2985
▁에휴	-2986
▁역임	-2987
▁예고	-2988
▁오바	-2989
▁우정	-2990
▁위기	-2991
▁을가	-2992
▁의료	-2993
▁이길	-2994
▁일거	-2995
▁자네	-2996
▁잘라	-2997
▁쟁취	-2998
▁조카	-2999
▁종용	-3000
▁지낸	-3001
▁지치	-3002
▁지키	-3003
▁진다	-3004
▁착한	-3005
▁책임	-3006
▁척하	-3007
▁청해	-3008
▁체육	-3009
▁초대	-3010
▁추석	-3011
▁추스	-3012
▁치유	-3013
▁패턴	-3014
▁페메	-3015
▁평소	-3016
▁포근	-3017
▁풀렸	-3018
▁풀릴	-3019
▁피싱	-3020
▁학벌	-3021
▁해제	-3022
▁행실	-3023
▁허무	-3024
▁허상	-3025
▁호칭	-3026
▁흠집	-3027
▁흥미	-3028
릅니다	-3029
보여요	-3030
▁가만히	-3031
▁게시판	-3032
▁고마운	-3033
▁기프트	-3034
▁깨달음	-3035
▁나타날	-3036
▁난다고	-3037
▁넘어가	-3038
▁느껴져	-3039
▁다면요	-3040
▁달라요	-3041
▁더러워	-3042
▁도대체	-3043
▁들어도	-3044
▁로마자	-3045
▁망설여	-3046
▁못해요	-3047
▁무너진	-3048
▁무뎌질	-3049
▁뭘까요	-3050
▁배울까	-3051
▁배터리	-3052
▁본격적	-3053
▁봐야지	-3054
▁부러지	-3055
▁사라진	-3056
▁사이트	-3057
▁살아온	-3058
▁생각난	-3059
▁서툴러	-3060
▁선생님	-3061
▁셔야죠	-3062
▁속상할	-3063
▁슬퍼하	-3064
▁아까워	-3065
▁아야죠	-3066
▁알아볼	-3067
▁앞머리	-3068
▁어야죠	-3069
▁어울리	-3070
▁어젯밤	-3071
▁영원히	-3072
▁유난히	-3073
▁이나마	-3074
▁일어날	-3075
▁적어도	-3076
▁제정신	-3077
▁좋아했	-3078
▁지만은	-3079
▁차가워	-3080
▁차이점	-3081
▁축의금	-3082
▁취해서	-3083
▁해야겠	-3084
▁힘든데	-3085
▁너덜너덜	-3086
▁두근거리	-3087
▁두근거림	-3088
▁두드러지	-3089
▁어떠세요	-3090
▁전화번호	-3091
▁주식회사	-3092
▁해보여요	-3093
▁갑작스러운	-3094
▁갇	-3095
▁값	-3096
▁곱	-3097
▁꾼	-3098
▁돋	-3099
▁밑	-3100
▁썩	-3101
▁압	-3102
▁육	-3103
▁찜	-3104
▁총	-3105
▁춤	-3106
디션	-3107
머지	-3108
생긴	-3109
시방	-3110
직자	-3111
폰지	-3112
하철	-3113
흐트	-3114
▁간접	-3115
▁갈라	-3116
▁격분	-3117
▁계기	-3118
▁계절	-3119
▁교회	-3120
▁국경	-3121
▁권리	-3122
▁근래	-3123
▁기뻐	-3124
▁깜빡	-3125
▁나르	-3126
▁나약	-3127
▁남녀	-3128
▁는군	-3129
▁대수	-3130
▁도망	-3131
▁동작	-3132
▁따지	-3133
▁딸기	-3134
▁띄우	-3135
▁맞춤	-3136
▁모친	-3137
▁목적	-3138
▁불금	-3139
▁비우	-3140
▁사탕	-3141
▁생태	-3142
▁솜씨	-3143
▁수다	-3144
▁수면	-3145
▁수상	-3146
▁수수	-3147
▁수영	-3148
▁수월	-3149
▁시합	-3150
▁실례	-3151
▁실재	-3152
▁싫증	-3153
▁심성	-3154
▁심야	-3155
▁써야	-3156
▁아들	-3157
▁양말	-3158
▁어둠	-3159
▁어렸	-3160
▁여섯	-3161
▁온몸	-3162
▁요구	-3163
▁요청	-3164
▁유머	-3165
▁유족	-3166
▁유학	-3167
▁일시	-3168
▁잔인	-3169
▁전기	-3170
▁전문	-3171
▁절약	-3172
▁주인	-3173
▁질책	-3174
▁참견	-3175
▁챙기	-3176
▁처리	-3177
▁철회	-3178
▁청구	-3179
▁치맥	-3180
▁친절	-3181
▁택배	-3182
▁통장	-3183
▁평생	-3184
▁필기	-3185
▁한창	-3186
▁헬스	-3187
▁확보	-3188
▁회식	-3189
▁간절히	-3190
▁감사원	-3191
▁건가요	-3192
▁겁니다	-3193
▁공무원	-3194
▁공직자	-3195
▁나머지	-3196
▁나타나	-3197
▁남동생	-3198
▁달라질	-3199
▁달려들	-3200
▁돌이키	-3201
▁두려운	-3202
▁듭니다	-3203
▁떠나갔	-3204
▁뜻대로	-3205
▁무기력	-3206
▁발레리	-3207
▁배고파	-3208
▁스폰지	-3209
▁아름답	-3210
▁아쉬움	-3211
▁안경테	-3212
▁어리석	-3213
▁엄청나	-3214
▁월요일	-3215
▁으려면	-3216
▁이라도	-3217
▁인정받	-3218
▁정확히	-3219
▁지하철	-3220
▁집어넣	-3221
▁피시방	-3222
▁끝났으면	-3223
▁되돌아가	-3224
▁만난다면	-3225
▁트라흐트	-3226
▁곰	-3227
▁꺾	-3228
▁넣	-3229
▁늙	-3230
▁닫	-3231
▁똥	-3232
▁뜬	-3233
▁롭	-3234
▁루	-3235
▁맡	-3236
▁밝	-3237
▁봇	-3238
▁섭	-3239
▁엊	-3240
▁엠	-3241
▁젤	-3242
▁텅	-3243
▁틈	-3244
겹살	-3245
곰히	-3246
국인	-3247
더니	-3248
라나	-3249
로그	-3250
버스	-3251
보라	-3252
서히	-3253
시지	-3254
오래	-3255
위식	-3256
질방	-3257
코넛	-3258
트업	-3259
▁11	-3260
▁가려	-3261
▁간식	-3262
▁감미	-3263
▁거둬	-3264
▁거든	-3265
▁겁나	-3266
▁고관	-3267
▁구워	-3268
▁길래	-3269
▁꼼꼼	-3270
▁나름	-3271
▁대개	-3272
▁덜할	-3273
▁덤덤	-3274
▁라요	-3275
▁마중	-3276
▁막혀	-3277
▁먹먹	-3278
▁못난	-3279
▁무명	-3280
▁미약	-3281
▁방금	-3282
▁법이	-3283
▁벗기	-3284
▁부딪	-3285
▁비싼	-3286
▁비통	-3287
▁사르	-3288
▁색소	-3289
▁생리	-3290
▁서신	-3291
▁서툰	-3292
▁설날	-3293
▁성품	-3294
▁세워	-3295
▁수십	-3296
▁순진	-3297
▁시선	-3298
▁신발	-3299
▁엉엉	-3300
▁에선	-3301
▁엠티	-3302
▁역량	-3303
▁염색	-3304
▁영양	-3305
▁왠지	-3306
▁원비	-3307
▁원삼	-3308
▁지친	-3309
▁직구	-3310
▁질긴	-3311
▁질려	-3312
▁질문	-3313
▁찬성	-3314
▁참으	-3315
▁체력	-3316
▁콘솔	-3317
▁큰일	-3318
▁태연	-3319
▁풍문	-3320
▁피할	-3321
▁하녀	-3322
▁해낼	-3323
▁화나	-3324
▁후배	-3325
▁훈련	-3326
▁희생	-3327
러워서	-3328
옵니다	-3329
▁가까운	-3330
▁가까이	-3331
▁강습소	-3332
▁곰곰히	-3333
▁나아지	-3334
▁나을까	-3335
▁눈보라	-3336
▁대부분	-3337
▁도와줘	-3338
▁된다면	-3339
▁들어올	-3340
▁떠나간	-3341
▁떨어지	-3342
▁밀려오	-3343
▁바람난	-3344
▁벗겨지	-3345
▁비슷하	-3346
▁빠뜨리	-3347
▁사다리	-3348
▁사랑니	-3349
▁사생활	-3350
▁삼겹살	-3351
▁상사병	-3352
▁서서히	-3353
▁속상해	-3354
▁아이돌	-3355
▁알려주	-3356
▁어린이	-3357
▁우울해	-3358
▁유부남	-3359
▁으라고	-3360
▁을수록	-3361
▁잘생기	-3362
▁재미없	-3363
▁정신병	-3364
▁종교적	-3365
▁즉위식	-3366
▁지나갈	-3367
▁지쳐서	-3368
▁찜질방	-3369
▁케이스	-3370
▁코코넛	-3371
▁헷갈려	-3372
▁고마워요	-3373
▁돌아올까	-3374
▁생긴다는	-3375
▁수학여행	-3376
▁스타트업	-3377
▁스트레칭	-3378
▁안타까워	-3379
▁오래오래	-3380
▁울음소리	-3381
▁이뤄지지	-3382
▁자연환경	-3383
▁논	-3384
▁떼	-3385
▁룩	-3386
▁멘	-3387
▁섞	-3388
▁옳	-3389
▁탁	-3390
▁탓	-3391
▁텔	-3392
▁팩	-3393
▁푼	-3394
▁품	-3395
거려	-3396
너무	-3397
느리	-3398
대사	-3399
데없	-3400
레이	-3401
리아	-3402
문학	-3403
벤트	-3404
셔널	-3405
신자	-3406
우마	-3407
조리	-3408
터디	-3409
트북	-3410
▁가네	-3411
▁간질	-3412
▁감시	-3413
▁거만	-3414
▁건조	-3415
▁경쟁	-3416
▁공원	-3417
▁교양	-3418
▁근심	-3419
▁금연	-3420
▁기적	-3421
▁기한	-3422
▁기호	-3423
▁나날	-3424
▁나누	-3425
▁내면	-3426
▁노후	-3427
▁는가	-3428
▁달력	-3429
▁더디	-3430
▁돌보	-3431
▁만족	-3432
▁면도	-3433
▁면역	-3434
▁명품	-3435
▁모뎀	-3436
▁모임	-3437
▁목표	-3438
▁무릎	-3439
▁물건	-3440
▁반지	-3441
▁발송	-3442
▁버린	-3443
▁병신	-3444
▁부디	-3445
▁부르	-3446
▁부자	-3447
▁비추	-3448
▁비틀	-3449
▁빈약	-3450
▁빨래	-3451
▁설렜	-3452
▁성별	-3453
▁세포	-3454
▁센스	-3455
▁소유	-3456
▁속도	-3457
▁속박	-3458
▁수정	-3459
▁순위	-3460
▁스릴	-3461
▁시켰	-3462
▁식과	-3463
▁식이	-3464
▁실력	-3465
▁안전	-3466
▁약해	-3467
▁여우	-3468
▁연휴	-3469
▁염탐	-3470
▁예금	-3471
▁예능	-3472
▁올리	-3473
▁의리	-3474
▁이불	-3475
▁이점	-3476
▁인턴	-3477
▁일기	-3478
▁자동	-3479
▁저주	-3480
▁전공	-3481
▁정답	-3482
▁정성	-3483
▁진행	-3484
▁천재	-3485
▁철쭉	-3486
▁추대	-3487
▁축제	-3488
▁특징	-3489
▁틀리	-3490
▁평가	-3491
▁평온	-3492
▁필름	-3493
▁하필	-3494
▁한스	-3495
▁할인	-3496
▁행운	-3497
▁향수	-3498
▁활동	-3499
페셔널	-3500
▁나빠지	-3501
▁노트북	-3502
▁단기간	-3503
▁대학원	-3504
▁돌아보	-3505
▁들이대	-3506
▁마주쳤	-3507
▁망가지	-3508
▁몰려오	-3509
▁베이비	-3510
▁별자리	-3511
▁상상력	-3512
▁스터디	-3513
▁쓸데없	-3514
▁아파트	-3515
▁알아내	-3516
▁양자리	-3517
▁영화관	-3518
▁움직이	-3519
▁웨이브	-3520
▁이럴까	-3521
▁이벤트	-3522
▁일자리	-3523
▁좋아지	-3524
▁집들이	-3525
▁집안일	-3526
▁퇴근길	-3527
▁현대사	-3528
▁혼란기	-3529
▁갑작스럽	-3530
▁너무너무	-3531
▁드라이브	-3532
▁잡아당기	-3533
▁트라우마	-3534
▁프로페셔널	-3535
▁깃	-3536
▁넋	-3537
▁뇌	-3538
▁닭	-3539
▁닿	-3540
▁몹	-3541
▁범	-3542
▁빽	-3543
▁암	-3544
▁엮	-3545
▁옥	-3546
▁워	-3547
▁윤	-3548
▁잼	-3549
▁촉	-3550
▁컴	-3551
▁팁	-3552
▁팟	-3553
근차	-3554
다랗	-3555
달콩	-3556
독여	-3557
두리	-3558
로리	-3559
린다	-3560
민화	-3561
바람	-3562
수증	-3563
양이	-3564
운지	-3565
카오	-3566
테리	-3567
트롤	-3568
호회	-3569
▁가볍	-3570
▁가운	-3571
▁가입	-3572
▁간주	-3573
▁감싸	-3574
▁강조	-3575
▁거래	-3576
▁걸렸	-3577
▁고장	-3578
▁괴짜	-3579
▁구멍	-3580
▁글쎄	-3581
▁길러	-3582
▁깃털	-3583
▁꼬시	-3584
▁끓여	-3585
▁낭만	-3586
▁다네	-3587
▁달리	-3588
▁데이	-3589
▁들려	-3590
▁등산	-3591
▁따듯	-3592
▁뜨겁	-3593
▁런지	-3594
▁마르	-3595
▁막힌	-3596
▁맛집	-3597
▁메리	-3598
▁멘탈	-3599
▁면허	-3600
▁몹시	-3601
▁무겁	-3602
▁미루	-3603
▁바란	-3604
▁반갑	-3605
▁배신	-3606
▁보듬	-3607
▁불쌍	-3608
▁생강	-3609
▁설득	-3610
▁세밀	-3611
▁센터	-3612
▁소음	-3613
▁손해	-3614
▁습도	-3615
▁시려	-3616
▁신기	-3617
▁쌓이	-3618
▁쏟아	-3619
▁쓸모	-3620
▁아려	-3621
▁안부	-3622
▁안정	-3623
▁알콩	-3624
▁애니	-3625
▁애초	-3626
▁억울	-3627
▁언급	-3628
▁여서	-3629
▁연민	-3630
▁연상	-3631
▁열받	-3632
▁예랑	-3633
▁옮기	-3634
▁용서	-3635
▁웃겨	-3636
▁원해	-3637
▁유명	-3638
▁음색	-3639
▁인고	-3640
▁인품	-3641
▁잃어	-3642
▁자각	-3643
▁자취	-3644
▁작고	-3645
▁장점	-3646
▁정치	-3647
▁제치	-3648
▁주력	-3649
▁줄곧	-3650
▁즐겨	-3651
▁증상	-3652
▁쪼금	-3653
▁찍히	-3654
▁착잡	-3655
▁참되	-3656
▁첫눈	-3657
▁춤추	-3658
▁치매	-3659
▁치워	-3660
▁친근	-3661
▁친지	-3662
▁평등	-3663
▁풀리	-3664
▁핑거	-3665
▁한심	-3666
▁힘껏	-3667
▁힘차	-3668
근차근	-3669
영수증	-3670
일으키	-3671
▁가르침	-3672
▁가져가	-3673
▁개개인	-3674
▁게임기	-3675
▁고양이	-3676
▁기울이	-3677
▁긴장감	-3678
▁끌어내	-3679
▁내던지	-3680
▁넋두리	-3681
▁다가오	-3682
▁다독여	-3683
▁단거리	-3684
▁달라붙	-3685
▁대학교	-3686
▁동호회	-3687
▁라운지	-3688
▁마실까	-3689
▁매달리	-3690
▁모아서	-3691
▁배우자	-3692
▁보이스	-3693
▁비바람	-3694
▁사라질	-3695
▁일상적	-3696
▁일으키	-3697
▁잊혀져	-3698
▁자연적	-3699
▁자존심	-3700
▁장난감	-3701
▁찾아왔	-3702
▁채워질	-3703
▁칼로리	-3704
▁커다랗	-3705
▁컨트롤	-3706
▁태어났	-3707
▁프로필	-3708
▁학교의	-3709
▁황민화	-3710
▁따라다니	-3711
▁떠나보내	-3712
▁미끄러지	-3713
▁바란다면	-3714
▁알콩달콩	-3715
▁정신없이	-3716
▁차근차근	-3717
▁찾아다니	-3718
▁불러일으키	-3719
▁현금영수증	-3720
00	-3721
go	-3722
▁b	-3723
▁겪	-3724
▁괘	-3725
▁규	-3726
▁깍	-3727
▁꼰	-3728
▁꿔	-3729
▁댄	-3730
▁덧	-3731
▁뒀	-3732
▁듀	-3733
▁땜	-3734
▁뚫	-3735
▁력	-3736
▁맴	-3737
▁몫	-3738
▁뻑	-3739
▁섣	-3740
▁숏	-3741
▁쑤	-3742
▁앗	-3743
▁옛	-3744
▁찢	-3745
▁쳤	-3746
▁컸	-3747
▁콕	-3748
▁콜	-3749
▁쿠	-3750
▁툭	-3751
▁팍	-3752
▁펠	-3753
▁헹	-3754
▁홀	-3755
▁휩	-3756
겨워	-3757
고두	-3758
관문	-3759
긋지	-3760
긴다	-3761
까운	-3762
꾸로	-3763
나라	-3764
놀이	-3765
는데	-3766
다가	-3767
다발	-3768
다왔	-3769
댓말	-3770
돌이	-3771
둥이	-3772
둬야	-3773
디오	-3774
레소	-3775
려고	-3776
를까	-3777
릇되	-3778
리필	-3779
마디	-3780
마치	-3781
메랑	-3782
모티	-3783
바닥	-3784
바르	-3785
받쳐	-3786
부리	-3787
사정	-3788
숭숭	-3789
스프	-3790
슬려	-3791
시피	-3792
쓸리	-3793
어날	-3794
으로	-3795
인다	-3796
인트	-3797
잔데	-3798
저히	-3799
적추	-3800
져서	-3801
지만	-3802
채기	-3803
처럼	-3804
콜릿	-3805
토닉	-3806
틈이	-3807
하면	-3808
행기	-3809
▁??	-3810
▁ab	-3811
▁as	-3812
▁가짐	-3813
▁각질	-3814
▁간당	-3815
▁간직	-3816
▁간청	-3817
▁갈구	-3818
▁갈래	-3819
▁같애	-3820
▁견적	-3821
▁계신	-3822
▁고기	-3823
▁고속	-3824
▁곤두	-3825
▁괘씸	-3826
▁구두	-3827
▁그나	-3828
▁그지	-3829
▁급성	-3830
▁기댈	-3831
▁기업	-3832
▁기에	-3833
▁긴가	-3834
▁꺾이	-3835
▁꼬셔	-3836
▁꼬였	-3837
▁꼰대	-3838
▁꽃길	-3839
▁꾸며	-3840
▁끝날	-3841
▁내딛	-3842
▁노려	-3843
▁놓쳤	-3844
▁다신	-3845
▁다칠	-3846
▁대신	-3847
▁대중	-3848
▁던데	-3849
▁도착	-3850
▁독하	-3851
▁돼야	-3852
▁두통	-3853
▁뒷담	-3854
▁뒹굴	-3855
▁득템	-3856
▁따르	-3857
▁따위	-3858
▁때리	-3859
▁땡기	-3860
▁똥차	-3861
▁려다	-3862
▁마냥	-3863
▁망한	-3864
▁망함	-3865
▁맡겨	-3866
▁매운	-3867
▁매정	-3868
▁매화	-3869
▁명절	-3870
▁몰려	-3871
▁무난	-3872
▁문단	-3873
▁뭘로	-3874
▁미소	-3875
▁미쳤	-3876
▁미팅	-3877
▁바래	-3878
▁바르	-3879
▁발달	-3880
▁발등	-3881
▁발목	-3882
▁버튼	-3883
▁변경	-3884
▁변주	-3885
▁보드	-3886
▁복전	-3887
▁본뜨	-3888
▁부정	-3889
▁비겁	-3890
▁비오	-3891
▁뻑뻑	-3892
▁삐져	-3893
▁사업	-3894
▁살릴	-3895
▁삼키	-3896
▁서글	-3897
▁서약	-3898
▁선연	-3899
▁설마	-3900
▁성덕	-3901
▁소박	-3902
▁속설	-3903
▁수거	-3904
▁숨길	-3905
▁시린	-3906
▁식혀	-3907
▁쑤셔	-3908
▁아끼	-3909
▁아냐	-3910
▁아팠	-3911
▁알뜰	-3912
▁앞둔	-3913
▁애써	-3914
▁약정	-3915
▁어가	-3916
▁어른	-3917
▁업무	-3918
▁었었	-3919
▁엊그	-3920
▁여덟	-3921
▁여도	-3922
▁영통	-3923
▁예비	-3924
▁오인	-3925
▁오전	-3926
▁올랐	-3927
▁용돈	-3928
▁울컥	-3929
▁원치	-3930
▁위대	-3931
▁위협	-3932
▁으러	-3933
▁으실	-3934
▁은퇴	-3935
▁의자	-3936
▁이른	-3937
▁이리	-3938
▁입맛	-3939
▁입장	-3940
▁자다	-3941
▁자르	-3942
▁작아	-3943
▁잠겨	-3944
▁잠재	-3945
▁잡념	-3946
▁절친	-3947
▁정류	-3948
▁정열	-3949
▁정황	-3950
▁져서	-3951
▁종종	-3952
▁주워	-3953
▁줄임	-3954
▁즐길	-3955
▁지갑	-3956
▁지낼	-3957
▁지압	-3958
▁직업	-3959
▁질러	-3960
▁질질	-3961
▁차례	-3962
▁창법	-3963
▁채취	-3964
▁초유	-3965
▁축가	-3966
▁커서	-3967
▁케익	-3968
▁크기	-3969
▁토닥	-3970
▁틀린	-3971
▁파토	-3972
▁팍팍	-3973
▁편린	-3974
▁편식	-3975
▁하객	-3976
▁학번	-3977
▁한편	-3978
▁할래	-3979
▁해선	-3980
▁해진	-3981
▁헛된	-3982
▁혼전	-3983
▁혼주	-3984
▁화났	-3985
▁환장	-3986
▁효도	-3987
▁훔치	-3988
▁흐려	-3989
▁흐를	-3990
▁흐음	-3991
고두고	-3992
긋지긋	-3993
다는데	-3994
모티콘	-3995
아다니	-3996
이크업	-3997
적으로	-3998
적추적	-3999
줄게요	-4000
▁갔다왔	-4001
▁거꾸로	-4002
▁거슬려	-4003
▁걸려요	-4004
▁걸어도	-4005
▁괴로운	-4006
▁구부리	-4007
▁구해야	-4008
▁국경일	-4009
▁궁금증	-4010
▁궁금하	-4011
▁귀여운	-4012
▁귀여울	-4013
▁그런지	-4014
▁그럴지	-4015
▁그릇되	-4016
▁기뻐해	-4017
▁깨어진	-4018
▁꽃다발	-4019
▁끝마치	-4020
▁나갈까	-4021
▁나빠졌	-4022
▁나아요	-4023
▁나와서	-4024
▁나와야	-4025
▁남겨서	-4026
▁남잔데	-4027
▁냐는데	-4028
▁너무나	-4029
▁놓아줬	-4030
▁누굴까	-4031
▁느껴질	-4032
▁는데요	-4033
▁다가온	-4034
▁다는데	-4035
▁달라져	-4036
▁당당히	-4037
▁당연히	-4038
▁도저히	-4039
▁돌아서	-4040
▁돌아섰	-4041
▁되돌리	-4042
▁되돌릴	-4043
▁된다는	-4044
▁될까봐	-4045
▁뒤숭숭	-4046
▁들어보	-4047
▁떠날까	-4048
▁떨어뜨	-4049
▁떨어진	-4050
▁레시피	-4051
▁마음먹	-4052
▁마주쳐	-4053
▁맞출까	-4054
▁매몰찬	-4055
▁멀리서	-4056
▁면서도	-4057
▁모처럼	-4058
▁못생긴	-4059
▁무거운	-4060
▁무뎌진	-4061
▁바빠서	-4062
▁바쁜가	-4063
▁버려요	-4064
▁버려진	-4065
▁벌어지	-4066
▁벗어날	-4067
▁변할까	-4068
▁별의별	-4069
▁보내왔	-4070
▁보여도	-4071
▁보여서	-4072
▁부딪혔	-4073
▁부메랑	-4074
▁북받쳐	-4075
▁분명히	-4076
▁불행히	-4077
▁비행기	-4078
▁상대식	-4079
▁생각났	-4080
▁생겨나	-4081
▁생겨서	-4082
▁설레발	-4083
▁소중히	-4084
▁속사정	-4085
▁속상하	-4086
▁솔직히	-4087
▁시켜야	-4088
▁씁니다	-4089
▁아닐지	-4090
▁아야지	-4091
▁아파서	-4092
▁아파요	-4093
▁아픈데	-4094
▁알아봐	-4095
▁알아채	-4096
▁어느새	-4097
▁어떻하	-4098
▁어서요	-4099
▁에스프	-4100
▁여행지	-4101
▁영양제	-4102
▁오지랖	-4103
▁올라갈	-4104
▁올릴까	-4105
▁올바르	-4106
▁원거리	-4107
▁월급날	-4108
▁으려니	-4109
▁을게요	-4110
▁이겨야	-4111
▁이대로	-4112
▁이뤄질	-4113
▁이뻐서	-4114
▁일수록	-4115
▁잊혀진	-4116
▁자는데	-4117
▁재채기	-4118
▁적나라	-4119
▁전해질	-4120
▁정해져	-4121
▁존댓말	-4122
▁종교가	-4123
▁종지부	-4124
▁지겨워	-4125
▁진정하	-4126
▁짜장면	-4127
▁초콜릿	-4128
▁추워서	-4129
▁충전기	-4130
▁친해질	-4131
▁카카오	-4132
▁탈출구	-4133
▁태어난	-4134
▁틈틈이	-4135
▁포인트	-4136
▁한마디	-4137
▁한없이	-4138
▁할텐데	-4139
▁합시다	-4140
▁해줘도	-4141
▁헷갈릴	-4142
▁현관문	-4143
▁화요일	-4144
▁회의감	-4145
▁휩쓸리	-4146
▁희생양	-4147
▁가까워질	-4148
▁가라앉혀	-4149
▁가벼워질	-4150
▁괴로워하	-4151
▁괴로웠을	-4152
▁그러니까	-4153
▁그럴지도	-4154
▁그리워서	-4155
▁끌어들이	-4156
▁다녀와요	-4157
▁다릅니다	-4158
▁달라져요	-4159
▁더라구요	-4160
▁되돌아보	-4161
▁두고두고	-4162
▁떠난다는	-4163
▁메이크업	-4164
▁무한리필	-4165
▁물어봐도	-4166
▁미련없이	-4167
▁바람둥이	-4168
▁상관없이	-4169
▁아름다움	-4170
▁아팠으면	-4171
▁이모티콘	-4172
▁잃어버렸	-4173
▁잡아먹히	-4174
▁조심스레	-4175
▁지긋지긋	-4176
▁집어던지	-4177
▁추적추적	-4178
▁플라토닉	-4179
▁해야겠지	-4180
▁했을지도	-4181
▁객관적으로	-4182
▁받아들여요	-4183
▁생겼을지도	-4184
▁에스프레소	-4185
▁ᄂ	-4186
▁갱	-4187
▁꿰	-4188
▁덮	-4189
▁델	-4190
▁띠	-4191
▁롤	-4192
▁밉	-4193
▁볶	-4194
▁샐	-4195
▁쌈	-4196
▁얽	-4197
▁웹	-4198
▁좌	-4199
▁쫒	-4200
▁촬	-4201
▁칩	-4202
▁펑	-4203
▁픈	-4204
▁혈	-4205
▁홧	-4206
감당	-4207
나긴	-4208
댑터	-4209
동력	-4210
러드	-4211
러움	-4212
려나	-4213
로워	-4214
만갑	-4215
만별	-4216
묻히	-4217
미디	-4218
부르	-4219
성공	-4220
수건	-4221
시락	-4222
으며	-4223
장고	-4224
크닉	-4225
▁12	-4226
▁각도	-4227
▁간섭	-4228
▁갇히	-4229
▁감각	-4230
▁강제	-4231
▁개별	-4232
▁거룩	-4233
▁검소	-4234
▁겉옷	-4235
▁고는	-4236
▁고야	-4237
▁골프	-4238
▁곱씹	-4239
▁공간	-4240
▁공시	-4241
▁공유	-4242
▁공황	-4243
▁과학	-4244
▁광경	-4245
▁구경	-4246
▁구속	-4247
▁구하	-4248
▁국구	-4249
▁기계	-4250
▁기력	-4251
▁기르	-4252
▁기숙	-4253
▁깨진	-4254
▁끊기	-4255
▁나라	-4256
▁난방	-4257
▁날짜	-4258
▁낮잠	-4259
▁냐구	-4260
▁다짐	-4261
▁다치	-4262
▁단락	-4263
▁단맛	-4264
▁단어	-4265
▁단풍	-4266
▁답신	-4267
▁대우	-4268
▁대하	-4269
▁대회	-4270
▁더느	-4271
▁데리	-4272
▁동료	-4273
▁동산	-4274
▁두렵	-4275
▁들키	-4276
▁따내	-4277
▁리드	-4278
▁마법	-4279
▁막차	-4280
▁말기	-4281
▁멋져	-4282
▁메뉴	-4283
▁무모	-4284
▁문화	-4285
▁바지	-4286
▁반응	-4287
▁발견	-4288
▁밤새	-4289
▁방문	-4290
▁배달	-4291
▁배제	-4292
▁버텼	-4293
▁베풀	-4294
▁별명	-4295
▁보살	-4296
▁봉급	-4297
▁봉사	-4298
▁부드	-4299
▁부서	-4300
▁불순	-4301
▁빌라	-4302
▁사면	-4303
▁사무	-4304
▁사정	-4305
▁산간	-4306
▁살려	-4307
▁살인	-4308
▁색감	-4309
▁색채	-4310
▁서점	-4311
▁선용	-4312
▁성형	-4313
▁세우	-4314
▁소극	-4315
▁소소	-4316
▁소화	-4317
▁속이	-4318
▁수능	-4319
▁순환	-4320
▁슬슬	-4321
▁승리	-4322
▁시트	-4323
▁식단	-4324
▁신념	-4325
▁신중	-4326
▁실습	-4327
▁애원	-4328
▁양해	-4329
▁어조	-4330
▁억제	-4331
▁여부	-4332
▁열정	-4333
▁예감	-4334
▁예약	-4335
▁오후	-4336
▁온도	-4337
▁왕따	-4338
▁유적	-4339
▁유증	-4340
▁의도	-4341
▁의류	-4342
▁이끌	-4343
▁인내	-4344
▁입학	-4345
▁자극	-4346
▁자면	-4347
▁자야	-4348
▁잠식	-4349
▁저렴	-4350
▁저작	-4351
▁적금	-4352
▁적당	-4353
▁전역	-4354
▁정의	-4355
▁정장	-4356
▁정하	-4357
▁제주	-4358
▁주름	-4359
▁주택	-4360
▁지극	-4361
▁지성	-4362
▁지적	-4363
▁지표	-4364
▁진도	-4365
▁짱나	-4366
▁쫒기	-4367
▁천차	-4368
▁초라	-4369
▁촬영	-4370
▁축복	-4371
▁출반	-4372
▁출현	-4373
▁치열	-4374
▁치킨	-4375
▁침대	-4376
▁커지	-4377
▁커터	-4378
▁터놓	-4379
▁파도	-4380
▁페달	-4381
▁편이	-4382
▁편중	-4383
▁폐수	-4384
▁포장	-4385
▁표준	-4386
▁피자	-4387
▁하아	-4388
▁학점	-4389
▁한강	-4390
▁합격	-4391
▁허락	-4392
▁헐뜯	-4393
▁현존	-4394
▁확률	-4395
▁환심	-4396
▁휘둘	-4397
▁흥분	-4398
지부지	-4399
▁~~~	-4400
▁갈라놓	-4401
▁고마움	-4402
▁공통점	-4403
▁글쎄요	-4404
▁기나긴	-4405
▁기병대	-4406
▁냉장고	-4407
▁놓아줄	-4408
▁대성공	-4409
▁도시락	-4410
▁동아리	-4411
▁뒷감당	-4412
▁들으며	-4413
▁맞춤법	-4414
▁물리치	-4415
▁미용실	-4416
▁밑바닥	-4417
▁바래다	-4418
▁볼게요	-4419
▁샐러드	-4420
▁손수건	-4421
▁송만갑	-4422
▁알아차	-4423
▁어댑터	-4424
▁예쁜데	-4425
▁외국어	-4426
▁원동력	-4427
▁이러다	-4428
▁이어질	-4429
▁일반적	-4430
▁자아내	-4431
▁잠재력	-4432
▁졸업식	-4433
▁중국어	-4434
▁진료소	-4435
▁쳐다보	-4436
▁커플링	-4437
▁컨디션	-4438
▁코미디	-4439
▁파묻히	-4440
▁피크닉	-4441
▁하우스	-4442
▁화장품	-4443
▁부끄러움	-4444
▁사로잡히	-4445
▁사회생활	-4446
▁천차만별	-4447
▁해줄게요	-4448
▁흐지부지	-4449
▁o	-4450
▁깰	-4451
▁눌	-4452
▁닥	-4453
▁둬	-4454
▁듬	-4455
▁론	-4456
▁뱃	-4457
▁벽	-4458
▁빵	-4459
▁잇	-4460
▁잎	-4461
▁짼	-4462
▁춘	-4463
▁팀	-4464
▁폼	-4465
갈리	-4466
계절	-4467
구니	-4468
기업	-4469
기운	-4470
꺼풀	-4471
나오	-4472
도리	-4473
두근	-4474
러우	-4475
력서	-4476
른다	-4477
버려	-4478
성이	-4479
수수	-4480
스터	-4481
습기	-4482
아내	-4483
어내	-4484
어들	-4485
을까	-4486
이없	-4487
쟁이	-4488
주정	-4489
지션	-4490
쳐올	-4491
틀콕	-4492
활절	-4493
▁가속	-4494
▁가출	-4495
▁가혹	-4496
▁감지	-4497
▁강요	-4498
▁거둘	-4499
▁격려	-4500
▁견딜	-4501
▁견해	-4502
▁고요	-4503
▁고작	-4504
▁골인	-4505
▁과육	-4506
▁관대	-4507
▁구박	-4508
▁구조	-4509
▁구질	-4510
▁그걸	-4511
▁극찬	-4512
▁근로	-4513
▁근황	-4514
▁깊이	-4515
▁깜깜	-4516
▁나눴	-4517
▁내편	-4518
▁냉철	-4519
▁녹여	-4520
▁놀리	-4521
▁농구	-4522
▁누워	-4523
▁눌러	-4524
▁늦잠	-4525
▁다되	-4526
▁단지	-4527
▁닭발	-4528
▁당뇨	-4529
▁독한	-4530
▁돌봐	-4531
▁동기	-4532
▁되짚	-4533
▁둔한	-4534
▁뒤돌	-4535
▁때려	-4536
▁뜬금	-4537
▁레몬	-4538
▁로서	-4539
▁로운	-4540
▁론가	-4541
▁마른	-4542
▁막장	-4543
▁말려	-4544
▁멋질	-4545
▁면모	-4546
▁목화	-4547
▁무료	-4548
▁문서	-4549
▁미모	-4550
▁바니	-4551
▁바이	-4552
▁반발	-4553
▁반영	-4554
▁반하	-4555
▁발라	-4556
▁발생	-4557
▁밝혀	-4558
▁배구	-4559
▁뱃살	-4560
▁법의	-4561
▁베프	-4562
▁복합	-4563
▁본능	-4564
▁본다	-4565
▁부고	-4566
▁부팅	-4567
▁분개	-4568
▁불쾌	-4569
▁블랙	-4570
▁비용	-4571
▁비정	-4572
▁비친	-4573
▁비판	-4574
▁살랑	-4575
▁상세	-4576
▁상종	-4577
▁서울	-4578
▁설렐	-4579
▁섭섭	-4580
▁소름	-4581
▁소질	-4582
▁수꽃	-4583
▁수염	-4584
▁수치	-4585
▁스마	-4586
▁스케	-4587
▁승진	-4588
▁승차	-4589
▁시급	-4590
▁시끄	-4591
▁시외	-4592
▁식당	-4593
▁식히	-4594
▁실태	-4595
▁심정	-4596
▁심한	-4597
▁쓴맛	-4598
▁아님	-4599
▁아래	-4600
▁아스	-4601
▁어언	-4602
▁억압	-4603
▁언쟁	-4604
▁여쭤	-4605
▁연계	-4606
▁연못	-4607
▁연하	-4608
▁예원	-4609
▁오르	-4610
▁외박	-4611
▁외숙	-4612
▁욕구	-4613
▁운영	-4614
▁이여	-4615
▁익히	-4616
▁인의	-4617
▁일그	-4618
▁일례	-4619
▁장사	-4620
▁쟁이	-4621
▁저편	-4622
▁적절	-4623
▁전시	-4624
▁점막	-4625
▁지독	-4626
▁짼데	-4627
▁찔러	-4628
▁최우	-4629
▁침묵	-4630
▁카드	-4631
▁카시	-4632
▁케른	-4633
▁키워	-4634
▁터졌	-4635
▁테니	-4636
▁토비	-4637
▁통수	-4638
▁퇴사	-4639
▁파브	-4640
▁파편	-4641
▁펑펑	-4642
▁편리	-4643
▁폭식	-4644
▁해외	-4645
▁향하	-4646
▁헬멧	-4647
▁호구	-4648
▁호시	-4649
▁혼나	-4650
▁화해	-4651
▁황당	-4652
▁후식	-4653
▁휘감	-4654
▁흔한	-4655
▁흥겹	-4656
갑니다	-4657
납니다	-4658
러뜨리	-4659
오른다	-4660
▁가야지	-4661
▁가운데	-4662
▁걸릴지	-4663
▁고시원	-4664
▁과학관	-4665
▁급성장	-4666
▁기숙사	-4667
▁나들이	-4668
▁내려요	-4669
▁내버려	-4670
▁놀이터	-4671
▁눈꺼풀	-4672
▁는데도	-4673
▁다녀왔	-4674
▁닥쳐올	-4675
▁달려오	-4676
▁던가요	-4677
▁데려오	-4678
▁도망가	-4679
▁돌아간	-4680
▁돌아갈	-4681
▁돌아온	-4682
▁돌아와	-4683
▁돌아왔	-4684
▁뒷모습	-4685
▁똑같이	-4686
▁라면요	-4687
▁마르셀	-4688
▁마셔도	-4689
▁며느리	-4690
▁면도기	-4691
▁목도리	-4692
▁무너짐	-4693
▁무뎌져	-4694
▁무뎌졌	-4695
▁바빠도	-4696
▁배워가	-4697
▁부활절	-4698
▁빌릴까	-4699
▁사계절	-4700
▁생리통	-4701
▁셔틀콕	-4702
▁수영장	-4703
▁술기운	-4704
▁술자리	-4705
▁술주정	-4706
▁스키장	-4707
▁신가요	-4708
▁안녕히	-4709
▁앞모습	-4710
▁어이없	-4711
▁여행가	-4712
▁연락도	-4713
▁예뻐질	-4714
▁온다고	-4715
▁옵니다	-4716
▁은가요	-4717
▁음료수	-4718
▁의식적	-4719
▁이겨냈	-4720
▁이력서	-4721
▁인문학	-4722
▁일부러	-4723
▁일어난	-4724
▁자라나	-4725
▁자장면	-4726
▁전해졌	-4727
▁주름살	-4728
▁주인공	-4729
▁준다면	-4730
▁줄어들	-4731
▁즐거울	-4732
▁직장인	-4733
▁찢어지	-4734
▁출근길	-4735
▁투성이	-4736
▁필기구	-4737
▁한데요	-4738
▁해져야	-4739
▁회사원	-4740
▁고속버스	-4741
▁그럴까요	-4742
▁기다려도	-4743
▁두근두근	-4744
▁보냈으니	-4745
▁비정규직	-4746
▁사탕수수	-4747
▁시끄러워	-4748
▁일그러지	-4749
▁전문학교	-4750
▁쫓아다니	-4751
▁흘러나오	-4752
▁굽	-4753
▁균	-4754
▁낚	-4755
▁뉴	-4756
▁뜰	-4757
▁럽	-4758
▁립	-4759
▁묶	-4760
▁뮤	-4761
▁솟	-4762
▁웅	-4763
▁팬	-4764
▁헝	-4765
▁혐	-4766
그인	-4767
레인	-4768
력히	-4769
로트	-4770
리적	-4771
마다	-4772
무게	-4773
물관	-4774
바이	-4775
벅지	-4776
본어	-4777
부심	-4778
산화	-4779
실점	-4780
완전	-4781
울렛	-4782
자의	-4783
잔치	-4784
저기	-4785
저씨	-4786
졸중	-4787
주권	-4788
카르	-4789
탄소	-4790
토닥	-4791
▁가방	-4792
▁가스	-4793
▁간부	-4794
▁감동	-4795
▁감속	-4796
▁개념	-4797
▁개미	-4798
▁건네	-4799
▁건축	-4800
▁게으	-4801
▁계모	-4802
▁계약	-4803
▁곤충	-4804
▁공평	-4805
▁과실	-4806
▁과자	-4807
▁군세	-4808
▁근무	-4809
▁기쁘	-4810
▁기색	-4811
▁기획	-4812
▁낚시	-4813
▁날려	-4814
▁내가	-4815
▁눈썹	-4816
▁단수	-4817
▁단초	-4818
▁당첨	-4819
▁들리	-4820
▁디자	-4821
▁따끔	-4822
▁라이	-4823
▁렌즈	-4824
▁매너	-4825
▁메모	-4826
▁메우	-4827
▁명곡	-4828
▁모질	-4829
▁문신	-4830
▁민감	-4831
▁민속	-4832
▁밀치	-4833
▁바닥	-4834
▁발휘	-4835
▁법령	-4836
▁변장	-4837
▁별다	-4838
▁봉황	-4839
▁불륜	-4840
▁불매	-4841
▁불미	-4842
▁비하	-4843
▁사야	-4844
▁사흘	-4845
▁상반	-4846
▁상자	-4847
▁서적	-4848
▁설계	-4849
▁섬기	-4850
▁세운	-4851
▁세월	-4852
▁소액	-4853
▁소주	-4854
▁손쉽	-4855
▁손실	-4856
▁솟아	-4857
▁수순	-4858
▁스팸	-4859
▁시노	-4860
▁시도	-4861
▁시럽	-4862
▁신앙	-4863
▁신입	-4864
▁실행	-4865
▁아라	-4866
▁안주	-4867
▁암꽃	-4868
▁압축	-4869
▁액정	-4870
▁액체	-4871
▁양치	-4872
▁언행	-4873
▁여생	-4874
▁오토	-4875
▁외부	-4876
▁요인	-4877
▁욕설	-4878
▁원인	-4879
▁위쪽	-4880
▁유료	-4881
▁유발	-4882
▁일방	-4883
▁임대	-4884
▁자금	-4885
▁자요	-4886
▁작동	-4887
▁장과	-4888
▁재즈	-4889
▁적기	-4890
▁제거	-4891
▁조각	-4892
▁주제	-4893
▁주체	-4894
▁주행	-4895
▁중복	-4896
▁지각	-4897
▁지시	-4898
▁지원	-4899
▁진학	-4900
▁찔려	-4901
▁채소	-4902
▁총회	-4903
▁탐욕	-4904
▁테크	-4905
▁통찰	-4906
▁퇴직	-4907
▁패션	-4908
▁폭력	-4909
▁폭발	-4910
▁푸아	-4911
▁플래	-4912
▁해내	-4913
▁헝겊	-4914
▁호의	-4915
▁환율	-4916
어나오	-4917
▁강력히	-4918
▁건너편	-4919
▁구조적	-4920
▁기념식	-4921
▁끌어올	-4922
▁논리적	-4923
▁뇌졸중	-4924
▁다가왔	-4925
▁대리인	-4926
▁더워서	-4927
▁돌려받	-4928
▁동일시	-4929
▁몸무게	-4930
▁무실점	-4931
▁물리학	-4932
▁뮤지션	-4933
▁바보짓	-4934
▁박물관	-4935
▁불완전	-4936
▁비틀즈	-4937
▁사회적	-4938
▁소시지	-4939
▁수신자	-4940
▁아울렛	-4941
▁아저씨	-4942
▁영주권	-4943
▁옮겨가	-4944
▁옮겨오	-4945
▁왕자의	-4946
▁외국인	-4947
▁음악인	-4948
▁이산화	-4949
▁인지도	-4950
▁일본어	-4951
▁자동차	-4952
▁자부심	-4953
▁저마다	-4954
▁전시관	-4955
▁정규직	-4956
▁정류장	-4957
▁정신없	-4958
▁중거리	-4959
▁집중력	-4960
▁처리장	-4961
▁트로트	-4962
▁피카르	-4963
▁할인점	-4964
▁허벅지	-4965
▁흔들림	-4966
▁민속놀이	-4967
▁솟아오르	-4968
▁쓰러뜨리	-4969
▁어린이날	-4970
▁어울릴까	-4971
▁여기저기	-4972
▁오토바이	-4973
▁일상생활	-4974
▁토닥토닥	-4975
▁튀어나오	-4976
▁이산화탄소	-4977
▁꿩	-4978
▁닦	-4979
▁돕	-4980
▁멜	-4981
▁벅	-4982
▁벤	-4983
▁빛	-4984
▁샌	-4985
▁슈	-4986
▁욜	-4987
▁젠	-4988
▁첨	-4989
▁측	-4990
▁칠	-4991
▁캐	-4992
▁쾌	-4993
▁텀	-4994
▁펴	-4995
▁펼	-4996
▁퓌	-4997
▁퓨	-4998
▁픽	-4999
▁험	-5000
▁훌	-5001
결제	-5002
관식	-5003
교통	-5004
구리	-5005
그만	-5006
기름	-5007
너지	-5008
니티	-5009
다수	-5010
단체	-5011
더지	-5012
도라	-5013
드위	-5014
따르	-5015
뚝뚝	-5016
라스	-5017
러웠	-5018
로디	-5019
르몬	-5020
먹을	-5021
모으	-5022
미터	-5023
민가	-5024
바지	-5025
방의	-5026
방전	-5027
범위	-5028
숭이	-5029
시도	-5030
시험	-5031
액형	-5032
어링	-5033
연상	-5034
이너	-5035
인지	-5036
저분	-5037
저트	-5038
전거	-5039
조주	-5040
청소	-5041
춘기	-5042
친상	-5043
통제	-5044
파민	-5045
프터	-5046
학금	-5047
한다	-5048
현실	-5049
휴일	-5050
▁가게	-5051
▁가망	-5052
▁가재	-5053
▁감이	-5054
▁개발	-5055
▁개시	-5056
▁갱신	-5057
▁거두	-5058
▁거지	-5059
▁건들	-5060
▁격노	-5061
▁격식	-5062
▁견과	-5063
▁결점	-5064
▁계정	-5065
▁계좌	-5066
▁고문	-5067
▁고자	-5068
▁고집	-5069
▁공복	-5070
▁교환	-5071
▁구걸	-5072
▁구매	-5073
▁구체	-5074
▁구현	-5075
▁권고	-5076
▁그쪽	-5077
▁극우	-5078
▁근교	-5079
▁급료	-5080
▁기재	-5081
▁기침	-5082
▁꾸리	-5083
▁꿈꾸	-5084
▁끼우	-5085
▁나쁨	-5086
▁난감	-5087
▁난처	-5088
▁난폭	-5089
▁낮술	-5090
▁낮추	-5091
▁내주	-5092
▁낼까	-5093
▁노동	-5094
▁녹봉	-5095
▁놀려	-5096
▁높이	-5097
▁누락	-5098
▁누우	-5099
▁다스	-5100
▁다육	-5101
▁단체	-5102
▁담담	-5103
▁대역	-5104
▁대충	-5105
▁덜하	-5106
▁독려	-5107
▁독약	-5108
▁동봉	-5109
▁라인	-5110
▁라크	-5111
▁러브	-5112
▁로봇	-5113
▁롤러	-5114
▁마찬	-5115
▁막막	-5116
▁만류	-5117
▁만져	-5118
▁맛나	-5119
▁맞붙	-5120
▁맞서	-5121
▁멈출	-5122
▁명상	-5123
▁명확	-5124
▁목과	-5125
▁몰아	-5126
▁몸통	-5127
▁무덥	-5128
▁문집	-5129
▁믿기	-5130
▁방심	-5131
▁배가	-5132
▁배상	-5133
▁배이	-5134
▁백수	-5135
▁백업	-5136
▁버림	-5137
▁벌레	-5138
▁변신	-5139
▁병리	-5140
▁병행	-5141
▁보관	-5142
▁보수	-5143
▁보안	-5144
▁보임	-5145
▁부리	-5146
▁분담	-5147
▁분산	-5148
▁분양	-5149
▁분하	-5150
▁불과	-5151
▁불신	-5152
▁불운	-5153
▁블루	-5154
▁빌리	-5155
▁빌미	-5156
▁빌어	-5157
▁사도	-5158
▁사수	-5159
▁사전	-5160
▁사치	-5161
▁산다	-5162
▁삼가	-5163
▁삼촌	-5164
▁상의	-5165
▁상하	-5166
▁새끼	-5167
▁새장	-5168
▁서류	-5169
▁서문	-5170
▁서핑	-5171
▁선언	-5172
▁선천	-5173
▁섬유	-5174
▁성질	-5175
▁손톱	-5176
▁수난	-5177
▁수락	-5178
▁수저	-5179
▁수준	-5180
▁수중	-5181
▁숙소	-5182
▁숙취	-5183
▁순결	-5184
▁순항	-5185
▁슈퍼	-5186
▁스튜	-5187
▁습기	-5188
▁시골	-5189
▁식물	-5190
▁식상	-5191
▁실용	-5192
▁심난	-5193
▁씨앗	-5194
▁아기	-5195
▁아날	-5196
▁아롱	-5197
▁아른	-5198
▁아부	-5199
▁아토	-5200
▁아휴	-5201
▁악령	-5202
▁알람	-5203
▁알선	-5204
▁야식	-5205
▁약점	-5206
▁약하	-5207
▁양의	-5208
▁어장	-5209
▁어필	-5210
▁에덴	-5211
▁여지	-5212
▁역할	-5213
▁영역	-5214
▁옥상	-5215
▁와인	-5216
▁외출	-5217
▁요건	-5218
▁요격	-5219
▁욕실	-5220
▁욕해	-5221
▁용량	-5222
▁웹툰	-5223
▁위드	-5224
▁위축	-5225
▁위층	-5226
▁유흥	-5227
▁육아	-5228
▁은행	-5229
▁의견	-5230
▁의무	-5231
▁의외	-5232
▁이랬	-5233
▁이브	-5234
▁이외	-5235
▁이직	-5236
▁일루	-5237
▁일정	-5238
▁자게	-5239
▁자랑	-5240
▁작정	-5241
▁장애	-5242
▁저랬	-5243
▁저러	-5244
▁저음	-5245
▁저장	-5246
▁절감	-5247
▁절벽	-5248
▁정량	-5249
▁정무	-5250
▁정작	-5251
▁정적	-5252
▁제안	-5253
▁조가	-5254
▁종결	-5255
▁줄이	-5256
▁중국	-5257
▁중소	-5258
▁지겹	-5259
▁지끈	-5260
▁지수	-5261
▁지진	-5262
▁지침	-5263
▁직관	-5264
▁진리	-5265
▁참석	-5266
▁채우	-5267
▁천국	-5268
▁청결	-5269
▁청약	-5270
▁초록	-5271
▁최신	-5272
▁출간	-5273
▁출항	-5274
▁취급	-5275
▁취소	-5276
▁측정	-5277
▁치우	-5278
▁치장	-5279
▁침착	-5280
▁카본	-5281
▁커뮤	-5282
▁코드	-5283
▁타입	-5284
▁태엽	-5285
▁터질	-5286
▁토끼	-5287
▁통일	-5288
▁통하	-5289
▁튀기	-5290
▁특성	-5291
▁평화	-5292
▁폭풍	-5293
▁푸스	-5294
▁풍광	-5295
▁한결	-5296
▁한계	-5297
▁한때	-5298
▁한적	-5299
▁햇빛	-5300
▁허기	-5301
▁현명	-5302
▁형성	-5303
▁형편	-5304
▁호가	-5305
▁호수	-5306
▁호투	-5307
▁호평	-5308
▁혼례	-5309
▁혼수	-5310
▁홈런	-5311
▁화살	-5312
▁환경	-5313
▁환기	-5314
▁환상	-5315
▁환원	-5316
▁효율	-5317
▁훔쳐	-5318
▁휴학	-5319
▁희미	-5320
드위치	-5321
지러워	-5322
테리어	-5323
▁ᄂ가요	-5324
▁건축가	-5325
▁겉모습	-5326
▁결과물	-5327
▁계획안	-5328
▁공휴일	-5329
▁관계없	-5330
▁광범위	-5331
▁그리웠	-5332
▁금요일	-5333
▁기계식	-5334
▁기본적	-5335
▁기술력	-5336
▁기획사	-5337
▁길거리	-5338
▁대관식	-5339
▁대다수	-5340
▁대청소	-5341
▁대학생	-5342
▁도자기	-5343
▁도파민	-5344
▁두더지	-5345
▁디저트	-5346
▁라이브	-5347
▁마법사	-5348
▁마음껏	-5349
▁막힌다	-5350
▁매달렸	-5351
▁메시지	-5352
▁멜로디	-5353
▁목욕탕	-5354
▁무뚝뚝	-5355
▁베어링	-5356
▁보병대	-5357
▁부끄럽	-5358
▁불쌍히	-5359
▁사라지	-5360
▁사춘기	-5361
▁살인죄	-5362
▁섣부르	-5363
▁성공회	-5364
▁손가락	-5365
▁쉬운가	-5366
▁시트콤	-5367
▁신경증	-5368
▁아이고	-5369
▁애프터	-5370
▁에너지	-5371
▁연방의	-5372
▁예뻐해	-5373
▁원숭이	-5374
▁웨이크	-5375
▁위해서	-5376
▁위험성	-5377
▁유명인	-5378
▁이끌리	-5379
▁이어받	-5380
▁이어지	-5381
▁인생관	-5382
▁자전거	-5383
▁작성자	-5384
▁잔소리	-5385
▁장학금	-5386
▁주연상	-5387
▁증거물	-5388
▁지극히	-5389
▁지저분	-5390
▁지표면	-5391
▁진통제	-5392
▁창조주	-5393
▁턱시도	-5394
▁통찰력	-5395
▁판단력	-5396
▁판도라	-5397
▁평등권	-5398
▁필수품	-5399
▁혈액형	-5400
▁호르몬	-5401
▁화이트	-5402
▁회의적	-5403
▁가라앉히	-5404
▁끌어모으	-5405
▁대중교통	-5406
▁디자이너	-5407
▁마찬가지	-5408
▁미워한다	-5409
▁빌어먹을	-5410
▁샌드위치	-5411
▁소액결제	-5412
▁스튜디오	-5413
▁아날로그	-5414
▁어린이집	-5415
▁외로워서	-5416
▁인테리어	-5417
▁자격시험	-5418
▁중소기업	-5419
▁지끈거려	-5420
▁캐롤라이	-5421
▁커뮤니티	-5422
▁갑작스러웠	-5423
▁아름다워요	-5424
65	-5425
??	-5426
▁렴	-5427
▁앙	-5428
▁캄	-5429
▁텁	-5430
가짐	-5431
간질	-5432
기울	-5433
까옷	-5434
꺼번	-5435
도염	-5436
동본	-5437
드려	-5438
란다	-5439
려면	-5440
려요	-5441
로지	-5442
록콜	-5443
막혀	-5444
말락	-5445
문서	-5446
볼까	-5447
봐야	-5448
빙수	-5449
서야	-5450
세포	-5451
슬쩍	-5452
약스	-5453
어난	-5454
올랐	-5455
우드	-5456
의식	-5457
이면	-5458
인데	-5459
종일	-5460
직이	-5461
질러	-5462
쳐서	-5463
테일	-5464
했었	-5465
▁14	-5466
▁23	-5467
▁40	-5468
▁go	-5469
▁sd	-5470
▁~!	-5471
▁가물	-5472
▁가상	-5473
▁가시	-5474
▁가질	-5475
▁각이	-5476
▁갈궈	-5477
▁갖춰	-5478
▁개불	-5479
▁개학	-5480
▁객실	-5481
▁거칠	-5482
▁건냈	-5483
▁걸림	-5484
▁걸으	-5485
▁검색	-5486
▁격렬	-5487
▁결별	-5488
▁결실	-5489
▁결코	-5490
▁경과	-5491
▁경영	-5492
▁경찰	-5493
▁경쾌	-5494
▁계셨	-5495
▁계시	-5496
▁고가	-5497
▁고를	-5498
▁고무	-5499
▁깼	-5500
▁뚱	-5501
▁락	-5502
▁챘	-5503
기능	-5504
동갑	-5505
랑거	-5506
러요	-5507
려선	-5508
려야	-5509
액션	-5510
위제	-5511
제자	-5512
트폰	-5513
플라	-5514
할지	-5515
▁결성	-5516
▁경악	-5517
▁경향	-5518
▁고픈	-5519
▁곧장	-5520
▁골르	-5521
▁공기	-5522
▁공동	-5523
▁공채	-5524
▁과오	-5525
▁과함	-5526
▁괜찬	-5527
▁교내	-5528
▁교통	-5529
▁구구	-5530
▁구릿	-5531
▁구함	-5532
▁군데	-5533
▁군인	-5534
▁군침	-5535
▁굴곡	-5536
▁궁상	-5537
▁규정	-5538
▁그르	-5539
▁그린	-5540
▁그적	-5541
▁근사	-5542
▁근질	-5543
▁글로	-5544
▁금값	-5545
▁금수	-5546
▁급기	-5547
▁기네	-5548
▁기댄	-5549
▁기부	-5550
▁김동	-5551
▁깊숙	-5552
▁까봐	-5553
▁깎인	-5554
▁깔리	-5555
▁깔창	-5556
▁깨울	-5557
▁꺼려	-5558
▁꺼지	-5559
▁꺼진	-5560
▁꺼질	-5561
▁꼼수	-5562
▁꽃바	-5563
▁꿀꿀	-5564
▁꿈꿀	-5565
▁꿈꿨	-5566
▁끌림	-5567
▁끝낸	-5568
▁나감	-5569
▁나나	-5570
▁나쁠	-5571
▁나았	-5572
▁나왓	-5573
▁낙이	-5574
▁난데	-5575
▁날렸	-5576
▁날이	-5577
▁남겼	-5578
▁남긴	-5579
▁남음	-5580
▁났었	-5581
▁내분	-5582
▁내요	-5583
▁너야	-5584
▁넘가	-5585
▁넘나	-5586
▁넘쳐	-5587
▁네버	-5588
▁노출	-5589
▁녹차	-5590
▁놀라	-5591
▁놔야	-5592
▁놨나	-5593
▁놨다	-5594
▁눈빛	-5595
▁니즘	-5596
▁다냐	-5597
▁다녔	-5598
▁다님	-5599
▁덥	-5600
▁텐	-5601
감기	-5602
겨움	-5603
껄이	-5604
나올	-5605
닝콜	-5606
동산	-5607
비전	-5608
사니	-5609
산물	-5610
에도	-5611
예요	-5612
워야	-5613
워졌	-5614
워크	-5615
인과	-5616
인상	-5617
저것	-5618
중히	-5619
지근	-5620
진거	-5621
차피	-5622
쳐요	-5623
큐피	-5624
타이	-5625
학생	-5626
▁감흥	-5627
▁개판	-5628
▁고비	-5629
▁그중	-5630
▁기쁜	-5631
▁꺼져	-5632
▁끌려	-5633
▁놓친	-5634
▁다름	-5635
▁다림	-5636
▁다울	-5637
▁다채	-5638
▁단오	-5639
▁당번	-5640
▁당할	-5641
▁당함	-5642
▁대놓	-5643
▁대박	-5644
▁대처	-5645
▁대판	-5646
▁대행	-5647
▁댄디	-5648
▁댄스	-5649
▁더군	-5650
▁더치	-5651
▁데치	-5652
▁도네	-5653
▁도덕	-5654
▁도피	-5655
▁돌과	-5656
▁돌릴	-5657
▁동갑	-5658
▁동그	-5659
▁동심	-5660
▁동창	-5661
▁돼지	-5662
▁됐었	-5663
▁되게	-5664
▁된대	-5665
▁둬서	-5666
▁드론	-5667
▁득표	-5668
▁들킨	-5669
▁디딜	-5670
▁따를	-5671
▁따오	-5672
▁따져	-5673
▁딸까	-5674
▁땀나	-5675
▁떠가	-5676
▁떠서	-5677
▁뚱뚱	-5678
▁뜨끈	-5679
▁뜬눈	-5680
▁라뇨	-5681
▁레고	-5682
▁려니	-5683
▁력도	-5684
▁로라	-5685
▁루머	-5686
▁리언	-5687
▁마디	-5688
▁마려	-5689
▁마저	-5690
▁마추	-5691
▁마카	-5692
▁막연	-5693
▁막지	-5694
▁막혔	-5695
▁만보	-5696
▁말라	-5697
▁말렸	-5698
▁말수	-5699
▁쭉	-5700
▁킬	-5701
라구	-5702
빡빡	-5703
습관	-5704
오를	-5705
워지	-5706
이션	-5707
이슨	-5708
조심	-5709
줄까	-5710
증금	-5711
증기	-5712
질까	-5713
취감	-5714
취제	-5715
층간	-5716
하나	-5717
해질	-5718
헤치	-5719
현듯	-5720
홀히	-5721
▁갈지	-5722
▁굽힐	-5723
▁기견	-5724
▁깜놀	-5725
▁날릴	-5726
▁남사	-5727
▁냉동	-5728
▁다대	-5729
▁드메	-5730
▁로써	-5731
▁립니	-5732
▁만해	-5733
▁망가	-5734
▁망해	-5735
▁매년	-5736
▁매듭	-5737
▁매이	-5738
▁맨션	-5739
▁먹방	-5740
▁먹일	-5741
▁먼데	-5742
▁멀미	-5743
▁멀티	-5744
▁멈춘	-5745
▁면밀	-5746
▁명탐	-5747
▁몇일	-5748
▁모여	-5749
▁모잘	-5750
▁목걸	-5751
▁몸부	-5752
▁몸살	-5753
▁몸약	-5754
▁묘약	-5755
▁묘한	-5756
▁무궁	-5757
▁무던	-5758
▁문의	-5759
▁물론	-5760
▁물증	-5761
▁미운	-5762
▁미흡	-5763
▁바꿈	-5764
▁바꿨	-5765
▁바랐	-5766
▁바쁠	-5767
▁박력	-5768
▁반드	-5769
▁반짝	-5770
▁반한	-5771
▁발열	-5772
▁밟혀	-5773
▁밟힐	-5774
▁밥상	-5775
▁밥심	-5776
▁밥통	-5777
▁방구	-5778
▁방랑	-5779
▁방침	-5780
▁배낭	-5781
▁배래	-5782
▁배움	-5783
▁배포	-5784
▁벅찰	-5785
▁벌떡	-5786
▁벌려	-5787
▁베기	-5788
▁베인	-5789
▁베지	-5790
▁베트	-5791
▁변치	-5792
▁변했	-5793
▁별것	-5794
▁별똥	-5795
▁별별	-5796
▁별증	-5797
▁병나	-5798
▁병동	-5799
jk	-5800
▁껴	-5801
▁끗	-5802
▁낌	-5803
▁댓	-5804
가물	-5805
간당	-5806
간히	-5807
같아	-5808
겠다	-5809
구질	-5810
근무	-5811
꽂이	-5812
놔요	-5813
대요	-5814
덜투	-5815
디쓴	-5816
명도	-5817
바퀴	-5818
볶음	-5819
수리	-5820
육아	-5821
이표	-5822
일링	-5823
저나	-5824
저냥	-5825
조사	-5826
질지	-5827
찌개	-5828
타기	-5829
흡연	-5830
▁jk	-5831
▁갇혀	-5832
▁그름	-5833
▁금사	-5834
▁껴야	-5835
▁낌새	-5836
▁나위	-5837
▁대만	-5838
▁댓글	-5839
▁데요	-5840
▁맛없	-5841
▁목전	-5842
▁미울	-5843
▁보자	-5844
▁보컬	-5845
▁보태	-5846
▁복근	-5847
▁복마	-5848
▁복만	-5849
▁복원	-5850
▁본받	-5851
▁본전	-5852
▁본지	-5853
▁봄날	-5854
▁봉투	-5855
▁부딛	-5856
▁부렸	-5857
▁부장	-5858
▁부재	-5859
▁부츠	-5860
▁분다	-5861
▁분야	-5862
▁분출	-5863
▁분통	-5864
▁불황	-5865
▁붙였	-5866
▁브런	-5867
▁비와	-5868
▁비키	-5869
▁비해	-5870
▁빙수	-5871
▁빠이	-5872
▁빠진	-5873
▁빠짐	-5874
▁빡빡	-5875
▁빨간	-5876
▁빨랑	-5877
▁빵꾸	-5878
▁뺏긴	-5879
▁뺏길	-5880
▁뽀뽀	-5881
▁뿌려	-5882
▁뿐이	-5883
▁삐지	-5884
▁사빠	-5885
▁사연	-5886
▁사표	-5887
▁산부	-5888
▁살빼	-5889
▁살살	-5890
▁상실	-5891
▁상했	-5892
▁색계	-5893
▁서른	-5894
▁서먹	-5895
▁섞인	-5896
▁선과	-5897
▁설움	-5898
▁설쳤	-5899
▁랭	-5900
▁맙	-5901
▁샘	-5902
▁샜	-5903
▁왓	-5904
▁즘	-5905
▁탕	-5906
가간	-5907
과응	-5908
구려	-5909
국수	-5910
기물	-5911
꿈치	-5912
남어	-5913
다봐	-5914
닥터	-5915
동진	-5916
딘가	-5917
려자	-5918
력소	-5919
로드	-5920
름신	-5921
리여	-5922
린대	-5923
망진	-5924
무진	-5925
반짝	-5926
버림	-5927
벤션	-5928
붙였	-5929
상시	-5930
새웠	-5931
성모	-5932
센트	-5933
쉬기	-5934
양력	-5935
용차	-5936
웃음	-5937
웃풋	-5938
의치	-5939
이킹	-5940
재주	-5941
정선	-5942
젠데	-5943
지심	-5944
차림	-5945
쳐도	-5946
커페	-5947
키지	-5948
피린	-5949
▁귀차	-5950
▁기실	-5951
▁까매	-5952
▁깎였	-5953
▁끊긴	-5954
▁내렸	-5955
▁노라	-5956
▁높여	-5957
▁누름	-5958
▁딱히	-5959
▁맴도	-5960
▁모았	-5961
▁바퀴	-5962
▁섭취	-5963
▁성간	-5964
▁성관	-5965
▁성급	-5966
▁성욕	-5967
▁성큼	-5968
▁세용	-5969
▁세의	-5970
▁세탁	-5971
▁센치	-5972
▁셔도	-5973
▁셔츠	-5974
▁소가	-5975
▁소분	-5976
▁소진	-5977
▁손길	-5978
▁솔리	-5979
▁솔솔	-5980
▁솜털	-5981
▁수료	-5982
▁수시	-5983
▁수신	-5984
▁수제	-5985
▁수해	-5986
▁술집	-5987
▁쉬워	-5988
▁스프	-5989
▁승낙	-5990
▁시덥	-5991
▁시비	-5992
▁식중	-5993
▁신겨	-5994
▁신선	-5995
▁신천	-5996
▁신호	-5997
▁실컷	-5998
▁실험	-5999
▁덴	-6000
▁률	-6001
▁림	-6002
▁쎄	-6003
▁찰	-6004
나서	-6005
년기	-6006
대용	-6007
러니	-6008
야할	-6009
연제	-6010
웨어	-6011
잡이	-6012
장판	-6013
절절	-6014
종신	-6015
페이	-6016
▁거릴	-6017
▁경관	-6018
▁곱창	-6019
▁낮춰	-6020
▁대지	-6021
▁덧나	-6022
▁동의	-6023
▁뒷맛	-6024
▁뒹글	-6025
▁드나	-6026
▁들렀	-6027
▁메에	-6028
▁모발	-6029
▁베푸	-6030
▁별일	-6031
▁생물	-6032
▁성분	-6033
▁손맛	-6034
▁시킬	-6035
▁신대	-6036
▁심각	-6037
▁심재	-6038
▁쌓았	-6039
▁쌓였	-6040
▁써도	-6041
▁써서	-6042
▁쓰인	-6043
▁쓰임	-6044
▁쓴다	-6045
▁쓴지	-6046
▁쓸까	-6047
▁씨씨	-6048
▁아낌	-6049
▁아따	-6050
▁아선	-6051
▁아싸	-6052
▁아오	-6053
▁아자	-6054
▁아함	-6055
▁악마	-6056
▁악연	-6057
▁악취	-6058
▁앞둬	-6059
▁앞서	-6060
▁앞일	-6061
▁애그	-6062
▁애잔	-6063
▁야한	-6064
▁양가	-6065
▁양궁	-6066
▁어김	-6067
▁어니	-6068
▁어릴	-6069
▁어째	-6070
▁어흥	-6071
▁얼도	-6072
▁얽힌	-6073
▁업자	-6074
▁엉킨	-6075
▁여겨	-6076
▁여느	-6077
▁여린	-6078
▁여잘	-6079
▁여차	-6080
▁연구	-6081
▁연연	-6082
▁연중	-6083
▁연차	-6084
▁열릴	-6085
▁열망	-6086
▁영어	-6087
▁영영	-6088
▁예보	-6089
▁예쁠	-6090
▁예술	-6091
▁예우	-6092
▁예편	-6093
▁오기	-6094
▁오를	-6095
▁오코	-6096
▁옥죄	-6097
▁온대	-6098
▁온통	-6099
▁올게	-6100
▁올인	-6101
▁올지	-6102
▁와라	-6103
▁와야	-6104
▁와우	-6105
▁와중	-6106
▁완료	-6107
▁외과	-6108
▁외교	-6109
▁외비	-6110
▁외향	-6111
▁요긴	-6112
▁요번	-6113
▁요술	-6114
▁욕했	-6115
▁용도	-6116
▁우릴	-6117
▁우아	-6118
▁운세	-6119
▁울르	-6120
▁울리	-6121
▁웅장	-6122
▁원두	-6123
▁위병	-6124
▁위통	-6125
▁윗몸	-6126
▁윗집	-6127
▁유세	-6128
▁으네	-6129
▁으란	-6130
▁으아	-6131
▁으으	-6132
▁으지	-6133
▁응시	-6134
▁의중	-6135
▁이겼	-6136
▁이듭	-6137
▁이왕	-6138
▁이요	-6139
▁이케	-6140
▁인강	-6141
▁인복	-6142
▁인본	-6143
▁인한	-6144
▁일련	-6145
▁임신	-6146
▁자가	-6147
▁자나	-6148
▁자던	-6149
▁자라	-6150
▁자만	-6151
▁잔액	-6152
▁잔잔	-6153
▁잘나	-6154
▁잠궈	-6155
▁잠잠	-6156
▁잡담	-6157
▁잡동	-6158
▁잡혀	-6159
▁잡혔	-6160
▁잡힐	-6161
▁장답	-6162
▁장례	-6163
▁재물	-6164
▁재설	-6165
▁재택	-6166
▁쟁여	-6167
▁적성	-6168
▁적재	-6169
▁적적	-6170
▁전과	-6171
▁전세	-6172
▁전재	-6173
▁전제	-6174
▁전할	-6175
▁전했	-6176
▁정녀	-6177
▁정윤	-6178
▁정한	-6179
▁제끼	-6180
▁제후	-6181
▁젠가	-6182
▁져야	-6183
▁졋네	-6184
▁졋습	-6185
▁조깅	-6186
▁조롱	-6187
▁조별	-6188
▁조취	-6189
▁졸라	-6190
▁졸린	-6191
▁졸음	-6192
▁주길	-6193
▁주년	-6194
▁주량	-6195
▁주저	-6196
▁주절	-6197
▁줄일	-6198
▁지기	-6199
▁지녔	-6200
▁지롱	-6201
▁지르	-6202
▁지상	-6203
▁지운	-6204
▁진대	-6205
▁진중	-6206
▁질린	-6207
▁질지	-6208
▁질타	-6209
▁짠하	-6210
▁쫄딱	-6211
▁쫓기	-6212
▁차면	-6213
▁차차	-6214
▁착가	-6215
▁창가	-6216
▁창업	-6217
▁책장	-6218
▁챙겼	-6219
▁챙긴	-6220
▁챙길	-6221
▁처량	-6222
▁처러	-6223
▁척도	-6224
▁철저	-6225
▁쳐요	-6226
▁초면	-6227
▁추우	-6228
▁추울	-6229
▁충고	-6230
▁충부	-6231
▁충족	-6232
▁취임	-6233
▁취한	-6234
▁취할	-6235
▁층간	-6236
▁치가	-6237
▁치고	-6238
▁치정	-6239
▁침침	-6240
▁칭송	-6241
▁카풀	-6242
▁캄캄	-6243
▁커져	-6244
▁커졌	-6245
▁코인	-6246
▁콕콕	-6247
▁큐피	-6248
▁클라	-6249
▁키울	-6250
▁킬로	-6251
▁타성	-6252
▁탁월	-6253
▁탄다	-6254
▁탄탄	-6255
▁탈까	-6256
▁탈모	-6257
▁탈함	-6258
▁터닝	-6259
▁터짐	-6260
▁털털	-6261
▁텁텁	-6262
▁텅비	-6263
▁텔레	-6264
▁통증	-6265
▁통했	-6266
▁툭툭	-6267
▁트인	-6268
▁특이	-6269
▁특히	-6270
▁틀려	-6271
▁파란	-6272
▁파먹	-6273
▁팔린	-6274
▁패딩	-6275
▁편복	-6276
▁편히	-6277
▁펼쳐	-6278
▁표대	-6279
▁풀려	-6280
▁풍부	-6281
▁퓨저	-6282
▁피고	-6283
▁피맥	-6284
▁피웠	-6285
▁피치	-6286
▁픽서	-6287
▁핑핑	-6288
▁하드	-6289
▁하직	-6290
▁하하	-6291
▁학부	-6292
▁한껏	-6293
▁한나	-6294
▁한눈	-6295
▁할거	-6296
▁할걸	-6297
▁할꺼	-6298
▁할당	-6299
▁함포	-6300
▁해몽	-6301
▁했긴	-6302
▁행보	-6303
▁향료	-6304
▁향한	-6305
▁향해	-6306
▁허비	-6307
▁허하	-6308
▁험해	-6309
▁헤헤	-6310
▁헹궈	-6311
▁홀릭	-6312
▁화날	-6313
▁화낼	-6314
▁화창	-6315
▁화폐	-6316
▁환해	-6317
▁효과	-6318
▁효녀	-6319
▁후각	-6320
▁훈훈	-6321
▁휘성	-6322
▁흔치	-6323
▁흘려	-6324
▁히스	-6325
간다고	-6326
갑시다	-6327
과응보	-6328
기울이	-6329
길까봐	-6330
꺼번에	-6331
놀로지	-6332
덜투덜	-6333
랑거렸	-6334
려나간	-6335
록콜록	-6336
리여리	-6337
망진창	-6338
볶음밥	-6339
인다는	-6340
잖아요	-6341
제자매	-6342
직이수	-6343
진다면	-6344
코스터	-6345
타이핀	-6346
플라워	-6347
▁119	-6348
▁365	-6349
▁400	-6350
▁600	-6351
▁~!!	-6352
▁~??	-6353
▁가까웠	-6354
▁가로막	-6355
▁가르쳐	-6356
▁가릴까	-6357
▁가벼움	-6358
▁가벼웠	-6359
▁가습기	-6360
▁가져간	-6361
▁가져도	-6362
▁간간히	-6363
▁간다고	-6364
▁간다니	-6365
▁갈게요	-6366
▁갈구지	-6367
▁갑시다	-6368
▁갖춰서	-6369
▁거려요	-6370
▁거예요	-6371
▁건너가	-6372
▁건데요	-6373
▁걸림돌	-6374
▁걸쳐서	-6375
▁게스트	-6376
▁게으른	-6377
▁견뎌낼	-6378
▁경조사	-6379
▁계신가	-6380
▁고무신	-6381
▁고서점	-6382
▁고장났	-6383
▁고쳐져	-6384
▁고픈데	-6385
▁곤두서	-6386
▁괜잖아	-6387
▁괜찬아	-6388
▁괴로우	-6389
▁구릿빛	-6390
▁규정지	-6391
▁그나마	-6392
▁그래야	-6393
▁그랬었	-6394
▁그런데	-6395
▁그르친	-6396
▁그리우	-6397
▁그만둔	-6398
▁기대치	-6399
▁기를까	-6400
▁기막혀	-6401
▁기에요	-6402
▁기원후	-6403
▁길러도	-6404
▁김동욱	-6405
▁깊숙이	-6406
▁깔끔히	-6407
▁깨끗이	-6408
▁깨어난	-6409
▁깨우치	-6410
▁깨질지	-6411
▁꼬까옷	-6412
▁꽃꽂이	-6413
▁끓여서	-6414
▁나빠질	-6415
▁나쁜데	-6416
▁나올까	-6417
▁나와요	-6418
▁난다면	-6419
▁날까봐	-6420
▁남겨요	-6421
▁남긴다	-6422
▁납시다	-6423
▁내려야	-6424
▁내려올	-6425
▁내볼까	-6426
▁내편이	-6427
▁낸다면	-6428
▁냄새나	-6429
▁냉동실	-6430
▁넘쳐날	-6431
▁노려보	-6432
▁녹여서	-6433
▁놔둬야	-6434
▁누군지	-6435
▁느껴졌	-6436
▁느낄지	-6437
▁느라고	-6438
▁는군요	-6439
▁는다네	-6440
▁는대도	-6441
▁다가갈	-6442
▁다가갔	-6443
▁다가와	-6444
▁다녀도	-6445
▁다녀야	-6446
▁다녀온	-6447
▁다닐까	-6448
▁다대포	-6449
▁다더니	-6450
▁다듬기	-6451
▁다른가	-6452
▁다를까	-6453
▁다면서	-6454
▁다스릴	-6455
▁다워야	-6456
▁다음해	-6457
▁다쳐요	-6458
▁다치바	-6459
▁달라졌	-6460
▁달했었	-6461
▁당해요	-6462
▁대놓고	-6463
▁대수롭	-6464
▁대역죄	-6465
▁대해서	-6466
▁더라면	-6467
▁더없이	-6468
▁던데요	-6469
▁도망갈	-6470
▁도피성	-6471
▁동그란	-6472
▁동창회	-6473
▁될라나	-6474
▁두드리	-6475
▁두려웠	-6476
▁둔한데	-6477
▁뒤따르	-6478
▁뒷담화	-6479
▁들어야	-6480
▁디테일	-6481
▁땡긴다	-6482
▁떠난대	-6483
▁떠돌이	-6484
▁떠올라	-6485
▁떠올려	-6486
▁떨려요	-6487
▁떨쳐낼	-6488
▁뜻밖에	-6489
▁띠동갑	-6490
▁라더니	-6491
▁라지만	-6492
▁락말락	-6493
▁려나요	-6494
▁려니까	-6495
▁로그인	-6496
▁로워질	-6497
▁리액션	-6498
▁마셔서	-6499
▁마실래	-6500
▁마카롱	-6501
▁만났었	-6502
▁말조심	-6503
▁망가졌	-6504
▁맞춰야	-6505
▁맞춰줄	-6506
▁매달린	-6507
▁매몰차	-6508
▁맥주병	-6509
▁머릿결	-6510
▁멈춰야	-6511
▁멋진가	-6512
▁멍청이	-6513
▁멍해질	-6514
▁메리지	-6515
▁면밀히	-6516
▁명탐정	-6517
▁모닝콜	-6518
▁모자란	-6519
▁모잘라	-6520
▁모조리	-6521
▁목감기	-6522
▁목걸이	-6523
▁몰라서	-6524
▁몰려가	-6525
▁몰려왔	-6526
▁몸부림	-6527
▁못할까	-6528
▁무던히	-6529
▁무서움	-6530
▁무의식	-6531
▁문질러	-6532
▁물어볼	-6533
▁미워지	-6534
▁미워할	-6535
▁미지근	-6536
▁믿음직	-6537
▁밀어내	-6538
▁밀어두	-6539
▁바꿔야	-6540
▁바닷속	-6541
▁바라봤	-6542
▁바람기	-6543
▁바빠졌	-6544
▁반가운	-6545
▁반가울	-6546
▁반대말	-6547
▁반드시	-6548
▁반려자	-6549
▁발신자	-6550
▁배신감	-6551
▁배워야	-6552
▁배워요	-6553
▁버려서	-6554
▁버려졌	-6555
▁버텨낼	-6556
▁버텨라	-6557
▁벗겨질	-6558
▁베란다	-6559
▁변한걸	-6560
▁별다를	-6561
▁별똥별	-6562
▁보살피	-6563
▁보여준	-6564
▁보인다	-6565
▁보일까	-6566
▁보일지	-6567
▁보증금	-6568
▁보험료	-6569
▁본다면	-6570
▁본위제	-6571
▁부담감	-6572
▁부딛히	-6573
▁부서진	-6574
▁부친상	-6575
▁불러봐	-6576
▁불러야	-6577
▁불현듯	-6578
▁브라이	-6579
▁브런치	-6580
▁빌려줘	-6581
▁빗소리	-6582
▁빠질까	-6583
▁빼앗겼	-6584
▁뿌려도	-6585
▁사귄다	-6586
▁사라져	-6587
▁사라짐	-6588
▁사무치	-6589
▁사인데	-6590
▁살까봐	-6591
▁살랑대	-6592
▁살려도	-6593
▁살아왔	-6594
▁생겨요	-6595
▁생길까	-6596
▁서글퍼	-6597
▁서글픈	-6598
▁서러운	-6599
▁서부터	-6600
▁선다고	-6601
▁성적표	-6602
▁성취감	-6603
▁소리나	-6604
▁소홀히	-6605
▁손재주	-6606
▁솔리드	-6607
▁수면제	-6608
▁수시로	-6609
▁수요일	-6610
▁수증기	-6611
▁수학원	-6612
▁순기능	-6613
▁순환선	-6614
▁숨쉬기	-6615
▁스러우	-6616
▁스러움	-6617
▁스러웠	-6618
▁스쳐도	-6619
▁스트립	-6620
▁슬퍼요	-6621
▁승용차	-6622
▁식도염	-6623
▁식습관	-6624
▁식중독	-6625
▁신입생	-6626
▁싸구려	-6627
▁싸울까	-6628
▁싸워요	-6629
▁쏟아져	-6630
▁쓰디쓴	-6631
▁아까운	-6632
▁아껴야	-6633
▁아니면	-6634
▁아마도	-6635
▁아쉬운	-6636
▁아약스	-6637
▁아웃풋	-6638
▁아이스	-6639
▁아파도	-6640
▁아파라	-6641
▁아파야	-6642
▁아파할	-6643
▁아플까	-6644
▁안대용	-6645
▁알려준	-6646
▁알아챘	-6647
▁앞자리	-6648
▁야겠다	-6649
▁어딘가	-6650
▁어려서	-6651
▁어려우	-6652
▁어린애	-6653
▁어울려	-6654
▁어울렸	-6655
▁어차피	-6656
▁언젠지	-6657
▁엄청난	-6658
▁업로드	-6659
▁엊그제	-6660
▁에게서	-6661
▁에다가	-6662
▁여의치	-6663
▁연상녀	-6664
▁였으면	-6665
▁예뻐서	-6666
▁예뻐졌	-6667
▁오래갈	-6668
▁온다니	-6669
▁온종일	-6670
▁올라왔	-6671
▁옷차림	-6672
▁완전체	-6673
▁움직여	-6674
▁움직일	-6675
▁원해서	-6676
▁윗부분	-6677
▁유부녀	-6678
▁유연제	-6679
▁윤종신	-6680
▁으려구	-6681
▁으려나	-6682
▁은근히	-6683
▁은데요	-6684
▁을려고	-6685
▁의료원	-6686
▁이러면	-6687
▁이를까	-6688
▁이쁜데	-6689
▁이어주	-6690
▁이해심	-6691
▁일단락	-6692
▁일러요	-6693
▁입학식	-6694
▁자동화	-6695
▁자취방	-6696
▁작아져	-6697
▁작아질	-6698
▁잘라야	-6699
▁잘라요	-6700
▁장가간	-6701
▁장난치	-6702
▁재학생	-6703
▁적정선	-6704
▁절대로	-6705
▁정동진	-6706
▁정무직	-6707
▁정수리	-6708
▁정중히	-6709
▁정해서	-6710
▁정해진	-6711
▁정확도	-6712
▁제이슨	-6713
▁조성모	-6714
▁조심히	-6715
▁존재감	-6716
▁좋아한	-6717
▁주세요	-6718
▁죽인다	-6719
▁줄여줄	-6720
▁중독자	-6721
▁즐겨야	-6722
▁지껄이	-6723
▁지난주	-6724
▁지름신	-6725
▁지명도	-6726
▁지새웠	-6727
▁지우개	-6728
▁지켜야	-6729
▁진실로	-6730
▁진정한	-6731
▁진짜로	-6732
▁질리나	-6733
▁질린다	-6734
▁짠돌이	-6735
▁찔까봐	-6736
▁찔러보	-6737
▁차려야	-6738
▁챙겨야	-6739
▁챙겨줘	-6740
▁처방전	-6741
▁첫인상	-6742
▁쳐다봐	-6743
▁최우선	-6744
▁추스렸	-6745
▁추스리	-6746
▁추스린	-6747
▁춘다는	-6748
▁친해졌	-6749
▁칩니다	-6750
▁칼국수	-6751
▁컨벤션	-6752
▁큐피드	-6753
▁타오를	-6754
▁탈취제	-6755
▁태양력	-6756
▁태어날	-6757
▁태연히	-6758
▁통할지	-6759
▁통해야	-6760
▁툭하면	-6761
▁팀워크	-6762
▁파이브	-6763
▁파헤치	-6764
▁팔꿈치	-6765
▁패키지	-6766
▁퍼센트	-6767
▁편할지	-6768
▁편해도	-6769
▁편해요	-6770
▁편해진	-6771
▁평상시	-6772
▁포커페	-6773
▁플래그	-6774
▁필요없	-6775
▁하이킹	-6776
▁하지만	-6777
▁한달전	-6778
▁한대요	-6779
▁한테서	-6780
▁할라구	-6781
▁할래요	-6782
▁해로워	-6783
▁해버림	-6784
▁해산물	-6785
▁해서요	-6786
▁해어진	-6787
▁해져도	-6788
▁해져서	-6789
▁해줘서	-6790
▁해진다	-6791
▁해질까	-6792
▁햇갈리	-6793
▁했으니	-6794
▁했을까	-6795
▁헛웃음	-6796
▁홈닥터	-6797
▁화풀이	-6798
▁활력소	-6799
▁회복력	-6800
▁흔들릴	-6801
▁흘러갈	-6802
▁흘려도	-6803
▁힘겨움	-6804
▁힘드신	-6805
진거같아	-6806
▁1000	-6807
▁gogo	-6808
▁가물가물	-6809
▁가벼워졌	-6810
▁간다는데	-6811
▁간당간당	-6812
▁간접흡연	-6813
▁간질간질	-6814
▁갑작스런	-6815
▁곤두세우	-6816
▁공동육아	-6817
▁교직이수	-6818
▁구구절절	-6819
▁구질구질	-6820
▁귀기울이	-6821
▁그나저나	-6822
▁그냥저냥	-6823
▁그러다가	-6824
▁그런다면	-6825
▁그럴수록	-6826
▁그럼에도	-6827
▁그만둬야	-6828
▁긴가민가	-6829
▁김치찌개	-6830
▁꽃바구니	-6831
▁끌어올려	-6832
▁끝낸다면	-6833
▁나온다는	-6834
▁나온대요	-6835
▁나옵니다	-6836
▁나타났나	-6837
▁내려놔요	-6838
▁내립니다	-6839
▁내버려두	-6840
▁넘어져서	-6841
▁놀이동산	-6842
▁눈치봐야	-6843
▁느껴져요	-6844
▁느껴진다	-6845
▁느낀다는	-6846
▁느낀다면	-6847
▁는다면요	-6848
▁다녀와서	-6849
▁달라질까	-6850
▁당할까봐	-6851
▁더러워졌	-6852
▁더치페이	-6853
▁도와줄까	-6854
▁돌아와요	-6855
▁동성동본	-6856
▁되돌이표	-6857
▁된답니다	-6858
▁두려워도	-6859
▁두려워지	-6860
▁들으면서	-6861
▁떠오른다	-6862
▁떨어뜨려	-6863
▁떨어져야	-6864
▁마음가짐	-6865
▁만드세요	-6866
▁말라버렸	-6867
▁말씀드려	-6868
▁매달려서	-6869
▁모릅니다	-6870
▁몰아붙였	-6871
▁못한다면	-6872
▁못했으니	-6873
▁무거워져	-6874
▁무궁무진	-6875
▁물리치료	-6876
▁미끄러우	-6877
▁바꿔야지	-6878
▁반가워요	-6879
▁반짝반짝	-6880
▁배울려면	-6881
▁버릴수록	-6882
▁베트남어	-6883
▁베푸세요	-6884
▁변해야할	-6885
▁부드러운	-6886
▁불타오르	-6887
▁불타올랐	-6888
▁블랙데이	-6889
▁빠짐없이	-6890
▁사회단체	-6891
▁산부인과	-6892
▁생각난다	-6893
▁생각없이	-6894
▁생긴다고	-6895
▁스러운가	-6896
▁스러운데	-6897
▁스러울까	-6898
▁스마트폰	-6899
▁스케일링	-6900
▁쏟아진다	-6901
▁쓰레기통	-6902
▁쓰인다고	-6903
▁아낌없이	-6904
▁아스피린	-6905
▁아이러니	-6906
▁아픈가요	-6907
▁안전거리	-6908
▁안타까운	-6909
▁알아차렸	-6910
▁어김없이	-6911
▁어려웠을	-6912
▁어울린대	-6913
▁엉망진창	-6914
▁엊그젠데	-6915
▁에서부터	-6916
▁여리여리	-6917
▁외로울까	-6918
▁요리조리	-6919
▁욕심쟁이	-6920
▁으로부터	-6921
▁으셨으면	-6922
▁은근슬쩍	-6923
▁이것저것	-6924
▁이어져서	-6925
▁이왕이면	-6926
▁이제서야	-6927
▁인과응보	-6928
▁일련번호	-6929
▁일어날까	-6930
▁잊혀질까	-6931
▁자격지심	-6932
▁자연스레	-6933
▁잘라야지	-6934
▁잘려나간	-6935
▁잡동사니	-6936
▁재택근무	-6937
▁전기장판	-6938
▁정신병자	-6939
▁져서인지	-6940
▁졋습니다	-6941
▁즐거워지	-6942
▁지겨워진	-6943
▁지낸다는	-6944
▁지워져요	-6945
▁지쳐버렸	-6946
▁진다는데	-6947
▁차가워서	-6948
▁차가워질	-6949
▁찰랑거렸	-6950
▁찾아나서	-6951
▁찾아올까	-6952
▁챙긴다는	-6953
▁카카오톡	-6954
▁콜록콜록	-6955
▁클라우드	-6956
▁킬로미터	-6957
▁텔레비전	-6958
▁투덜투덜	-6959
▁피웠으면	-6960
▁하나하나	-6961
▁한꺼번에	-6962
▁해야겠다	-6963
▁해야할까	-6964
▁해질려고	-6965
▁했잖아요	-6966
▁헤아려도	-6967
▁헤어나올	-6968
▁형제자매	-6969
▁휘둘려선	-6970
▁히스테리	-6971
▁기다립니다	-6972
▁김치볶음밥	-6973
▁나타납니다	-6974
▁느껴진다면	-6975
▁돌아갑시다	-6976
▁두근거려서	-6977
▁들어간다고	-6978
▁떨어뜨려서	-6979
▁떨어진다고	-6980
▁롤러코스터	-6981
▁부끄러워서	-6982
▁빼앗길까봐	-6983
▁사다리타기	-6984
▁스트레이트	-6985
▁잊어버려요	-6986
▁태어났으면	-6987
▁테크놀로지	-6988
▁패키지여행	-6989
▁포커페이스	-6990
▁화이트데이	-6991
▁흘러갑니다	-6992
▁갑작스러워서	-6993
▁드라이플라워	-6994
▁받아들인다는	-6995
▁괜잖아진거같아	-6996
▁깐	-6997
▁덤	-6998
▁딩	-6999
▁렵	-7000
▁뢰	-7001
▁뿅	-7002
▁촌	-7003
간대	-7004
거름	-7005
게임	-7006
고리	-7007
공격	-7008
관계	-7009
급생	-7010
기법	-7011
기사	-7012
기심	-7013
길이	-7014
높이	-7015
담회	-7016
대기	-7017
드로	-7018
디컬	-7019
래요	-7020
레타	-7021
려구	-7022
마땅	-7023
마초	-7024
말기	-7025
매여	-7026
메라	-7027
메일	-7028
발견	-7029
베개	-7030
벨룽	-7031
병증	-7032
볶이	-7033
산강	-7034
선도	-7035
스럽	-7036
스름	-7037
스턴	-7038
싸움	-7039
아봐	-7040
아오	-7041
양지	-7042
어가	-7043
온다	-7044
우제	-7045
일러	-7046
장가	-7047
조합	-7048
출력	-7049
치원	-7050
크대	-7051
텐츠	-7052
표권	-7053
피스	-7054
하키	-7055
험생	-7056
▁가짜	-7057
▁간통	-7058
▁감상	-7059
▁강원	-7060
▁강하	-7061
▁개의	-7062
▁거르	-7063
▁건느	-7064
▁게이	-7065
▁격전	-7066
▁결단	-7067
▁결론	-7068
▁겸손	-7069
▁경칭	-7070
▁계단	-7071
▁고고	-7072
▁고스	-7073
▁고하	-7074
▁곳곳	-7075
▁공연	-7076
▁과의	-7077
▁관찰	-7078
▁광고	-7079
▁교착	-7080
▁교화	-7081
▁구르	-7082
▁구입	-7083
▁구축	-7084
▁구토	-7085
▁국외	-7086
▁귀가	-7087
▁그날	-7088
▁그물	-7089
▁극심	-7090
▁근거	-7091
▁근년	-7092
▁기관	-7093
▁기능	-7094
▁기름	-7095
▁기입	-7096
▁깐깐	-7097
▁꼼짝	-7098
▁꿰매	-7099
▁나야	-7100
▁낙방	-7101
▁날카	-7102
▁남부	-7103
▁내과	-7104
▁내릴	-7105
▁내키	-7106
▁너르	-7107
▁뉴스	-7108
▁느리	-7109
▁대표	-7110
▁독학	-7111
▁동감	-7112
▁동네	-7113
▁동적	-7114
▁두건	-7115
▁두께	-7116
▁드물	-7117
▁들켰	-7118
▁뚫리	-7119
▁랭킹	-7120
▁런가	-7121
▁로이	-7122
▁리모	-7123
▁만약	-7124
▁만화	-7125
▁망고	-7126
▁망명	-7127
▁맞닥	-7128
▁메인	-7129
▁메일	-7130
▁명칭	-7131
▁모실	-7132
▁모태	-7133
▁몸짓	-7134
▁못나	-7135
▁무상	-7136
▁물류	-7137
▁물음	-7138
▁물질	-7139
▁뭐한	-7140
▁미의	-7141
▁미쳐	-7142
▁밀랍	-7143
▁발급	-7144
▁발매	-7145
▁방안	-7146
▁방향	-7147
▁배관	-7148
▁배웠	-7149
▁배의	-7150
▁배정	-7151
▁백만	-7152
▁번복	-7153
▁별하	-7154
▁병이	-7155
▁복구	-7156
▁본래	-7157
▁불르	-7158
▁불우	-7159
▁비례	-7160
▁빨렸	-7161
▁빼놓	-7162
▁뿅뿅	-7163
▁삐딱	-7164
▁사채	-7165
▁상이	-7166
▁상점	-7167
▁생산	-7168
▁선글	-7169
▁선의	-7170
▁섣달	-7171
▁섬세	-7172
▁성악	-7173
▁세계	-7174
▁세척	-7175
▁속성	-7176
▁술중	-7177
▁스위	-7178
▁스크	-7179
▁승부	-7180
▁시동	-7181
▁시차	-7182
▁식초	-7183
▁신맛	-7184
▁신은	-7185
▁실상	-7186
▁실외	-7187
▁실천	-7188
▁심층	-7189
▁쌓여	-7190
▁아뢰	-7191
▁아메	-7192
▁아재	-7193
▁야외	-7194
▁약초	-7195
▁양육	-7196
▁어우	-7197
▁엄밀	-7198
▁에이	-7199
▁엔드	-7200
▁여건	-7201
▁열반	-7202
▁열악	-7203
▁오스	-7204
▁올드	-7205
▁완고	-7206
▁외국	-7207
▁외장	-7208
▁요금	-7209
▁용모	-7210
▁용접	-7211
▁원곡	-7212
▁유감	-7213
▁유재	-7214
▁유혹	-7215
▁으며	-7216
▁의롭	-7217
▁의문	-7218
▁의욕	-7219
▁의의	-7220
▁이때	-7221
▁이웃	-7222
▁이치	-7223
▁인공	-7224
▁인신	-7225
▁인척	-7226
▁인플	-7227
▁임용	-7228
▁입술	-7229
▁자도	-7230
▁작년	-7231
▁작별	-7232
▁잠길	-7233
▁장갑	-7234
▁재심	-7235
▁쟁점	-7236
▁저린	-7237
▁전개	-7238
▁전달	-7239
▁정과	-7240
▁정보	-7241
▁제전	-7242
▁제철	-7243
▁종착	-7244
▁좌우	-7245
▁좌절	-7246
▁중병	-7247
▁중의	-7248
▁중지	-7249
▁지날	-7250
▁지세	-7251
▁직감	-7252
▁진전	-7253
▁집이	-7254
▁찌르	-7255
▁착해	-7256
▁참혹	-7257
▁창문	-7258
▁척의	-7259
▁초청	-7260
▁초코	-7261
▁최소	-7262
▁추가	-7263
▁충동	-7264
▁친밀	-7265
▁칭하	-7266
▁카탈	-7267
▁컴파	-7268
▁케어	-7269
▁코닥	-7270
▁쾌감	-7271
▁클리	-7272
▁탄로	-7273
▁탄핵	-7274
▁판매	-7275
▁평범	-7276
▁폭넓	-7277
▁품의	-7278
▁풍물	-7279
▁프롤	-7280
▁플러	-7281
▁한랭	-7282
▁한자	-7283
▁할껄	-7284
▁행태	-7285
▁허해	-7286
▁허허	-7287
▁헤드	-7288
▁혐오	-7289
▁화끈	-7290
▁화난	-7291
▁활기	-7292
▁활약	-7293
▁홧김	-7294
▁휴일	-7295
▁흐른	-7296
▁흔하	-7297
▁힘겹	-7298
디스크	-7299
떨어지	-7300
로워져	-7301
▁가속기	-7302
▁가속화	-7303
▁간담회	-7304
▁거느리	-7305
▁견뎌왔	-7306
▁경제가	-7307
▁기뻐하	-7308
▁기우제	-7309
▁깨어지	-7310
▁나간대	-7311
▁날아가	-7312
▁날아오	-7313
▁납니다	-7314
▁내릴까	-7315
▁넘어지	-7316
▁니벨룽	-7317
▁단말기	-7318
▁답례품	-7319
▁대마초	-7320
▁대잔치	-7321
▁대중화	-7322
▁돌려도	-7323
▁돌려주	-7324
▁동급생	-7325
▁드러머	-7326
▁떡볶이	-7327
▁렵니다	-7328
▁루리아	-7329
▁마셔요	-7330
▁마주보	-7331
▁멀리하	-7332
▁메디컬	-7333
▁모세포	-7334
▁몸길이	-7335
▁못마땅	-7336
▁문지르	-7337
▁밀려나	-7338
▁밑거름	-7339
▁바라지	-7340
▁바람직	-7341
▁방법론	-7342
▁버텨요	-7343
▁베드로	-7344
▁병원체	-7345
▁볼래요	-7346
▁볼려구	-7347
▁봉사자	-7348
▁부드럽	-7349
▁부서지	-7350
▁불안정	-7351
▁붙여지	-7352
▁브레인	-7353
▁상당히	-7354
▁소화제	-7355
▁수수료	-7356
▁수험생	-7357
▁순환계	-7358
▁시어터	-7359
▁심리학	-7360
▁심장병	-7361
▁심해요	-7362
▁싱크대	-7363
▁아이구	-7364
▁알아주	-7365
▁압축기	-7366
▁앞당기	-7367
▁어떠셨	-7368
▁어스름	-7369
▁얽매여	-7370
▁여름철	-7371
▁영문학	-7372
▁영산강	-7373
▁오디션	-7374
▁외로울	-7375
▁요리법	-7376
▁유치원	-7377
▁이래도	-7378
▁이메일	-7379
▁자가용	-7380
▁자장가	-7381
▁작아지	-7382
▁잘생긴	-7383
▁잠자리	-7384
▁장례식	-7385
▁재발견	-7386
▁제주도	-7387
▁졸린데	-7388
▁종아리	-7389
▁주어지	-7390
▁중개인	-7391
▁지원금	-7392
▁초현실	-7393
▁축구팀	-7394
▁충격파	-7395
▁친해서	-7396
▁카메라	-7397
▁투자가	-7398
▁투표권	-7399
▁팔베개	-7400
▁편안히	-7401
▁펼쳐질	-7402
▁폐기물	-7403
▁표기법	-7404
▁피우스	-7405
▁합병증	-7406
▁허리띠	-7407
▁협조적	-7408
▁호기심	-7409
▁휘둘리	-7410
▁휴양지	-7411
레타리아	-7412
▁감정싸움	-7413
▁두근거려	-7414
▁뒤돌아봐	-7415
▁맞닥뜨리	-7416
▁보드게임	-7417
▁부탁드리	-7418
▁선글라스	-7419
▁아메리카	-7420
▁알아차리	-7421
▁어려워서	-7422
▁어우러지	-7423
▁올라온다	-7424
▁이해관계	-7425
▁인신공격	-7426
▁즐거워요	-7427
▁카탈로그	-7428
▁기다릴게요	-7429
▁날카로워져	-7430
▁아이스하키	-7431
▁하드디스크	-7432
▁흘러들어가	-7433
▁프롤레타리아	-7434
cc	-7435
xx	-7436
▁p	-7437
▁겹	-7438
▁껄	-7439
▁꼈	-7440
▁랄	-7441
▁렛	-7442
▁엇	-7443
▁즈	-7444
▁징	-7445
▁쩌	-7446
감각	-7447
거래	-7448
거울	-7449
겨지	-7450
결합	-7451
고사	-7452
골이	-7453
교회	-7454
구마	-7455
꾸룩	-7456
난다	-7457
너스	-7458
눅눅	-7459
다감	-7460
단점	-7461
달리	-7462
데요	-7463
라인	-7464
래라	-7465
러들	-7466
루즈	-7467
목원	-7468
목적	-7469
문화	-7470
박스	-7471
반경	-7472
뱃돈	-7473
번이	-7474
벌이	-7475
보이	-7476
봐요	-7477
뿌둥	-7478
사고	-7479
살랑	-7480
상종	-7481
서트	-7482
올까	-7483
용증	-7484
울증	-7485
유류	-7486
인공	-7487
인자	-7488
자식	-7489
작가	-7490
지손	-7491
째깍	-7492
차곡	-7493
차례	-7494
척이	-7495
추장	-7496
코인	-7497
클링	-7498
트로	-7499
▁긋	-7500
▁낀	-7501
▁련	-7502
간다	-7503
공평	-7504
관급	-7505
그네	-7506
다른	-7507
레질	-7508
록금	-7509
론트	-7510
방져	-7511
블러	-7512
사전	-7513
신히	-7514
얘졌	-7515
통수	-7516
틀리	-7517
팽팽	-7518
푸려	-7519
플리	-7520
합성	-7521
헥헥	-7522
혈압	-7523
▁25	-7524
▁cc	-7525
▁pp	-7526
▁xx	-7527
▁가금	-7528
▁가난	-7529
▁가늘	-7530
▁가자	-7531
▁가즈	-7532
▁각지	-7533
▁각처	-7534
▁간염	-7535
▁간장	-7536
▁갈렸	-7537
▁갈림	-7538
▁감염	-7539
▁감자	-7540
▁강가	-7541
▁강남	-7542
▁강림	-7543
▁강박	-7544
▁강탈	-7545
▁강해	-7546
▁개거	-7547
▁개선	-7548
▁개신	-7549
▁개입	-7550
▁거미	-7551
▁건물	-7552
▁검진	-7553
▁겠죠	-7554
▁결말	-7555
▁경기	-7556
▁경유	-7557
▁계륵	-7558
▁고뇌	-7559
▁고데	-7560
▁고수	-7561
▁고압	-7562
▁고용	-7563
▁고의	-7564
▁고충	-7565
▁고히	-7566
▁골랐	-7567
▁골반	-7568
▁골자	-7569
▁공공	-7570
▁공책	-7571
▁공훈	-7572
▁과감	-7573
▁과묵	-7574
▁과소	-7575
▁관절	-7576
▁관점	-7577
▁관하	-7578
▁광탈	-7579
▁교란	-7580
▁교보	-7581
▁교복	-7582
▁교습	-7583
▁교재	-7584
▁구상	-7585
▁구역	-7586
▁구요	-7587
▁국밥	-7588
▁국어	-7589
▁굴뚝	-7590
▁궁합	-7591
▁권위	-7592
▁권투	-7593
▁귀농	-7594
▁규율	-7595
▁균류	-7596
▁균형	-7597
▁그놈	-7598
▁그치	-7599
▁닝	-7600
▁뜯	-7601
▁벨	-7602
▁킁	-7603
▁풋	-7604
▁혀	-7605
기압	-7606
끔찍	-7607
나물	-7608
러질	-7609
모닝	-7610
방향	-7611
이드	-7612
인드	-7613
지마	-7614
첨화	-7615
체어	-7616
크족	-7617
테크	-7618
퓨터	-7619
▁거창	-7620
▁견딘	-7621
▁결재	-7622
▁고갈	-7623
▁괴물	-7624
▁구제	-7625
▁그해	-7626
▁근각	-7627
▁금상	-7628
▁금속	-7629
▁금은	-7630
▁급작	-7631
▁기로	-7632
▁기류	-7633
▁기박	-7634
▁기사	-7635
▁기어	-7636
▁기초	-7637
▁긴다	-7638
▁깰까	-7639
▁꼬르	-7640
▁꼬리	-7641
▁꼬박	-7642
▁꼭꼭	-7643
▁꾸룩	-7644
▁끄집	-7645
▁끔찍	-7646
▁나른	-7647
▁나바	-7648
▁나서	-7649
▁나옴	-7650
▁낙수	-7651
▁낙엽	-7652
▁난간	-7653
▁날까	-7654
▁날뛰	-7655
▁날리	-7656
▁납득	-7657
▁납부	-7658
▁내년	-7659
▁내부	-7660
▁내치	-7661
▁냉면	-7662
▁냉방	-7663
▁냐면	-7664
▁너그	-7665
▁넘치	-7666
▁네일	-7667
▁노렸	-7668
▁노름	-7669
▁노무	-7670
▁노와	-7671
▁녹음	-7672
▁녹화	-7673
▁논문	-7674
▁농도	-7675
▁농촌	-7676
▁놓이	-7677
▁놔주	-7678
▁누룽	-7679
▁눅눅	-7680
▁눈살	-7681
▁눈앞	-7682
▁능동	-7683
▁다이	-7684
▁다투	-7685
▁단거	-7686
▁단독	-7687
▁단발	-7688
▁단백	-7689
▁단시	-7690
▁달랐	-7691
▁달랬	-7692
▁달렸	-7693
▁당구	-7694
▁대기	-7695
▁대담	-7696
▁대량	-7697
▁대상	-7698
▁대외	-7699
▁0	-7700
▁람	-7701
▁랜	-7702
▁링	-7703
▁붓	-7704
▁율	-7705
건비	-7706
견례	-7707
국가	-7708
금통	-7709
꺼워	-7710
꼬박	-7711
꾸러	-7712
담길	-7713
돌림	-7714
랑비	-7715
랑이	-7716
러덩	-7717
러스	-7718
레임	-7719
례허	-7720
룩주	-7721
망이	-7722
며시	-7723
문고	-7724
물주	-7725
바심	-7726
발점	-7727
부름	-7728
비스	-7729
산시	-7730
설팅	-7731
세스	-7732
업소	-7733
인배	-7734
지런	-7735
차장	-7736
처지	-7737
철역	-7738
체형	-7739
터카	-7740
토랑	-7741
투리	-7742
투스	-7743
팔트	-7744
풍기	-7745
해하	-7746
형화	-7747
▁가나	-7748
▁고프	-7749
▁교법	-7750
▁기기	-7751
▁기차	-7752
▁단결	-7753
▁대비	-7754
▁대빵	-7755
▁대피	-7756
▁더우	-7757
▁덕분	-7758
▁덜덜	-7759
▁덤빈	-7760
▁도구	-7761
▁독특	-7762
▁동굴	-7763
▁동상	-7764
▁동선	-7765
▁동전	-7766
▁돼라	-7767
▁둔갑	-7768
▁뒤스	-7769
▁뒤집	-7770
▁따질	-7771
▁떠들	-7772
▁떨기	-7773
▁떨렸	-7774
▁띄웠	-7775
▁라구	-7776
▁라던	-7777
▁랄프	-7778
▁레스	-7779
▁레알	-7780
▁레이	-7781
▁레프	-7782
▁로망	-7783
▁로비	-7784
▁로울	-7785
▁루어	-7786
▁리다	-7787
▁리서	-7788
▁리스	-7789
▁리치	-7790
▁리턴	-7791
▁마라	-7792
▁마리	-7793
▁마마	-7794
▁마세	-7795
▁마스	-7796
▁마을	-7797
▁마치	-7798
▁마트	-7799
갈색	-7800
귀포	-7801
나워	-7802
려왔	-7803
마차	-7804
색빛	-7805
원로	-7806
티브	-7807
▁날림	-7808
▁독감	-7809
▁동원	-7810
▁만담	-7811
▁만두	-7812
▁말랐	-7813
▁말문	-7814
▁망하	-7815
▁맞히	-7816
▁맡기	-7817
▁매콤	-7818
▁맴돈	-7819
▁맺어	-7820
▁맺었	-7821
▁머신	-7822
▁먹히	-7823
▁메가	-7824
▁면세	-7825
▁명치	-7826
▁명함	-7827
▁모공	-7828
▁모레	-7829
▁모양	-7830
▁모은	-7831
▁모의	-7832
▁모텔	-7833
▁목숨	-7834
▁몰수	-7835
▁못자	-7836
▁무게	-7837
▁무산	-7838
▁무죄	-7839
▁문체	-7840
▁문항	-7841
▁물가	-7842
▁물품	-7843
▁미싱	-7844
▁미움	-7845
▁미인	-7846
▁미혹	-7847
▁바드	-7848
▁반성	-7849
▁반함	-7850
▁반항	-7851
▁받치	-7852
▁발령	-7853
▁발현	-7854
▁밤샜	-7855
▁방면	-7856
▁방약	-7857
▁방지	-7858
▁방해	-7859
▁번식	-7860
▁벌주	-7861
▁범위	-7862
▁범죄	-7863
▁범퍼	-7864
▁벤처	-7865
▁벤츠	-7866
▁변기	-7867
▁변제	-7868
▁별개	-7869
▁병장	-7870
▁보람	-7871
▁보약	-7872
▁보유	-7873
▁보육	-7874
▁보입	-7875
▁보조	-7876
▁복귀	-7877
▁복제	-7878
▁복종	-7879
▁본심	-7880
▁볼께	-7881
▁봉지	-7882
▁부산	-7883
▁부업	-7884
▁부의	-7885
▁부치	-7886
▁부케	-7887
▁북치	-7888
▁분류	-7889
▁분리	-7890
▁분배	-7891
▁분석	-7892
▁불꽃	-7893
▁불능	-7894
▁불렀	-7895
▁불빛	-7896
▁붙일	-7897
▁비결	-7898
▁비만	-7899
▁비비	-7900
▁비트	-7901
▁빈도	-7902
▁빌렸	-7903
▁빨강	-7904
▁빵빵	-7905
▁뻔뻔	-7906
▁뻔하	-7907
▁뿌듯	-7908
▁뿌리	-7909
▁뿌린	-7910
▁사돈	-7911
▁사량	-7912
▁사별	-7913
▁사지	-7914
▁사탄	-7915
▁산의	-7916
▁살균	-7917
▁삼각	-7918
▁삼재	-7919
▁상영	-7920
▁상은	-7921
▁새롭	-7922
▁새치	-7923
▁서럽	-7924
▁서방	-7925
▁서술	-7926
▁선명	-7927
▁선수	-7928
▁설사	-7929
▁성경	-7930
▁세금	-7931
▁세비	-7932
▁세심	-7933
▁센과	-7934
▁소독	-7935
▁소맥	-7936
▁소양	-7937
▁소연	-7938
▁속력	-7939
▁속지	-7940
▁손발	-7941
▁송장	-7942
▁수강	-7943
▁수단	-7944
▁수당	-7945
▁수드	-7946
▁수박	-7947
▁수용	-7948
▁수은	-7949
▁수지	-7950
▁수행	-7951
▁수혈	-7952
▁숙면	-7953
▁순경	-7954
▁순서	-7955
▁술병	-7956
▁쉬울	-7957
▁스노	-7958
▁스런	-7959
▁스몰	-7960
▁스윗	-7961
▁습성	-7962
▁승산	-7963
▁시각	-7964
▁시누	-7965
▁시베	-7966
▁시절	-7967
▁식비	-7968
▁식욕	-7969
▁신부	-7970
▁신상	-7971
▁신하	-7972
▁신행	-7973
▁실비	-7974
▁실제	-7975
▁심란	-7976
▁싸늘	-7977
▁쓰리	-7978
▁아네	-7979
▁아보	-7980
▁아푸	-7981
▁앉히	-7982
▁알력	-7983
▁애완	-7984
▁애착	-7985
▁야가	-7986
▁야구	-7987
▁야만	-7988
▁약인	-7989
▁양면	-7990
▁양식	-7991
▁양심	-7992
▁양초	-7993
▁양파	-7994
▁어여	-7995
▁언어	-7996
▁여사	-7997
▁여운	-7998
▁여전	-7999
▁여주	-8000
▁역류	-8001
▁역마	-8002
▁엮여	-8003
▁엮이	-8004
▁연극	-8005
▁연금	-8006
▁연령	-8007
▁연말	-8008
▁연봉	-8009
▁연일	-8010
▁열나	-8011
▁열림	-8012
▁염료	-8013
▁영장	-8014
▁영적	-8015
▁예산	-8016
▁오름	-8017
▁오야	-8018
▁온수	-8019
▁온천	-8020
▁올해	-8021
▁옳소	-8022
▁옷깃	-8023
▁와플	-8024
▁왕족	-8025
▁외제	-8026
▁외쳐	-8027
▁요법	-8028
▁요소	-8029
▁욕먹	-8030
▁용납	-8031
▁용역	-8032
▁용품	-8033
▁우려	-8034
▁우먼	-8035
▁우습	-8036
▁우편	-8037
▁울면	-8038
▁움츠	-8039
▁웃긴	-8040
▁워워	-8041
▁워커	-8042
▁워킹	-8043
▁원상	-8044
▁원서	-8045
▁원점	-8046
▁원형	-8047
▁월세	-8048
▁웹사	-8049
▁위안	-8050
▁위치	-8051
▁유무	-8052
▁유사	-8053
▁유유	-8054
▁유의	-8055
▁유통	-8056
▁유행	-8057
▁유형	-8058
▁육지	-8059
▁육체	-8060
▁율리	-8061
▁응모	-8062
▁의존	-8063
▁이공	-8064
▁이날	-8065
▁이마	-8066
▁이민	-8067
▁이빨	-8068
▁이승	-8069
▁인걸	-8070
▁인도	-8071
▁인듯	-8072
▁인맥	-8073
▁인색	-8074
▁일생	-8075
▁일전	-8076
▁일치	-8077
▁일화	-8078
▁임관	-8079
▁입각	-8080
▁입원	-8081
▁입혀	-8082
▁잇몸	-8083
▁잊히	-8084
▁자길	-8085
▁자료	-8086
▁자막	-8087
▁자식	-8088
▁자율	-8089
▁자제	-8090
▁자퇴	-8091
▁작용	-8092
▁잔고	-8093
▁잔해	-8094
▁잠겼	-8095
▁잡음	-8096
▁잡이	-8097
▁잡지	-8098
▁잡화	-8099
▁잡히	-8100
▁장기	-8101
▁장명	-8102
▁장모	-8103
▁장비	-8104
▁장수	-8105
▁저축	-8106
▁적립	-8107
▁적분	-8108
▁전날	-8109
▁전생	-8110
▁전송	-8111
▁전통	-8112
▁전학	-8113
▁전형	-8114
▁절반	-8115
▁점유	-8116
▁점차	-8117
▁점프	-8118
▁접근	-8119
▁정글	-8120
▁정들	-8121
▁정봉	-8122
▁정색	-8123
▁정운	-8124
▁정이	-8125
▁정정	-8126
▁제사	-8127
▁제외	-8128
▁제조	-8129
▁제한	-8130
▁조교	-8131
▁조커	-8132
▁존칭	-8133
▁종목	-8134
▁종적	-8135
▁종족	-8136
▁종합	-8137
▁죄인	-8138
▁죄책	-8139
▁주눅	-8140
▁주당	-8141
▁주령	-8142
▁주사	-8143
▁주소	-8144
▁주의	-8145
▁주입	-8146
▁주포	-8147
▁죽이	-8148
▁줄래	-8149
▁줄지	-8150
▁중단	-8151
▁중문	-8152
▁중심	-8153
▁중임	-8154
▁즈음	-8155
▁즉흥	-8156
▁증기	-8157
▁지단	-8158
▁지로	-8159
▁지불	-8160
▁지형	-8161
▁직과	-8162
▁직류	-8163
▁직무	-8164
▁직선	-8165
▁직시	-8166
▁직책	-8167
▁진구	-8168
▁진담	-8169
▁진숙	-8170
▁진출	-8171
▁진하	-8172
▁질척	-8173
▁짐작	-8174
▁째깍	-8175
▁쪼잔	-8176
▁찍혔	-8177
▁차곡	-8178
▁차입	-8179
▁찬하	-8180
▁참가	-8181
▁참고	-8182
▁참담	-8183
▁창피	-8184
▁채널	-8185
▁천사	-8186
▁천연	-8187
▁천일	-8188
▁천장	-8189
▁천지	-8190
▁철판	-8191
▁청개	-8192
▁체조	-8193
▁체질	-8194
▁초과	-8195
▁초반	-8196
▁초심	-8197
▁초월	-8198
▁초조	-8199
▁촉각	-8200
▁최승	-8201
▁추세	-8202
▁추측	-8203
▁출석	-8204
▁출혈	-8205
▁충당	-8206
▁충실	-8207
▁취하	-8208
▁치마	-8209
▁치즈	-8210
▁친하	-8211
▁침체	-8212
▁침해	-8213
▁케빈	-8214
▁코딩	-8215
▁코트	-8216
▁콘테	-8217
▁쿠폰	-8218
▁킁킁	-8219
▁키스	-8220
▁타가	-8221
▁타도	-8222
▁타락	-8223
▁타로	-8224
▁타임	-8225
▁타협	-8226
▁탄생	-8227
▁탄원	-8228
▁탐색	-8229
▁태몽	-8230
▁태왕	-8231
▁터진	-8232
▁털이	-8233
▁통학	-8234
▁퇴원	-8235
▁퇴임	-8236
▁투어	-8237
▁투정	-8238
▁트였	-8239
▁트집	-8240
▁특종	-8241
▁특질	-8242
▁티나	-8243
▁티비	-8244
▁파급	-8245
▁팔뚝	-8246
▁패용	-8247
▁팽팽	-8248
▁퍼가	-8249
▁퍼붓	-8250
▁퍼즐	-8251
▁페어	-8252
▁편치	-8253
▁포악	-8254
▁표출	-8255
▁풀린	-8256
▁풋풋	-8257
▁풍미	-8258
▁풍요	-8259
▁풍자	-8260
▁프랑	-8261
▁피로	-8262
▁피우	-8263
▁필드	-8264
▁필연	-8265
▁하시	-8266
▁학과	-8267
▁학년	-8268
▁학비	-8269
▁한국	-8270
▁한두	-8271
▁한복	-8272
▁한숨	-8273
▁한약	-8274
▁한쪽	-8275
▁한하	-8276
▁할땐	-8277
▁함인	-8278
▁합스	-8279
▁해온	-8280
▁해치	-8281
▁햇살	-8282
▁행사	-8283
▁행위	-8284
▁행적	-8285
▁허물	-8286
▁허한	-8287
▁헐크	-8288
▁헤더	-8289
▁헤치	-8290
▁헥헥	-8291
▁협의	-8292
▁호텔	-8293
▁호호	-8294
▁혼났	-8295
▁혼영	-8296
▁홀로	-8297
▁화신	-8298
▁화합	-8299
▁확충	-8300
▁환각	-8301
▁환불	-8302
▁황사	-8303
▁회원	-8304
▁회유	-8305
▁효자	-8306
▁후군	-8307
▁훌쩍	-8308
▁휴지	-8309
▁휴직	-8310
▁흘렸	-8311
▁희경	-8312
꾸러기	-8313
레이닝	-8314
레이드	-8315
레이션	-8316
례허식	-8317
룩주룩	-8318
문서답	-8319
물주물	-8320
아내리	-8321
우스력	-8322
집니다	-8323
케이션	-8324
트로피	-8325
피스텔	-8326
▁가랑비	-8327
▁가려워	-8328
▁간신히	-8329
▁간접적	-8330
▁갈고리	-8331
▁감수성	-8332
▁강원도	-8333
▁개기름	-8334
▁개신교	-8335
▁건들이	-8336
▁건방져	-8337
▁건조기	-8338
▁걸레질	-8339
▁겁난다	-8340
▁견뎌냈	-8341
▁견딜까	-8342
▁경영진	-8343
▁경제력	-8344
▁고구마	-8345
▁고추장	-8346
▁고혈압	-8347
▁골프장	-8348
▁공통적	-8349
▁관절염	-8350
▁광합성	-8351
▁괴롭히	-8352
▁군무원	-8353
▁귀여웠	-8354
▁그걸로	-8355
▁극작가	-8356
▁금속판	-8357
▁기계어	-8358
▁기업체	-8359
▁기원전	-8360
▁꼬르륵	-8361
▁꽃놀이	-8362
▁끊어지	-8363
▁나그네	-8364
▁나이스	-8365
▁나이테	-8366
▁나이트	-8367
▁남겨진	-8368
▁났으면	-8369
▁내려보	-8370
▁내려오	-8371
▁너그럽	-8372
▁넘어질	-8373
▁놀려먹	-8374
▁누룽지	-8375
▁눈높이	-8376
▁눈물샘	-8377
▁다양체	-8378
▁단백질	-8379
▁달리하	-8380
▁닭고기	-8381
▁답답증	-8382
▁당해도	-8383
▁대인배	-8384
▁대형화	-8385
▁돌담길	-8386
▁돌잔치	-8387
▁동물원	-8388
▁두꺼워	-8389
▁두려움	-8390
▁두통약	-8391
▁뒤처지	-8392
▁뒤척이	-8393
▁뒤통수	-8394
▁뒤틀리	-8395
▁뒷다리	-8396
▁드러나	-8397
▁득표수	-8398
▁들어줄	-8399
▁등록금	-8400
▁딩크족	-8401
▁따돌림	-8402
▁따라오	-8403
▁따라와	-8404
▁따져요	-8405
▁떨린다	-8406
▁라디오	-8407
▁라이어	-8408
▁라이트	-8409
▁람세스	-8410
▁렌터카	-8411
▁리서치	-8412
▁마음놓	-8413
▁마인드	-8414
▁막바지	-8415
▁막아내	-8416
▁모아야	-8417
▁목요일	-8418
▁무감각	-8419
▁무방비	-8420
▁무색계	-8421
▁무서웠	-8422
▁물린다	-8423
▁미스트	-8424
▁미워질	-8425
▁미워해	-8426
▁밀려왔	-8427
▁바가지	-8428
▁바구니	-8429
▁반바지	-8430
▁밥벌이	-8431
▁방망이	-8432
▁배고프	-8433
▁배부르	-8434
▁배워도	-8435
▁버거울	-8436
▁번번이	-8437
▁벗겨져	-8438
▁보낼까	-8439
▁보너스	-8440
▁부딪혀	-8441
▁부러우	-8442
▁부지런	-8443
▁불공평	-8444
▁불쾌감	-8445
▁블로그	-8446
▁비싼데	-8447
▁빚어지	-8448
▁빼앗기	-8449
▁빼어나	-8450
▁사귈래	-8451
▁사나워	-8452
▁사이즈	-8453
▁사진기	-8454
▁사투리	-8455
▁산다는	-8456
▁살며시	-8457
▁상거래	-8458
▁상견례	-8459
▁새겨지	-8460
▁색다른	-8461
▁생강차	-8462
▁생활비	-8463
▁서귀포	-8464
▁서비스	-8465
▁선풍기	-8466
▁세뱃돈	-8467
▁세탁소	-8468
▁소극장	-8469
▁소유격	-8470
▁속상했	-8471
▁수목원	-8472
▁수차례	-8473
▁쉬운데	-8474
▁스케줄	-8475
▁슬퍼도	-8476
▁시간표	-8477
▁시달리	-8478
▁시발점	-8479
▁식물원	-8480
▁신혼집	-8481
▁실험실	-8482
▁심부름	-8483
▁심한가	-8484
▁싸운다	-8485
▁쏟아지	-8486
▁쓸모없	-8487
▁아세요	-8488
▁아이디	-8489
▁아이쿠	-8490
▁아이템	-8491
▁아픈가	-8492
▁안산시	-8493
▁알아들	-8494
▁알아줄	-8495
▁애국가	-8496
▁애벌레	-8497
▁애플리	-8498
▁약해졌	-8499
▁양방향	-8500
▁어때서	-8501
▁어머나	-8502
▁어머니	-8503
▁어울림	-8504
▁어째야	-8505
▁얻어내	-8506
▁엄지손	-8507
▁엇갈리	-8508
▁옆구리	-8509
▁오랫만	-8510
▁오지마	-8511
▁온다면	-8512
▁올라와	-8513
▁외교관	-8514
▁외로우	-8515
▁운전사	-8516
▁유년기	-8517
▁윤선도	-8518
▁윤원로	-8519
▁으로서	-8520
▁음식점	-8521
▁이기심	-8522
▁이래라	-8523
▁이미지	-8524
▁이뻐요	-8525
▁이사회	-8526
▁이어폰	-8527
▁이직각	-8528
▁인건비	-8529
▁인내심	-8530
▁일반인	-8531
▁일인자	-8532
▁일체형	-8533
▁자더니	-8534
▁자만심	-8535
▁잡아가	-8536
▁잡아내	-8537
▁장기간	-8538
▁장난친	-8539
▁장단점	-8540
▁재결합	-8541
▁재테크	-8542
▁저금통	-8543
▁저기압	-8544
▁저래라	-8545
▁적어지	-8546
▁전문가	-8547
▁전세권	-8548
▁전자식	-8549
▁전철역	-8550
▁정교회	-8551
▁정류소	-8552
▁정해지	-8553
▁제습기	-8554
▁졌으니	-8555
▁조각가	-8556
▁조그만	-8557
▁조바심	-8558
▁조울증	-8559
▁종착역	-8560
▁주목적	-8561
▁주무셨	-8562
▁주차장	-8563
▁줄라고	-8564
▁지나쳤	-8565
▁지루함	-8566
▁지워도	-8567
▁지워질	-8568
▁지침서	-8569
▁쪼그만	-8570
▁찌뿌둥	-8571
▁찌푸려	-8572
▁차가운	-8573
▁차관급	-8574
▁차별적	-8575
▁차용증	-8576
▁참기름	-8577
▁책임감	-8578
▁청소기	-8579
▁체육복	-8580
▁체육부	-8581
▁최우수	-8582
▁치료법	-8583
▁친해져	-8584
▁카페인	-8585
▁컨설팅	-8586
▁컨텐츠	-8587
▁컴파일	-8588
▁컴퓨터	-8589
▁코골이	-8590
▁코스터	-8591
▁콘서트	-8592
▁콩나물	-8593
▁크루즈	-8594
▁클리닉	-8595
▁타이완	-8596
▁타일러	-8597
▁텀블러	-8598
▁테니스	-8599
▁토닥여	-8600
▁통일당	-8601
▁투자자	-8602
▁파이트	-8603
▁판매점	-8604
▁편할까	-8605
▁포유류	-8606
▁폭식증	-8607
▁프레임	-8608
▁프로그	-8609
▁프론트	-8610
▁피부색	-8611
▁피어싱	-8612
▁피해자	-8613
▁하얘졌	-8614
▁학부모	-8615
▁한국어	-8616
▁한국인	-8617
▁할까봐	-8618
▁합리성	-8619
▁합의점	-8620
▁항아리	-8621
▁행동파	-8622
▁허기지	-8623
▁허기진	-8624
▁호랑이	-8625
▁활기찬	-8626
▁회색빛	-8627
▁훌러덩	-8628
▁휴식기	-8629
▁힘드실	-8630
▁~~~~	-8631
▁간지러워	-8632
▁걸어다니	-8633
▁견딘다는	-8634
▁고기잡이	-8635
▁고마워할	-8636
▁교보문고	-8637
▁교통사고	-8638
▁국어사전	-8639
▁그런가요	-8640
▁그럴게요	-8641
▁그리워지	-8642
▁그리워했	-8643
▁금상첨화	-8644
▁급작스럽	-8645
▁기울어지	-8646
▁꼬박꼬박	-8647
▁꾸룩꾸룩	-8648
▁노동조합	-8649
▁녹아내리	-8650
▁다가올까	-8651
▁다정다감	-8652
▁돌아올지	-8653
▁동떨어지	-8654
▁동문서답	-8655
▁동성애자	-8656
▁두려운가	-8657
▁두려워하	-8658
▁드릴까요	-8659
▁들어올리	-8660
▁들어와서	-8661
▁뛰어오르	-8662
▁뜬금없이	-8663
▁라던데요	-8664
▁레스토랑	-8665
▁마마보이	-8666
▁만납니다	-8667
▁매달려도	-8668
▁모의고사	-8669
▁무너뜨리	-8670
▁물어봐서	-8671
▁미끄러질	-8672
▁바이러스	-8673
▁받아들였	-8674
▁버렸으면	-8675
▁변덕쟁이	-8676
▁보입니다	-8677
▁불안해하	-8678
▁블랙박스	-8679
▁블루투스	-8680
▁비트코인	-8681
▁살랑살랑	-8682
▁살아간다	-8683
▁살펴봐요	-8684
▁소리지르	-8685
▁스노클링	-8686
▁스타일러	-8687
▁스테이크	-8688
▁시베리아	-8689
▁시외버스	-8690
▁아른거려	-8691
▁아른거리	-8692
▁아스팔트	-8693
▁어지러워	-8694
▁엔트로피	-8695
▁여주인공	-8696
▁오피스텔	-8697
▁올립니다	-8698
▁움츠러들	-8699
▁웹사이트	-8700
▁유유상종	-8701
▁유흥업소	-8702
▁잠꾸러기	-8703
▁전통문화	-8704
▁주룩주룩	-8705
▁주물주물	-8706
▁지나간다	-8707
▁지나다니	-8708
▁질척거리	-8709
▁째깍째깍	-8710
▁차곡차곡	-8711
▁청개구리	-8712
▁콘테스트	-8713
▁트레이닝	-8714
▁포장마차	-8715
▁행동반경	-8716
▁허례허식	-8717
▁허물어지	-8718
▁헤어져서	-8719
▁기어오른다	-8720
▁미끄러워서	-8721
▁사라집니다	-8722
▁아메리카노	-8723
▁엄지손가락	-8724
▁율리우스력	-8725
▁인플레이션	-8726
▁잊혀진다는	-8727
▁지나갑니다	-8728
▁태어났을까	-8729
▁흔들리지마	-8730
▁받아들여야지	-8731
▁애플리케이션	-8732
▁르	-8733
▁름	-8734
▁린	-8735
▁획	-8736
가스	-8737
간접	-8738
객기	-8739
건소	-8740
걸리	-8741
결핵	-8742
공간	-8743
공기	-8744
권도	-8745
권자	-8746
금물	-8747
금치	-8748
나무	-8749
나미	-8750
난방	-8751
내면	-8752
니아	-8753
당수	-8754
대회	-8755
댓값	-8756
더링	-8757
도록	-8758
둥어	-8759
들어	-8760
떨떨	-8761
레오	-8762
력화	-8763
로스	-8764
로인	-8765
론사	-8766
르바	-8767
린더	-8768
립트	-8769
먼트	-8770
멘트	-8771
면허	-8772
무라	-8773
물쇠	-8774
민국	-8775
반기	-8776
반대	-8777
방송	-8778
백기	-8779
버거	-8780
범죄	-8781
봉사	-8782
분자	-8783
브스	-8784
블릿	-8785
비례	-8786
비아	-8787
빙고	-8788
사시	-8789
상식	-8790
상화	-8791
생수	-8792
생제	-8793
섞이	-8794
성숙	-8795
소수	-8796
소연	-8797
솟값	-8798
수인	-8799
스타	-8800
스탕	-8801
식축	-8802
애플	-8803
언트	-8804
엄치	-8805
여움	-8806
용사	-8807
우치	-8808
워싸	-8809
원장	-8810
의회	-8811
인세	-8812
전수	-8813
전지	-8814
전차	-8815
주리	-8816
주의	-8817
주회	-8818
직서	-8819
창기	-8820
추기	-8821
추위	-8822
취록	-8823
침대	-8824
케팅	-8825
코니	-8826
코딩	-8827
킨토	-8828
터테	-8829
투력	-8830
트곡	-8831
파수	-8832
폭력	-8833
플릿	-8834
하위	-8835
합원	-8836
행본	-8837
형수	-8838
▁ᄂ데	-8839
▁가급	-8840
▁가꿔	-8841
▁가모	-8842
▁가문	-8843
▁가죽	-8844
▁가하	-8845
▁간결	-8846
▁간쑤	-8847
▁감독	-8848
▁값싸	-8849
▁강간	-8850
▁개가	-8851
▁거치	-8852
▁경량	-8853
▁경합	-8854
▁고음	-8855
▁고찰	-8856
▁곡과	-8857
▁곡인	-8858
▁곤경	-8859
▁공격	-8860
▁공경	-8861
▁공은	-8862
▁공중	-8863
▁관광	-8864
▁관측	-8865
▁교과	-8866
▁구과	-8867
▁구금	-8868
▁구로	-8869
▁구획	-8870
▁국운	-8871
▁국책	-8872
▁군왕	-8873
▁굴리	-8874
▁굴하	-8875
▁귀천	-8876
▁귀향	-8877
▁귀환	-8878
▁근린	-8879
▁글귀	-8880
▁급여	-8881
▁기거	-8882
▁기반	-8883
▁기소	-8884
▁기악	-8885
▁기특	-8886
▁기흥	-8887
▁꺼리	-8888
▁꼬치	-8889
▁낙찰	-8890
▁내밀	-8891
▁노시	-8892
▁논술	-8893
▁농부	-8894
▁눈금	-8895
▁늘리	-8896
▁늘이	-8897
▁능률	-8898
▁니스	-8899
▁단기	-8900
▁단추	-8901
▁담그	-8902
▁답하	-8903
▁당근	-8904
▁당시	-8905
▁대립	-8906
▁대응	-8907
▁대책	-8908
▁덮이	-8909
▁도기	-8910
▁도술	-8911
▁두목	-8912
▁드롭	-8913
▁따름	-8914
▁땅콩	-8915
▁때때	-8916
▁떠돌	-8917
▁떨치	-8918
▁또래	-8919
▁레지	-8920
▁롭스	-8921
▁름스	-8922
▁리얼	-8923
▁립스	-8924
▁마노	-8925
▁마늘	-8926
▁마운	-8927
▁만지	-8928
▁매사	-8929
▁멋졌	-8930
▁명시	-8931
▁모체	-8932
▁모호	-8933
▁묶이	-8934
▁문고	-8935
▁문장	-8936
▁문책	-8937
▁묻히	-8938
▁바울	-8939
▁바치	-8940
▁박승	-8941
▁박찬	-8942
▁박히	-8943
▁반수	-8944
▁발굴	-8945
▁발탁	-8946
▁발품	-8947
▁방아	-8948
▁배반	-8949
▁배설	-8950
▁번성	-8951
▁범람	-8952
▁법익	-8953
▁벽면	-8954
▁병들	-8955
▁보좌	-8956
▁복장	-8957
▁본성	-8958
▁부위	-8959
▁사노	-8960
▁사제	-8961
▁산과	-8962
▁산정	-8963
▁상표	-8964
▁새기	-8965
▁서늘	-8966
▁서안	-8967
▁서평	-8968
▁선교	-8969
▁선포	-8970
▁설탕	-8971
▁성게	-8972
▁성남	-8973
▁세분	-8974
▁소강	-8975
▁손자	-8976
▁손잡	-8977
▁송달	-8978
▁수고	-8979
▁수압	-8980
▁수액	-8981
▁수억	-8982
▁수체	-8983
▁순방	-8984
▁시가	-8985
▁시루	-8986
▁시의	-8987
▁시찰	-8988
▁식기	-8989
▁식생	-8990
▁신의	-8991
▁신체	-8992
▁실과	-8993
▁실신	-8994
▁실추	-8995
▁심문	-8996
▁심화	-8997
▁쓰카	-8998
▁씨방	-8999
▁씨티	-9000
▁아첨	-9001
▁아카	-9002
▁안상	-9003
▁알파	-9004
▁암컷	-9005
▁압력	-9006
▁약품	-9007
▁양반	-9008
▁양쪽	-9009
▁어휘	-9010
▁엄격	-9011
▁업데	-9012
▁업소	-9013
▁여가	-9014
▁여이	-9015
▁연소	-9016
▁연임	-9017
▁예견	-9018
▁예시	-9019
▁옛날	-9020
▁와의	-9021
▁외식	-9022
▁외우	-9023
▁용어	-9024
▁우가	-9025
▁우애	-9026
▁운임	-9027
▁워즈	-9028
▁원조	-9029
▁위엄	-9030
▁위하	-9031
▁유럽	-9032
▁유아	-9033
▁유저	-9034
▁음향	-9035
▁의하	-9036
▁이영	-9037
▁이재	-9038
▁이주	-9039
▁인접	-9040
▁일하	-9041
▁임무	-9042
▁임차	-9043
▁입건	-9044
▁입성	-9045
▁자국	-9046
▁장르	-9047
▁장유	-9048
▁재능	-9049
▁재앙	-9050
▁저승	-9051
▁저압	-9052
▁적히	-9053
▁전곡	-9054
▁전담	-9055
▁절차	-9056
▁젊음	-9057
▁점수	-9058
▁정략	-9059
▁정철	-9060
▁정취	-9061
▁제곱	-9062
▁제공	-9063
▁제본	-9064
▁제작	-9065
▁조우	-9066
▁조의	-9067
▁종친	-9068
▁죄형	-9069
▁중기	-9070
▁중량	-9071
▁중풍	-9072
▁증권	-9073
▁증대	-9074
▁증폭	-9075
▁지분	-9076
▁지폐	-9077
▁직물	-9078
▁진부	-9079
▁진우	-9080
▁질감	-9081
▁징용	-9082
▁착하	-9083
▁찬동	-9084
▁찬물	-9085
▁참사	-9086
▁채무	-9087
▁채점	-9088
▁책망	-9089
▁첨부	-9090
▁첨예	-9091
▁청강	-9092
▁체전	-9093
▁체형	-9094
▁초급	-9095
▁총알	-9096
▁추구	-9097
▁춘분	-9098
▁출산	-9099
▁출생	-9100
▁출판	-9101
▁치솟	-9102
▁카나	-9103
▁커리	-9104
▁켜지	-9105
▁코프	-9106
▁쾌활	-9107
▁쿠도	-9108
▁쿠스	-9109
▁클릭	-9110
▁클립	-9111
▁타계	-9112
▁타당	-9113
▁태수	-9114
▁통념	-9115
▁통산	-9116
▁퇴거	-9117
▁퇴학	-9118
▁투고	-9119
▁튀김	-9120
▁트폰	-9121
▁파인	-9122
▁패퇴	-9123
▁편차	-9124
▁포털	-9125
▁폭포	-9126
▁품성	-9127
▁플레	-9128
▁피터	-9129
▁하산	-9130
▁하트	-9131
▁학병	-9132
▁한학	-9133
▁합의	-9134
▁합치	-9135
▁항체	-9136
▁해의	-9137
▁행패	-9138
▁향상	-9139
▁허가	-9140
▁허공	-9141
▁허위	-9142
▁헬리	-9143
▁현혹	-9144
▁협업	-9145
▁형수	-9146
▁혹독	-9147
▁홀딩	-9148
▁환자	-9149
▁효성	-9150
▁후아	-9151
▁후우	-9152
▁후천	-9153
▁휴업	-9154
▁휴우	-9155
▁흘리	-9156
들어오	-9157
스턴트	-9158
식축구	-9159
인먼트	-9160
킨토시	-9161
▁가능성	-9162
▁강추위	-9163
▁같아지	-9164
▁개인전	-9165
▁객관식	-9166
▁게으르	-9167
▁결정짓	-9168
▁계약금	-9169
▁고분자	-9170
▁고속정	-9171
▁고스트	-9172
▁고출력	-9173
▁공문서	-9174
▁공백기	-9175
▁광둥어	-9176
▁구축함	-9177
▁군내면	-9178
▁기념품	-9179
▁기부금	-9180
▁기술인	-9181
▁꼭대기	-9182
▁끌어오	-9183
▁나무라	-9184
▁나이프	-9185
▁내국인	-9186
▁내리치	-9187
▁냉난방	-9188
▁노여움	-9189
▁녹취록	-9190
▁눈치채	-9191
▁늘어나	-9192
▁단행본	-9193
▁당대회	-9194
▁대기업	-9195
▁대전차	-9196
▁데이터	-9197
▁되도록	-9198
▁뒤섞이	-9199
▁라이징	-9200
▁라이터	-9201
▁레이크	-9202
▁레코딩	-9203
▁렌더링	-9204
▁리버스	-9205
▁마리나	-9206
▁마음속	-9207
▁마케팅	-9208
▁막걸리	-9209
▁막대기	-9210
▁매니아	-9211
▁매수인	-9212
▁맺었으	-9213
▁면허증	-9214
▁목적물	-9215
▁무력화	-9216
▁무한대	-9217
▁미디어	-9218
▁미성숙	-9219
▁민감도	-9220
▁반가워	-9221
▁반비례	-9222
▁받침대	-9223
▁발전기	-9224
▁발코니	-9225
▁밝아지	-9226
▁배상금	-9227
▁법인세	-9228
▁별다르	-9229
▁보건소	-9230
▁보조금	-9231
▁복소수	-9232
▁복합형	-9233
▁부모님	-9234
▁부조리	-9235
▁부추기	-9236
▁브라스	-9237
▁브레이	-9238
▁빠져들	-9239
▁사들이	-9240
▁사용량	-9241
▁사직서	-9242
▁사형수	-9243
▁상당수	-9244
▁상반기	-9245
▁상영관	-9246
▁생리학	-9247
▁생방송	-9248
▁생산력	-9249
▁샤스탕	-9250
▁서빙고	-9251
▁설레였	-9252
▁성범죄	-9253
▁성폭력	-9254
▁세탁기	-9255
▁소금물	-9256
▁소생수	-9257
▁수백만	-9258
▁수신기	-9259
▁수준의	-9260
▁수행법	-9261
▁스릴러	-9262
▁스크린	-9263
▁스플릿	-9264
▁승차권	-9265
▁시공간	-9266
▁시금치	-9267
▁시멘트	-9268
▁시상식	-9269
▁신호장	-9270
▁실린더	-9271
▁실험자	-9272
▁쓰나미	-9273
▁아르바	-9274
▁안정화	-9275
▁액티브	-9276
▁양고기	-9277
▁어째서	-9278
▁언론사	-9279
▁얼떨떨	-9280
▁에로스	-9281
▁에워싸	-9282
▁엔터테	-9283
▁여객기	-9284
▁여동생	-9285
▁여행사	-9286
▁연구소	-9287
▁연주회	-9288
▁영양소	-9289
▁예술상	-9290
▁오래가	-9291
▁오래전	-9292
▁온라인	-9293
▁와이드	-9294
▁유사점	-9295
▁음악회	-9296
▁인간형	-9297
▁임대료	-9298
▁임대차	-9299
▁입출력	-9300
▁자물쇠	-9301
▁자유형	-9302
▁잘못되	-9303
▁재활용	-9304
▁적갈색	-9305
▁전문직	-9306
▁전투력	-9307
▁절대적	-9308
▁정반대	-9309
▁정치범	-9310
▁조합원	-9311
▁졸업자	-9312
▁주파수	-9313
▁지상파	-9314
▁직간접	-9315
▁채권자	-9316
▁청구권	-9317
▁초창기	-9318
▁최댓값	-9319
▁최소한	-9320
▁최솟값	-9321
▁최하위	-9322
▁추상화	-9323
▁축전지	-9324
▁치료제	-9325
▁클라이	-9326
▁클레인	-9327
▁탐색기	-9328
▁태권도	-9329
▁태블릿	-9330
▁터뜨리	-9331
▁페어리	-9332
▁평의회	-9333
▁폐결핵	-9334
▁포브스	-9335
▁플래시	-9336
▁플러그	-9337
▁피고인	-9338
▁하소연	-9339
▁항공기	-9340
▁항생제	-9341
▁행위자	-9342
▁헤엄치	-9343
▁형용사	-9344
▁회전수	-9345
▁후반기	-9346
▁흑기사	-9347
▁히로인	-9348
▁히사시	-9349
▁히트곡	-9350
▁가상현실	-9351
▁거둬들이	-9352
▁결혼식장	-9353
▁끌어올리	-9354
▁내려다보	-9355
▁대한민국	-9356
▁돼지고기	-9357
▁떨어뜨리	-9358
▁레지스터	-9359
▁말씀드리	-9360
▁매킨토시	-9361
▁미식축구	-9362
▁부위원장	-9363
▁사회봉사	-9364
▁스크립트	-9365
▁스테레오	-9366
▁스트로크	-9367
▁아라비아	-9368
▁아이디어	-9369
▁업데이트	-9370
▁운전기사	-9371
▁운전면허	-9372
▁인스턴트	-9373
▁자유주의	-9374
▁지하철역	-9375
▁천연가스	-9376
▁청소년기	-9377
▁쳐들어오	-9378
▁컨트롤러	-9379
▁파인애플	-9380
▁퍼레이드	-9381
▁플러그인	-9382
▁플레이어	-9383
▁떠돌아다니	-9384
▁아르바이트	-9385
▁클라이언트	-9386
▁엔터테인먼트	-9387
▁둥	-9388
▁멧	-9389
▁뻐	-9390
▁옵	-9391
▁킹	-9392
▁힌	-9393
개월	-9394
검사	-9395
곤증	-9396
공황	-9397
관심	-9398
교수	-9399
▁닷	-9400
가루	-9401
금빛	-9402
나크	-9403
냥꾼	-9404
니버	-9405
데미	-9406
드민	-9407
드벤	-9408
등포	-9409
라기	-9410
라클	-9411
라트	-9412
러리	-9413
레라	-9414
론회	-9415
르노	-9416
른색	-9417
리과	-9418
리마	-9419
리즈	-9420
리지	-9421
면조	-9422
무르	-9423
문가	-9424
미널	-9425
미리	-9426
밀리	-9427
방울	-9428
버리	-9429
별시	-9430
보팬	-9431
복궁	-9432
부선	-9433
브라	-9434
브유	-9435
빠르	-9436
사우	-9437
사체	-9438
산도	-9439
선전	-9440
섭섭	-9441
성분	-9442
세서	-9443
쇠약	-9444
수궁	-9445
수차	-9446
술사	-9447
술지	-9448
숭고	-9449
승달	-9450
시타	-9451
앙대	-9452
어넣	-9453
어마	-9454
업화	-9455
연회	-9456
외선	-9457
용직	-9458
웨이	-9459
유럽	-9460
육학	-9461
의자	-9462
이버	-9463
인간	-9464
자법	-9465
전트	-9466
정적	-9467
제종	-9468
조류	-9469
족관	-9470
주절	-9471
줄기	-9472
즈마	-9473
즈키	-9474
지니	-9475
지몬	-9476
째로	-9477
차점	-9478
창군	-9479
처스	-9480
천군	-9481
케인	-9482
쿠이	-9483
크쇼	-9484
타불	-9485
토니	-9486
페라	-9487
포츠	-9488
표정	-9489
품군	-9490
합리	-9491
합물	-9492
해주	-9493
행료	-9494
행자	-9495
허설	-9496
혈병	-9497
▁가군	-9498
▁가닥	-9499
▁석	-9500
▁쩔	-9501
넘기	-9502
년도	-9503
달구	-9504
루엔	-9505
리프	-9506
보자	-9507
사각	-9508
서부	-9509
세손	-9510
스케	-9511
시간	-9512
시버	-9513
아나	-9514
압기	-9515
어치	-9516
엄종	-9517
오로	-9518
음곡	-9519
자금	-9520
전기	-9521
주제	-9522
차기	-9523
토어	-9524
호자	-9525
▁가환	-9526
▁각서	-9527
▁간음	-9528
▁갈망	-9529
▁갈이	-9530
▁감격	-9531
▁감면	-9532
▁감안	-9533
▁갑판	-9534
▁개그	-9535
▁개수	-9536
▁개울	-9537
▁개축	-9538
▁거구	-9539
▁거머	-9540
▁거스	-9541
▁거액	-9542
▁거위	-9543
▁거점	-9544
▁건위	-9545
▁게재	-9546
▁겨누	-9547
▁겨루	-9548
▁결제	-9549
▁겹쳐	-9550
▁경내	-9551
▁경련	-9552
▁경원	-9553
▁계곡	-9554
▁계천	-9555
▁계피	-9556
▁고등	-9557
▁고래	-9558
▁고사	-9559
▁고온	-9560
▁고우	-9561
▁고유	-9562
▁골키	-9563
▁공이	-9564
▁과격	-9565
▁관등	-9566
▁관목	-9567
▁관복	-9568
▁관여	-9569
▁관청	-9570
▁광주	-9571
▁광화	-9572
▁교목	-9573
▁교편	-9574
▁구석	-9575
▁구장	-9576
▁구절	-9577
▁구출	-9578
▁구타	-9579
▁국가	-9580
▁국내	-9581
▁국물	-9582
▁굽히	-9583
▁궁성	-9584
▁권유	-9585
▁귀국	-9586
▁규범	-9587
▁규약	-9588
▁균등	-9589
▁그곳	-9590
▁그늘	-9591
▁그레	-9592
▁극하	-9593
▁근면	-9594
▁금동	-9595
▁금리	-9596
▁금물	-9597
▁금화	-9598
▁급식	-9599
경기	-9600
균형	-9601
도덕	-9602
동강	-9603
돼지	-9604
들리	-9605
력차	-9606
른자	-9607
른쪽	-9608
리법	-9609
마리	-9610
받침	-9611
분배	-9612
빽이	-9613
스인	-9614
스플	-9615
식어	-9616
연수	-9617
요량	-9618
우르	-9619
원형	-9620
이즈	-9621
인척	-9622
임러	-9623
자율	-9624
자적	-9625
찬성	-9626
천장	-9627
출혈	-9628
카스	-9629
커스	-9630
타르	-9631
타민	-9632
터스	-9633
포트	-9634
혈구	-9635
▁감축	-9636
▁강변	-9637
▁강북	-9638
▁결전	-9639
▁광운	-9640
▁급인	-9641
▁급제	-9642
▁급행	-9643
▁기각	-9644
▁기무	-9645
▁기절	-9646
▁김밥	-9647
▁낙농	-9648
▁낙담	-9649
▁난류	-9650
▁날드	-9651
▁날조	-9652
▁남성	-9653
▁납품	-9654
▁내력	-9655
▁내어	-9656
▁내재	-9657
▁내쫓	-9658
▁내통	-9659
▁냄비	-9660
▁너트	-9661
▁널스	-9662
▁녹지	-9663
▁농업	-9664
▁능가	-9665
▁니퍼	-9666
▁다량	-9667
▁다린	-9668
▁다쓰	-9669
▁단교	-9670
▁달르	-9671
▁달빛	-9672
▁담당	-9673
▁당일	-9674
▁대구	-9675
▁대뇌	-9676
▁대순	-9677
▁더듬	-9678
▁더미	-9679
▁더하	-9680
▁덤불	-9681
▁도다	-9682
▁도매	-9683
▁도주	-9684
▁도처	-9685
▁도형	-9686
▁독백	-9687
▁독점	-9688
▁돌입	-9689
▁돌출	-9690
▁동덕	-9691
▁동맥	-9692
▁동부	-9693
▁동조	-9694
▁동평	-9695
▁된장	-9696
▁두르	-9697
▁둔하	-9698
▁둥글	-9699
▁릴	-9700
▁젯	-9701
▁족	-9702
그널	-9703
김새	-9704
내소	-9705
놀즈	-9706
니터	-9707
델링	-9708
랜드	-9709
령도	-9710
료품	-9711
루션	-9712
리밍	-9713
마네	-9714
바일	-9715
본금	-9716
사장	-9717
스템	-9718
아래	-9719
어력	-9720
업률	-9721
이지	-9722
장서	-9723
조트	-9724
지능	-9725
직체	-9726
진강	-9727
징어	-9728
처님	-9729
척추	-9730
출량	-9731
치형	-9732
투르	-9733
항선	-9734
▁구약	-9735
▁당과	-9736
▁등등	-9737
▁딱하	-9738
▁땅속	-9739
▁래드	-9740
▁런스	-9741
▁렌스	-9742
▁렌트	-9743
▁로카	-9744
▁로프	-9745
▁루브	-9746
▁리크	-9747
▁리틀	-9748
▁린스	-9749
▁린트	-9750
▁마나	-9751
▁마애	-9752
▁만료	-9753
▁만물	-9754
▁만이	-9755
▁만취	-9756
▁말자	-9757
▁맛보	-9758
▁망토	-9759
▁매입	-9760
▁매직	-9761
▁매혹	-9762
▁맨틀	-9763
▁머금	-9764
▁머핀	-9765
▁명심	-9766
▁명지	-9767
▁모금	-9768
▁모집	-9769
▁목본	-9770
▁몰살	-9771
▁묘의	-9772
▁무신	-9773
▁문언	-9774
▁문형	-9775
▁미각	-9776
▁미경	-9777
▁미륵	-9778
▁민간	-9779
▁민원	-9780
▁박이	-9781
▁박자	-9782
▁박테	-9783
▁반납	-9784
▁반론	-9785
▁반박	-9786
▁반사	-9787
▁반주	-9788
▁받들	-9789
▁발병	-9790
▁발부	-9791
▁발신	-9792
▁발톱	-9793
▁방송	-9794
▁방언	-9795
▁방출	-9796
▁방편	-9797
▁배격	-9798
▁배당	-9799
▁배분	-9800
▁배아	-9801
▁백사	-9802
▁버터	-9803
▁벅스	-9804
▁법경	-9805
▁법왕	-9806
▁보존	-9807
▁복리	-9808
▁복부	-9809
▁볼링	-9810
▁부근	-9811
▁부당	-9812
▁부락	-9813
▁부유	-9814
▁부피	-9815
▁부하	-9816
▁부합	-9817
▁북부	-9818
▁북쪽	-9819
▁붙히	-9820
▁브렛	-9821
▁비늘	-9822
▁비료	-9823
▁비버	-9824
▁비석	-9825
▁빈민	-9826
▁빈사	-9827
▁빈혈	-9828
▁뻐근	-9829
▁사각	-9830
▁사납	-9831
▁사발	-9832
▁사육	-9833
▁사장	-9834
▁사토	-9835
▁산화	-9836
▁살피	-9837
▁삼형	-9838
▁상근	-9839
▁상기	-9840
▁상병	-9841
▁상생	-9842
▁새우	-9843
▁색깔	-9844
▁생장	-9845
▁생체	-9846
▁서역	-9847
▁석류	-9848
▁선고	-9849
▁선단	-9850
▁선례	-9851
▁선율	-9852
▁설비	-9853
▁성령	-9854
▁성만	-9855
▁성병	-9856
▁성서	-9857
▁성실	-9858
▁성의	-9859
▁성찰	-9860
▁세뇌	-9861
▁세수	-9862
▁센서	-9863
▁센티	-9864
▁소드	-9865
▁소용	-9866
▁소풍	-9867
▁속구	-9868
▁속시	-9869
▁속어	-9870
▁손목	-9871
▁송금	-9872
▁송신	-9873
▁송지	-9874
▁송환	-9875
▁쇠약	-9876
▁쇼케	-9877
▁수긍	-9878
▁수도	-9879
▁수련	-9880
▁수범	-9881
▁수분	-9882
▁수생	-9883
▁수심	-9884
▁수첩	-9885
▁수컷	-9886
▁수퍼	-9887
▁수평	-9888
▁숙제	-9889
▁순응	-9890
▁술탄	-9891
▁숭고	-9892
▁스택	-9893
▁스티	-9894
▁스푸	-9895
▁스피	-9896
▁승급	-9897
▁승상	-9898
▁승패	-9899
▁시력	-9900
▁시모	-9901
▁시책	-9902
▁시초	-9903
▁식견	-9904
▁식성	-9905
▁신극	-9906
▁신영	-9907
▁실기	-9908
▁실무	-9909
▁실시	-9910
▁심도	-9911
▁심플	-9912
▁쌍무	-9913
▁쌍발	-9914
▁쌍방	-9915
▁쓰즈	-9916
▁쓰키	-9917
▁씌우	-9918
▁씻기	-9919
▁아동	-9920
▁아미	-9921
▁악당	-9922
▁악용	-9923
▁안쪽	-9924
▁알콜	-9925
▁암석	-9926
▁압류	-9927
▁압박	-9928
▁야치	-9929
▁약제	-9930
▁양주	-9931
▁양팔	-9932
▁어마	-9933
▁어종	-9934
▁어택	-9935
▁어학	-9936
▁엄하	-9937
▁업그	-9938
▁여과	-9939
▁여로	-9940
▁여파	-9941
▁연도	-9942
▁연서	-9943
▁연시	-9944
▁연줄	-9945
▁열강	-9946
▁열량	-9947
▁염두	-9948
▁영감	-9949
▁영광	-9950
▁오더	-9951
▁오목	-9952
▁오무	-9953
▁오버	-9954
▁오적	-9955
▁올르	-9956
▁옵션	-9957
▁옷감	-9958
▁와해	-9959
▁완화	-9960
▁왕의	-9961
▁왕인	-9962
▁외신	-9963
▁외양	-9964
▁외투	-9965
▁요란	-9966
▁요정	-9967
▁용암	-9968
▁용제	-9969
▁우스	-9970
▁웅변	-9971
▁웅천	-9972
▁원작	-9973
▁월동	-9974
▁월말	-9975
▁월초	-9976
▁웨스	-9977
▁위임	-9978
▁유경	-9979
▁유실	-9980
▁유장	-9981
▁육류	-9982
▁육신	-9983
▁으깨	-9984
▁으나	-9985
▁은폐	-9986
▁은화	-9987
▁음절	-9988
▁응급	-9989
▁응징	-9990
▁의복	-9991
▁의약	-9992
▁의촉	-9993
▁이관	-9994
▁이놈	-9995
▁이드	-9996
▁이론	-9997
▁이서	-9998
▁인문	-9999
▁인치	-10000
▁일소	-10001
▁일월	-10002
▁일족	-10003
▁임의	-10004
▁자손	-10005
▁자오	-10006
▁자의	-10007
▁자태	-10008
▁작문	-10009
▁잔혹	-10010
▁잡고	-10011
▁장치	-10012
▁재료	-10013
▁재림	-10014
▁재주	-10015
▁재직	-10016
▁저감	-10017
▁저서	-10018
▁저하	-10019
▁저해	-10020
▁적법	-10021
▁적합	-10022
▁전산	-10023
▁전서	-10024
▁전압	-10025
▁전염	-10026
▁전처	-10027
▁절실	-10028
▁절지	-10029
▁접경	-10030
▁접사	-10031
▁접속	-10032
▁정재	-10033
▁정현	-10034
▁정화	-10035
▁정훈	-10036
▁제길	-10037
▁제례	-10038
▁제복	-10039
▁제시	-10040
▁제약	-10041
▁젠장	-10042
▁조명	-10043
▁조운	-10044
▁조장	-10045
▁조조	-10046
▁종점	-10047
▁주거	-10048
▁주장	-10049
▁주호	-10050
▁줄게	-10051
▁중견	-10052
▁중년	-10053
▁중등	-10054
▁중령	-10055
▁증발	-10056
▁증서	-10057
▁증식	-10058
▁증여	-10059
▁지급	-10060
▁지노	-10061
▁지망	-10062
▁지인	-10063
▁직각	-10064
▁직행	-10065
▁진산	-10066
▁진척	-10067
▁질환	-10068
▁짐승	-10069
▁집회	-10070
▁징발	-10071
▁짝수	-10072
▁차원	-10073
▁차트	-10074
▁착색	-10075
▁착지	-10076
▁참깨	-10077
▁참살	-10078
▁참선	-10079
▁참여	-10080
▁참조	-10081
▁채찍	-10082
▁척수	-10083
▁철강	-10084
▁철분	-10085
▁첨단	-10086
▁청각	-10087
▁청동	-10088
▁청렴	-10089
▁청일	-10090
▁체중	-10091
▁초래	-10092
▁촉경	-10093
▁촉구	-10094
▁촌락	-10095
▁총계	-10096
▁총재	-10097
▁총탄	-10098
▁추분	-10099
▁추앙	-10100
▁출국	-10101
▁출동	-10102
▁출범	-10103
▁출소	-10104
▁출전	-10105
▁출처	-10106
▁충의	-10107
▁충이	-10108
▁취조	-10109
▁치밀	-10110
▁치욕	-10111
▁치중	-10112
▁친척	-10113
▁캐시	-10114
▁컴백	-10115
▁케이	-10116
▁콜리	-10117
▁콩과	-10118
▁쿠키	-10119
▁쿠페	-10120
▁크림	-10121
▁키나	-10122
▁타시	-10123
▁타점	-10124
▁탁구	-10125
▁태동	-10126
▁태산	-10127
▁태영	-10128
▁태의	-10129
▁택하	-10130
▁토대	-10131
▁토하	-10132
▁통합	-10133
▁투구	-10134
▁트가	-10135
▁특정	-10136
▁티끌	-10137
▁티스	-10138
▁파랑	-10139
▁파마	-10140
▁패소	-10141
▁패스	-10142
▁패주	-10143
▁팬케	-10144
▁펠트	-10145
▁펼치	-10146
▁포수	-10147
▁포용	-10148
▁표범	-10149
▁표피	-10150
▁푸젠	-10151
▁푸트	-10152
▁풍경	-10153
▁풍족	-10154
▁퓨어	-10155
▁피난	-10156
▁피질	-10157
▁하품	-10158
▁학력	-10159
▁학설	-10160
▁학식	-10161
▁학회	-10162
▁해물	-10163
▁해바	-10164
▁해시	-10165
▁해일	-10166
▁해피	-10167
▁해학	-10168
▁행선	-10169
▁향락	-10170
▁허용	-10171
▁험담	-10172
▁혈관	-10173
▁혈당	-10174
▁혈압	-10175
▁협판	-10176
▁협회	-10177
▁형과	-10178
▁형식	-10179
▁호박	-10180
▁혼동	-10181
▁화려	-10182
▁화분	-10183
▁화염	-10184
▁화친	-10185
▁확산	-10186
▁활달	-10187
▁회장	-10188
▁획득	-10189
▁획책	-10190
▁효시	-10191
▁후기	-10192
▁후미	-10193
▁후인	-10194
▁후퇴	-10195
▁힌트	-10196
니버설	-10197
데미상	-10198
드민턴	-10199
드벤처	-10200
라이더	-10201
러리즘	-10202
루엔자	-10203
린다는	-10204
메이션	-10205
미디어	-10206
사각형	-10207
세서리	-10208
손잡이	-10209
스크톱	-10210
스타일	-10211
아들이	-10212
어치우	-10213
지니어	-10214
친상간	-10215
특별시	-10216
포츠카	-10217
▁ᄂ다면	-10218
▁가요제	-10219
▁가이드	-10220
▁가져오	-10221
▁가환환	-10222
▁감독상	-10223
▁감독원	-10224
▁강연회	-10225
▁개발원	-10226
▁개별적	-10227
▁객관성	-10228
▁건축물	-10229
▁걸어오	-10230
▁게이코	-10231
▁겹쳐지	-10232
▁경복궁	-10233
▁경부선	-10234
▁경원선	-10235
▁경찰관	-10236
▁경찰의	-10237
▁곁들이	-10238
▁계절풍	-10239
▁고고학	-10240
▁고등어	-10241
▁고사리	-10242
▁고유어	-10243
▁골키퍼	-10244
▁공격력	-10245
▁공격수	-10246
▁공방전	-10247
▁공업화	-10248
▁공중파	-10249
▁과학자	-10250
▁관광지	-10251
▁광고주	-10252
▁광화문	-10253
▁괴로울	-10254
▁교육학	-10255
▁교차점	-10256
▁구조물	-10257
▁국경선	-10258
▁군자금	-10259
▁그래미	-10260
▁그래스	-10261
▁그레그	-10262
▁근로자	-10263
▁기관포	-10264
▁기본권	-10265
▁기악곡	-10266
▁기억나	-10267
▁기획자	-10268
▁김연수	-10269
▁꽃받침	-10270
▁나사우	-10271
▁낙동강	-10272
▁넘어오	-10273
▁네이버	-10274
▁노른자	-10275
▁노선도	-10276
▁노스케	-10277
▁노이즈	-10278
▁뇌출혈	-10279
▁다스리	-10280
▁다임러	-10281
▁달리기	-10282
▁달아나	-10283
▁담아내	-10284
▁당뇨병	-10285
▁대공황	-10286
▁대나무	-10287
▁대리석	-10288
▁대역폭	-10289
▁대지진	-10290
▁대출금	-10291
▁대표인	-10292
▁더럽히	-10293
▁덕수궁	-10294
▁도덕성	-10295
▁도덕적	-10296
▁도망치	-10297
▁도와주	-10298
▁독립국	-10299
▁독자적	-10300
▁돌출부	-10301
▁동력차	-10302
▁동인지	-10303
▁드높이	-10304
▁등산로	-10305
▁디스트	-10306
▁디스플	-10307
▁디자인	-10308
▁디지몬	-10309
▁떠나가	-10310
▁떠넘기	-10311
▁랭커스	-10312
▁레이저	-10313
▁렌스크	-10314
▁로마네	-10315
▁리모컨	-10316
▁리시버	-10317
▁리조트	-10318
▁리포트	-10319
▁리허설	-10320
▁릴리즈	-10321
▁마리노	-10322
▁마카오	-10323
▁매달려	-10324
▁메모리	-10325
▁멧돼지	-10326
▁명문가	-10327
▁모국어	-10328
▁모니터	-10329
▁모델링	-10330
▁모바일	-10331
▁모음곡	-10332
▁몰아쳐	-10333
▁무관심	-10334
▁무상정	-10335
▁무전기	-10336
▁무척추	-10337
▁무표정	-10338
▁문리과	-10339
▁물리적	-10340
▁물방울	-10341
▁미라클	-10342
▁미술사	-10343
▁민주제	-10344
▁바로잡	-10345
▁바오로	-10346
▁바크르	-10347
▁발바닥	-10348
▁방어력	-10349
▁배상액	-10350
▁백령도	-10351
▁백혈병	-10352
▁버무리	-10353
▁버스트	-10354
▁변압기	-10355
▁보행자	-10356
▁보험금	-10357
▁보험사	-10358
▁부교수	-10359
▁부도덕	-10360
▁부사장	-10361
▁부수차	-10362
▁부스터	-10363
▁부처님	-10364
▁북서부	-10365
▁불가결	-10366
▁불균형	-10367
▁불순물	-10368
▁불어넣	-10369
▁불합리	-10370
▁붙들리	-10371
▁붙잡히	-10372
▁브랜드	-10373
▁비인간	-10374
▁비타민	-10375
▁빈민가	-10376
▁빽빽이	-10377
▁사냥꾼	-10378
▁사람됨	-10379
▁사랑방	-10380
▁사무소	-10381
▁사업단	-10382
▁산책로	-10383
▁산출량	-10384
▁생김새	-10385
▁서울시	-10386
▁서유럽	-10387
▁서투르	-10388
▁세계화	-10389
▁소고기	-10390
▁소리치	-10391
▁소프트	-10392
▁소화기	-10393
▁손잡이	-10394
▁솔루션	-10395
▁수개월	-10396
▁수식어	-10397
▁수요량	-10398
▁수족관	-10399
▁수호자	-10400
▁순수성	-10401
▁스위트	-10402
▁스즈키	-10403
▁스토어	-10404
▁스트림	-10405
▁스티브	-10406
▁스프링	-10407
▁시그널	-10408
▁시스템	-10409
▁시작점	-10410
▁식료품	-10411
▁식물성	-10412
▁신경망	-10413
▁신뢰도	-10414
▁신체적	-10415
▁실마리	-10416
▁실업률	-10417
▁쏟아붓	-10418
▁아니하	-10419
▁아래층	-10420
▁아래턱	-10421
▁아우르	-10422
▁아이피	-10423
▁아재비	-10424
▁아치형	-10425
▁아카시	-10426
▁안내소	-10427
▁안토니	-10428
▁암갈색	-10429
▁앞다리	-10430
▁앞장서	-10431
▁양치기	-10432
▁어웨이	-10433
▁에디션	-10434
▁연구자	-10435
▁연구회	-10436
▁연해주	-10437
▁영등포	-10438
▁영양분	-10439
▁예선전	-10440
▁오디오	-10441
▁오른쪽	-10442
▁오징어	-10443
▁오페라	-10444
▁왕세손	-10445
▁외교적	-10446
▁외부인	-10447
▁운영비	-10448
▁원줄기	-10449
▁원피스	-10450
▁위아래	-10451
▁유기물	-10452
▁유사성	-10453
▁유아기	-10454
▁의문점	-10455
▁이웃집	-10456
▁이자율	-10457
▁이주민	-10458
▁인격권	-10459
▁인지의	-10460
▁일방적	-10461
▁일어서	-10462
▁일용직	-10463
▁임제종	-10464
▁임진강	-10465
▁임차인	-10466
▁입장권	-10467
▁입천장	-10468
▁잇따르	-10469
▁자금성	-10470
▁자본금	-10471
▁자연사	-10472
▁자외선	-10473
▁자주색	-10474
▁작사자	-10475
▁잠재우	-10476
▁잠정적	-10477
▁장시간	-10478
▁장항선	-10479
▁재분배	-10480
▁재빠르	-10481
▁재조합	-10482
▁저고리	-10483
▁적시타	-10484
▁적혈구	-10485
▁전년도	-10486
▁전라도	-10487
▁전문의	-10488
▁전시회	-10489
▁정신력	-10490
▁정치적	-10491
▁제철소	-10492
▁제품군	-10493
▁제후국	-10494
▁조각상	-10495
▁조금씩	-10496
▁조리법	-10497
▁조직체	-10498
▁졸린가	-10499
▁졸업장	-10500
▁좌찬성	-10501
▁죄책감	-10502
▁주머니	-10503
▁주성분	-10504
▁중국인	-10505
▁중앙대	-10506
▁증명서	-10507
▁증폭기	-10508
▁지난해	-10509
▁지속적	-10510
▁진정서	-10511
▁진행자	-10512
▁진행하	-10513
▁쫓아내	-10514
▁참나무	-10515
▁채무자	-10516
▁천재적	-10517
▁철자법	-10518
▁체세포	-10519
▁초기화	-10520
▁초보자	-10521
▁초승달	-10522
▁춘곤증	-10523
▁출판물	-10524
▁출판사	-10525
▁친인척	-10526
▁칠면조	-10527
▁카르노	-10528
▁칼리지	-10529
▁케이크	-10530
▁코브라	-10531
▁콘라트	-10532
▁콘텐츠	-10533
▁콜레라	-10534
▁크나크	-10535
▁클리프	-10536
▁타원형	-10537
▁타타르	-10538
▁탁지부	-10539
▁탄원서	-10540
▁터미널	-10541
▁터보팬	-10542
▁토론회	-10543
▁토크쇼	-10544
▁통일성	-10545
▁통일안	-10546
▁통째로	-10547
▁통행료	-10548
▁트레인	-10549
▁티무르	-10550
▁파스타	-10551
▁팔달구	-10552
▁패밀리	-10553
▁퍼스트	-10554
▁페스트	-10555
▁펼쳐지	-10556
▁평창군	-10557
▁평화적	-10558
▁포지션	-10559
▁폭력적	-10560
▁폭풍우	-10561
▁푸른색	-10562
▁프리마	-10563
▁피사체	-10564
▁피의자	-10565
▁픽처스	-10566
▁필리프	-10567
▁필수적	-10568
▁학생과	-10569
▁학술지	-10570
▁한자어	-10571
▁할머니	-10572
▁해조류	-10573
▁핸드볼	-10574
▁혐오감	-10575
▁혹시나	-10576
▁혼합물	-10577
▁홈경기	-10578
▁화엄종	-10579
▁화천군	-10580
▁활기차	-10581
▁황금빛	-10582
▁효율성	-10583
▁후쿠이	-10584
▁흑산도	-10585
▁그리스인	-10586
▁근친상간	-10587
▁데스크톱	-10588
▁뒤떨어지	-10589
▁뛰어다니	-10590
▁레이놀즈	-10591
▁맞아들이	-10592
▁먹어치우	-10593
▁미리미리	-10594
▁민간단체	-10595
▁박테리아	-10596
▁배고파서	-10597
▁배드민턴	-10598
▁부러뜨리	-10599
▁서귀포시	-10600
▁센티미터	-10601
▁쇼케이스	-10602
▁스테이션	-10603
▁스테이지	-10604
▁스트리밍	-10605
▁스포츠카	-10606
▁슬라이더	-10607
▁습니다만	-10608
▁승부차기	-10609
▁시원섭섭	-10610
▁신체검사	-10611
▁아미타불	-10612
▁액세서리	-10613
▁어드벤처	-10614
▁어마어마	-10615
▁에이전트	-10616
▁엔지니어	-10617
▁올리브유	-10618
▁유니버설	-10619
▁인공지능	-10620
▁잃어버리	-10621
▁정사각형	-10622
▁주절주절	-10623
▁중등학교	-10624
▁컴파일러	-10625
▁테러리즘	-10626
▁팬케이크	-10627
▁플라즈마	-10628
▁하드웨어	-10629
▁해바라기	-10630
▁해외여행	-10631
▁허리케인	-10632
▁가이드라인	-10633
▁기다린다는	-10634
▁디스플레이	-10635
▁로마네스크	-10636
▁멀티미디어	-10637
▁불러줄게요	-10638
▁서울특별시	-10639
▁소프트웨어	-10640
▁아카데미상	-10641
▁애니메이션	-10642
▁업그레이드	-10643
▁인플루엔자	-10644
▁헤어스타일	-10645
시나	-10646
오감	-10647
율성	-10648
향락	-10649
허용	-10650
험담	-10651
혈관	-10652
혈당	-10653
협판	-10654
협회	-10655
형과	-10656
호박	-10657
혼합	-10658
홈경	-10659
화분	-10660
화염	-10661
화천	-10662
화친	-10663
효시	-10664
후인	-10665
후쿠	-10666
후퇴	-10667
힌트	-10668
gog	-10669
ᄂ다면	-10670
▁36	-10671
▁가라	-10672
▁가릴	-10673
▁가습	-10674
▁가이	-10675
▁간담	-10676
▁간신	-10677
▁간지	-10678
▁갈고	-10679
▁갈수	-10680
▁갈아	-10681
▁갑시	-10682
▁강력	-10683
▁강연	-10684
▁강추	-10685
▁같아	-10686
▁개개	-10687
▁개기	-10688
▁건드	-10689
▁걸쳐	-10690
▁경부	-10691
▁곁들	-10692
▁고구	-10693
▁고분	-10694
▁고양	-10695
▁고출	-10696
▁고혈	-10697
▁곰곰	-10698
▁공무	-10699
드볼	-10700
라즈	-10701
력적	-10702
리즘	-10703
사다	-10704
생과	-10705
수적	-10706
외여	-10707
일성	-10708
일안	-10709
자어	-10710
추분	-10711
추앙	-10712
출범	-10713
충의	-10714
취조	-10715
치밀	-10716
치욕	-10717
치중	-10718
친인	-10719
칠면	-10720
칼리	-10721
콘라	-10722
콘텐	-10723
콜레	-10724
콜리	-10725
콩과	-10726
쿠스	-10727
쿠키	-10728
쿠페	-10729
타점	-10730
타타	-10731
탁지	-10732
태산	-10733
태영	-10734
터미	-10735
테러	-10736
토대	-10737
토론	-10738
통째	-10739
통합	-10740
투구	-10741
트가	-10742
티스	-10743
파마	-10744
판물	-10745
패밀	-10746
패소	-10747
패스	-10748
패주	-10749
팬케	-10750
페스	-10751
펠트	-10752
포수	-10753
포용	-10754
포지	-10755
표범	-10756
표피	-10757
푸른	-10758
푸젠	-10759
푸트	-10760
풍우	-10761
풍족	-10762
피난	-10763
피사	-10764
필리	-10765
학력	-10766
학설	-10767
학회	-10768
할머	-10769
해물	-10770
해일	-10771
해조	-10772
해피	-10773
해학	-10774
화적	-10775
후미	-10776
▁겁난	-10777
▁공방	-10778
▁공백	-10779
▁공업	-10780
▁공직	-10781
▁공휴	-10782
▁광둥	-10783
▁광범	-10784
▁교직	-10785
▁교차	-10786
▁군무	-10787
▁군자	-10788
▁권태	-10789
▁귀기	-10790
▁그동	-10791
▁그릇	-10792
▁극작	-10793
▁기를	-10794
▁기병	-10795
▁기프	-10796
▁길거	-10797
▁김연	-10798
▁깨어	-10799
가문	-10800
가입	-10801
가혹	-10802
견과	-10803
견해	-10804
고작	-10805
과육	-10806
구상	-10807
나들	-10808
넘쳐	-10809
녀도	-10810
달래	-10811
담감	-10812
당황	-10813
데도	-10814
독한	-10815
됐었	-10816
드물	-10817
때려	-10818
런지	-10819
말려	-10820
매입	-10821
멋질	-10822
면도	-10823
면요	-10824
목도	-10825
무전	-10826
미모	-10827
민간	-10828
바니	-10829
반적	-10830
배우	-10831
법경	-10832
부끄	-10833
사계	-10834
살려	-10835
색감	-10836
셔도	-10837
수능	-10838
수제	-10839
스키	-10840
슬슬	-10841
슬프	-10842
신념	-10843
아갈	-10844
안개	-10845
안녕	-10846
약해	-10847
양반	-10848
양해	-10849
업장	-10850
예측	-10851
오스	-10852
옳소	-10853
입혀	-10854
자면	-10855
정장	-10856
조차	-10857
주택	-10858
지급	-10859
지러	-10860
지스	-10861
진도	-10862
짝사	-10863
짧아	-10864
천재	-10865
천차	-10866
촬영	-10867
치열	-10868
탄다	-10869
터닝	-10870
털털	-10871
통점	-10872
판매	-10873
편해	-10874
피자	-10875
학관	-10876
한강	-10877
한눈	-10878
한답	-10879
해명	-10880
해줄	-10881
헝겊	-10882
혀진	-10883
현존	-10884
환심	-10885
활기	-10886
회의	-10887
흐지	-10888
▁꼬까	-10889
▁꼭대	-10890
▁꽃다	-10891
▁나간	-10892
▁나그	-10893
▁나들	-10894
▁나머	-10895
▁나무	-10896
▁남동	-10897
▁내국	-10898
▁냉난	-10899
간절	-10900
갇히	-10901
건조	-10902
겁니	-10903
겨야	-10904
고는	-10905
공시	-10906
관절	-10907
구경	-10908
글쎄	-10909
기르	-10910
깨진	-10911
깰까	-10912
끝났	-10913
났으	-10914
냉난	-10915
녀왔	-10916
노력	-10917
놀리	-10918
는군	-10919
단맛	-10920
답신	-10921
당시	-10922
대만	-10923
대성	-10924
댄디	-10925
더느	-10926
덕분	-10927
데리	-10928
독학	-10929
동굴	-10930
동떨	-10931
따내	-10932
떻하	-10933
라갈	-10934
라놓	-10935
라토	-10936
먹어	-10937
메뉴	-10938
무뚝	-10939
민원	-10940
바래	-10941
배달	-10942
배제	-10943
별로	-10944
별별	-10945
상하	-10946
색다	-10947
손목	-10948
순결	-10949
쉬울	-10950
식당	-10951
신행	-10952
쎄요	-10953
안경	-10954
양제	-10955
어던	-10956
어뜨	-10957
어찌	-10958
역할	-10959
영양	-10960
예비	-10961
와이	-10962
울림	-10963
위드	-10964
위협	-10965
은퇴	-10966
을게	-10967
음먹	-10968
인연	-10969
자는	-10970
잠궈	-10971
재채	-10972
정도	-10973
정열	-10974
주워	-10975
지갑	-10976
지낸	-10977
지랖	-10978
착용	-10979
채취	-10980
천연	-10981
출구	-10982
커서	-10983
클레	-10984
틈틈	-10985
티콘	-10986
팍팍	-10987
현관	-10988
혼란	-10989
환장	-10990
힘듭	-10991
▁냉장	-10992
▁냐는	-10993
▁넘겨	-10994
▁노른	-10995
▁노여	-10996
▁녹아	-10997
▁논리	-10998
▁놔둬	-10999
가온	-11000
각난	-11001
각질	-11002
간청	-11003
감성	-11004
갔다	-11005
같애	-11006
거둘	-11007
겨나	-11008
괴짜	-11009
구장	-11010
굴까	-11011
그러	-11012
근데	-11013
기댈	-11014
기복	-11015
기부	-11016
꾸리	-11017
꾸며	-11018
끊기	-11019
끝마	-11020
날까	-11021
남겨	-11022
느낄	-11023
느새	-11024
는구	-11025
는대	-11026
닐지	-11027
다신	-11028
대식	-11029
도대	-11030
독하	-11031
딪혔	-11032
따위	-11033
뜻밖	-11034
럴지	-11035
릅니	-11036
막걸	-11037
만든	-11038
맞출	-11039
맥주	-11040
먹히	-11041
멀미	-11042
명곡	-11043
명절	-11044
목욕	-11045
무명	-11046
문단	-11047
뭘로	-11048
미팅	-11049
배울	-11050
버튼	-11051
부차	-11052
부탁	-11053
북받	-11054
분통	-11055
비행	-11056
빌렸	-11057
뻐해	-11058
뻑뻑	-11059
서워	-11060
설득	-11061
성동	-11062
수거	-11063
수염	-11064
숨길	-11065
아토	-11066
애써	-11067
와야	-11068
우세	-11069
운영	-11070
워워	-11071
이완	-11072
자가	-11073
주보	-11074
주쳐	-11075
줘야	-11076
찰의	-11077
천사	-11078
초과	-11079
켜야	-11080
코미	-11081
토하	-11082
통하	-11083
트림	-11084
파스	-11085
파야	-11086
파요	-11087
프리	-11088
한랭	-11089
허무	-11090
현금	-11091
현혹	-11092
확률	-11093
▁내버	-11094
▁뇌출	-11095
▁눈높	-11096
▁눈보	-11097
▁는구	-11098
▁니벨	-11099
가라	-11100
가볍	-11101
가습	-11102
각가	-11103
강조	-11104
겼으	-11105
경선	-11106
공업	-11107
구멍	-11108
귀중	-11109
깃털	-11110
깔리	-11111
난간	-11112
난감	-11113
내던	-11114
너그	-11115
넋두	-11116
늦잠	-11117
다독	-11118
뎌진	-11119
라다	-11120
라붙	-11121
라운	-11122
란기	-11123
랫동	-11124
랫만	-11125
러갑	-11126
립스	-11127
매듭	-11128
메노	-11129
멘탈	-11130
모태	-11131
뭔지	-11132
미끄	-11133
미루	-11134
미식	-11135
배이	-11136
버텨	-11137
보듬	-11138
붙여	-11139
사빠	-11140
사제	-11141
샤워	-11142
서답	-11143
성병	-11144
성찰	-11145
습도	-11146
신없	-11147
쌓이	-11148
쓰이	-11149
아쉬	-11150
안부	-11151
알콩	-11152
암꽃	-11153
억울	-11154
오른	-11155
용서	-11156
위생	-11157
인턴	-11158
일자	-11159
임기	-11160
장품	-11161
전역	-11162
정답	-11163
조취	-11164
중퇴	-11165
증상	-11166
진우	-11167
진행	-11168
챙겼	-11169
청구	-11170
초유	-11171
총알	-11172
축제	-11173
친근	-11174
칼로	-11175
크기	-11176
키워	-11177
타로	-11178
통해	-11179
편린	-11180
풍경	-11181
한스	-11182
해내	-11183
해바	-11184
해진	-11185
향수	-11186
혀져	-11187
호칭	-11188
황민	-11189
흥미	-11190
▁눈꺼	-11191
▁다독	-11192
▁다임	-11193
▁다쳐	-11194
▁닥쳐	-11195
▁단말	-11196
▁단행	-11197
▁담아	-11198
▁당대	-11199
23	-11200
가네	-11201
가오	-11202
간직	-11203
강추	-11204
격시	-11205
고수	-11206
고출	-11207
공원	-11208
관대	-11209
교양	-11210
교적	-11211
금연	-11212
급작	-11213
기뻐	-11214
기적	-11215
길래	-11216
껴져	-11217
끊겼	-11218
나날	-11219
나누	-11220
나빠	-11221
납득	-11222
납부	-11223
내분	-11224
내키	-11225
낸다	-11226
노트	-11227
단호	-11228
달력	-11229
대차	-11230
더워	-11231
돌보	-11232
떠날	-11233
라져	-11234
려주	-11235
론가	-11236
멍청	-11237
무거	-11238
무릎	-11239
미지	-11240
배고	-11241
부디	-11242
부메	-11243
불완	-11244
비틀	-11245
빈약	-11246
빨강	-11247
서서	-11248
성품	-11249
속박	-11250
수십	-11251
시켰	-11252
식과	-11253
식물	-11254
신기	-11255
신발	-11256
신하	-11257
아마	-11258
아하	-11259
약점	-11260
여우	-11261
역량	-11262
연적	-11263
예금	-11264
예능	-11265
왠지	-11266
울해	-11267
유부	-11268
이럴	-11269
이뤄	-11270
이비	-11271
임신	-11272
잘생	-11273
재밌	-11274
전곡	-11275
정한	-11276
주쳤	-11277
주파	-11278
지워	-11279
지진	-11280
차가	-11281
참선	-11282
채우	-11283
체육	-11284
최선	-11285
출발	-11286
치료	-11287
큰일	-11288
타까	-11289
투표	-11290
파브	-11291
하녀	-11292
후배	-11293
▁당분	-11294
▁당사	-11295
▁대관	-11296
▁대나	-11297
▁대부	-11298
▁대성	-11299
간식	-11300
강연	-11301
거머	-11302
거치	-11303
겸하	-11304
계신	-11305
고치	-11306
광고	-11307
교제	-11308
근래	-11309
근슬	-11310
근심	-11311
기력	-11312
기프	-11313
꺼지	-11314
끌려	-11315
끌림	-11316
나르	-11317
나름	-11318
나약	-11319
남녀	-11320
내딛	-11321
냄새	-11322
대개	-11323
대출	-11324
동료	-11325
따지	-11326
딸기	-11327
땅속	-11328
람난	-11329
래다	-11330
려먹	-11331
마실	-11332
마중	-11333
만난	-11334
머릿	-11335
멀티	-11336
밀치	-11337
방금	-11338
부작	-11339
분노	-11340
비우	-11341
비워	-11342
비통	-11343
삼겹	-11344
색소	-11345
생리	-11346
서도	-11347
속정	-11348
손수	-11349
수월	-11350
스캐	-11351
슬퍼	-11352
슷하	-11353
실례	-11354
실체	-11355
싫증	-11356
심각	-11357
심란	-11358
심성	-11359
싸구	-11360
싸워	-11361
쌍발	-11362
안해	-11363
애틋	-11364
양말	-11365
어떡	-11366
어떨	-11367
용접	-11368
울음	-11369
울이	-11370
월요	-11371
인근	-11372
일시	-11373
입성	-11374
잔인	-11375
정리	-11376
지압	-11377
참견	-11378
참사	-11379
챙기	-11380
청나	-11381
축하	-11382
친절	-11383
클럽	-11384
평생	-11385
피시	-11386
피크	-11387
한창	-11388
허락	-11389
헐크	-11390
회식	-11391
▁대잔	-11392
▁대청	-11393
▁대형	-11394
▁더러	-11395
▁덕수	-11396
▁도서	-11397
▁도시	-11398
▁도자	-11399
as	-11400
간음	-11401
갈등	-11402
강림	-11403
건너	-11404
건드	-11405
격적	-11406
곤경	-11407
공무	-11408
과학	-11409
관광	-11410
국구	-11411
권리	-11412
기나	-11413
꼭대	-11414
끄럽	-11415
냐구	-11416
너진	-11417
느려	-11418
닐까	-11419
돌과	-11420
두드	-11421
뒤숭	-11422
드립	-11423
들으	-11424
라네	-11425
라봤	-11426
락가	-11427
려가	-11428
령기	-11429
막대	-11430
무던	-11431
반려	-11432
반복	-11433
발생	-11434
방문	-11435
버텼	-11436
보였	-11437
부팅	-11438
비친	-11439
선택	-11440
셀프	-11441
슬플	-11442
시작	-11443
식점	-11444
신뢰	-11445
실습	-11446
아스	-11447
아했	-11448
애기	-11449
어떠	-11450
연소	-11451
열흘	-11452
외국	-11453
육류	-11454
을수	-11455
의료	-11456
의적	-11457
이번	-11458
이빨	-11459
이점	-11460
이제	-11461
재분	-11462
쟁취	-11463
적합	-11464
절히	-11465
접수	-11466
정하	-11467
정해	-11468
종목	-11469
종점	-11470
주식	-11471
증폭	-11472
지치	-11473
진료	-11474
질리	-11475
축의	-11476
취급	-11477
치유	-11478
친하	-11479
카로	-11480
캐시	-11481
케익	-11482
태연	-11483
포근	-11484
피고	-11485
피싱	-11486
한껏	-11487
행히	-11488
향상	-11489
헛웃	-11490
▁도저	-11491
▁도파	-11492
▁독자	-11493
▁돌잔	-11494
▁동떨	-11495
▁동력	-11496
▁동문	-11497
▁동영	-11498
▁동인	-11499
가만	-11500
가속	-11501
가차	-11502
간혹	-11503
감수	-11504
갑작	-11505
겼을	-11506
경테	-11507
고통	-11508
공통	-11509
과식	-11510
굳이	-11511
금은	-11512
금증	-11513
기술	-11514
는가	-11515
다툼	-11516
단단	-11517
대략	-11518
대화	-11519
도파	-11520
동거	-11521
뒷감	-11522
듭니	-11523
매정	-11524
문장	-11525
미각	-11526
미쳐	-11527
바가	-11528
반응	-11529
배웠	-11530
부질	-11531
비해	-11532
빠뜨	-11533
사업	-11534
살인	-11535
상의	-11536
수정	-11537
순간	-11538
습성	-11539
식사	-11540
신극	-11541
씁니	-11542
아갔	-11543
아질	-11544
알뜰	-11545
야경	-11546
언제	-11547
여드	-11548
여러	-11549
여인	-11550
연금	-11551
오류	-11552
운데	-11553
은연	-11554
음놓	-11555
이터	-11556
인먼	-11557
인플	-11558
작스	-11559
잡고	-11560
잡음	-11561
장실	-11562
장점	-11563
접경	-11564
정반	-11565
정의	-11566
제작	-11567
존경	-11568
존심	-11569
증대	-11570
지네	-11571
지우	-11572
진실	-11573
쪼개	-11574
차갑	-11575
차리	-11576
착한	-11577
철강	-11578
초라	-11579
초창	-11580
치과	-11581
커지	-11582
탈퇴	-11583
통지	-11584
트콤	-11585
특별	-11586
페북	-11587
프라	-11588
프링	-11589
피어	-11590
학과	-11591
허벅	-11592
후유	-11593
흐를	-11594
▁근친	-11595
▁동호	-11596
▁되도	-11597
▁되풀	-11598
▁된답	-11599
가사	-11600
간사	-11601
갈수	-11602
감히	-11603
거워	-11604
걸린	-11605
고등	-11606
공표	-11607
구별	-11608
그대	-11609
기도	-11610
깨질	-11611
나간	-11612
날림	-11613
내릴	-11614
냈으	-11615
녀오	-11616
녹여	-11617
누가	-11618
데우	-11619
또한	-11620
류소	-11621
만나	-11622
맛난	-11623
맹세	-11624
메에	-11625
무언	-11626
무지	-11627
발리	-11628
방비	-11629
번은	-11630
베풀	-11631
변주	-11632
보단	-11633
비교	-11634
뻐요	-11635
사면	-11636
사안	-11637
사죄	-11638
상사	-11639
색채	-11640
생태	-11641
셀카	-11642
수당	-11643
순방	-11644
순히	-11645
실내	-11646
쓰러	-11647
아다	-11648
아싸	-11649
야겠	-11650
어이	-11651
여받	-11652
온전	-11653
옹호	-11654
외롭	-11655
용모	-11656
용역	-11657
으셨	-11658
음수	-11659
이듬	-11660
이른	-11661
이불	-11662
입천	-11663
입학	-11664
자던	-11665
잡혀	-11666
저번	-11667
저주	-11668
저하	-11669
적기	-11670
젊음	-11671
졸업	-11672
지식	-11673
직책	-11674
쪽지	-11675
차별	-11676
착하	-11677
참으	-11678
초기	-11679
최악	-11680
치장	-11681
치킨	-11682
카누	-11683
통화	-11684
팀워	-11685
페인	-11686
펴보	-11687
한리	-11688
활과	-11689
후회	-11690
휴식	-11691
▁내립	-11692
▁될라	-11693
▁두고	-11694
▁두더	-11695
▁뒤따	-11696
▁뒤떨	-11697
▁뒤섞	-11698
▁뒤숭	-11699
개강	-11700
거슬	-11701
경축	-11702
고문	-11703
구릿	-11704
금속	-11705
내내	-11706
눈물	-11707
늘이	-11708
단어	-11709
담긴	-11710
답변	-11711
당장	-11712
더디	-11713
동문	-11714
동호	-11715
따져	-11716
때때	-11717
땡기	-11718
떠오	-11719
랑니	-11720
레리	-11721
레시	-11722
려울	-11723
로잡	-11724
리언	-11725
리운	-11726
매년	-11727
멋져	-11728
못자	-11729
묻어	-11730
벗겨	-11731
벚꽃	-11732
별칭	-11733
별하	-11734
부남	-11735
사로	-11736
생생	-11737
세히	-11738
소모	-11739
수면	-11740
식단	-11741
아릴	-11742
아온	-11743
아져	-11744
아채	-11745
양궁	-11746
어오	-11747
언급	-11748
열쇠	-11749
염탐	-11750
오히	-11751
온몸	-11752
와주	-11753
우린	-11754
울시	-11755
원동	-11756
위의	-11757
위쪽	-11758
은근	-11759
은지	-11760
의사	-11761
이것	-11762
이래	-11763
일거	-11764
일어	-11765
임무	-11766
장인	-11767
장해	-11768
적으	-11769
전망	-11770
절친	-11771
조급	-11772
주기	-11773
중간	-11774
줘도	-11775
질긴	-11776
쩌면	-11777
차트	-11778
출퇴	-11779
캄캄	-11780
케줄	-11781
콘서	-11782
타내	-11783
통약	-11784
파토	-11785
픽처	-11786
해제	-11787
향한	-11788
호호	-11789
혼주	-11790
회색	-11791
후군	-11792
▁뒤통	-11793
▁뒤틀	-11794
▁뒷다	-11795
▁드높	-11796
▁드레	-11797
▁들으	-11798
▁디스	-11799
감미	-11800
갑니	-11801
강아	-11802
걸릴	-11803
겸임	-11804
계피	-11805
고관	-11806
고난	-11807
고르	-11808
고장	-11809
고칠	-11810
관없	-11811
그리	-11812
그립	-11813
극장	-11814
금영	-11815
나온	-11816
나위	-11817
나쳤	-11818
내쫓	-11819
농담	-11820
놓치	-11821
다더	-11822
다큐	-11823
단념	-11824
단순	-11825
당대	-11826
뎌질	-11827
동급	-11828
둘리	-11829
라질	-11830
람둥	-11831
런데	-11832
로막	-11833
리울	-11834
린스	-11835
만날	-11836
몰차	-11837
무모	-11838
무소	-11839
박이	-11840
발간	-11841
방출	-11842
변동	-11843
봅시	-11844
불편	-11845
비밀	-11846
서운	-11847
성적	-11848
소망	-11849
소심	-11850
소원	-11851
속옷	-11852
숫자	-11853
시키	-11854
신나	-11855
신혼	-11856
안전	-11857
약속	-11858
연히	-11859
열정	-11860
엿보	-11861
예인	-11862
오두	-11863
왜곡	-11864
울여	-11865
위병	-11866
익살	-11867
전날	-11868
제례	-11869
조조	-11870
종료	-11871
종아	-11872
중개	-11873
지쳐	-11874
창법	-11875
치명	-11876
칭찬	-11877
태어	-11878
턱시	-11879
파도	-11880
파이	-11881
퍼붓	-11882
하아	-11883
학벌	-11884
함부	-11885
헛헛	-11886
화사	-11887
활동	-11888
▁디저	-11889
▁디지	-11890
▁딩크	-11891
▁따돌	-11892
▁떠넘	-11893
▁떠오	-11894
▁떨린	-11895
▁또다	-11896
▁띠동	-11897
▁라더	-11898
▁라디	-11899
가금	-11900
가벼	-11901
간편	-11902
감지	-11903
거라	-11904
격증	-11905
계산	-11906
고고	-11907
고파	-11908
과부	-11909
관등	-11910
관습	-11911
괴력	-11912
기무	-11913
기병	-11914
깐깐	-11915
너짐	-11916
념일	-11917
늦어	-11918
답증	-11919
당한	-11920
떠보	-11921
똑똑	-11922
뜻하	-11923
러면	-11924
만두	-11925
매번	-11926
명히	-11927
모텔	-11928
별의	-11929
보존	-11930
빨리	-11931
사망	-11932
사이	-11933
사친	-11934
삼키	-11935
선연	-11936
성향	-11937
셔요	-11938
시관	-11939
약간	-11940
양고	-11941
양자	-11942
여요	-11943
여주	-11944
연방	-11945
오톡	-11946
올릴	-11947
올해	-11948
울철	-11949
원거	-11950
유격	-11951
의심	-11952
이름	-11953
이슈	-11954
이용	-11955
인형	-11956
자격	-11957
자르	-11958
잠수	-11959
재미	-11960
점검	-11961
정규	-11962
정략	-11963
제습	-11964
중화	-11965
줘요	-11966
진급	-11967
진대	-11968
차차	-11969
추운	-11970
추워	-11971
충실	-11972
취해	-11973
침표	-11974
크놀	-11975
탄원	-11976
터지	-11977
평일	-11978
풍습	-11979
하고	-11980
학여	-11981
학원	-11982
한참	-11983
혁명	-11984
호장	-11985
호투	-11986
혼식	-11987
화가	-11988
훈련	-11989
▁다워	-11990
▁레시	-11991
▁레코	-11992
▁렌터	-11993
▁로마	-11994
▁로부	-11995
▁루리	-11996
▁리버	-11997
▁리시	-11998
▁리액	-11999
▁랍	-12000
간파	-12001
겨우	-12002
격려	-12003
격지	-12004
결심	-12005
경복	-12006
고비	-12007
과거	-12008
관성	-12009
괜잖	-12010
그동	-12011
급성	-12012
끈기	-12013
나갔	-12014
냉장	-12015
냉정	-12016
넘어	-12017
노후	-12018
놀라	-12019
농구	-12020
다양	-12021
단히	-12022
당하	-12023
대단	-12024
덤빈	-12025
뒤늦	-12026
로비	-12027
루하	-12028
립니	-12029
말라	-12030
맞춤	-12031
멋진	-12032
모릅	-12033
몰래	-12034
발목	-12035
벗어	-12036
변제	-12037
별자	-12038
봐서	-12039
부녀	-12040
북부	-12041
불러	-12042
비참	-12043
빌려	-12044
빼빼	-12045
색계	-12046
설렘	-12047
성단	-12048
성탄	-12049
세워	-12050
속력	-12051
수호	-12052
순항	-12053
시찰	-12054
쓰키	-12055
아갑	-12056
아줄	-12057
어드	-12058
업체	-12059
여워	-12060
연관	-12061
예쁠	-12062
예정	-12063
오랫	-12064
올바	-12065
우자	-12066
울적	-12067
월급	-12068
유지	-12069
음소	-12070
의촉	-12071
일용	-12072
자유	-12073
재결	-12074
전산	-12075
점점	-12076
졌으	-12077
주력	-12078
주사	-12079
지칠	-12080
차만	-12081
차면	-12082
착지	-12083
청해	-12084
출동	-12085
탁구	-12086
트라	-12087
팔린	-12088
필두	-12089
해지	-12090
▁리포	-12091
▁마무	-12092
▁마인	-12093
▁마지	-12094
▁마케	-12095
▁막대	-12096
▁막바	-12097
▁만납	-12098
▁말조	-12099
각날	-12100
간단	-12101
갈아	-12102
강제	-12103
거부	-12104
겨낼	-12105
고우	-12106
곡과	-12107
그저	-12108
기념	-12109
긴장	-12110
깔창	-12111
끄집	-12112
나아	-12113
남동	-12114
내리	-12115
냉철	-12116
놔둬	-12117
느냐	-12118
늘날	-12119
단기	-12120
대상	-12121
대편	-12122
댄스	-12123
동물	-12124
드세	-12125
등산	-12126
따끔	-12127
때요	-12128
떨리	-12129
라진	-12130
로서	-12131
마무	-12132
마셔	-12133
막지	-12134
맞아	-12135
멋있	-12136
뭘까	-12137
반영	-12138
반하	-12139
방침	-12140
벌어	-12141
변해	-12142
볼링	-12143
분명	-12144
불고	-12145
사내	-12146
샐러	-12147
설날	-12148
소문	-12149
송달	-12150
수긍	-12151
스킨	-12152
스테	-12153
실히	-12154
아빠	-12155
애매	-12156
액결	-12157
언어	-12158
여름	-12159
여야	-12160
예뻐	-12161
요약	-12162
원삼	-12163
위한	-12164
의하	-12165
이사	-12166
이야	-12167
이치	-12168
이하	-12169
인고	-12170
자녀	-12171
작사	-12172
잠식	-12173
저린	-12174
저압	-12175
전부	-12176
전환	-12177
제나	-12178
중임	-12179
즐기	-12180
짜로	-12181
치매	-12182
카나	-12183
탐험	-12184
테레	-12185
테판	-12186
퍼뜨	-12187
필수	-12188
허상	-12189
헤엄	-12190
형상	-12191
회선	-12192
▁다큐	-12193
▁드라	-12194
▁망설	-12195
▁맞아	-12196
▁매니	-12197
▁매킨	-12198
▁먹어	-12199
가족	-12200
가치	-12201
간성	-12202
간신	-12203
갈게	-12204
갑판	-12205
걸음	-12206
겨울	-12207
결의	-12208
결정	-12209
고갈	-12210
광범	-12211
괴롭	-12212
교의	-12213
구해	-12214
그르	-12215
껴질	-12216
끓이	-12217
끼치	-12218
낙엽	-12219
날렸	-12220
남길	-12221
당분	-12222
대한	-12223
데려	-12224
독려	-12225
될지	-12226
두목	-12227
따질	-12228
려줘	-12229
료소	-12230
립운	-12231
릿속	-12232
말랐	-12233
매도	-12234
매운	-12235
명력	-12236
모바	-12237
미성	-12238
벗기	-12239
보답	-12240
불타	-12241
붙히	-12242
비만	-12243
비판	-12244
상병	-12245
선생	-12246
설정	-12247
세상	-12248
셔야	-12249
소강	-12250
소식	-12251
소진	-12252
스폰	-12253
슬픔	-12254
시대	-12255
아목	-12256
아쳐	-12257
아함	-12258
여전	-12259
연시	-12260
염려	-12261
완벽	-12262
웅장	-12263
유년	-12264
으러	-12265
으세	-12266
일상	-12267
자게	-12268
전하	-12269
제게	-12270
조장	-12271
졸려	-12272
좌우	-12273
지요	-12274
지점	-12275
최근	-12276
최후	-12277
춤법	-12278
충전	-12279
취직	-12280
크림	-12281
타인	-12282
탈로	-12283
통장	-12284
투쟁	-12285
한번	-12286
혀질	-12287
혈액	-12288
흔하	-12289
힌다	-12290
ᄂ가요	-12291
▁건방	-12292
▁기막	-12293
▁내던	-12294
▁멍해	-12295
▁메시	-12296
▁멜로	-12297
▁멧돼	-12298
▁명문	-12299
강해	-12300
거릴	-12301
겠지	-12302
고온	-12303
곡조	-12304
공허	-12305
그전	-12306
근황	-12307
급기	-12308
깜깜	-12309
껴졌	-12310
꽃길	-12311
꽃다	-12312
끝낸	-12313
나옴	-12314
내려	-12315
내주	-12316
녹아	-12317
늘리	-12318
단계	-12319
단풍	-12320
라가	-12321
리어	-12322
린가	-12323
릴리	-12324
맘고	-12325
모뎀	-12326
목소	-12327
못했	-12328
미칠	-12329
보름	-12330
복부	-12331
부고	-12332
부러	-12333
분석	-12334
비결	-12335
비추	-12336
빠지	-12337
뻐졌	-12338
사소	-12339
속사	-12340
쇼핑	-12341
수강	-12342
수백	-12343
식성	-12344
신청	-12345
실망	-12346
쌓았	-12347
아깝	-12348
아니	-12349
아올	-12350
아플	-12351
알바	-12352
영수	-12353
영원	-12354
예전	-12355
와요	-12356
외모	-12357
으려	-12358
인식	-12359
인터	-12360
일지	-12361
자존	-12362
작동	-12363
잠재	-12364
장감	-12365
장학	-12366
저음	-12367
적극	-12368
정상	-12369
존재	-12370
종종	-12371
주년	-12372
중량	-12373
중령	-12374
집니	-12375
차라	-12376
철벽	-12377
축가	-12378
축전	-12379
치관	-12380
친해	-12381
태동	-12382
털이	-12383
퍼하	-12384
푸스	-12385
필름	-12386
행복	-12387
화끈	-12388
회상	-12389
흉내	-12390
▁광합	-12391
▁넋두	-12392
▁돌담	-12393
▁모니	-12394
▁모델	-12395
▁모릅	-12396
▁모세	-12397
▁모음	-12398
▁모처	-12399
▁g	-12400
고방	-12401
구하	-12402
굴리	-12403
굴하	-12404
꼬까	-12405
끼리	-12406
너편	-12407
느라	-12408
당사	-12409
대수	-12410
대책	-12411
더러	-12412
도착	-12413
돌려	-12414
든가	-12415
딱정	-12416
딱하	-12417
떠돌	-12418
떨려	-12419
러가	-12420
로필	-12421
막말	-12422
만류	-12423
만지	-12424
말수	-12425
모양	-12426
목표	-12427
무섭	-12428
물류	-12429
미세	-12430
배낭	-12431
배의	-12432
번거	-12433
베푸	-12434
변덕	-12435
보관	-12436
보험	-12437
분출	-12438
불만	-12439
비싸	-12440
산책	-12441
상담	-12442
새겨	-12443
속도	-12444
수개	-12445
순경	-12446
순위	-12447
실과	-12448
씁쓸	-12449
아강	-12450
아졌	-12451
억제	-12452
여덟	-12453
연민	-12454
연봉	-12455
오랜	-12456
오바	-12457
유의	-12458
이미	-12459
자제	-12460
작고	-12461
잡지	-12462
장거	-12463
재우	-12464
져야	-12465
지낼	-12466
지의	-12467
직구	-12468
직히	-12469
진산	-12470
질간	-12471
집중	-12472
쫓아	-12473
청결	-12474
청렴	-12475
청첩	-12476
클릭	-12477
통행	-12478
파악	-12479
판별	-12480
폭발	-12481
풍문	-12482
피맥	-12483
피터	-12484
하늘	-12485
항해	-12486
헛된	-12487
화내	-12488
회복	-12489
흐르	-12490
▁60	-12491
▁목감	-12492
▁목도	-12493
▁목소	-12494
▁몸길	-12495
▁몸무	-12496
▁못생	-12497
▁무감	-12498
▁무관	-12499
간쑤	-12500
경일	-12501
구구	-12502
군대	-12503
극심	-12504
꺼내	-12505
꿀까	-12506
내서	-12507
냐면	-12508
누굴	-12509
다이	-12510
대담	-12511
대도	-12512
더럽	-12513
덜하	-12514
떨어	-12515
러울	-12516
러일	-12517
레칭	-12518
르치	-12519
리워	-12520
마른	-12521
망했	-12522
머나	-12523
머핀	-12524
멈추	-12525
면역	-12526
모든	-12527
목화	-12528
못생	-12529
무기	-12530
무자	-12531
문득	-12532
문신	-12533
민감	-12534
바다	-12535
발레	-12536
발병	-12537
분양	-12538
불안	-12539
비싼	-12540
쁜데	-12541
사귈	-12542
사진	-12543
생명	-12544
서신	-12545
셔츠	-12546
소유	-12547
솔솔	-12548
순물	-12549
식증	-12550
신중	-12551
싸웠	-12552
쓴맛	-12553
아도	-12554
안정	-12555
언동	-12556
여잘	-12557
오락	-12558
용이	-12559
울렸	-12560
이성	-12561
이유	-12562
익숙	-12563
인사	-12564
일체	-12565
자회	-12566
준대	-12567
중국	-12568
지불	-12569
직업	-12570
직임	-12571
질려	-12572
질질	-12573
질책	-12574
철회	-12575
청개	-12576
쳐다	-12577
초면	-12578
출까	-12579
충분	-12580
코브	-12581
터질	-12582
팔뚝	-12583
퓨저	-12584
하직	-12585
할인	-12586
해로	-12587
했잖	-12588
혹시	-12589
환선	-12590
활환	-12591
흔들	-12592
▁도대	-12593
▁무덤	-12594
▁무뚝	-12595
▁무언	-12596
▁무작	-12597
▁무조	-12598
▁무척	-12599
가량	-12600
갱신	-12601
거림	-12602
결성	-12603
공휴	-12604
과일	-12605
구박	-12606
구함	-12607
귀환	-12608
규범	-12609
극작	-12610
금없	-12611
금하	-12612
급날	-12613
기쁜	-12614
날씨	-12615
남편	-12616
내왔	-12617
눈꺼	-12618
눈보	-12619
닌지	-12620
대리	-12621
대학	-12622
동네	-12623
득템	-12624
들일	-12625
등학	-12626
락말	-12627
랄프	-12628
래그	-12629
려들	-12630
료수	-12631
름살	-12632
리하	-12633
릴지	-12634
마워	-12635
많이	-12636
망함	-12637
메이	-12638
무서	-12639
미쳤	-12640
버릇	-12641
변한	-12642
병동	-12643
부딛	-12644
붙이	-12645
빈자	-12646
사르	-12647
사채	-12648
수많	-12649
수첩	-12650
승리	-12651
시판	-12652
식히	-12653
약혼	-12654
어와	-12655
엔터	-12656
여기	-12657
여도	-12658
였을	-12659
와의	-12660
요란	-12661
웨딩	-12662
위촉	-12663
유형	-12664
이건	-12665
이기	-12666
이렇	-12667
이상	-12668
일기	-12669
자외	-12670
잡동	-12671
저택	-12672
정식	-12673
제시	-12674
조언	-12675
착가	-12676
참여	-12677
춰야	-12678
칼국	-12679
콜록	-12680
타깝	-12681
폐수	-12682
포악	-12683
풍부	-12684
피할	-12685
핑거	-12686
허해	-12687
흉터	-12688
▁괜잖	-12689
▁무표	-12690
▁문리	-12691
▁문지	-12692
▁문질	-12693
▁물려	-12694
▁물방	-12695
▁미디	-12696
▁미라	-12697
▁미성	-12698
▁미술	-12699
간결	-12700
과연	-12701
과정	-12702
괴로	-12703
궁금	-12704
기기	-12705
꼬르	-12706
꼼수	-12707
날아	-12708
내게	-12709
내세	-12710
내용	-12711
넘가	-12712
네버	-12713
누구	-12714
당함	-12715
대외	-12716
더욱	-12717
독약	-12718
랑대	-12719
레발	-12720
림돌	-12721
막아	-12722
막혔	-12723
망치	-12724
바뀌	-12725
발등	-12726
버린	-12727
병이	-12728
비트	-12729
새로	-12730
생각	-12731
서평	-12732
선용	-12733
설렜	-12734
세심	-12735
소화	-12736
속버	-12737
술자	-12738
스튜	-12739
습소	-12740
쓰인	-12741
쓸쓸	-12742
씀하	-12743
악마	-12744
알리	-12745
어제	-12746
언론	-12747
없애	-12748
여느	-12749
여유	-12750
역시	-12751
연중	-12752
연해	-12753
오인	-12754
요청	-12755
우선	-12756
웃긴	-12757
원숭	-12758
원치	-12759
원히	-12760
유머	-12761
이듭	-12762
이승	-12763
인도	-12764
인접	-12765
입히	-12766
자랑	-12767
접적	-12768
제가	-12769
줄곧	-12770
지긋	-12771
책임	-12772
천천	-12773
청난	-12774
체적	-12775
추적	-12776
출금	-12777
취업	-12778
취하	-12779
친한	-12780
카페	-12781
콩달	-12782
편리	-12783
편중	-12784
평소	-12785
피의	-12786
해소	-12787
해져	-12788
흑산	-12789
▁갔다	-12790
▁달했	-12791
▁미스	-12792
▁미식	-12793
▁미지	-12794
▁민주	-12795
▁밀어	-12796
▁밑바	-12797
▁바구	-12798
▁바랍	-12799
▁빙	-12800
가로	-12801
갈려	-12802
강습	-12803
거짓	-12804
검증	-12805
격노	-12806
결말	-12807
광주	-12808
괜찮	-12809
교분	-12810
구자	-12811
국경	-12812
근린	-12813
근육	-12814
까매	-12815
나사	-12816
농도	-12817
느끼	-12818
단거	-12819
단락	-12820
돌담	-12821
든데	-12822
따를	-12823
띠동	-12824
리미	-12825
마셨	-12826
마시	-12827
만족	-12828
만히	-12829
맞춰	-12830
목과	-12831
무셨	-12832
무슨	-12833
물론	-12834
미래	-12835
바란	-12836
변천	-12837
보람	-12838
보병	-12839
보인	-12840
복장	-12841
삼형	-12842
서투	-12843
소중	-12844
솔로	-12845
솔직	-12846
수지	-12847
술상	-12848
시동	-12849
신경	-12850
실감	-12851
실까	-12852
실패	-12853
쓰나	-12854
아간	-12855
아닌	-12856
악영	-12857
약품	-12858
어짐	-12859
염색	-12860
오기	-12861
옮기	-12862
용하	-12863
운가	-12864
울부	-12865
유료	-12866
으라	-12867
음식	-12868
이피	-12869
일까	-12870
일찍	-12871
자다	-12872
제치	-12873
조물	-12874
조용	-12875
졸음	-12876
증세	-12877
지끈	-12878
지시	-12879
지키	-12880
직전	-12881
차권	-12882
차분	-12883
코스	-12884
탁드	-12885
택배	-12886
통적	-12887
툴러	-12888
파트	-12889
하우	-12890
▁노선	-12891
▁노이	-12892
▁녹취	-12893
▁바가	-12894
▁바오	-12895
▁박물	-12896
▁반비	-12897
▁받아	-12898
▁받침	-12899
각처	-12900
간만	-12901
감자	-12902
겨서	-12903
경쟁	-12904
곤란	-12905
곧장	-12906
광경	-12907
귈래	-12908
그지	-12909
글퍼	-12910
기잡	-12911
기회	-12912
꽃꽂	-12913
나갈	-12914
날이	-12915
남기	-12916
높여	-12917
다울	-12918
대변	-12919
도시	-12920
라보	-12921
랍니	-12922
리기	-12923
리서	-12924
리석	-12925
리통	-12926
만보	-12927
망해	-12928
맨스	-12929
면담	-12930
모르	-12931
모잘	-12932
몸통	-12933
묘약	-12934
바꿨	-12935
바드	-12936
발라	-12937
배터	-12938
본지	-12939
불균	-12940
불행	-12941
빠를	-12942
선글	-12943
선명	-12944
소가	-12945
소주	-12946
수드	-12947
수상	-12948
숙면	-12949
스팸	-12950
식회	-12951
실외	-12952
실천	-12953
싸운	-12954
쌍히	-12955
아롱	-12956
아우	-12957
앞쪽	-12958
야외	-12959
양심	-12960
양팔	-12961
열받	-12962
예보	-12963
욕계	-12964
워할	-12965
으실	-12966
이대	-12967
입니	-12968
입맛	-12969
자네	-12970
전사	-12971
줄게	-12972
줄지	-12973
지난	-12974
진가	-12975
출소	-12976
침묵	-12977
토크	-12978
편히	-12979
해어	-12980
행지	-12981
호가	-12982
혼났	-12983
흔치	-12984
희생	-12985
힘들	-12986
▁거꾸	-12987
▁발렌	-12988
▁발바	-12989
▁발코	-12990
▁방어	-12991
▁배드	-12992
▁배부	-12993
▁배터	-12994
▁백령	-12995
▁버거	-12996
▁버무	-12997
▁번번	-12998
▁벗어	-12999
겨진	-13000
계기	-13001
고백	-13002
곤충	-13003
과중	-13004
관전	-13005
그런	-13006
껴지	-13007
낭비	-13008
낼까	-13009
녹취	-13010
놓아	-13011
달랐	-13012
달음	-13013
당신	-13014
도매	-13015
도와	-13016
도저	-13017
동원	-13018
동침	-13019
뒤틀	-13020
때문	-13021
똑같	-13022
라흐	-13023
러나	-13024
러보	-13025
로마	-13026
리움	-13027
말씀	-13028
바빠	-13029
배반	-13030
보컬	-13031
봉급	-13032
부딪	-13033
부정	-13034
빌라	-13035
빨랑	-13036
뻐서	-13037
살빼	-13038
상적	-13039
소금	-13040
수혈	-13041
시의	-13042
아당	-13043
아예	-13044
앞머	-13045
약정	-13046
약하	-13047
어져	-13048
어졌	-13049
연예	-13050
염료	-13051
올리	-13052
외투	-13053
용실	-13054
우울	-13055
울려	-13056
웃기	-13057
워했	-13058
위대	-13059
을가	-13060
의별	-13061
이키	-13062
인기	-13063
일주	-13064
입력	-13065
자길	-13066
자마	-13067
자신	-13068
잡담	-13069
제발	-13070
존중	-13071
좌절	-13072
좌찬	-13073
쫒기	-13074
치가	-13075
켜보	-13076
타날	-13077
타락	-13078
택시	-13079
퍼센	-13080
편한	-13081
포기	-13082
플러	-13083
피로	-13084
학기	-13085
해결	-13086
해봐	-13087
흘렸	-13088
▁게스	-13089
▁뒷모	-13090
▁밑거	-13091
▁번거	-13092
▁베드	-13093
▁베어	-13094
▁변압	-13095
▁변할	-13096
▁보건	-13097
▁보너	-13098
▁보병	-13099
갈릴	-13100
견뎌	-13101
고시	-13102
공회	-13103
극복	-13104
기각	-13105
깊이	-13106
꺾이	-13107
끝날	-13108
날드	-13109
노려	-13110
논문	-13111
느긋	-13112
는지	-13113
다소	-13114
닥쳐	-13115
대결	-13116
대형	-13117
더군	-13118
독특	-13119
돌릴	-13120
드론	-13121
때리	-13122
련없	-13123
로부	-13124
로움	-13125
로웠	-13126
마법	-13127
명품	-13128
모실	-13129
몹시	-13130
무나	-13131
문체	-13132
민속	-13133
밀어	-13134
보다	-13135
뿌리	-13136
상력	-13137
선다	-13138
섣부	-13139
세먼	-13140
스피	-13141
슬픈	-13142
실험	-13143
씻기	-13144
아련	-13145
아해	-13146
악인	-13147
예약	-13148
와라	-13149
욕망	-13150
워서	-13151
위아	-13152
유난	-13153
응징	-13154
인스	-13155
임감	-13156
자부	-13157
자연	-13158
재력	-13159
저작	-13160
적법	-13161
정보	-13162
제사	-13163
조절	-13164
종착	-13165
주치	-13166
주포	-13167
줄어	-13168
중소	-13169
짜증	-13170
찢어	-13171
추천	-13172
축복	-13173
출반	-13174
카탈	-13175
크루	-13176
킨십	-13177
타리	-13178
타시	-13179
티무	-13180
파일	-13181
평의	-13182
표준	-13183
플레	-13184
해줘	-13185
확인	-13186
환승	-13187
휴대	-13188
▁꽃받	-13189
▁무전	-13190
▁밥벌	-13191
▁베란	-13192
▁보행	-13193
▁복소	-13194
▁볼래	-13195
▁볼려	-13196
▁부교	-13197
▁부도	-13198
▁부러	-13199
▁잖	-13200
가군	-13201
간섭	-13202
강렬	-13203
거나	-13204
걸어	-13205
결별	-13206
과제	-13207
귀기	-13208
그간	-13209
기한	-13210
낮춰	-13211
네이	-13212
놀랐	-13213
뇨병	-13214
느덧	-13215
달콤	-13216
대잔	-13217
뎌져	-13218
도전	-13219
동심	-13220
뒤처	-13221
듯이	-13222
라서	-13223
래스	-13224
러분	-13225
마냥	-13226
만심	-13227
멋졌	-13228
몸무	-13229
무렵	-13230
물성	-13231
바랍	-13232
반인	-13233
반지	-13234
발표	-13235
배워	-13236
보통	-13237
봅니	-13238
부담	-13239
빵빵	-13240
사병	-13241
살아	-13242
성덕	-13243
소질	-13244
수억	-13245
시킬	-13246
심하	-13247
싸우	-13248
아끼	-13249
아한	-13250
애인	-13251
양복	-13252
었었	-13253
연락	-13254
영진	-13255
와서	-13256
요구	-13257
워가	-13258
유행	-13259
이게	-13260
적금	-13261
적당	-13262
적히	-13263
정확	-13264
제약	-13265
주령	-13266
주행	-13267
즉위	-13268
지날	-13269
지냈	-13270
지루	-13271
지울	-13272
진지	-13273
질투	-13274
찰관	-13275
체전	-13276
최대	-13277
춤추	-13278
크린	-13279
타일	-13280
텔레	-13281
퇴임	-13282
파서	-13283
편의	-13284
한테	-13285
했긴	-13286
행동	-13287
향기	-13288
형용	-13289
화제	-13290
효과	-13291
▁갑자	-13292
▁깨뜨	-13293
▁부메	-13294
▁부사	-13295
▁부수	-13296
▁부작	-13297
▁부조	-13298
▁부질	-13299
20	-13300
거느	-13301
걸렸	-13302
고마	-13303
고프	-13304
골프	-13305
괴물	-13306
구역	-13307
군인	-13308
굴곡	-13309
그중	-13310
금요	-13311
깨닫	-13312
나보	-13313
노동	-13314
놓쳤	-13315
눈앞	-13316
다렸	-13317
다행	-13318
단수	-13319
동년	-13320
동전	-13321
돼야	-13322
두려	-13323
둬서	-13324
들려	-13325
따듯	-13326
따로	-13327
루어	-13328
뤄지	-13329
마움	-13330
막히	-13331
면접	-13332
모아	-13333
무너	-13334
무덥	-13335
바보	-13336
번성	-13337
별거	-13338
삐지	-13339
사토	-13340
서유	-13341
성취	-13342
소비	-13343
수시	-13344
시골	-13345
시끄	-13346
쓰여	-13347
압박	-13348
어보	-13349
여가	-13350
여동	-13351
오코	-13352
울어	-13353
원비	-13354
위안	-13355
의도	-13356
이서	-13357
잠길	-13358
잠깐	-13359
잠잠	-13360
재물	-13361
죽이	-13362
중고	-13363
중병	-13364
지켜	-13365
청각	-13366
출근	-13367
탁소	-13368
태엽	-13369
터졌	-13370
통할	-13371
트데	-13372
퓨어	-13373
피부	-13374
필사	-13375
할꺼	-13376
항성	-13377
해치	-13378
험실	-13379
헬멧	-13380
현재	-13381
화기	-13382
화번	-13383
확실	-13384
확히	-13385
획득	-13386
흥분	-13387
희망	-13388
▁거슬	-13389
▁부처	-13390
▁부활	-13391
▁북받	-13392
▁북서	-13393
▁분위	-13394
▁불공	-13395
▁불면	-13396
▁불어	-13397
▁불필	-13398
▁불합	-13399
가르	-13400
가운	-13401
각기	-13402
거둬	-13403
걸까	-13404
걸르	-13405
걸요	-13406
겠어	-13407
광지	-13408
교편	-13409
구워	-13410
냄비	-13411
능력	-13412
다되	-13413
닥토	-13414
닭발	-13415
대답	-13416
더하	-13417
떠올	-13418
런다	-13419
려놓	-13420
려다	-13421
마트	-13422
매화	-13423
먹먹	-13424
멀리	-13425
멋지	-13426
메커	-13427
모임	-13428
문리	-13429
미약	-13430
반갑	-13431
법이	-13432
본인	-13433
비난	-13434
빠진	-13435
사과	-13436
색기	-13437
생선	-13438
속상	-13439
술기	-13440
숭생	-13441
시켜	-13442
시트	-13443
시합	-13444
신부	-13445
쌓인	-13446
악몽	-13447
안타	-13448
알려	-13449
언니	-13450
엄마	-13451
없다	-13452
영화	-13453
오늘	-13454
의아	-13455
의외	-13456
이라	-13457
인죄	-13458
인품	-13459
자더	-13460
잠시	-13461
장래	-13462
재심	-13463
전설	-13464
절약	-13465
제야	-13466
조교	-13467
줄여	-13468
중거	-13469
지속	-13470
집착	-13471
첨단	-13472
초현	-13473
춘다	-13474
카풀	-13475
코너	-13476
코코	-13477
키나	-13478
터뷰	-13479
파라	-13480
팔달	-13481
퍼레	-13482
품성	-13483
필기	-13484
하객	-13485
호텔	-13486
힘차	-13487
▁기나	-13488
▁대공	-13489
▁렌더	-13490
▁맘고	-13491
▁법인	-13492
▁불현	-13493
▁붙들	-13494
▁브라	-13495
▁브랜	-13496
▁비바	-13497
▁비인	-13498
▁비행	-13499
25	-13500
sn	-13501
가까	-13502
가져	-13503
가출	-13504
각상	-13505
거점	-13506
경험	-13507
곰곰	-13508
괜한	-13509
근년	-13510
기재	-13511
기저	-13512
깎인	-13513
꼰대	-13514
꽃놀	-13515
나눠	-13516
나타	-13517
남자	-13518
낮잠	-13519
너졌	-13520
녀와	-13521
눌러	-13522
능가	-13523
단발	-13524
달째	-13525
대신	-13526
동일	-13527
드라	-13528
드레	-13529
랄게	-13530
래턱	-13531
례품	-13532
루함	-13533
린아	-13534
릿빛	-13535
만났	-13536
무실	-13537
문제	-13538
뭔가	-13539
미워	-13540
반발	-13541
받아	-13542
보수	-13543
봉투	-13544
부드	-13545
부자	-13546
불공	-13547
불금	-13548
비키	-13549
빈혈	-13550
생일	-13551
서툰	-13552
성격	-13553
숙제	-13554
술인	-13555
아서	-13556
야가	-13557
야기	-13558
양면	-13559
어넘	-13560
어우	-13561
얼굴	-13562
에게	-13563
에요	-13564
여쭤	-13565
연연	-13566
열량	-13567
요번	-13568
월과	-13569
이겨	-13570
이벤	-13571
인정	-13572
자이	-13573
전생	-13574
주병	-13575
지친	-13576
찌푸	-13577
차인	-13578
참깨	-13579
참살	-13580
처음	-13581
체세	-13582
쳐버	-13583
출생	-13584
커터	-13585
컨트	-13586
팠으	-13587
포즈	-13588
프로	-13589
한복	-13590
화해	-13591
활비	-13592
휴업	-13593
▁노트	-13594
▁부친	-13595
▁빌릴	-13596
▁빠뜨	-13597
▁빠질	-13598
▁빽빽	-13599
ᄂ다	-13600
가능	-13601
가려	-13602
감과	-13603
감정	-13604
거든	-13605
건데	-13606
겉옷	-13607
구현	-13608
그늘	-13609
근거	-13610
깨어	-13611
꼼꼼	-13612
끝난	-13613
나을	-13614
낙농	-13615
니퍼	-13616
다듬	-13617
다섯	-13618
다운	-13619
되돌	-13620
됩니	-13621
뒤쪽	-13622
드셔	-13623
래오	-13624
련번	-13625
를수	-13626
만둬	-13627
모질	-13628
목요	-13629
몸매	-13630
무뎌	-13631
무엇	-13632
물리	-13633
발원	-13634
벼운	-13635
보냈	-13636
부합	-13637
분리	-13638
비인	-13639
빠도	-13640
설렐	-13641
세척	-13642
소시	-13643
숙사	-13644
시물	-13645
시원	-13646
신체	-13647
실태	-13648
쓰일	-13649
아줬	-13650
아침	-13651
알아	-13652
압류	-13653
어젯	-13654
에서	-13655
여울	-13656
오목	-13657
올려	-13658
올립	-13659
용량	-13660
용암	-13661
우릴	-13662
우습	-13663
이구	-13664
일치	-13665
입원	-13666
자책	-13667
잘하	-13668
재회	-13669
적응	-13670
전압	-13671
정녀	-13672
정취	-13673
존댓	-13674
준히	-13675
중단	-13676
중파	-13677
지성	-13678
축구	-13679
취지	-13680
취향	-13681
친분	-13682
클립	-13683
통학	-13684
튀기	-13685
트레	-13686
패용	-13687
한결	-13688
항생	-13689
홀딩	-13690
▁부추	-13691
▁사계	-13692
▁사나	-13693
▁사냥	-13694
▁사다	-13695
▁사들	-13696
▁사우	-13697
▁사직	-13698
▁사춘	-13699
11	-13700
▁듭	-13701
각나	-13702
갈렸	-13703
감동	-13704
강력	-13705
결과	-13706
고서	-13707
관념	-13708
궁성	-13709
그럼	-13710
글자	-13711
김연	-13712
까이	-13713
끊긴	-13714
놔주	-13715
닌가	-13716
도구	-13717
동영	-13718
든지	-13719
들켰	-13720
떠넘	-13721
롤레	-13722
리크	-13723
멘터	-13724
며칠	-13725
몸길	-13726
못마	-13727
미련	-13728
미운	-13729
바라	-13730
배가	-13731
배신	-13732
배아	-13733
본심	-13734
부당	-13735
불빛	-13736
사세	-13737
솜털	-13738
수저	-13739
실재	-13740
심야	-13741
아닐	-13742
아섰	-13743
양체	-13744
어서	-13745
어요	-13746
역류	-13747
연애	-13748
영등	-13749
영영	-13750
요술	-13751
의고	-13752
이징	-13753
인걸	-13754
읽히	-13755
자막	-13756
잠들	-13757
재개	-13758
재발	-13759
적나	-13760
전담	-13761
전학	-13762
정말	-13763
제거	-13764
제일	-13765
제한	-13766
죽음	-13767
줄이	-13768
지저	-13769
직간	-13770
직후	-13771
집어	-13772
첫사	-13773
초청	-13774
케이	-13775
탁월	-13776
편지	-13777
핑몰	-13778
한마	-13779
한심	-13780
행운	-13781
허한	-13782
헤아	-13783
▁고추	-13784
▁묻어	-13785
▁사투	-13786
▁사형	-13787
▁산출	-13788
▁상거	-13789
▁상당	-13790
▁새겨	-13791
▁색다	-13792
▁샌드	-13793
▁샐러	-13794
▁생김	-13795
▁서귀	-13796
▁서부	-13797
▁서비	-13798
▁서빙	-13799
가용	-13800
갈망	-13801
감축	-13802
거룩	-13803
거움	-13804
거절	-13805
견디	-13806
고독	-13807
고양	-13808
곱창	-13809
구토	-13810
군요	-13811
금동	-13812
기반	-13813
기실	-13814
긴가	-13815
김동	-13816
깨끗	-13817
깨뜨	-13818
끝나	-13819
나나	-13820
낭만	-13821
뇌졸	-13822
눈치	-13823
느껴	-13824
달달	-13825
답니	-13826
대빵	-13827
덜너	-13828
동창	-13829
뛰어	-13830
라크	-13831
롭스	-13832
르쳐	-13833
만남	-13834
면모	-13835
몰수	-13836
못한	-13837
뭐한	-13838
밀려	-13839
반감	-13840
병원	-13841
본다	-13842
부금	-13843
부조	-13844
불미	-13845
빠서	-13846
상세	-13847
생님	-13848
설쳤	-13849
소기	-13850
손해	-13851
솟아	-13852
시금	-13853
시책	-13854
쌓였	-13855
씌이	-13856
아픈	-13857
앞모	-13858
애잔	-13859
야죠	-13860
어디	-13861
어울	-13862
연인	-13863
열악	-13864
예의	-13865
욕설	-13866
용도	-13867
우연	-13868
원망	-13869
음껏	-13870
이곳	-13871
이재	-13872
일요	-13873
잊어	-13874
자국	-13875
자야	-13876
잡념	-13877
종용	-13878
중복	-13879
직장	-13880
징용	-13881
청춘	-13882
추억	-13883
친교	-13884
트였	-13885
페셔	-13886
허증	-13887
헬스	-13888
화려	-13889
훔쳐	-13890
흑역	-13891
▁교육	-13892
▁드립	-13893
▁사생	-13894
▁생방	-13895
▁서유	-13896
▁서투	-13897
▁선다	-13898
▁선풍	-13899
15	-13900
가늠	-13901
가야	-13902
감사	-13903
귀여	-13904
깨지	-13905
꼬시	-13906
다님	-13907
더미	-13908
뎌졌	-13909
▁	-13910
.	-13911
요	-13912
이	-13913
어	-13914
는	-13915
아	-13916
지	-13917
하	-13918
가	-13919
다	-13920
해	-13921
나	-13922
고	-13923
을	-13924
세	-13925
도	-13926
보	-13927
거	-13928
사	-13929
게	-13930
은	-13931
에	-13932
자	-13933
기	-13934
한	-13935
시	-13936
면	-13937
까	-13938
네	-13939
?	-13940
니	-13941
인	-13942
로	-13943
있	-13944
그	-13945
데	-13946
만	-13947
마	-13948
좋	-13949
서	-13950
예	-13951
겠	-13952
무	-13953
라	-13954
리	-13955
일	-13956
랑	-13957
수	-13958
없	-13959
남	-13960
여	-13961
들	-13962
의	-13963
었	-13964
죠	-13965
할	-13966
같	-13967
내	-13968
으	-13969
주	-13970
생	-13971
말	-13972
야	-13973
안	-13974
정	-13975
봐	-13976
를	-13977
제	-13978
대	-13979
려	-13980
너	-13981
연	-13982
싶	-13983
친	-13984
것	-13985
람	-13986
구	-13987
오	-13988
신	-13989
음	-13990
간	-13991
상	-13992
키	-13993
더	-13994
바	-13995
않	-13996
힘	-13997
했	-13998
잘	-13999
진	-14000
별	-14001
스	-14002
전	-14003
각	-14004
부	-14005
헤	-14006
많	-14007
애	-14008
성	-14009
건	-14010
혼	-14011
드	-14012
찮	-14013
분	-14014
썸	-14015
워	-14016
중	-14017
행	-14018
적	-14019
비	-14020
모	-14021
괜	-14022
러	-14023
저	-14024
되	-14025
길	-14026
운	-14027
물	-14028
망	-14029
르	-14030
히	-14031
복	-14032
때	-14033
걸	-14034
못	-14035
미	-14036
금	-14037
래	-14038
장	-14039
달	-14040
감	-14041
심	-14042
과	-14043
습	-14044
락	-14045
알	-14046
직	-14047
후	-14048
받	-14049
우	-14050
쁘	-14051
살	-14052
슬	-14053
테	-14054
소	-14055
짝	-14056
조	-14057
추	-14058
날	-14059
화	-14060
든	-14061
동	-14062
았	-14063
회	-14064
치	-14065
당	-14066
단	-14067
결	-14068
답	-14069
픔	-14070
질	-14071
원	-14072
좀	-14073
타	-14074
돼	-14075
될	-14076
낫	-14077
개	-14078
절	-14079
차	-14080
루	-14081
계	-14082
녀	-14083
편	-14084
와	-14085
두	-14086
방	-14087
끝	-14088
실	-14089
!	-14090
년	-14091
관	-14092
늘	-14093
선	-14094
재	-14095
백	-14096
른	-14097
귀	-14098
영	-14099
던	-14100
용	-14101
유	-14102
억	-14103
움	-14104
울	-14105
속	-14106
경	-14107
먹	-14108
문	-14109
잊	-14110
버	-14111
런	-14112
식	-14113
난	-14114
위	-14115
확	-14116
트	-14117
느	-14118
또	-14119
잡	-14120
졌	-14121
입	-14122
언	-14123
카	-14124
줄	-14125
왔	-14126
발	-14127
불	-14128
뭐	-14129
떻	-14130
필	-14131
올	-14132
작	-14133
처	-14134
겨	-14135
번	-14136
함	-14137
렇	-14138
씨	-14139
력	-14140
참	-14141
새	-14142
약	-14143
변	-14144
점	-14145
왜	-14146
순	-14147
돌	-14148
쉽	-14149
맞	-14150
접	-14151
매	-14152
공	-14153
명	-14154
똑	-14155
반	-14156
교	-14157
꾸	-14158
준	-14159
터	-14160
몰	-14161
먼	-14162
욕	-14163
련	-14164
났	-14165
져	-14166
담	-14167
볼	-14168
엄	-14169
슷	-14170
따	-14171
현	-14172
격	-14173
떨	-14174
근	-14175
젊	-14176
판	-14177
합	-14178
잠	-14179
피	-14180
봅	-14181
괴	-14182
디	-14183
학	-14184
법	-14185
술	-14186
표	-14187
갈	-14188
긴	-14189
노	-14190
랄	-14191
얼	-14192
프	-14193
충	-14194
통	-14195
줘	-14196
파	-14197
월	-14198
린	-14199
누	-14200
레	-14201
짜	-14202
증	-14203
큼	-14204
찾	-14205
렵	-14206
집	-14207
머	-14208
천	-14209
쌍	-14210
럴	-14211
배	-14212
설	-14213
능	-14214
첫	-14215
본	-14216
깨	-14217
젠	-14218
침	-14219
릴	-14220
쓰	-14221
민	-14222
막	-14223
떠	-14224
1	-14225
빠	-14226
강	-14227
취	-14228
쉬	-14229
눈	-14230
냥	-14231
싫	-14232
듯	-14233
랍	-14234
군	-14235
째	-14236
셨	-14237
임	-14238
닌	-14239
된	-14240
넘	-14241
열	-14242
께	-14243
톡	-14244
놀	-14245
였	-14246
외	-14247
꿈	-14248
청	-14249
크	-14250
호	-14251
맘	-14252
항	-14253
즐	-14254
갑	-14255
름	-14256
쁜	-14257
커	-14258
놓	-14259
산	-14260
초	-14261
겼	-14262
럽	-14263
티	-14264
협	-14265
최	-14266
태	-14267
3	-14268
님	-14269
온	-14270
럼	-14271
코	-14272
향	-14273
허	-14274
촉	-14275
출	-14276
플	-14277
짐	-14278
슨	-14279
펴	-14280
국	-14281
체	-14282
악	-14283
혀	-14284
2	-14285
됐	-14286
픈	-14287
떤	-14288
맨	-14289
덜	-14290
란	-14291
텐	-14292
몸	-14293
앞	-14294
싸	-14295
종	-14296
궁	-14297
황	-14298
떡	-14299
걱	-14300
형	-14301
업	-14302
,	-14303
뒤	-14304
켜	-14305
믿	-14306
택	-14307
록	-14308
메	-14309
붙	-14310
뭘	-14311
쯤	-14312
환	-14313
희	-14314
벌	-14315
갔	-14316
렸	-14317
휴	-14318
씩	-14319
착	-14320
견	-14321
쳐	-14322
축	-14323
양	-14324
냐	-14325
s	-14326
풍	-14327
낌	-14328
독	-14329
활	-14330
잔	-14331
찬	-14332
목	-14333
곳	-14334
존	-14335
탄	-14336
써	-14337
뜻	-14338
포	-14339
셔	-14340
투	-14341
맛	-14342
료	-14343
밤	-14344
험	-14345
꼭	-14346
탈	-14347
극	-14348
폭	-14349
멋	-14350
색	-14351
슴	-14352
0	-14353
짓	-14354
솔	-14355
돈	-14356
딱	-14357
급	-14358
~	-14359
뿐	-14360
굴	-14361
역	-14362
즘	-14363
폰	-14364
흘	-14365
씹	-14366
높	-14367
림	-14368
숙	-14369
완	-14370
퇴	-14371
늦	-14372
등	-14373
병	-14374
큰	-14375
겁	-14376
끔	-14377
벽	-14378
웃	-14379
챙	-14380
5	-14381
글	-14382
빨	-14383
껴	-14384
냈	-14385
익	-14386
손	-14387
죽	-14388
닐	-14389
밀	-14390
풀	-14391
쪽	-14392
며	-14393
팅	-14394
득	-14395
뭔	-14396
철	-14397
뜨	-14398
족	-14399
줬	-14400
봤	-14401
찍	-14402
칠	-14403
낼	-14404
량	-14405
핑	-14406
평	-14407
곤	-14408
빌	-14409
뻐	-14410
책	-14411
둘	-14412
승	-14413
페	-14414
끼	-14415
쫓	-14416
례	-14417
채	-14418
념	-14419
4	-14420
쓸	-14421
엇	-14422
꺼	-14423
잦	-14424
곡	-14425
척	-14426
롭	-14427
밖	-14428
덤	-14429
립	-14430
얘	-14431
쳤	-14432
퍼	-14433
닫	-14434
토	-14435
효	-14436
육	-14437
롤	-14438
밥	-14439
권	-14440
뎌	-14441
흔	-14442
6	-14443
듬	-14444
춰	-14445
짧	-14446
갖	-14447
석	-14448
웠	-14449
클	-14450
꽃	-14451
칭	-14452
흐	-14453
몇	-14454
베	-14455
빼	-14456
쁨	-14457
깐	-14458
옷	-14459
랐	-14460
응	-14461
죄	-14462
n	-14463
엉	-14464
곧	-14465
박	-14466
케	-14467
몽	-14468
캐	-14469
류	-14470
숨	-14471
씀	-14472
멀	-14473
염	-14474
틀	-14475
숭	-14476
브	-14477
읽	-14478
졸	-14479
끊	-14480
쟁	-14481
쩔	-14482
꿀	-14483
듣	-14484
품	-14485
깝	-14486
삼	-14487
값	-14488
론	-14489
벗	-14490
삶	-14491
창	-14492
끄	-14493
봄	-14494
찌	-14495
랜	-14496
쑤	-14497
엔	-14498
렀	-14499
릇	-14500
패	-14501
덕	-14502
섭	-14503
혹	-14504
눠	-14505
션	-14506
골	-14507
곁	-14508
깊	-14509
헌	-14510
헷	-14511
랬	-14512
녁	-14513
멍	-14514
콩	-14515
송	-14516
즈	-14517
킨	-14518
됩	-14519
탐	-14520
끌	-14521
덩	-14522
쩌	-14523
핸	-14524
8	-14525
싱	-14526
옆	-14527
7	-14528
빗	-14529
액	-14530
탁	-14531
덧	-14532
십	-14533
흙	-14534
검	-14535
놈	-14536
귄	-14537
끈	-14538
봉	-14539
엽	-14540
웨	-14541
특	-14542
핵	-14543
헛	-14544
꿨	-14545
냉	-14546
닥	-14547
묘	-14548
쇼	-14549
퀼	-14550
릿	-14551
삭	-14552
흥	-14553
땐	-14554
흉	-14555
김	-14556
깔	-14557
꼬	-14558
뺏	-14559
잖	-14560
깍	-14561
멈	-14562
됨	-14563
뀌	-14564
벼	-14565
쌓	-14566
팔	-14567
닷	-14568
센	-14569
압	-14570
꿔	-14571
밌	-14572
걔	-14573
빈	-14574
획	-14575
북	-14576
털	-14577
굳	-14578
녕	-14579
농	-14580
뛰	-14581
띄	-14582
렌	-14583
밍	-14584
짖	-14585
춘	-14586
측	-14587
걷	-14588
겸	-14589
귈	-14590
뒷	-14591
놔	-14592
듭	-14593
렘	-14594
맥	-14595
셀	-14596
푸	-14597
령	-14598
앉	-14599
짚	-14600
콘	-14601
콤	-14602
틱	-14603
광	-14604
낸	-14605
넌	-14606
딩	-14607
숀	-14608
긋	-14609
샀	-14610
탔	-14611
뀔	-14612
낮	-14613
널	-14614
둔	-14615
묻	-14616
낭	-14617
둬	-14618
롱	-14619
뤄	-14620
멘	-14621
뷰	-14622
빛	-14623
뻔	-14624
왕	-14625
깜	-14626
꼼	-14627
앗	-14628
턴	-14629
객	-14630
겹	-14631
긍	-14632
땀	-14633
얇	-14634
옥	-14635
좁	-14636
쪼	-14637
턱	-14638
휘	-14639
끓	-14640
룩	-14641
쓴	-14642
찰	-14643
닮	-14644
컨	-14645
넓	-14646
녹	-14647
링	-14648
옴	-14649
콜	-14650
'	-14651
a	-14652
깎	-14653
꾹	-14654
슈	-14655
옮	-14656
푹	-14657
훈	-14658
납	-14659
랫	-14660
범	-14661
섯	-14662
썼	-14663
탕	-14664
9	-14665
넣	-14666
렬	-14667
묵	-14668
씌	-14669
춤	-14670
끗	-14671
뿌	-14672
쐬	-14673
씻	-14674
큐	-14675
흡	-14676
곰	-14677
냄	-14678
맙	-14679
앤	-14680
규	-14681
꽂	-14682
낙	-14683
뽑	-14684
쌩	-14685
쏠	-14686
씁	-14687
찔	-14688
틋	-14689
햇	-14690
혁	-14691
ᄆ	-14692
뢰	-14693
벤	-14694
빡	-14695
엿	-14696
율	-14697
잤	-14698
헬	-14699
갚	-14700
긁	-14701
낀	-14702
쇠	-14703
쉐	-14704
싣	-14705
쏟	-14706
웬	-14707
쩍	-14708
콕	-14709
텨	-14710
틈	-14711
폐	-14712
혔	-14713
흑	-14714
껏	-14715
닉	-14716
블	-14717
잃	-14718
첩	-14719
혈	-14720
겟	-14721
딸	-14722
땡	-14723
왤	-14724
춥	-14725
츠	-14726
텔	-14727
툴	-14728
b	-14729
꽤	-14730
낳	-14731
뻑	-14732
뽀	-14733
쉴	-14734
욱	-14735
찼	-14736
칼	-14737
켠	-14738
쿨	-14739
툼	-14740
팍	-14741
흠	-14742
닝	-14743
딴	-14744
땅	-14745
벚	-14746
봇	-14747
삐	-14748
솜	-14749
징	-14750
짱	-14751
쾌	-14752
툰	-14753
o	-14754
꼈	-14755
늠	-14756
똥	-14757
뚝	-14758
략	-14759
볶	-14760
옹	-14761
왠	-14762
윗	-14763
젖	-14764
첨	-14765
댓	-14766
뜰	-14767
률	-14768
맹	-14769
뺨	-14770
샤	-14771
섬	-14772
숫	-14773
좌	-14774
쭉	-14775
펑	-14776
힌	-14777
곱	-14778
뇌	-14779
뉴	-14780
덥	-14781
둥	-14782
쎄	-14783
앙	-14784
윤	-14785
젯	-14786
즉	-14787
층	-14788
켰	-14789
훔	-14790
겉	-14791
겐	-14792
궈	-14793
꾼	-14794
낄	-14795
놨	-14796
눕	-14797
댄	-14798
뒹	-14799
딛	-14800
떴	-14801
렴	-14802
릅	-14803
맺	-14804
몬	-14805
밟	-14806
빚	-14807
쁠	-14808
얕	-14809
얻	-14810
졋	-14811
짠	-14812
쫄	-14813
툭	-14814
튀	-14815
헐	-14816
홀	-14817
홈	-14818
힐	-14819
갇	-14820
깃	-14821
돋	-14822
둠	-14823
밑	-14824
빵	-14825
섞	-14826
썩	-14827
옵	-14828
찜	-14829
총	-14830
쿠	-14831
템	-14832
꺾	-14833
넛	-14834
뇨	-14835
늙	-14836
딜	-14837
딪	-14838
뜬	-14839
띠	-14840
맡	-14841
뮤	-14842
밝	-14843
벅	-14844
싼	-14845
엊	-14846
엠	-14847
젤	-14848
촌	-14849
킹	-14850
텅	-14851
껄	-14852
논	-14853
뎀	-14854
떼	-14855
뜯	-14856
렜	-14857
릎	-14858
빽	-14859
암	-14860
옳	-14861
탓	-14862
팀	-14863
팩	-14864
푼	-14865
균	-14866
넋	-14867
닭	-14868
닿	-14869
덴	-14870
랗	-14871
렛	-14872
몹	-14873
뱃	-14874
볍	-14875
솟	-14876
엮	-14877
잼	-14878
컴	-14879
팁	-14880
팟	-14881
풋	-14882
g	-14883
겪	-14884
괘	-14885
꼰	-14886
녔	-14887
댈	-14888
덟	-14889
델	-14890
뒀	-14891
듀	-14892
땜	-14893
뚫	-14894
뚱	-14895
랖	-14896
맴	-14897
몫	-14898
섣	-14899
섰	-14900
숏	-14901
씸	-14902
옛	-14903
왓	-14904
찢	-14905
챘	-14906
캄	-14907
컥	-14908
컸	-14909
퀴	-14910
킬	-14911
텁	-14912
튼	-14913
팠	-14914
펠	-14915
헹	-14916
휩	-14917
ᄂ	-14918
갱	-14919
꿰	-14920
눅	-14921
댑	-14922
덮	-14923
랭	-14924
멧	-14925
밉	-14926
샐	-14927
쌈	-14928
얽	-14929
웹	-14930
쫒	-14931
촬	-14932
칩	-14933
컬	-14934
텼	-14935
퓨	-14936
홧	-14937
깰	-14938
눌	-14939
눴	-14940
딘	-14941
랙	-14942
렐	-14943
뿅	-14944
샘	-14945
샜	-14946
잇	-14947
잎	-14948
짼	-14949
쭤	-14950
컷	-14951
톱	-14952
팬	-14953
폼	-14954
겊	-14955
굽	-14956
낚	-14957
룽	-14958
륜	-14959
륵	-14960
릭	-14961
묶	-14962
벨	-14963
붓	-14964
빙	-14965
썹	-14966
웅	-14967
팸	-14968
헝	-14969
혐	-14970
c	-14971
p	-14972
x	-14973
꿩	-14974
닦	-14975
돕	-14976
멜	-14977
샌	-14978
욜	-14979
킁	-14980
텀	-14981
튜	-14982
팽	-14983
펼	-14984
퓌	-14985
픽	-14986
핀	-14987
헥	-14988
훌	-14989
d	-14990
j	-14991
k	-14992
깅	-14993
깼	-14994
